unsigned char second_model_activations_tflite[] = {
  0x1c, 0x00, 0x00, 0x00, 0x54, 0x46, 0x4c, 0x33, 0x14, 0x00, 0x20, 0x00,
  0x1c, 0x00, 0x18, 0x00, 0x14, 0x00, 0x10, 0x00, 0x0c, 0x00, 0x00, 0x00,
  0x08, 0x00, 0x04, 0x00, 0x14, 0x00, 0x00, 0x00, 0x1c, 0x00, 0x00, 0x00,
  0x98, 0x00, 0x00, 0x00, 0xf0, 0x00, 0x00, 0x00, 0xf4, 0x17, 0x00, 0x00,
  0x04, 0x18, 0x00, 0x00, 0xe0, 0x29, 0x00, 0x00, 0x03, 0x00, 0x00, 0x00,
  0x01, 0x00, 0x00, 0x00, 0x10, 0x00, 0x00, 0x00, 0x00, 0x00, 0x0a, 0x00,
  0x10, 0x00, 0x0c, 0x00, 0x08, 0x00, 0x04, 0x00, 0x0a, 0x00, 0x00, 0x00,
  0x0c, 0x00, 0x00, 0x00, 0x1c, 0x00, 0x00, 0x00, 0x3c, 0x00, 0x00, 0x00,
  0x0f, 0x00, 0x00, 0x00, 0x73, 0x65, 0x72, 0x76, 0x69, 0x6e, 0x67, 0x5f,
  0x64, 0x65, 0x66, 0x61, 0x75, 0x6c, 0x74, 0x00, 0x01, 0x00, 0x00, 0x00,
  0x04, 0x00, 0x00, 0x00, 0x90, 0xff, 0xff, 0xff, 0x22, 0x00, 0x00, 0x00,
  0x04, 0x00, 0x00, 0x00, 0x08, 0x00, 0x00, 0x00, 0x64, 0x65, 0x6e, 0x73,
  0x65, 0x5f, 0x34, 0x36, 0x00, 0x00, 0x00, 0x00, 0x01, 0x00, 0x00, 0x00,
  0x04, 0x00, 0x00, 0x00, 0xd2, 0xe7, 0xff, 0xff, 0x04, 0x00, 0x00, 0x00,
  0x0e, 0x00, 0x00, 0x00, 0x64, 0x65, 0x6e, 0x73, 0x65, 0x5f, 0x33, 0x36,
  0x5f, 0x69, 0x6e, 0x70, 0x75, 0x74, 0x00, 0x00, 0x02, 0x00, 0x00, 0x00,
  0x34, 0x00, 0x00, 0x00, 0x04, 0x00, 0x00, 0x00, 0xdc, 0xff, 0xff, 0xff,
  0x25, 0x00, 0x00, 0x00, 0x04, 0x00, 0x00, 0x00, 0x13, 0x00, 0x00, 0x00,
  0x43, 0x4f, 0x4e, 0x56, 0x45, 0x52, 0x53, 0x49, 0x4f, 0x4e, 0x5f, 0x4d,
  0x45, 0x54, 0x41, 0x44, 0x41, 0x54, 0x41, 0x00, 0x08, 0x00, 0x0c, 0x00,
  0x08, 0x00, 0x04, 0x00, 0x08, 0x00, 0x00, 0x00, 0x24, 0x00, 0x00, 0x00,
  0x04, 0x00, 0x00, 0x00, 0x13, 0x00, 0x00, 0x00, 0x6d, 0x69, 0x6e, 0x5f,
  0x72, 0x75, 0x6e, 0x74, 0x69, 0x6d, 0x65, 0x5f, 0x76, 0x65, 0x72, 0x73,
  0x69, 0x6f, 0x6e, 0x00, 0x26, 0x00, 0x00, 0x00, 0x00, 0x17, 0x00, 0x00,
  0xf8, 0x16, 0x00, 0x00, 0xe0, 0x16, 0x00, 0x00, 0xa8, 0x16, 0x00, 0x00,
  0x70, 0x16, 0x00, 0x00, 0x38, 0x16, 0x00, 0x00, 0x00, 0x16, 0x00, 0x00,
  0xc8, 0x15, 0x00, 0x00, 0x90, 0x15, 0x00, 0x00, 0x58, 0x15, 0x00, 0x00,
  0x20, 0x15, 0x00, 0x00, 0xe8, 0x14, 0x00, 0x00, 0xb0, 0x14, 0x00, 0x00,
  0xf0, 0x0f, 0x00, 0x00, 0x50, 0x0e, 0x00, 0x00, 0xb0, 0x0c, 0x00, 0x00,
  0x10, 0x0b, 0x00, 0x00, 0x70, 0x09, 0x00, 0x00, 0xd0, 0x07, 0x00, 0x00,
  0x30, 0x06, 0x00, 0x00, 0x90, 0x04, 0x00, 0x00, 0xf0, 0x02, 0x00, 0x00,
  0x50, 0x01, 0x00, 0x00, 0xf0, 0x00, 0x00, 0x00, 0xe8, 0x00, 0x00, 0x00,
  0xe0, 0x00, 0x00, 0x00, 0xd8, 0x00, 0x00, 0x00, 0xd0, 0x00, 0x00, 0x00,
  0xc8, 0x00, 0x00, 0x00, 0xc0, 0x00, 0x00, 0x00, 0xb8, 0x00, 0x00, 0x00,
  0xb0, 0x00, 0x00, 0x00, 0xa8, 0x00, 0x00, 0x00, 0xa0, 0x00, 0x00, 0x00,
  0x98, 0x00, 0x00, 0x00, 0x90, 0x00, 0x00, 0x00, 0x70, 0x00, 0x00, 0x00,
  0x04, 0x00, 0x00, 0x00, 0xe6, 0xe8, 0xff, 0xff, 0x04, 0x00, 0x00, 0x00,
  0x5c, 0x00, 0x00, 0x00, 0x0c, 0x00, 0x00, 0x00, 0x08, 0x00, 0x0e, 0x00,
  0x08, 0x00, 0x04, 0x00, 0x08, 0x00, 0x00, 0x00, 0x14, 0x00, 0x00, 0x00,
  0x2c, 0x00, 0x00, 0x00, 0x00, 0x00, 0x0a, 0x00, 0x0c, 0x00, 0x08, 0x00,
  0x00, 0x00, 0x07, 0x00, 0x0a, 0x00, 0x00, 0x00, 0x00, 0x00, 0x00, 0x01,
  0x04, 0x00, 0x00, 0x00, 0x00, 0x00, 0x00, 0x00, 0x00, 0x00, 0x0a, 0x00,
  0x10, 0x00, 0x0c, 0x00, 0x08, 0x00, 0x04, 0x00, 0x0a, 0x00, 0x00, 0x00,
  0x01, 0x00, 0x00, 0x00, 0x02, 0x00, 0x00, 0x00, 0x04, 0x00, 0x00, 0x00,
  0x06, 0x00, 0x00, 0x00, 0x32, 0x2e, 0x31, 0x31, 0x2e, 0x30, 0x00, 0x00,
  0x4e, 0xe9, 0xff, 0xff, 0x04, 0x00, 0x00, 0x00, 0x10, 0x00, 0x00, 0x00,
  0x31, 0x2e, 0x35, 0x2e, 0x30, 0x00, 0x00, 0x00, 0x00, 0x00, 0x00, 0x00,
  0x00, 0x00, 0x00, 0x00, 0x60, 0xd8, 0xff, 0xff, 0x64, 0xd8, 0xff, 0xff,
  0x68, 0xd8, 0xff, 0xff, 0x6c, 0xd8, 0xff, 0xff, 0x70, 0xd8, 0xff, 0xff,
  0x74, 0xd8, 0xff, 0xff, 0x78, 0xd8, 0xff, 0xff, 0x7c, 0xd8, 0xff, 0xff,
  0x80, 0xd8, 0xff, 0xff, 0x84, 0xd8, 0xff, 0xff, 0x88, 0xd8, 0xff, 0xff,
  0x8c, 0xd8, 0xff, 0xff, 0x9a, 0xe9, 0xff, 0xff, 0x04, 0x00, 0x00, 0x00,
  0x50, 0x00, 0x00, 0x00, 0xac, 0xf3, 0x14, 0x3e, 0x4a, 0xd3, 0x9d, 0x3f,
  0x46, 0xcb, 0xcb, 0x3e, 0x99, 0x1b, 0x38, 0xbf, 0xbf, 0xf0, 0x7c, 0xbd,
  0x16, 0xf8, 0x5a, 0xbf, 0x57, 0xbe, 0xfa, 0x3e, 0xfe, 0xf0, 0x2b, 0x3e,
  0xe2, 0x8b, 0x02, 0x3e, 0xfc, 0x06, 0x02, 0xbf, 0x4f, 0xef, 0x83, 0x3d,
  0xda, 0x3d, 0xdd, 0xbd, 0x2e, 0xfc, 0x9a, 0xbd, 0x5c, 0xb0, 0x8a, 0x3f,
  0x5d, 0xab, 0xfa, 0xbe, 0xcc, 0x5a, 0x45, 0x3e, 0xa8, 0x9c, 0x96, 0xbe,
  0xa9, 0x0a, 0xa6, 0x3e, 0x9f, 0x56, 0x37, 0xbc, 0x15, 0x67, 0x85, 0x3c,
  0xf6, 0xe9, 0xff, 0xff, 0x04, 0x00, 0x00, 0x00, 0x90, 0x01, 0x00, 0x00,
  0xf2, 0x36, 0x95, 0xbe, 0x00, 0x1e, 0x68, 0xbd, 0xa5, 0x43, 0xac, 0x3e,
  0x9a, 0xdd, 0xe6, 0xbe, 0x63, 0x16, 0x00, 0xbf, 0x41, 0xe1, 0x09, 0xbf,
  0x2d, 0x43, 0x2a, 0x3d, 0x53, 0x20, 0xff, 0xbe, 0x73, 0x4c, 0x8d, 0xbe,
  0x20, 0x45, 0x07, 0x3f, 0xe6, 0x8b, 0x74, 0x3f, 0x3d, 0x99, 0xce, 0xbe,
  0x2c, 0x7a, 0xba, 0x3e, 0x22, 0xcd, 0x6d, 0xbd, 0x8e, 0xb6, 0xc6, 0xbe,
  0xa8, 0xb6, 0x6d, 0x3e, 0xdc, 0x17, 0x98, 0x3e, 0xfd, 0x34, 0x04, 0xbf,
  0x9d, 0x13, 0x87, 0xbe, 0x1b, 0xb8, 0xba, 0x3e, 0x7b, 0x4b, 0x39, 0x3c,
  0x38, 0x02, 0xab, 0x3d, 0xb8, 0x3f, 0xc4, 0xbe, 0x9c, 0xf0, 0x07, 0xbd,
  0x5c, 0x67, 0x9a, 0xbe, 0xf4, 0x48, 0x08, 0x3f, 0x9e, 0x98, 0x05, 0xbe,
  0x10, 0x62, 0x85, 0x3d, 0x0d, 0x2f, 0xa3, 0x3e, 0xec, 0xd9, 0xb1, 0xbd,
  0x8c, 0xc6, 0x17, 0xbf, 0xa4, 0xb9, 0xdd, 0x3e, 0x07, 0xfd, 0x68, 0xbe,
  0xc1, 0x0e, 0x59, 0x3f, 0x3e, 0x05, 0x49, 0xbe, 0x20, 0xe5, 0xf6, 0x3e,
  0xdb, 0x6a, 0xc0, 0xbd, 0xcf, 0xb0, 0xeb, 0x3e, 0xe6, 0x00, 0x4e, 0x3f,
  0x00, 0x81, 0x1f, 0x3d, 0xba, 0xc5, 0x88, 0x3e, 0xe0, 0x18, 0x01, 0xbd,
  0xa2, 0x07, 0xe7, 0x3e, 0x39, 0xb7, 0xe3, 0x3d, 0x0e, 0x24, 0xbc, 0xbe,
  0x4d, 0x25, 0xa1, 0xbe, 0xeb, 0x63, 0xac, 0xbe, 0x59, 0x3e, 0x11, 0xbd,
  0x2e, 0xa1, 0xb1, 0x3d, 0xcc, 0x25, 0x02, 0x3f, 0x50, 0x80, 0xd2, 0xbe,
  0x00, 0x87, 0x4f, 0x3b, 0x59, 0xf6, 0x02, 0xbf, 0xb1, 0x01, 0x4a, 0x3f,
  0xf5, 0xdb, 0xe3, 0xbe, 0xd8, 0x20, 0x80, 0x3d, 0xf2, 0x89, 0xf5, 0x3d,
  0xfe, 0x22, 0xa3, 0x3e, 0x0d, 0x69, 0xed, 0x3e, 0xb9, 0x33, 0xf8, 0xbe,
  0x82, 0xa7, 0xcf, 0x3e, 0xce, 0xe3, 0x07, 0xbf, 0x56, 0xf5, 0xd7, 0x3e,
  0x0d, 0xf1, 0xd2, 0x3e, 0x20, 0x9f, 0xe1, 0xbd, 0x23, 0x9d, 0xec, 0xbe,
  0x25, 0xdf, 0x01, 0xbc, 0x1b, 0xc9, 0x38, 0xbe, 0xe8, 0x5d, 0x74, 0xbe,
  0x1f, 0x25, 0x1b, 0xbe, 0x2a, 0xd8, 0xbc, 0xbe, 0xe0, 0x19, 0x8a, 0xbc,
  0xce, 0xbb, 0x49, 0x3c, 0xe8, 0xeb, 0x1b, 0xbe, 0xf0, 0x4c, 0x53, 0xbd,
  0xe0, 0xee, 0x9b, 0x3c, 0x65, 0x47, 0xd9, 0xbe, 0xa0, 0xd1, 0xbb, 0x3d,
  0x80, 0xd8, 0x92, 0x3e, 0x18, 0xf8, 0x08, 0x3f, 0x1d, 0xb3, 0x00, 0x3e,
  0x4c, 0x40, 0x09, 0x3f, 0xb3, 0xea, 0xf2, 0x3e, 0xa1, 0xd6, 0x2a, 0x3e,
  0x96, 0x0d, 0xa6, 0xbe, 0xf0, 0xe0, 0xf0, 0x3e, 0xaf, 0x88, 0xb4, 0x3e,
  0x97, 0x61, 0xa0, 0xbe, 0xcf, 0xc4, 0x72, 0xbd, 0xe8, 0x4b, 0x83, 0xbe,
  0x09, 0x91, 0x29, 0xbc, 0xd8, 0xfc, 0x97, 0x3d, 0x00, 0xe5, 0x90, 0x3d,
  0x47, 0x65, 0x1f, 0xbd, 0x88, 0x78, 0x0b, 0x3f, 0xd1, 0x20, 0x0b, 0xbf,
  0xa1, 0xa0, 0x61, 0x3e, 0x94, 0x31, 0x94, 0xbd, 0xd4, 0x0a, 0xf7, 0xbe,
  0xc8, 0x8e, 0x99, 0xbd, 0x92, 0xeb, 0xff, 0xff, 0x04, 0x00, 0x00, 0x00,
  0x90, 0x01, 0x00, 0x00, 0x58, 0x67, 0x5e, 0xbe, 0xdd, 0xd5, 0x00, 0x3e,
  0xb2, 0x4c, 0x2c, 0xbe, 0xbe, 0x9b, 0xe8, 0xbe, 0x44, 0x66, 0x6a, 0x3f,
  0x70, 0xed, 0xf5, 0xbe, 0x18, 0xb6, 0x9f, 0xbe, 0x4a, 0x17, 0x7a, 0xbe,
  0x6e, 0xc0, 0xf7, 0x3e, 0x19, 0x6f, 0x58, 0x3f, 0x2b, 0x17, 0x85, 0xbe,
  0x32, 0x5e, 0xc9, 0xbe, 0xf0, 0xdd, 0x55, 0x3d, 0x00, 0xb5, 0x33, 0xbd,
  0x48, 0xef, 0xb3, 0xbe, 0xbc, 0xa4, 0x12, 0xbe, 0x00, 0xa0, 0xb8, 0x3d,
  0xe1, 0xf4, 0xfa, 0xbe, 0x1c, 0x4e, 0xb8, 0x3e, 0xf9, 0x19, 0xa7, 0xbe,
  0x80, 0xc9, 0x15, 0x3f, 0x20, 0x6a, 0xeb, 0xbe, 0x4f, 0x6e, 0x02, 0x3f,
  0x41, 0x3a, 0xeb, 0xbe, 0x76, 0x96, 0x0d, 0x3f, 0x97, 0x86, 0xf0, 0xbe,
  0x69, 0x7a, 0x80, 0xbc, 0xf0, 0xec, 0x6e, 0x3e, 0xcc, 0xce, 0xe9, 0xbe,
  0xd6, 0x55, 0xb9, 0x3d, 0xe1, 0xcc, 0x57, 0xbe, 0xf2, 0x5d, 0x47, 0x3d,
  0xdd, 0x1d, 0xbb, 0xbe, 0xe7, 0xc1, 0xe5, 0xbd, 0x8d, 0xe8, 0x0f, 0xbe,
  0xa0, 0xfa, 0xa8, 0x3e, 0xb4, 0x2a, 0x3c, 0xbc, 0x97, 0xcd, 0x79, 0x3f,
  0x18, 0xc4, 0xb9, 0x3e, 0x31, 0xda, 0xa8, 0x3e, 0x00, 0xd3, 0xe5, 0x3c,
  0xe6, 0xd4, 0x94, 0x3e, 0x0c, 0xe3, 0x84, 0x3e, 0x12, 0xea, 0xb0, 0xbe,
  0x69, 0xa1, 0xb6, 0xbe, 0x08, 0x3f, 0xb1, 0x3e, 0x62, 0x5e, 0xa5, 0x3e,
  0x00, 0x37, 0x11, 0xbb, 0x30, 0x2d, 0x75, 0xbd, 0xf8, 0x4f, 0x51, 0x3e,
  0x20, 0xc7, 0xd5, 0x3d, 0xc2, 0x85, 0x83, 0xbe, 0xe8, 0x58, 0xde, 0xbd,
  0xd4, 0xfb, 0x72, 0x3e, 0x68, 0xc2, 0x4c, 0xbd, 0x38, 0xb2, 0x03, 0x3f,
  0x56, 0x82, 0x0b, 0xbf, 0xcb, 0xbd, 0xea, 0xbe, 0x50, 0xa7, 0x1c, 0xbd,
  0x8c, 0xea, 0x88, 0xbe, 0x61, 0x19, 0xc9, 0x3e, 0x6f, 0x11, 0xd0, 0xbd,
  0x1d, 0x6e, 0x22, 0x3e, 0x27, 0xaf, 0x0e, 0x3c, 0xdd, 0x11, 0x14, 0x3e,
  0x57, 0xb0, 0xb3, 0x3e, 0x7a, 0xf2, 0x73, 0x3d, 0x50, 0xaa, 0x95, 0xbe,
  0x0d, 0x7c, 0x9b, 0x3e, 0xef, 0xed, 0x09, 0x3e, 0xeb, 0x1f, 0x93, 0x3e,
  0x6a, 0x44, 0xba, 0x3d, 0xe0, 0xba, 0xfe, 0xbe, 0xfc, 0xf7, 0xc2, 0xbe,
  0x2c, 0x7e, 0x1c, 0x3e, 0xe8, 0x5c, 0xeb, 0x3e, 0xd6, 0xf2, 0x4f, 0x3e,
  0xa1, 0xd1, 0xe8, 0xbe, 0x21, 0xa8, 0x60, 0xbe, 0xc3, 0x13, 0x2e, 0x3e,
  0xcf, 0xbe, 0x60, 0xbe, 0xde, 0x4a, 0xe3, 0xbe, 0xbe, 0x3e, 0x08, 0xbf,
  0x7c, 0xbd, 0xc3, 0xbe, 0xba, 0x08, 0x2e, 0x3f, 0x0f, 0x73, 0xbe, 0x3d,
  0xb1, 0xd2, 0xd9, 0x3d, 0x7a, 0xde, 0x61, 0x3e, 0xbd, 0x30, 0xa6, 0xbe,
  0xba, 0x57, 0x82, 0xbe, 0x95, 0x1c, 0xc5, 0xbe, 0x72, 0x81, 0xe7, 0x3e,
  0x12, 0x6a, 0x2e, 0xbe, 0x8e, 0xe8, 0x08, 0x3f, 0x6d, 0xb2, 0x60, 0xbd,
  0x8a, 0x84, 0x05, 0x3f, 0xba, 0x46, 0x67, 0xbe, 0x53, 0x64, 0x8a, 0xbe,
  0x39, 0xbf, 0x09, 0xbf, 0x1c, 0x8d, 0xf8, 0x3e, 0x2e, 0xed, 0xff, 0xff,
  0x04, 0x00, 0x00, 0x00, 0x90, 0x01, 0x00, 0x00, 0x4b, 0x90, 0x7e, 0xbe,
  0x41, 0x62, 0x52, 0xbe, 0x0b, 0x29, 0xb9, 0x3e, 0x5e, 0x1a, 0xc4, 0xbe,
  0x8a, 0xff, 0xab, 0xbe, 0x95, 0xf2, 0x9d, 0x3e, 0xcd, 0x9c, 0x9c, 0xbe,
  0xc2, 0x25, 0xce, 0xbe, 0xbd, 0x7b, 0xfb, 0xbd, 0x44, 0xaa, 0x57, 0x3e,
  0x1d, 0xca, 0x41, 0x3e, 0xf0, 0xea, 0xb1, 0x3d, 0x63, 0x42, 0x11, 0x3e,
  0xac, 0xae, 0xb7, 0xbe, 0xb9, 0x0f, 0x89, 0x3e, 0xef, 0xb3, 0xe0, 0x3e,
  0x86, 0xc0, 0x01, 0xbf, 0x62, 0xda, 0x54, 0xbe, 0x57, 0x85, 0xc5, 0x3e,
  0xac, 0x1e, 0xe5, 0xbe, 0x09, 0x3f, 0xc6, 0xbe, 0x07, 0xe2, 0x7b, 0x3e,
  0x6d, 0x0f, 0xfc, 0x3e, 0x43, 0x60, 0xb3, 0x3e, 0x44, 0x60, 0x06, 0x3e,
  0x03, 0xf1, 0x02, 0xbf, 0x29, 0x73, 0x52, 0xbe, 0x6e, 0x46, 0xd0, 0x3e,
  0x4a, 0xaf, 0xe5, 0x3e, 0xf2, 0x24, 0x4d, 0xbe, 0x31, 0x6b, 0xcb, 0x3d,
  0x0d, 0x44, 0x82, 0xbe, 0x4b, 0x93, 0xbf, 0xbd, 0x6d, 0x8c, 0xd9, 0x3e,
  0x1c, 0x88, 0x80, 0x3e, 0x51, 0x1a, 0xe6, 0x3d, 0x30, 0x5e, 0xe6, 0x3e,
  0x80, 0xca, 0x69, 0xbe, 0x8d, 0x70, 0x8e, 0x3e, 0x50, 0x87, 0x6d, 0x3e,
  0x78, 0xe8, 0x22, 0xbf, 0x6c, 0x28, 0x91, 0x3e, 0x34, 0x9e, 0x4e, 0x3f,
  0x3f, 0x74, 0x8f, 0x3e, 0x92, 0xf4, 0x64, 0x3e, 0xfd, 0x6c, 0x08, 0x3f,
  0xc0, 0x08, 0xcd, 0x3e, 0x24, 0xbd, 0x28, 0x3e, 0x23, 0x65, 0x1c, 0x3f,
  0x1e, 0x73, 0x0b, 0xbe, 0xb1, 0x44, 0x4d, 0x3e, 0x11, 0xc5, 0xc5, 0x3e,
  0x3d, 0x76, 0xc2, 0xbe, 0xa4, 0x62, 0x4a, 0x3b, 0x90, 0xfd, 0xdb, 0x3e,
  0xb5, 0xdd, 0xc8, 0xbe, 0x08, 0x77, 0x85, 0x3e, 0x68, 0x85, 0xe7, 0x3e,
  0x5f, 0xe7, 0x06, 0x3f, 0x90, 0xe6, 0xb2, 0x3e, 0x3b, 0x98, 0x21, 0x3d,
  0x30, 0x77, 0xae, 0x3e, 0x96, 0x75, 0xc7, 0xbe, 0x09, 0x2c, 0x50, 0x3d,
  0x68, 0x59, 0xd3, 0x3e, 0xdd, 0xdb, 0x0e, 0x3c, 0x20, 0xa6, 0x59, 0x3e,
  0x84, 0x63, 0xc9, 0x3e, 0xa5, 0xfd, 0x81, 0x3e, 0xc5, 0x3d, 0xdc, 0x3d,
  0x07, 0xd2, 0x2d, 0x3f, 0x93, 0x00, 0x26, 0x3f, 0x91, 0xc0, 0xa0, 0x3d,
  0x71, 0xbb, 0xcc, 0x3c, 0x79, 0x41, 0xa7, 0x3e, 0x18, 0xc6, 0x5a, 0xbe,
  0xbb, 0x1a, 0xf7, 0x3d, 0x25, 0x4a, 0x0b, 0xbf, 0xdd, 0x97, 0xa6, 0xbb,
  0x63, 0x23, 0xe8, 0xbe, 0x19, 0xe3, 0x3a, 0xbd, 0x90, 0x6b, 0x99, 0x3d,
  0x36, 0x6a, 0xd9, 0x3e, 0xd2, 0x81, 0x9c, 0x3e, 0xa2, 0x8e, 0xe8, 0xbe,
  0xc2, 0xc3, 0x34, 0x3f, 0x61, 0x0f, 0x1c, 0xbf, 0x00, 0xc7, 0x40, 0x3c,
  0xc1, 0x6b, 0x9e, 0x3e, 0x76, 0x78, 0xc4, 0x3e, 0x25, 0xac, 0x04, 0xbf,
  0xd7, 0xf2, 0x6d, 0xbe, 0xdc, 0xc8, 0xf0, 0x3d, 0x49, 0x8d, 0x18, 0x3f,
  0x3e, 0x25, 0xac, 0xbe, 0x74, 0x22, 0x41, 0x3f, 0x15, 0xad, 0xcf, 0xbe,
  0x18, 0x3d, 0xf4, 0x3e, 0x88, 0x2c, 0x04, 0xbf, 0x6f, 0xed, 0xa0, 0xbe,
  0xca, 0xee, 0xff, 0xff, 0x04, 0x00, 0x00, 0x00, 0x90, 0x01, 0x00, 0x00,
  0xd1, 0xe1, 0xde, 0x3e, 0xb1, 0x56, 0x5e, 0x3c, 0x44, 0x99, 0x73, 0x3e,
  0xd8, 0x69, 0x2e, 0xbf, 0xe0, 0xd3, 0x50, 0x3e, 0xa1, 0xc7, 0xe5, 0xbe,
  0x54, 0x49, 0x6b, 0x3e, 0x72, 0x92, 0x12, 0xbf, 0x84, 0xe4, 0xc4, 0x3e,
  0x84, 0xc2, 0xdf, 0x3e, 0x2c, 0xdc, 0x14, 0x3e, 0x1d, 0x70, 0x2d, 0xbd,
  0x26, 0xba, 0x06, 0x3f, 0xed, 0x0d, 0x0e, 0xbf, 0x8b, 0x4b, 0xbb, 0xbe,
  0x00, 0x16, 0x02, 0x3f, 0x07, 0xd8, 0x07, 0xbf, 0x56, 0x80, 0xf1, 0x3d,
  0x71, 0xf2, 0x84, 0x3e, 0x9b, 0x08, 0xd7, 0xbe, 0xd2, 0x59, 0x13, 0x3e,
  0xa6, 0x99, 0xe2, 0x3e, 0xbe, 0x68, 0x05, 0x3f, 0x63, 0x47, 0x00, 0xbd,
  0xa0, 0xf0, 0xac, 0x3e, 0x5a, 0x25, 0xf7, 0x3e, 0x00, 0xf0, 0x64, 0x39,
  0x44, 0xe0, 0xa1, 0x3e, 0x4d, 0x82, 0x2c, 0x3f, 0xb5, 0x98, 0x5f, 0xbe,
  0x28, 0x1d, 0xba, 0xbe, 0x04, 0x68, 0x85, 0xbd, 0x68, 0x08, 0xcc, 0x3d,
  0x60, 0xe5, 0x16, 0x3e, 0xe1, 0x7e, 0x46, 0xbe, 0xb0, 0xfe, 0x91, 0xbe,
  0x48, 0xc7, 0x5b, 0xbd, 0x40, 0x96, 0x27, 0x3f, 0x4a, 0x87, 0x08, 0xbe,
  0x14, 0xff, 0xe1, 0xbe, 0x12, 0xc0, 0x08, 0x3f, 0x5e, 0x7c, 0xfc, 0x3e,
  0xd2, 0xc3, 0xff, 0xbe, 0x1d, 0xd7, 0xd5, 0xbd, 0xb8, 0xf4, 0xf2, 0x3e,
  0xa0, 0xbc, 0xb0, 0x3e, 0xa5, 0xce, 0xe7, 0xbe, 0x2b, 0x3e, 0x59, 0xbe,
  0xd9, 0x49, 0x4f, 0xbe, 0xf7, 0x63, 0xb3, 0x3e, 0x28, 0x1f, 0xc8, 0xbd,
  0x4a, 0x03, 0x92, 0x3d, 0xf0, 0x7e, 0x38, 0xbe, 0xbc, 0x69, 0x39, 0x3f,
  0xdd, 0x3e, 0x98, 0x3e, 0xde, 0x55, 0x95, 0xbe, 0x38, 0x37, 0x93, 0x3d,
  0xe1, 0xe8, 0x3b, 0x3f, 0xd3, 0xe9, 0x22, 0x3c, 0x85, 0x47, 0x99, 0x3e,
  0x72, 0x4d, 0xce, 0x3e, 0x88, 0xc6, 0x3e, 0x3e, 0xd8, 0x10, 0xd8, 0x3e,
  0x15, 0xf2, 0x62, 0x3d, 0xf7, 0x3e, 0xc7, 0xbe, 0xe6, 0xb8, 0x08, 0x3f,
  0x35, 0x2d, 0x08, 0xbf, 0x69, 0xff, 0x18, 0xbf, 0xb5, 0xe6, 0x73, 0x3e,
  0xac, 0x96, 0xc9, 0xbe, 0xf4, 0xa5, 0x81, 0xbe, 0x80, 0x50, 0x25, 0xbd,
  0x90, 0xeb, 0xcb, 0x3e, 0x70, 0x14, 0x2d, 0xbd, 0x80, 0x0a, 0x57, 0xbe,
  0x0c, 0x6f, 0x0a, 0x3e, 0xa8, 0x7b, 0x00, 0x3f, 0x80, 0xc9, 0xeb, 0x3c,
  0x40, 0xec, 0xc2, 0xbc, 0x70, 0x7c, 0x09, 0x3f, 0xf4, 0xd3, 0x76, 0x3e,
  0x9b, 0x11, 0xb4, 0x3c, 0x70, 0x3f, 0xf4, 0x3e, 0x06, 0x5d, 0x87, 0x3c,
  0x22, 0x12, 0x61, 0x3e, 0xe0, 0x80, 0x28, 0xbe, 0x1c, 0x9b, 0x73, 0x3e,
  0x86, 0x8e, 0x40, 0xbe, 0xab, 0x79, 0x99, 0x3e, 0x7d, 0x5b, 0x85, 0xbe,
  0x80, 0xa7, 0xb2, 0x3e, 0x86, 0x6b, 0xc3, 0xbe, 0x40, 0x29, 0xb0, 0x3c,
  0x44, 0xab, 0x95, 0xbe, 0x80, 0xce, 0xbb, 0xbe, 0xe7, 0x18, 0xc6, 0x3e,
  0xc0, 0x69, 0x0e, 0x3e, 0xd0, 0xc3, 0xea, 0x3d, 0x9b, 0x17, 0xc2, 0x3d,
  0xd0, 0xf4, 0x36, 0x3e, 0x66, 0xf0, 0xff, 0xff, 0x04, 0x00, 0x00, 0x00,
  0x90, 0x01, 0x00, 0x00, 0xa8, 0x55, 0x04, 0x3e, 0xa3, 0xd7, 0xcf, 0xbe,
  0xdc, 0x2d, 0xcd, 0xbe, 0xab, 0x04, 0x69, 0x3e, 0x88, 0x93, 0xcb, 0x3d,
  0xc0, 0xe8, 0x90, 0x3c, 0xe0, 0x7b, 0x9d, 0x3d, 0x60, 0x27, 0xb8, 0x3d,
  0xfd, 0x8a, 0xe0, 0xbe, 0xf5, 0x95, 0x99, 0xbe, 0x79, 0x6b, 0x25, 0xbe,
  0x0c, 0xf5, 0x59, 0x3e, 0x19, 0xd7, 0xf1, 0xbe, 0xdf, 0xd4, 0x2f, 0xbe,
  0x4c, 0x94, 0xeb, 0x3e, 0x13, 0x02, 0xb9, 0xbe, 0xf0, 0x9f, 0x11, 0x3f,
  0xba, 0x88, 0x82, 0xbe, 0xa3, 0xd5, 0xd4, 0x3e, 0x68, 0xb3, 0xf3, 0x3e,
  0x40, 0xbe, 0x32, 0xbd, 0xe8, 0x9c, 0xb9, 0x3d, 0x75, 0xe1, 0x01, 0xbf,
  0x64, 0x69, 0xff, 0xbe, 0x3d, 0xb4, 0xdc, 0xbe, 0x44, 0xe8, 0x38, 0x3e,
  0x60, 0x17, 0xf6, 0x3e, 0xe8, 0x8b, 0xfe, 0x3e, 0x76, 0xaf, 0xde, 0xbe,
  0xc5, 0x1b, 0xd3, 0xbe, 0xc6, 0x79, 0x81, 0x3e, 0xf0, 0xba, 0x8b, 0x3d,
  0x9f, 0xee, 0x17, 0x3f, 0x80, 0x3d, 0x04, 0xbf, 0xb0, 0xd5, 0xb0, 0xbd,
  0x9f, 0x5e, 0xbe, 0x3e, 0x1c, 0x23, 0x94, 0xbe, 0xc1, 0xff, 0x9b, 0xbd,
  0x5d, 0x12, 0x6f, 0xbe, 0xdf, 0xc5, 0xb6, 0x3c, 0x6c, 0x79, 0x56, 0x3e,
  0x96, 0x25, 0xd4, 0xbe, 0x66, 0x99, 0xb8, 0x3e, 0xbc, 0xd0, 0x68, 0xbc,
  0x94, 0x89, 0x17, 0xbe, 0x43, 0xa2, 0x8a, 0xbe, 0x18, 0xd8, 0x64, 0xbd,
  0x5a, 0xac, 0xd6, 0x3e, 0x06, 0xd0, 0xb6, 0xbd, 0xeb, 0xf1, 0xba, 0xbe,
  0xc3, 0xcb, 0x68, 0x3e, 0x5a, 0x69, 0xbf, 0x3e, 0x87, 0x8e, 0xdb, 0x3e,
  0xcd, 0xa5, 0x39, 0x3d, 0x82, 0x8a, 0xdc, 0x3e, 0xb4, 0x52, 0xd4, 0xbe,
  0x80, 0x64, 0x91, 0xbe, 0x7a, 0xf2, 0x47, 0x3e, 0x4f, 0x11, 0x7c, 0xbd,
  0xbb, 0x6e, 0xa4, 0x3e, 0x7a, 0x26, 0xce, 0x3e, 0xf0, 0x5c, 0x78, 0x3e,
  0x61, 0x30, 0xd9, 0xbe, 0x45, 0x6c, 0xab, 0xbe, 0xee, 0x36, 0xf3, 0xbe,
  0xa0, 0x2a, 0x9f, 0xbe, 0x06, 0xa4, 0xb3, 0x3e, 0xfa, 0x40, 0xc3, 0xbe,
  0x80, 0x04, 0x0c, 0x3d, 0x02, 0xab, 0x0d, 0xbe, 0x5e, 0x45, 0xc9, 0xbd,
  0xb6, 0xee, 0xec, 0xbe, 0xa1, 0xf0, 0x98, 0x3e, 0xf9, 0x47, 0x3b, 0xbf,
  0x42, 0x06, 0xa9, 0x3e, 0x2e, 0x62, 0x1f, 0x3f, 0xa6, 0x85, 0x23, 0xbe,
  0xe4, 0xfd, 0xa0, 0xbe, 0xaf, 0xdd, 0x06, 0xbf, 0xb3, 0xe8, 0x96, 0x3e,
  0x67, 0x1f, 0x04, 0x3f, 0x34, 0x56, 0x05, 0x3f, 0xfc, 0x38, 0x38, 0x3f,
  0x6e, 0x94, 0xaa, 0x3e, 0x81, 0x81, 0x61, 0x3e, 0xe4, 0x99, 0xa7, 0x3d,
  0x3c, 0xf2, 0x78, 0xbb, 0x4a, 0x42, 0xa6, 0x3d, 0x4f, 0xa5, 0x84, 0x3e,
  0xad, 0x8c, 0x09, 0xbe, 0x5a, 0x79, 0x4d, 0x3e, 0x60, 0xbe, 0xc6, 0x3d,
  0x86, 0x78, 0xa9, 0x3d, 0xf9, 0x4b, 0x0b, 0x3f, 0xd0, 0xc0, 0xf8, 0xbe,
  0xeb, 0xe4, 0xa8, 0xbe, 0x36, 0x87, 0xe4, 0xbe, 0x3b, 0xd1, 0x0b, 0x3e,
  0x5d, 0x5a, 0xee, 0xbe, 0xd2, 0x1c, 0xde, 0x3e, 0x02, 0xf2, 0xff, 0xff,
  0x04, 0x00, 0x00, 0x00, 0x90, 0x01, 0x00, 0x00, 0x68, 0xb7, 0xd2, 0x3e,
  0xbf, 0x38, 0xa1, 0xbb, 0x87, 0x8c, 0xd8, 0x3e, 0x1a, 0xf2, 0x98, 0x3e,
  0x63, 0x09, 0xb4, 0xbe, 0xc8, 0xaf, 0xae, 0xbd, 0xec, 0x5f, 0x6b, 0x3e,
  0x70, 0x69, 0x1a, 0x3d, 0x00, 0x95, 0xd4, 0xbe, 0x81, 0xba, 0xc7, 0xbe,
  0xf8, 0xc8, 0xae, 0xbd, 0x42, 0xa0, 0xa8, 0xbe, 0x7c, 0x27, 0xb9, 0xbe,
  0xe8, 0xf1, 0xd8, 0x3d, 0xa8, 0xa4, 0xf6, 0xbe, 0xf0, 0x9a, 0x70, 0x3e,
  0xd0, 0x3c, 0x9c, 0x3d, 0x68, 0x02, 0xaf, 0x3d, 0x44, 0xc0, 0xce, 0xbe,
  0x6e, 0x53, 0xe0, 0xbe, 0xc6, 0x65, 0xae, 0x3e, 0x03, 0x9d, 0xdc, 0x3e,
  0xca, 0x60, 0x04, 0x3e, 0xa5, 0x6e, 0x09, 0xbf, 0x75, 0xb3, 0xc9, 0x3e,
  0xcb, 0xda, 0xa9, 0xbd, 0xcd, 0x36, 0xe7, 0xbe, 0xe0, 0x73, 0xd6, 0x3e,
  0x07, 0xfe, 0x89, 0x3f, 0xfe, 0x76, 0xbb, 0xbe, 0x53, 0x98, 0x3f, 0xbd,
  0xb7, 0x86, 0x60, 0xbe, 0xc4, 0x4f, 0x7e, 0xbe, 0x86, 0x54, 0x0b, 0x3e,
  0x25, 0x82, 0x58, 0x3e, 0xb5, 0x48, 0xf0, 0xbd, 0xb9, 0x27, 0x38, 0x3d,
  0xa0, 0xfc, 0x77, 0x3d, 0xbf, 0x95, 0x00, 0xbf, 0x0d, 0xf2, 0x1b, 0x3f,
  0x00, 0x1b, 0x2b, 0x3d, 0xe0, 0x5e, 0xc4, 0xbd, 0x60, 0x36, 0x9e, 0xbe,
  0x20, 0x5b, 0x03, 0xbe, 0xe8, 0x4f, 0x84, 0x3e, 0xc8, 0xf7, 0xaf, 0x3d,
  0xb8, 0x3b, 0x29, 0xbe, 0x60, 0x7d, 0x42, 0xbd, 0x48, 0xa1, 0xcd, 0xbe,
  0x95, 0x1f, 0xc4, 0x3d, 0xa5, 0xe9, 0xbf, 0xbd, 0x50, 0x35, 0xaa, 0x3c,
  0x60, 0xb2, 0xd6, 0x3d, 0xd6, 0x34, 0xa9, 0xbe, 0x3d, 0x54, 0xb6, 0x3d,
  0x7f, 0x98, 0xf0, 0x3e, 0xff, 0xa1, 0xe4, 0xbe, 0x4a, 0x0a, 0x69, 0xbe,
  0x9b, 0xbb, 0x47, 0x3f, 0x42, 0x79, 0x1d, 0xba, 0x1f, 0x1c, 0xc6, 0x3e,
  0xf2, 0xf2, 0xc2, 0xbe, 0xd0, 0x44, 0x20, 0x3d, 0x8f, 0x7c, 0xb7, 0x3e,
  0x35, 0xeb, 0xbf, 0xbe, 0xac, 0xb8, 0xfb, 0xbe, 0x84, 0x6b, 0xcc, 0x3e,
  0x00, 0x98, 0x7e, 0x3a, 0xf4, 0x6c, 0xcb, 0xbe, 0xf7, 0xbf, 0xe8, 0x3e,
  0xcf, 0x04, 0x2e, 0x3e, 0x44, 0x9d, 0x34, 0x3e, 0x02, 0x8f, 0xcd, 0x3e,
  0xd4, 0xb1, 0x36, 0x3b, 0x92, 0xc7, 0xa2, 0x3e, 0xfa, 0x2c, 0x62, 0xbd,
  0xf4, 0x51, 0xe9, 0x3e, 0x40, 0xa2, 0xc1, 0xbc, 0xd7, 0x93, 0xc6, 0xbe,
  0x55, 0xb7, 0xf3, 0x3d, 0xe3, 0xe6, 0xf6, 0x3d, 0x46, 0xb4, 0x51, 0xbe,
  0xd8, 0xc6, 0xb5, 0x3d, 0x62, 0xbc, 0x43, 0xbe, 0x2e, 0x13, 0xcd, 0xbe,
  0xab, 0x7e, 0x04, 0x3e, 0x67, 0xca, 0xfa, 0xbe, 0xb4, 0x34, 0x60, 0xbe,
  0xe8, 0x0b, 0x0b, 0xbe, 0x1c, 0x41, 0x16, 0x3f, 0xab, 0x95, 0xf3, 0xbe,
  0x91, 0x09, 0x58, 0xbe, 0xc6, 0x3a, 0x95, 0x3e, 0xde, 0x12, 0xe7, 0xbe,
  0xac, 0xf3, 0xe1, 0xbd, 0x40, 0x00, 0xe3, 0xbe, 0xb1, 0x6e, 0xfb, 0xbe,
  0x4c, 0x09, 0xde, 0xbe, 0x77, 0xe1, 0xf7, 0x3e, 0x59, 0x3a, 0x20, 0xbe,
  0x9e, 0xf3, 0xff, 0xff, 0x04, 0x00, 0x00, 0x00, 0x90, 0x01, 0x00, 0x00,
  0x6d, 0x44, 0x0a, 0xbf, 0xf6, 0xd7, 0x51, 0x3d, 0xcc, 0x1e, 0xeb, 0xbd,
  0x45, 0xfd, 0xe7, 0xbd, 0xc7, 0x8d, 0x1c, 0x3e, 0x08, 0x4a, 0x14, 0x3e,
  0x38, 0x71, 0x8d, 0xbe, 0x9f, 0x9c, 0x03, 0xbf, 0x77, 0x46, 0xad, 0xbd,
  0xb9, 0x48, 0x09, 0x3f, 0x9d, 0x3a, 0x63, 0x3e, 0x4c, 0xfd, 0x89, 0x3d,
  0x3d, 0x3b, 0xe7, 0xbe, 0xe2, 0x3d, 0xd6, 0xbe, 0x8b, 0x87, 0x41, 0xbd,
  0x9c, 0x0b, 0xc6, 0xbe, 0xda, 0xb9, 0x35, 0xbe, 0x5a, 0x1f, 0x00, 0xbf,
  0xec, 0x25, 0x4a, 0xbe, 0xd3, 0x0f, 0x0a, 0x3f, 0xc3, 0x49, 0x0b, 0x3d,
  0xdb, 0xa0, 0x76, 0x3d, 0x8c, 0x8b, 0xea, 0x3e, 0xa0, 0xcf, 0x73, 0x3e,
  0x8e, 0x9c, 0xde, 0xbe, 0x73, 0xc0, 0x0a, 0xbf, 0x80, 0x64, 0xb2, 0xbd,
  0x81, 0xdc, 0xf2, 0xbe, 0x80, 0x8f, 0xd9, 0x3c, 0x06, 0xd7, 0x96, 0xbe,
  0x52, 0xcb, 0xa2, 0x3e, 0x3e, 0xa8, 0x0a, 0xbf, 0xbb, 0x33, 0x17, 0x3e,
  0x45, 0x9a, 0xdd, 0xbd, 0xdf, 0x6c, 0xa3, 0x3e, 0x49, 0x79, 0xd6, 0xbe,
  0x7b, 0x08, 0xe2, 0x3e, 0x50, 0x40, 0x6d, 0xbd, 0x3d, 0x20, 0x8b, 0x3d,
  0x9e, 0x76, 0x9a, 0xbe, 0x1a, 0x5e, 0x7c, 0xbd, 0x15, 0x36, 0xa1, 0xbe,
  0x24, 0x49, 0x0f, 0x3e, 0x18, 0x57, 0xe3, 0xbe, 0xa2, 0xfc, 0x9b, 0x3e,
  0xa3, 0x9d, 0x88, 0x3e, 0x18, 0xeb, 0xea, 0x3d, 0xd0, 0x1b, 0xa0, 0xbd,
  0xf0, 0x90, 0xb5, 0x3e, 0x8b, 0xd7, 0x9f, 0x3e, 0x39, 0x4e, 0x21, 0xbe,
  0xe0, 0x00, 0x4c, 0x3d, 0x75, 0xdf, 0x06, 0x3d, 0x59, 0x12, 0x76, 0xbe,
  0xef, 0x57, 0x2d, 0xbe, 0x74, 0x2f, 0x2f, 0xbe, 0x40, 0x62, 0xd5, 0x3e,
  0x0b, 0x8b, 0xfb, 0x3e, 0x87, 0x74, 0xa7, 0xbe, 0x84, 0x9d, 0x00, 0x3f,
  0xfb, 0x3a, 0xcd, 0x3e, 0x44, 0xb4, 0x2f, 0x3e, 0xab, 0xf1, 0x07, 0x3e,
  0x1e, 0x27, 0x92, 0x3e, 0x94, 0xb2, 0xd8, 0xbe, 0x94, 0x71, 0x05, 0x3e,
  0x88, 0x4c, 0x2b, 0xbc, 0x8f, 0x22, 0xaa, 0x3e, 0xeb, 0xfd, 0xe0, 0x3d,
  0x9c, 0xf4, 0x8d, 0xbe, 0x5c, 0xd5, 0x4f, 0x3e, 0xc8, 0x8f, 0xd9, 0xbd,
  0x45, 0xf9, 0x8c, 0xbe, 0xd4, 0x4d, 0x1a, 0x3e, 0x51, 0xe9, 0xb4, 0xbe,
  0xca, 0xf0, 0xbd, 0xbe, 0x92, 0xae, 0x75, 0xbe, 0x28, 0x25, 0xab, 0xbd,
  0xb4, 0x5a, 0xd8, 0x3e, 0xea, 0xd4, 0x0a, 0xbf, 0xfe, 0xf1, 0xc9, 0xbe,
  0x92, 0x2a, 0x86, 0x3f, 0xe0, 0x83, 0x71, 0x3e, 0x0c, 0x12, 0xdb, 0x3e,
  0xa5, 0x04, 0x40, 0x3e, 0xe0, 0xf1, 0xf0, 0xbe, 0x4d, 0xc2, 0x3a, 0x3f,
  0x6c, 0x3d, 0x0c, 0x3f, 0x7b, 0x6d, 0x3d, 0x3f, 0x05, 0x3d, 0x4d, 0x3e,
  0x5e, 0x02, 0x01, 0x3f, 0xa8, 0xfa, 0xe0, 0xbd, 0xd1, 0x55, 0xa7, 0x3e,
  0xac, 0x0a, 0xe9, 0xbd, 0xb3, 0x15, 0x1b, 0x3f, 0xb7, 0xab, 0x31, 0x3e,
  0x27, 0xfa, 0xb4, 0xbd, 0x0c, 0x63, 0x95, 0x3e, 0x4d, 0xf3, 0x4a, 0xbe,
  0x6c, 0xd3, 0x53, 0x3e, 0x3a, 0xf5, 0xff, 0xff, 0x04, 0x00, 0x00, 0x00,
  0x90, 0x01, 0x00, 0x00, 0xdd, 0x17, 0x9a, 0x3e, 0x4c, 0xd8, 0xfc, 0xbe,
  0x5e, 0xf1, 0xc0, 0x3d, 0x92, 0x7e, 0xbb, 0xbe, 0x64, 0x4d, 0xf5, 0x3c,
  0x6a, 0x39, 0x41, 0x3e, 0x6d, 0x19, 0xb1, 0xbe, 0x47, 0xba, 0x8b, 0x3e,
  0x08, 0x85, 0xa2, 0xbe, 0x59, 0x64, 0x9d, 0x3d, 0x97, 0x51, 0x97, 0xbe,
  0xa7, 0x4c, 0x37, 0x3f, 0x3c, 0xbe, 0xc0, 0x3e, 0xd7, 0xde, 0x3c, 0xbe,
  0x6a, 0x72, 0xc4, 0xbe, 0x31, 0x59, 0xe1, 0x3c, 0xa4, 0x11, 0xa7, 0xbe,
  0xb2, 0x98, 0x16, 0xbf, 0xa1, 0xeb, 0x33, 0x3f, 0x99, 0x05, 0x1c, 0xbe,
  0xe7, 0x09, 0xb7, 0xbe, 0xd5, 0x83, 0x61, 0xbd, 0x8e, 0x65, 0x80, 0xbd,
  0xd6, 0xef, 0x0e, 0xbe, 0xaa, 0x44, 0x7a, 0xbe, 0x96, 0x6d, 0xc7, 0xbd,
  0xea, 0x8c, 0x8c, 0xbe, 0xc0, 0x45, 0x92, 0xbd, 0x75, 0x53, 0x9c, 0xbe,
  0x99, 0xf3, 0x94, 0x3e, 0xc0, 0xf2, 0x84, 0x3d, 0x90, 0x66, 0x5a, 0x3e,
  0xf3, 0x73, 0x12, 0x3f, 0x46, 0x6b, 0x85, 0xbe, 0x38, 0xee, 0xd7, 0x3d,
  0x50, 0x46, 0x7d, 0x3e, 0xfb, 0x28, 0x46, 0x3c, 0x9b, 0xcd, 0xd8, 0xbe,
  0x34, 0x50, 0x5c, 0x3e, 0xcb, 0x52, 0x60, 0xbd, 0x97, 0x3f, 0xd1, 0x3b,
  0x01, 0x42, 0x81, 0x3e, 0xfa, 0x0e, 0x99, 0x3e, 0x7a, 0x09, 0xf4, 0xbe,
  0x27, 0xbf, 0xe9, 0x3e, 0x87, 0x4a, 0x8c, 0xbe, 0x99, 0x72, 0x76, 0x3e,
  0x5a, 0xb0, 0x8c, 0x3e, 0x92, 0x57, 0x02, 0x3f, 0x4c, 0x33, 0xc0, 0xbe,
  0xbf, 0xe4, 0xf7, 0x3e, 0xec, 0x5b, 0xf3, 0xbc, 0x8a, 0x34, 0xcb, 0xbe,
  0x4e, 0x68, 0x25, 0x3e, 0x21, 0xb3, 0x22, 0xbe, 0x1b, 0xf6, 0x89, 0xbb,
  0xb0, 0x9b, 0x00, 0xbf, 0xa9, 0x01, 0xf2, 0xbe, 0x69, 0xc3, 0xb3, 0xbd,
  0x21, 0xe5, 0x8c, 0xbe, 0x13, 0xeb, 0xa8, 0xbe, 0x8d, 0x4f, 0x96, 0xbe,
  0x29, 0x62, 0x2d, 0xbe, 0xd6, 0x9a, 0x02, 0x3f, 0x09, 0xed, 0xf6, 0xbe,
  0x54, 0x34, 0x9e, 0x3e, 0x1c, 0xa6, 0x16, 0xbf, 0xbd, 0x6b, 0x66, 0xbd,
  0xfd, 0x62, 0x0f, 0x3f, 0xe9, 0xed, 0x29, 0xbe, 0x21, 0x4a, 0xf8, 0xbd,
  0x8a, 0x88, 0xd1, 0x3e, 0xfe, 0xdd, 0xc7, 0xbe, 0x4d, 0xd0, 0xe8, 0x3e,
  0xc9, 0x70, 0x0e, 0xbf, 0xe8, 0x14, 0x50, 0x3e, 0xdd, 0x25, 0xca, 0x3d,
  0x88, 0x80, 0xe5, 0x3e, 0xda, 0x29, 0xc5, 0xbd, 0x3f, 0xe5, 0x19, 0x3d,
  0x60, 0x6c, 0x9d, 0xbe, 0x63, 0xb6, 0x96, 0x3e, 0x21, 0xb4, 0x0a, 0xbf,
  0xdd, 0x12, 0x21, 0x3f, 0x0a, 0xf9, 0xc4, 0xbe, 0xbe, 0xcb, 0x22, 0x3e,
  0x12, 0x72, 0xa5, 0xbe, 0x22, 0xfe, 0x98, 0x3e, 0xf9, 0xd1, 0x87, 0x3e,
  0x1c, 0x15, 0xa5, 0xbe, 0x01, 0xd5, 0x4e, 0xbe, 0x2d, 0x4a, 0xf0, 0xbe,
  0x8b, 0xb2, 0xae, 0xbd, 0xe9, 0x16, 0xf9, 0x3d, 0x46, 0xdc, 0x0e, 0xbd,
  0xd9, 0x2d, 0x0b, 0x3f, 0x4a, 0x09, 0x8a, 0xbe, 0xc2, 0x8c, 0x68, 0xbe,
  0x01, 0xc0, 0x26, 0xbd, 0x69, 0x4d, 0xd8, 0x3e, 0xd6, 0xf6, 0xff, 0xff,
  0x04, 0x00, 0x00, 0x00, 0x90, 0x01, 0x00, 0x00, 0x80, 0x32, 0x90, 0x3e,
  0x96, 0x88, 0xa1, 0x3d, 0x7a, 0xc8, 0xa1, 0xbd, 0xd5, 0xd3, 0x15, 0x3f,
  0xea, 0x5e, 0xf3, 0x3e, 0x88, 0xf9, 0xb0, 0xbe, 0xb9, 0x96, 0x5a, 0xbd,
  0xd4, 0xd2, 0xa9, 0x3c, 0x47, 0x7b, 0x1e, 0x3d, 0xb6, 0x6c, 0x95, 0xbe,
  0x7b, 0x8b, 0x50, 0x3f, 0x74, 0xf7, 0xc5, 0x3e, 0xc4, 0x73, 0x27, 0xbf,
  0x46, 0x44, 0x1d, 0x3e, 0xa7, 0xa7, 0xb8, 0xbe, 0x11, 0x59, 0xb8, 0xbc,
  0x16, 0x11, 0x70, 0xbe, 0xe2, 0x82, 0x10, 0x3f, 0x55, 0x5f, 0xdc, 0xbc,
  0x9b, 0xd2, 0x24, 0xbd, 0x82, 0x32, 0x1a, 0x3f, 0xb4, 0xd5, 0x01, 0xbf,
  0xfc, 0x91, 0xb5, 0x3e, 0xff, 0x3f, 0xd4, 0xbe, 0x85, 0x85, 0x2e, 0x3c,
  0x3e, 0xf5, 0xa0, 0x3e, 0x41, 0x7f, 0x98, 0xbe, 0xe2, 0x2c, 0xa8, 0xbe,
  0x84, 0x2f, 0xb6, 0xbd, 0x5a, 0x4b, 0x45, 0x3d, 0xe4, 0x03, 0x86, 0x3e,
  0x23, 0xfa, 0xd1, 0xbe, 0x06, 0xe8, 0x17, 0x3e, 0x3d, 0x30, 0xa1, 0xbe,
  0x71, 0xe7, 0x61, 0x3e, 0x99, 0x95, 0x37, 0x3d, 0xef, 0x73, 0x96, 0xbe,
  0x58, 0x2a, 0xed, 0x3e, 0x70, 0xac, 0x23, 0xbd, 0xe2, 0x5a, 0x46, 0xbd,
  0x3f, 0xeb, 0x4a, 0xbe, 0xae, 0xf1, 0x1e, 0x3f, 0x43, 0x7a, 0x18, 0x3f,
  0x18, 0xaa, 0x39, 0x3d, 0x24, 0x40, 0xc5, 0xbe, 0xe8, 0x42, 0x3d, 0x3e,
  0xa4, 0x76, 0xe6, 0xbd, 0x05, 0x73, 0x31, 0xbd, 0xa2, 0x0d, 0x9c, 0x3e,
  0x56, 0x8c, 0x83, 0x3d, 0x71, 0x0c, 0xd7, 0xbe, 0x63, 0x88, 0xb0, 0xbe,
  0xe7, 0x4a, 0xf9, 0xbe, 0x49, 0x59, 0xa1, 0x3e, 0x0f, 0x1f, 0x26, 0xbe,
  0x15, 0xeb, 0xb4, 0x3e, 0xaa, 0x7f, 0x03, 0xbf, 0xb6, 0xc2, 0x69, 0xbe,
  0x33, 0x8c, 0xe7, 0x3e, 0x24, 0x68, 0xe4, 0xbe, 0x87, 0x09, 0x15, 0xbe,
  0x67, 0x71, 0xf8, 0x3e, 0x3d, 0x2c, 0x01, 0xbd, 0x9f, 0x4a, 0xf7, 0x3d,
  0xd1, 0x89, 0xa0, 0xbe, 0x5f, 0x69, 0xa6, 0xbe, 0xd7, 0x80, 0x3e, 0xbe,
  0x04, 0xf6, 0x91, 0x3c, 0x5a, 0x1b, 0x95, 0xbc, 0xdd, 0x95, 0x88, 0xbd,
  0x14, 0x4f, 0xc4, 0xbe, 0xc6, 0x51, 0xd8, 0x3e, 0x43, 0x0c, 0x55, 0x3c,
  0x98, 0x11, 0x31, 0xbe, 0x30, 0x1a, 0x49, 0x3c, 0xb1, 0x5d, 0xad, 0xbe,
  0xea, 0x2d, 0xfe, 0x3e, 0x3d, 0x10, 0x13, 0x3d, 0xed, 0xf4, 0x02, 0xbf,
  0xbc, 0x77, 0xb3, 0xbd, 0x3a, 0x88, 0x37, 0x3f, 0xef, 0x6d, 0xa4, 0x3e,
  0x36, 0x41, 0x40, 0x3e, 0x5f, 0x19, 0x65, 0x3e, 0xaa, 0x2b, 0x85, 0xbe,
  0xe0, 0x86, 0x69, 0x3e, 0xc8, 0x52, 0x2f, 0x3f, 0xdc, 0x94, 0xd4, 0x3e,
  0xbc, 0x49, 0x2d, 0xbf, 0xfb, 0x61, 0x1c, 0x3e, 0xaf, 0xbc, 0x25, 0x3e,
  0x3c, 0x92, 0xa4, 0x3e, 0xde, 0x8f, 0xa0, 0xbe, 0x29, 0xdd, 0xa9, 0x3e,
  0xad, 0x0f, 0x56, 0xbe, 0x71, 0x75, 0x0b, 0x3e, 0x11, 0xbf, 0xb9, 0xbe,
  0xaf, 0x71, 0xa6, 0x3e, 0xa7, 0xba, 0x83, 0x3c, 0x1c, 0x79, 0xc7, 0x3c,
  0x72, 0xf8, 0xff, 0xff, 0x04, 0x00, 0x00, 0x00, 0xb0, 0x04, 0x00, 0x00,
  0x8f, 0x38, 0xd4, 0xbe, 0x9e, 0x9f, 0x49, 0xbd, 0xd4, 0x36, 0x66, 0xbd,
  0x05, 0xd5, 0x92, 0x3e, 0x8e, 0xd4, 0xf0, 0xbd, 0xb3, 0xd0, 0xbf, 0x3d,
  0x00, 0xdd, 0x68, 0x3e, 0x0c, 0x19, 0xab, 0x3e, 0x80, 0xbf, 0x41, 0xbc,
  0x57, 0x90, 0x88, 0xbd, 0x21, 0x04, 0xfe, 0x3d, 0x24, 0xf0, 0x41, 0xbe,
  0x88, 0xa1, 0x8d, 0x3d, 0xf9, 0x8b, 0xed, 0x3e, 0xb8, 0x2a, 0x50, 0x3e,
  0x80, 0x5a, 0x9e, 0xbe, 0xfe, 0x93, 0xa0, 0x3c, 0xd4, 0xb2, 0x7a, 0xbc,
  0xd1, 0xd9, 0x32, 0x3c, 0x9e, 0xac, 0xc7, 0xbd, 0x7f, 0xe1, 0x14, 0x3f,
  0x4d, 0xea, 0xfc, 0x3e, 0xd9, 0x80, 0x02, 0x3e, 0xbf, 0x0e, 0x18, 0x3f,
  0xb2, 0x01, 0xa6, 0x3d, 0x13, 0x91, 0xde, 0xbd, 0x72, 0x43, 0x9f, 0x3e,
  0xa2, 0x95, 0x1b, 0x3d, 0x76, 0x46, 0x9d, 0x3d, 0xdb, 0x6b, 0x7a, 0x3e,
  0x46, 0xeb, 0x90, 0x3e, 0xc1, 0xb4, 0x66, 0x3e, 0xe9, 0x7f, 0x9f, 0xbe,
  0xac, 0x30, 0x45, 0x3d, 0xdd, 0x29, 0x1d, 0xbe, 0x7f, 0xf0, 0x88, 0xbd,
  0xa6, 0xbc, 0x72, 0xbe, 0xe8, 0x15, 0xae, 0xbe, 0xdc, 0xa3, 0x95, 0xbc,
  0xbe, 0xdf, 0x88, 0x3e, 0x65, 0xa4, 0xb0, 0xbd, 0xd8, 0xcb, 0x9c, 0x3e,
  0xc5, 0xbe, 0x8a, 0xbe, 0xcf, 0x31, 0x86, 0xbe, 0x07, 0xad, 0x39, 0x3e,
  0xb0, 0x47, 0xa1, 0xbe, 0x67, 0x31, 0x1b, 0x3e, 0x8a, 0xe2, 0x8b, 0xbe,
  0x51, 0x04, 0x00, 0x3e, 0x75, 0x5d, 0x9b, 0x3e, 0x31, 0x32, 0x0b, 0xbe,
  0x54, 0xe9, 0xe4, 0xbe, 0xf1, 0x19, 0x0a, 0x3e, 0xa0, 0x1a, 0xa2, 0xbd,
  0x34, 0x48, 0xb2, 0x3d, 0x2d, 0xac, 0x40, 0x3c, 0xbc, 0xda, 0xc2, 0xbe,
  0x50, 0x10, 0x72, 0x3d, 0xaf, 0x83, 0xe3, 0xbe, 0x47, 0x2a, 0xe5, 0xbd,
  0x50, 0xf4, 0x9e, 0x3e, 0xea, 0xd5, 0xff, 0x3c, 0x3e, 0x4e, 0x54, 0xbe,
  0x35, 0x33, 0x4c, 0x3e, 0x30, 0x12, 0xa6, 0xbe, 0x97, 0x60, 0x39, 0x3e,
  0xff, 0x13, 0x01, 0xbe, 0x27, 0xfd, 0x3b, 0x3e, 0x07, 0x7f, 0x9e, 0xbe,
  0x51, 0xb9, 0x11, 0x3d, 0x9a, 0x6b, 0x07, 0x3e, 0xde, 0x60, 0x9b, 0x3e,
  0x5b, 0x27, 0x8b, 0x3d, 0x2c, 0x08, 0x38, 0x3e, 0xce, 0xb0, 0x92, 0xbe,
  0x5f, 0x5d, 0xe2, 0x3d, 0x80, 0x5a, 0xd2, 0x3d, 0x00, 0xc6, 0x72, 0x3e,
  0xeb, 0xf5, 0xcd, 0xbd, 0x27, 0xa9, 0xef, 0x3e, 0x96, 0x0b, 0xfa, 0xbd,
  0x6e, 0x10, 0xf1, 0x3d, 0x4c, 0x4a, 0xb4, 0x3e, 0x58, 0xa0, 0xef, 0xbc,
  0x94, 0x77, 0xeb, 0xbd, 0x70, 0x8a, 0x3d, 0x3e, 0x5a, 0xce, 0x42, 0x3e,
  0xd9, 0x5b, 0x91, 0xbe, 0x52, 0x95, 0x82, 0x3e, 0xdb, 0x54, 0x85, 0x3b,
  0x19, 0xb9, 0x99, 0xbe, 0x81, 0x22, 0x8f, 0x3e, 0xf8, 0xbb, 0xce, 0xbd,
  0x4c, 0x3b, 0x92, 0xbe, 0xee, 0xcb, 0xa3, 0xbe, 0x90, 0x73, 0x37, 0x3d,
  0x2d, 0x10, 0xcb, 0xbe, 0x62, 0xb7, 0xe0, 0x3d, 0x69, 0xc9, 0x82, 0x3e,
  0xc2, 0x78, 0xcd, 0x3d, 0x29, 0x71, 0x99, 0xbe, 0x8d, 0xc4, 0x4f, 0x3e,
  0x97, 0x49, 0x9d, 0xbe, 0x31, 0x93, 0xa8, 0x3e, 0xa6, 0x28, 0x0a, 0x3d,
  0xdf, 0xa5, 0x0c, 0xbe, 0xdd, 0x6d, 0xbe, 0xbe, 0xe3, 0x11, 0x3f, 0x3e,
  0x6c, 0x7c, 0x51, 0xbe, 0xae, 0x93, 0xa1, 0x3e, 0x49, 0xf3, 0x01, 0x3e,
  0xf5, 0x08, 0x74, 0x3e, 0xa3, 0x27, 0x9b, 0xbe, 0x1d, 0x5e, 0xff, 0xbd,
  0x7e, 0x2e, 0xa6, 0xbd, 0x01, 0x6a, 0x10, 0x3e, 0xb2, 0x37, 0xbe, 0xbe,
  0xbd, 0x59, 0x2d, 0xbe, 0x1d, 0x73, 0x08, 0x3d, 0x32, 0x3a, 0x06, 0xbe,
  0x59, 0xc3, 0xc4, 0xbe, 0xda, 0x34, 0x1b, 0xbe, 0x60, 0x78, 0x76, 0xbd,
  0x06, 0x2d, 0xbc, 0xbe, 0x9e, 0x32, 0x03, 0x3e, 0x45, 0x50, 0x93, 0xbd,
  0x06, 0xd7, 0x1b, 0x3d, 0x6f, 0x68, 0x21, 0xbe, 0x36, 0x07, 0x0f, 0x3e,
  0x4e, 0x0b, 0x0e, 0x3d, 0x5e, 0xd2, 0xad, 0x3e, 0x37, 0x41, 0xbf, 0x3d,
  0xba, 0x0a, 0xa9, 0x3e, 0x95, 0xfc, 0x0c, 0x3e, 0xcc, 0xd2, 0xf9, 0x3b,
  0x74, 0x26, 0x8a, 0xbb, 0x22, 0xeb, 0x99, 0xbe, 0x15, 0x41, 0xe9, 0x3d,
  0x6f, 0x0d, 0xa4, 0xbe, 0xe3, 0xe2, 0x8c, 0xbe, 0x72, 0x64, 0xb0, 0xbe,
  0x17, 0x62, 0x40, 0xbe, 0x50, 0x18, 0xe2, 0xbd, 0x62, 0x78, 0x87, 0x3e,
  0xce, 0x63, 0x42, 0xbe, 0x83, 0xe9, 0xd8, 0xbd, 0x50, 0xd0, 0x33, 0xbe,
  0xd7, 0x9d, 0x9b, 0xbe, 0xe4, 0x1e, 0x7b, 0x3d, 0x36, 0x0d, 0xa4, 0x3e,
  0x01, 0x40, 0x9c, 0xbe, 0x08, 0x54, 0x3e, 0x3e, 0xcd, 0xa3, 0x28, 0x3e,
  0x99, 0xb3, 0x72, 0xbe, 0x55, 0x95, 0x33, 0x3e, 0xd4, 0xfc, 0xba, 0xbd,
  0x34, 0xc4, 0x9f, 0x3e, 0x6d, 0x1e, 0x9e, 0xbe, 0x56, 0x79, 0x70, 0xbe,
  0x39, 0x9f, 0x07, 0x3d, 0xbf, 0x20, 0xdc, 0x3e, 0xe8, 0xe9, 0x62, 0x3e,
  0x40, 0x0b, 0x43, 0x3e, 0x38, 0x1a, 0x88, 0x3e, 0x65, 0xe2, 0x12, 0xbe,
  0x58, 0x67, 0x8d, 0x3e, 0x5e, 0xbd, 0x60, 0x3e, 0x0c, 0x05, 0x9b, 0x3d,
  0x4c, 0xa5, 0xd7, 0xbd, 0x4e, 0xd0, 0x1e, 0x3e, 0xcd, 0x93, 0x40, 0x3e,
  0x0d, 0x60, 0xd6, 0xbd, 0x04, 0x22, 0x45, 0x3d, 0xaa, 0xf3, 0x93, 0xbc,
  0x46, 0x2f, 0x5a, 0x3e, 0x41, 0x5f, 0x5a, 0x3e, 0xc2, 0x6e, 0x3c, 0xbe,
  0x4f, 0x11, 0xbd, 0x3c, 0xc8, 0xf9, 0x9d, 0x3e, 0x3c, 0xf0, 0x00, 0x3d,
  0x1a, 0xb0, 0xcb, 0x3e, 0xec, 0x98, 0x3f, 0x3e, 0xa9, 0xd8, 0x41, 0x3e,
  0xc0, 0xd3, 0x99, 0x3e, 0xc2, 0x20, 0xca, 0x3e, 0x35, 0x64, 0x82, 0xbe,
  0x83, 0xde, 0x0f, 0x3e, 0xea, 0x4e, 0x5f, 0x3a, 0x68, 0x4a, 0xce, 0x3d,
  0x5c, 0xee, 0x6b, 0xbc, 0xff, 0x49, 0x63, 0x3e, 0xd0, 0xcc, 0x0a, 0x3e,
  0xaa, 0x5b, 0xc4, 0x3e, 0xe3, 0x05, 0x9d, 0x3d, 0x76, 0xb7, 0xef, 0x3d,
  0x4c, 0x17, 0x99, 0xbd, 0x5e, 0x6d, 0xc9, 0x3d, 0xcf, 0x8c, 0x9c, 0xbb,
  0x13, 0xdd, 0x3a, 0x3e, 0xa8, 0xce, 0x84, 0x3d, 0xbe, 0x49, 0x93, 0xbe,
  0xed, 0x3b, 0x84, 0x3e, 0x9d, 0xf3, 0xd3, 0x3e, 0x3f, 0xe3, 0x94, 0x3e,
  0x49, 0x04, 0x9d, 0x3d, 0x62, 0x0f, 0xc1, 0x3d, 0xc5, 0xf6, 0x71, 0x3e,
  0x0c, 0x3f, 0x22, 0x3e, 0x91, 0x93, 0x96, 0xbd, 0x86, 0x2a, 0xd2, 0xbd,
  0x86, 0x8d, 0x7b, 0x3e, 0x08, 0xa6, 0xad, 0xbe, 0xf5, 0x74, 0x7f, 0x3e,
  0x7e, 0xf8, 0xbb, 0x3d, 0xb6, 0xcf, 0xb8, 0x3d, 0x83, 0x0c, 0xc0, 0x3e,
  0x4a, 0xc9, 0xee, 0x3e, 0x8b, 0xa2, 0x61, 0xbe, 0xfe, 0xf4, 0xe1, 0x3e,
  0x34, 0xa5, 0x3b, 0x3e, 0x5d, 0x47, 0xb2, 0x3e, 0x90, 0xeb, 0x48, 0x3e,
  0x18, 0x9e, 0x01, 0x3e, 0xde, 0x15, 0x55, 0xbe, 0xf5, 0x57, 0x49, 0xbe,
  0x38, 0x2b, 0xe9, 0xbd, 0x22, 0x70, 0x8e, 0x3e, 0xaf, 0xb3, 0xd6, 0xbd,
  0x19, 0xe6, 0x4e, 0x3e, 0xdf, 0x8e, 0x75, 0xbe, 0x07, 0xf8, 0x1e, 0x3d,
  0x2b, 0x3d, 0xd2, 0x3e, 0xff, 0xe4, 0x09, 0x3d, 0xe0, 0x9b, 0x56, 0x3e,
  0x69, 0x8c, 0x3f, 0xbd, 0xf9, 0xf6, 0xa7, 0x3e, 0x10, 0x9a, 0xdc, 0xbd,
  0x16, 0xcd, 0xef, 0x3e, 0x70, 0x9b, 0xf3, 0x3d, 0x16, 0x3b, 0xd4, 0xbc,
  0x17, 0xc4, 0x81, 0xbe, 0xa7, 0xdd, 0x29, 0x3d, 0xb7, 0xbc, 0x9c, 0xbd,
  0xa7, 0x22, 0x8a, 0x3e, 0xe5, 0xeb, 0x3f, 0xbe, 0xcc, 0xec, 0xd5, 0x3e,
  0x58, 0x56, 0x61, 0x3e, 0x90, 0xa6, 0x3c, 0xbe, 0xd5, 0x0b, 0xc1, 0x3e,
  0x4e, 0x59, 0xaa, 0x3e, 0x62, 0x47, 0xd3, 0xbd, 0x7d, 0xd5, 0x28, 0xbe,
  0x51, 0xea, 0xc3, 0x3d, 0x9b, 0x99, 0xd0, 0xbe, 0xc0, 0xa3, 0x5a, 0xbe,
  0x96, 0x93, 0x18, 0x3d, 0x2b, 0x3c, 0x75, 0x3e, 0x97, 0xaa, 0xcb, 0x3e,
  0x38, 0xe3, 0x00, 0xbe, 0x67, 0x30, 0xb4, 0x3e, 0x80, 0x4f, 0xca, 0xbe,
  0x53, 0x6d, 0xb3, 0xbd, 0x2b, 0x05, 0xc3, 0xbe, 0xaa, 0x87, 0x1f, 0xbe,
  0x4a, 0xf6, 0x38, 0xbe, 0x66, 0xf4, 0x0c, 0xbd, 0x65, 0x7f, 0xd5, 0xbd,
  0x4e, 0xbb, 0x33, 0xbe, 0x27, 0x04, 0x07, 0x3e, 0xc3, 0xd7, 0x1b, 0x3d,
  0xfc, 0xfe, 0xc3, 0x3e, 0xf7, 0x7a, 0x82, 0x3e, 0x21, 0xb6, 0x2c, 0xbe,
  0x80, 0x91, 0x91, 0x3e, 0x05, 0x26, 0xd0, 0xbd, 0x72, 0x15, 0xbb, 0x3e,
  0xd3, 0xa5, 0x3b, 0xbe, 0xa9, 0x89, 0x8f, 0xbe, 0x1d, 0x5f, 0xe9, 0x3d,
  0xb0, 0x9b, 0x87, 0x3e, 0x36, 0x4a, 0x32, 0x3e, 0xed, 0x50, 0x45, 0xbe,
  0xe6, 0x08, 0xc7, 0xbe, 0x75, 0x63, 0x7c, 0x3c, 0xa7, 0xf8, 0x4c, 0x3e,
  0x5f, 0x7b, 0x5b, 0xbe, 0xea, 0x57, 0x6b, 0x3e, 0xeb, 0x67, 0x06, 0x3d,
  0x05, 0x21, 0xfb, 0x3d, 0x68, 0xad, 0x70, 0x3e, 0x5c, 0xa7, 0xc0, 0x3e,
  0xca, 0x9c, 0xaa, 0x3e, 0x49, 0xf9, 0xa6, 0x3d, 0x14, 0x2c, 0x3c, 0x3d,
  0xac, 0x76, 0x34, 0x3e, 0x97, 0xbc, 0x02, 0xbd, 0x4d, 0xc5, 0x97, 0x3e,
  0xb3, 0xe7, 0x48, 0xbe, 0x94, 0x0c, 0x5e, 0x3d, 0x46, 0xeb, 0x01, 0x3d,
  0x2e, 0xfd, 0xff, 0xff, 0x04, 0x00, 0x00, 0x00, 0x28, 0x00, 0x00, 0x00,
  0x6b, 0xc2, 0x21, 0x3f, 0xa8, 0x88, 0xc2, 0xbd, 0xf3, 0xbf, 0x10, 0x3f,
  0x8b, 0xd6, 0x0b, 0xbf, 0x22, 0x1e, 0xc6, 0xbd, 0x11, 0x7a, 0x43, 0x3e,
  0xb5, 0xf7, 0x7c, 0xbe, 0x10, 0x3f, 0xe4, 0xbd, 0xb5, 0x35, 0x14, 0x3f,
  0x34, 0xca, 0xe5, 0x3e, 0x62, 0xfd, 0xff, 0xff, 0x04, 0x00, 0x00, 0x00,
  0x28, 0x00, 0x00, 0x00, 0x46, 0xdb, 0xeb, 0xbe, 0x2a, 0xcc, 0xc2, 0x3e,
  0x8a, 0xbd, 0xe9, 0xbe, 0x01, 0x2c, 0x79, 0xbd, 0x4a, 0x2a, 0x04, 0x3e,
  0xfb, 0xde, 0x8a, 0x3e, 0xe5, 0xa4, 0xb7, 0x3e, 0xc0, 0x33, 0x77, 0x3e,
  0x82, 0x6f, 0x85, 0x3d, 0xb0, 0x47, 0x00, 0x3d, 0x96, 0xfd, 0xff, 0xff,
  0x04, 0x00, 0x00, 0x00, 0x28, 0x00, 0x00, 0x00, 0x77, 0x6c, 0xc4, 0x3e,
  0xb2, 0xfd, 0x13, 0x3e, 0x5b, 0x03, 0xc9, 0x3e, 0xa1, 0x5d, 0x05, 0xbf,
  0x2d, 0x3b, 0xe9, 0x3e, 0x7c, 0xf0, 0x97, 0xbc, 0xe0, 0x4e, 0xa6, 0x3e,
  0xe2, 0x7f, 0xe7, 0x3e, 0xec, 0x75, 0x42, 0xbd, 0x8d, 0x5a, 0xdd, 0xbe,
  0xca, 0xfd, 0xff, 0xff, 0x04, 0x00, 0x00, 0x00, 0x28, 0x00, 0x00, 0x00,
  0x52, 0x25, 0x0e, 0x3e, 0x7b, 0xbf, 0x07, 0x3d, 0x7d, 0xe5, 0xf1, 0x3c,
  0x9f, 0x43, 0xef, 0x3c, 0x24, 0xf4, 0x3f, 0xbe, 0x56, 0xe4, 0x3f, 0x3e,
  0x3c, 0x18, 0x62, 0xbe, 0x9c, 0x70, 0xd6, 0xbe, 0x7d, 0x17, 0xb7, 0x3e,
  0x70, 0x79, 0x81, 0x3e, 0xfe, 0xfd, 0xff, 0xff, 0x04, 0x00, 0x00, 0x00,
  0x28, 0x00, 0x00, 0x00, 0x32, 0x85, 0xba, 0x3e, 0xc7, 0x7c, 0xbf, 0xbe,
  0xde, 0x22, 0xa9, 0x3e, 0xd4, 0x37, 0xdf, 0x3e, 0x8b, 0x71, 0xba, 0xbd,
  0xd7, 0xda, 0x12, 0xbf, 0x61, 0xa7, 0xb9, 0x3e, 0xb0, 0x44, 0xfe, 0x3d,
  0x0d, 0x3a, 0xb8, 0x3e, 0x41, 0xd8, 0xa3, 0xbe, 0x32, 0xfe, 0xff, 0xff,
  0x04, 0x00, 0x00, 0x00, 0x28, 0x00, 0x00, 0x00, 0xd4, 0xd6, 0x38, 0xbe,
  0x30, 0xd2, 0x0c, 0xbd, 0xac, 0xf7, 0x06, 0xbe, 0xd9, 0xd9, 0x24, 0xbe,
  0xc4, 0x22, 0x7b, 0xbe, 0x67, 0x12, 0xe5, 0xbd, 0xd0, 0x3b, 0x1c, 0x3d,
  0x72, 0x65, 0x9b, 0x3e, 0x31, 0xb4, 0xd5, 0x3e, 0x9b, 0x65, 0x11, 0xbe,
  0x66, 0xfe, 0xff, 0xff, 0x04, 0x00, 0x00, 0x00, 0x28, 0x00, 0x00, 0x00,
  0x5b, 0xad, 0x02, 0x3f, 0x82, 0xd8, 0xc3, 0x3e, 0xc1, 0xb1, 0xe0, 0x3e,
  0xc8, 0xa1, 0x88, 0xbe, 0x87, 0x70, 0x1c, 0xbe, 0xb6, 0x27, 0x09, 0x3f,
  0x83, 0x94, 0x08, 0x3f, 0x66, 0xb9, 0xa4, 0xbe, 0x1a, 0xea, 0xeb, 0x3e,
  0x53, 0x07, 0x6d, 0xbe, 0x9a, 0xfe, 0xff, 0xff, 0x04, 0x00, 0x00, 0x00,
  0x28, 0x00, 0x00, 0x00, 0x51, 0x13, 0x0f, 0xbe, 0xe5, 0x2f, 0xc5, 0xbe,
  0xfe, 0xe6, 0x05, 0xbf, 0x2e, 0x86, 0x0f, 0xbf, 0x52, 0x86, 0x72, 0x3e,
  0x6f, 0x3c, 0x26, 0x3f, 0x51, 0x4b, 0xbb, 0xbd, 0x23, 0x10, 0x13, 0x3f,
  0x1a, 0x6d, 0x33, 0x3e, 0xbc, 0xdd, 0x0b, 0x3f, 0xce, 0xfe, 0xff, 0xff,
  0x04, 0x00, 0x00, 0x00, 0x28, 0x00, 0x00, 0x00, 0x32, 0xe6, 0xc9, 0xbe,
  0x42, 0x0b, 0x52, 0xbe, 0x6b, 0x82, 0x7a, 0xbe, 0x21, 0xb5, 0xa5, 0x3e,
  0xa7, 0x74, 0x0a, 0xbf, 0xaa, 0xd7, 0x78, 0xbe, 0xa7, 0xf1, 0x56, 0x3e,
  0x4f, 0x30, 0xf1, 0xbe, 0xc4, 0x5b, 0xcb, 0x3e, 0x2d, 0x9b, 0x02, 0xbf,
  0x02, 0xff, 0xff, 0xff, 0x04, 0x00, 0x00, 0x00, 0x28, 0x00, 0x00, 0x00,
  0x44, 0xec, 0xab, 0x3e, 0x5f, 0x12, 0x87, 0x3e, 0xc0, 0xb8, 0xb4, 0xbe,
  0x35, 0xec, 0xdd, 0x3e, 0x60, 0x4f, 0x48, 0xbe, 0x6f, 0x82, 0x57, 0xbe,
  0xc7, 0xd2, 0x41, 0xbd, 0x32, 0x72, 0xca, 0x3d, 0xeb, 0x75, 0xf9, 0x3d,
  0xeb, 0xdd, 0xea, 0xbe, 0x36, 0xff, 0xff, 0xff, 0x04, 0x00, 0x00, 0x00,
  0x08, 0x00, 0x00, 0x00, 0x00, 0xdc, 0x90, 0xbf, 0x52, 0x24, 0x81, 0xbf,
  0x40, 0xee, 0xff, 0xff, 0x44, 0xee, 0xff, 0xff, 0x0f, 0x00, 0x00, 0x00,
  0x4d, 0x4c, 0x49, 0x52, 0x20, 0x43, 0x6f, 0x6e, 0x76, 0x65, 0x72, 0x74,
  0x65, 0x64, 0x2e, 0x00, 0x01, 0x00, 0x00, 0x00, 0x14, 0x00, 0x00, 0x00,
  0x00, 0x00, 0x0e, 0x00, 0x18, 0x00, 0x14, 0x00, 0x10, 0x00, 0x0c, 0x00,
  0x08, 0x00, 0x04, 0x00, 0x0e, 0x00, 0x00, 0x00, 0x14, 0x00, 0x00, 0x00,
  0x1c, 0x00, 0x00, 0x00, 0xe4, 0x02, 0x00, 0x00, 0xe8, 0x02, 0x00, 0x00,
  0xec, 0x02, 0x00, 0x00, 0x04, 0x00, 0x00, 0x00, 0x6d, 0x61, 0x69, 0x6e,
  0x00, 0x00, 0x00, 0x00, 0x0c, 0x00, 0x00, 0x00, 0x8c, 0x02, 0x00, 0x00,
  0x44, 0x02, 0x00, 0x00, 0x0c, 0x02, 0x00, 0x00, 0xd4, 0x01, 0x00, 0x00,
  0x9c, 0x01, 0x00, 0x00, 0x64, 0x01, 0x00, 0x00, 0x2c, 0x01, 0x00, 0x00,
  0xf4, 0x00, 0x00, 0x00, 0xbc, 0x00, 0x00, 0x00, 0x84, 0x00, 0x00, 0x00,
  0x50, 0x00, 0x00, 0x00, 0x14, 0x00, 0x00, 0x00, 0x00, 0x00, 0x0e, 0x00,
  0x1a, 0x00, 0x14, 0x00, 0x10, 0x00, 0x0c, 0x00, 0x0b, 0x00, 0x04, 0x00,
  0x0e, 0x00, 0x00, 0x00, 0x1c, 0x00, 0x00, 0x00, 0x00, 0x00, 0x00, 0x09,
  0x1c, 0x00, 0x00, 0x00, 0x20, 0x00, 0x00, 0x00, 0x01, 0x00, 0x00, 0x00,
  0x00, 0x00, 0x06, 0x00, 0x08, 0x00, 0x04, 0x00, 0x06, 0x00, 0x00, 0x00,
  0x00, 0x00, 0x80, 0x3f, 0x01, 0x00, 0x00, 0x00, 0x22, 0x00, 0x00, 0x00,
  0x01, 0x00, 0x00, 0x00, 0x21, 0x00, 0x00, 0x00, 0xfa, 0xfd, 0xff, 0xff,
  0x10, 0x00, 0x00, 0x00, 0x00, 0x00, 0x00, 0x08, 0x0c, 0x00, 0x00, 0x00,
  0x10, 0x00, 0x00, 0x00, 0x28, 0xef, 0xff, 0xff, 0x01, 0x00, 0x00, 0x00,
  0x21, 0x00, 0x00, 0x00, 0x03, 0x00, 0x00, 0x00, 0x20, 0x00, 0x00, 0x00,
  0x16, 0x00, 0x00, 0x00, 0x01, 0x00, 0x00, 0x00, 0x2a, 0xfe, 0xff, 0xff,
  0x10, 0x00, 0x00, 0x00, 0x00, 0x00, 0x00, 0x08, 0x10, 0x00, 0x00, 0x00,
  0x14, 0x00, 0x00, 0x00, 0x1a, 0xfe, 0xff, 0xff, 0x00, 0x00, 0x00, 0x01,
  0x01, 0x00, 0x00, 0x00, 0x20, 0x00, 0x00, 0x00, 0x03, 0x00, 0x00, 0x00,
  0x1f, 0x00, 0x00, 0x00, 0x15, 0x00, 0x00, 0x00, 0x02, 0x00, 0x00, 0x00,
  0x5e, 0xfe, 0xff, 0xff, 0x10, 0x00, 0x00, 0x00, 0x00, 0x00, 0x00, 0x08,
  0x10, 0x00, 0x00, 0x00, 0x14, 0x00, 0x00, 0x00, 0x4e, 0xfe, 0xff, 0xff,
  0x00, 0x00, 0x00, 0x01, 0x01, 0x00, 0x00, 0x00, 0x1f, 0x00, 0x00, 0x00,
  0x03, 0x00, 0x00, 0x00, 0x1e, 0x00, 0x00, 0x00, 0x14, 0x00, 0x00, 0x00,
  0x03, 0x00, 0x00, 0x00, 0x92, 0xfe, 0xff, 0xff, 0x10, 0x00, 0x00, 0x00,
  0x00, 0x00, 0x00, 0x08, 0x10, 0x00, 0x00, 0x00, 0x14, 0x00, 0x00, 0x00,
  0x82, 0xfe, 0xff, 0xff, 0x00, 0x00, 0x00, 0x01, 0x01, 0x00, 0x00, 0x00,
  0x1e, 0x00, 0x00, 0x00, 0x03, 0x00, 0x00, 0x00, 0x1d, 0x00, 0x00, 0x00,
  0x13, 0x00, 0x00, 0x00, 0x04, 0x00, 0x00, 0x00, 0xc6, 0xfe, 0xff, 0xff,
  0x10, 0x00, 0x00, 0x00, 0x00, 0x00, 0x00, 0x08, 0x10, 0x00, 0x00, 0x00,
  0x14, 0x00, 0x00, 0x00, 0xb6, 0xfe, 0xff, 0xff, 0x00, 0x00, 0x00, 0x01,
  0x01, 0x00, 0x00, 0x00, 0x1d, 0x00, 0x00, 0x00, 0x03, 0x00, 0x00, 0x00,
  0x1c, 0x00, 0x00, 0x00, 0x12, 0x00, 0x00, 0x00, 0x05, 0x00, 0x00, 0x00,
  0xfa, 0xfe, 0xff, 0xff, 0x10, 0x00, 0x00, 0x00, 0x00, 0x00, 0x00, 0x08,
  0x10, 0x00, 0x00, 0x00, 0x14, 0x00, 0x00, 0x00, 0xea, 0xfe, 0xff, 0xff,
  0x00, 0x00, 0x00, 0x01, 0x01, 0x00, 0x00, 0x00, 0x1c, 0x00, 0x00, 0x00,
  0x03, 0x00, 0x00, 0x00, 0x1b, 0x00, 0x00, 0x00, 0x11, 0x00, 0x00, 0x00,
  0x06, 0x00, 0x00, 0x00, 0x2e, 0xff, 0xff, 0xff, 0x10, 0x00, 0x00, 0x00,
  0x00, 0x00, 0x00, 0x08, 0x10, 0x00, 0x00, 0x00, 0x14, 0x00, 0x00, 0x00,
  0x1e, 0xff, 0xff, 0xff, 0x00, 0x00, 0x00, 0x01, 0x01, 0x00, 0x00, 0x00,
  0x1b, 0x00, 0x00, 0x00, 0x03, 0x00, 0x00, 0x00, 0x1a, 0x00, 0x00, 0x00,
  0x10, 0x00, 0x00, 0x00, 0x07, 0x00, 0x00, 0x00, 0x62, 0xff, 0xff, 0xff,
  0x10, 0x00, 0x00, 0x00, 0x00, 0x00, 0x00, 0x08, 0x10, 0x00, 0x00, 0x00,
  0x14, 0x00, 0x00, 0x00, 0x52, 0xff, 0xff, 0xff, 0x00, 0x00, 0x00, 0x01,
  0x01, 0x00, 0x00, 0x00, 0x1a, 0x00, 0x00, 0x00, 0x03, 0x00, 0x00, 0x00,
  0x19, 0x00, 0x00, 0x00, 0x0f, 0x00, 0x00, 0x00, 0x08, 0x00, 0x00, 0x00,
  0x96, 0xff, 0xff, 0xff, 0x10, 0x00, 0x00, 0x00, 0x00, 0x00, 0x00, 0x08,
  0x10, 0x00, 0x00, 0x00, 0x14, 0x00, 0x00, 0x00, 0x86, 0xff, 0xff, 0xff,
  0x00, 0x00, 0x00, 0x01, 0x01, 0x00, 0x00, 0x00, 0x19, 0x00, 0x00, 0x00,
  0x03, 0x00, 0x00, 0x00, 0x18, 0x00, 0x00, 0x00, 0x0e, 0x00, 0x00, 0x00,
  0x09, 0x00, 0x00, 0x00, 0xca, 0xff, 0xff, 0xff, 0x10, 0x00, 0x00, 0x00,
  0x00, 0x00, 0x00, 0x08, 0x10, 0x00, 0x00, 0x00, 0x14, 0x00, 0x00, 0x00,
  0xba, 0xff, 0xff, 0xff, 0x00, 0x00, 0x00, 0x01, 0x01, 0x00, 0x00, 0x00,
  0x18, 0x00, 0x00, 0x00, 0x03, 0x00, 0x00, 0x00, 0x17, 0x00, 0x00, 0x00,
  0x0d, 0x00, 0x00, 0x00, 0x0a, 0x00, 0x00, 0x00, 0x00, 0x00, 0x0e, 0x00,
  0x16, 0x00, 0x00, 0x00, 0x10, 0x00, 0x0c, 0x00, 0x0b, 0x00, 0x04, 0x00,
  0x0e, 0x00, 0x00, 0x00, 0x18, 0x00, 0x00, 0x00, 0x00, 0x00, 0x00, 0x08,
  0x18, 0x00, 0x00, 0x00, 0x1c, 0x00, 0x00, 0x00, 0x00, 0x00, 0x06, 0x00,
  0x08, 0x00, 0x07, 0x00, 0x06, 0x00, 0x00, 0x00, 0x00, 0x00, 0x00, 0x01,
  0x01, 0x00, 0x00, 0x00, 0x17, 0x00, 0x00, 0x00, 0x03, 0x00, 0x00, 0x00,
  0x00, 0x00, 0x00, 0x00, 0x0c, 0x00, 0x00, 0x00, 0x0b, 0x00, 0x00, 0x00,
  0x01, 0x00, 0x00, 0x00, 0x22, 0x00, 0x00, 0x00, 0x01, 0x00, 0x00, 0x00,
  0x00, 0x00, 0x00, 0x00, 0x23, 0x00, 0x00, 0x00, 0x60, 0x0e, 0x00, 0x00,
  0xec, 0x0d, 0x00, 0x00, 0x78, 0x0d, 0x00, 0x00, 0x1c, 0x0d, 0x00, 0x00,
  0xc0, 0x0c, 0x00, 0x00, 0x64, 0x0c, 0x00, 0x00, 0x08, 0x0c, 0x00, 0x00,
  0xac, 0x0b, 0x00, 0x00, 0x50, 0x0b, 0x00, 0x00, 0xf4, 0x0a, 0x00, 0x00,
  0x98, 0x0a, 0x00, 0x00, 0x3c, 0x0a, 0x00, 0x00, 0xec, 0x09, 0x00, 0x00,
  0x9c, 0x09, 0x00, 0x00, 0x4c, 0x09, 0x00, 0x00, 0xfc, 0x08, 0x00, 0x00,
  0xac, 0x08, 0x00, 0x00, 0x5c, 0x08, 0x00, 0x00, 0x0c, 0x08, 0x00, 0x00,
  0xbc, 0x07, 0x00, 0x00, 0x6c, 0x07, 0x00, 0x00, 0x1c, 0x07, 0x00, 0x00,
  0xcc, 0x06, 0x00, 0x00, 0x34, 0x06, 0x00, 0x00, 0x9c, 0x05, 0x00, 0x00,
  0x04, 0x05, 0x00, 0x00, 0x6c, 0x04, 0x00, 0x00, 0xd4, 0x03, 0x00, 0x00,
  0x3c, 0x03, 0x00, 0x00, 0xa4, 0x02, 0x00, 0x00, 0x0c, 0x02, 0x00, 0x00,
  0x74, 0x01, 0x00, 0x00, 0xdc, 0x00, 0x00, 0x00, 0x60, 0x00, 0x00, 0x00,
  0x04, 0x00, 0x00, 0x00, 0x42, 0xf2, 0xff, 0xff, 0x00, 0x00, 0x00, 0x01,
  0x14, 0x00, 0x00, 0x00, 0x1c, 0x00, 0x00, 0x00, 0x1c, 0x00, 0x00, 0x00,
  0x23, 0x00, 0x00, 0x00, 0x34, 0x00, 0x00, 0x00, 0x02, 0x00, 0x00, 0x00,
  0xff, 0xff, 0xff, 0xff, 0x02, 0x00, 0x00, 0x00, 0x2c, 0xf2, 0xff, 0xff,
  0x19, 0x00, 0x00, 0x00, 0x53, 0x74, 0x61, 0x74, 0x65, 0x66, 0x75, 0x6c,
  0x50, 0x61, 0x72, 0x74, 0x69, 0x74, 0x69, 0x6f, 0x6e, 0x65, 0x64, 0x43,
  0x61, 0x6c, 0x6c, 0x3a, 0x30, 0x00, 0x00, 0x00, 0x02, 0x00, 0x00, 0x00,
  0x01, 0x00, 0x00, 0x00, 0x02, 0x00, 0x00, 0x00, 0x9a, 0xf2, 0xff, 0xff,
  0x00, 0x00, 0x00, 0x01, 0x14, 0x00, 0x00, 0x00, 0x1c, 0x00, 0x00, 0x00,
  0x1c, 0x00, 0x00, 0x00, 0x22, 0x00, 0x00, 0x00, 0x54, 0x00, 0x00, 0x00,
  0x02, 0x00, 0x00, 0x00, 0xff, 0xff, 0xff, 0xff, 0x02, 0x00, 0x00, 0x00,
  0x84, 0xf2, 0xff, 0xff, 0x3a, 0x00, 0x00, 0x00, 0x73, 0x65, 0x71, 0x75,
  0x65, 0x6e, 0x74, 0x69, 0x61, 0x6c, 0x5f, 0x38, 0x2f, 0x64, 0x65, 0x6e,
  0x73, 0x65, 0x5f, 0x34, 0x36, 0x2f, 0x4d, 0x61, 0x74, 0x4d, 0x75, 0x6c,
  0x3b, 0x73, 0x65, 0x71, 0x75, 0x65, 0x6e, 0x74, 0x69, 0x61, 0x6c, 0x5f,
  0x38, 0x2f, 0x64, 0x65, 0x6e, 0x73, 0x65, 0x5f, 0x34, 0x36, 0x2f, 0x42,
  0x69, 0x61, 0x73, 0x41, 0x64, 0x64, 0x00, 0x00, 0x02, 0x00, 0x00, 0x00,
  0x01, 0x00, 0x00, 0x00, 0x02, 0x00, 0x00, 0x00, 0x12, 0xf3, 0xff, 0xff,
  0x00, 0x00, 0x00, 0x01, 0x14, 0x00, 0x00, 0x00, 0x1c, 0x00, 0x00, 0x00,
  0x1c, 0x00, 0x00, 0x00, 0x21, 0x00, 0x00, 0x00, 0x70, 0x00, 0x00, 0x00,
  0x02, 0x00, 0x00, 0x00, 0xff, 0xff, 0xff, 0xff, 0x0a, 0x00, 0x00, 0x00,
  0xfc, 0xf2, 0xff, 0xff, 0x55, 0x00, 0x00, 0x00, 0x73, 0x65, 0x71, 0x75,
  0x65, 0x6e, 0x74, 0x69, 0x61, 0x6c, 0x5f, 0x38, 0x2f, 0x64, 0x65, 0x6e,
  0x73, 0x65, 0x5f, 0x34, 0x35, 0x2f, 0x4d, 0x61, 0x74, 0x4d, 0x75, 0x6c,
  0x3b, 0x73, 0x65, 0x71, 0x75, 0x65, 0x6e, 0x74, 0x69, 0x61, 0x6c, 0x5f,
  0x38, 0x2f, 0x64, 0x65, 0x6e, 0x73, 0x65, 0x5f, 0x34, 0x35, 0x2f, 0x52,
  0x65, 0x6c, 0x75, 0x3b, 0x73, 0x65, 0x71, 0x75, 0x65, 0x6e, 0x74, 0x69,
  0x61, 0x6c, 0x5f, 0x38, 0x2f, 0x64, 0x65, 0x6e, 0x73, 0x65, 0x5f, 0x34,
  0x35, 0x2f, 0x42, 0x69, 0x61, 0x73, 0x41, 0x64, 0x64, 0x00, 0x00, 0x00,
  0x02, 0x00, 0x00, 0x00, 0x01, 0x00, 0x00, 0x00, 0x0a, 0x00, 0x00, 0x00,
  0xa6, 0xf3, 0xff, 0xff, 0x00, 0x00, 0x00, 0x01, 0x14, 0x00, 0x00, 0x00,
  0x1c, 0x00, 0x00, 0x00, 0x1c, 0x00, 0x00, 0x00, 0x20, 0x00, 0x00, 0x00,
  0x70, 0x00, 0x00, 0x00, 0x02, 0x00, 0x00, 0x00, 0xff, 0xff, 0xff, 0xff,
  0x0a, 0x00, 0x00, 0x00, 0x90, 0xf3, 0xff, 0xff, 0x55, 0x00, 0x00, 0x00,
  0x73, 0x65, 0x71, 0x75, 0x65, 0x6e, 0x74, 0x69, 0x61, 0x6c, 0x5f, 0x38,
  0x2f, 0x64, 0x65, 0x6e, 0x73, 0x65, 0x5f, 0x34, 0x34, 0x2f, 0x4d, 0x61,
  0x74, 0x4d, 0x75, 0x6c, 0x3b, 0x73, 0x65, 0x71, 0x75, 0x65, 0x6e, 0x74,
  0x69, 0x61, 0x6c, 0x5f, 0x38, 0x2f, 0x64, 0x65, 0x6e, 0x73, 0x65, 0x5f,
  0x34, 0x34, 0x2f, 0x52, 0x65, 0x6c, 0x75, 0x3b, 0x73, 0x65, 0x71, 0x75,
  0x65, 0x6e, 0x74, 0x69, 0x61, 0x6c, 0x5f, 0x38, 0x2f, 0x64, 0x65, 0x6e,
  0x73, 0x65, 0x5f, 0x34, 0x34, 0x2f, 0x42, 0x69, 0x61, 0x73, 0x41, 0x64,
  0x64, 0x00, 0x00, 0x00, 0x02, 0x00, 0x00, 0x00, 0x01, 0x00, 0x00, 0x00,
  0x0a, 0x00, 0x00, 0x00, 0x3a, 0xf4, 0xff, 0xff, 0x00, 0x00, 0x00, 0x01,
  0x14, 0x00, 0x00, 0x00, 0x1c, 0x00, 0x00, 0x00, 0x1c, 0x00, 0x00, 0x00,
  0x1f, 0x00, 0x00, 0x00, 0x70, 0x00, 0x00, 0x00, 0x02, 0x00, 0x00, 0x00,
  0xff, 0xff, 0xff, 0xff, 0x0a, 0x00, 0x00, 0x00, 0x24, 0xf4, 0xff, 0xff,
  0x55, 0x00, 0x00, 0x00, 0x73, 0x65, 0x71, 0x75, 0x65, 0x6e, 0x74, 0x69,
  0x61, 0x6c, 0x5f, 0x38, 0x2f, 0x64, 0x65, 0x6e, 0x73, 0x65, 0x5f, 0x34,
  0x33, 0x2f, 0x4d, 0x61, 0x74, 0x4d, 0x75, 0x6c, 0x3b, 0x73, 0x65, 0x71,
  0x75, 0x65, 0x6e, 0x74, 0x69, 0x61, 0x6c, 0x5f, 0x38, 0x2f, 0x64, 0x65,
  0x6e, 0x73, 0x65, 0x5f, 0x34, 0x33, 0x2f, 0x52, 0x65, 0x6c, 0x75, 0x3b,
  0x73, 0x65, 0x71, 0x75, 0x65, 0x6e, 0x74, 0x69, 0x61, 0x6c, 0x5f, 0x38,
  0x2f, 0x64, 0x65, 0x6e, 0x73, 0x65, 0x5f, 0x34, 0x33, 0x2f, 0x42, 0x69,
  0x61, 0x73, 0x41, 0x64, 0x64, 0x00, 0x00, 0x00, 0x02, 0x00, 0x00, 0x00,
  0x01, 0x00, 0x00, 0x00, 0x0a, 0x00, 0x00, 0x00, 0xce, 0xf4, 0xff, 0xff,
  0x00, 0x00, 0x00, 0x01, 0x14, 0x00, 0x00, 0x00, 0x1c, 0x00, 0x00, 0x00,
  0x1c, 0x00, 0x00, 0x00, 0x1e, 0x00, 0x00, 0x00, 0x70, 0x00, 0x00, 0x00,
  0x02, 0x00, 0x00, 0x00, 0xff, 0xff, 0xff, 0xff, 0x0a, 0x00, 0x00, 0x00,
  0xb8, 0xf4, 0xff, 0xff, 0x55, 0x00, 0x00, 0x00, 0x73, 0x65, 0x71, 0x75,
  0x65, 0x6e, 0x74, 0x69, 0x61, 0x6c, 0x5f, 0x38, 0x2f, 0x64, 0x65, 0x6e,
  0x73, 0x65, 0x5f, 0x34, 0x32, 0x2f, 0x4d, 0x61, 0x74, 0x4d, 0x75, 0x6c,
  0x3b, 0x73, 0x65, 0x71, 0x75, 0x65, 0x6e, 0x74, 0x69, 0x61, 0x6c, 0x5f,
  0x38, 0x2f, 0x64, 0x65, 0x6e, 0x73, 0x65, 0x5f, 0x34, 0x32, 0x2f, 0x52,
  0x65, 0x6c, 0x75, 0x3b, 0x73, 0x65, 0x71, 0x75, 0x65, 0x6e, 0x74, 0x69,
  0x61, 0x6c, 0x5f, 0x38, 0x2f, 0x64, 0x65, 0x6e, 0x73, 0x65, 0x5f, 0x34,
  0x32, 0x2f, 0x42, 0x69, 0x61, 0x73, 0x41, 0x64, 0x64, 0x00, 0x00, 0x00,
  0x02, 0x00, 0x00, 0x00, 0x01, 0x00, 0x00, 0x00, 0x0a, 0x00, 0x00, 0x00,
  0x62, 0xf5, 0xff, 0xff, 0x00, 0x00, 0x00, 0x01, 0x14, 0x00, 0x00, 0x00,
  0x1c, 0x00, 0x00, 0x00, 0x1c, 0x00, 0x00, 0x00, 0x1d, 0x00, 0x00, 0x00,
  0x70, 0x00, 0x00, 0x00, 0x02, 0x00, 0x00, 0x00, 0xff, 0xff, 0xff, 0xff,
  0x0a, 0x00, 0x00, 0x00, 0x4c, 0xf5, 0xff, 0xff, 0x55, 0x00, 0x00, 0x00,
  0x73, 0x65, 0x71, 0x75, 0x65, 0x6e, 0x74, 0x69, 0x61, 0x6c, 0x5f, 0x38,
  0x2f, 0x64, 0x65, 0x6e, 0x73, 0x65, 0x5f, 0x34, 0x31, 0x2f, 0x4d, 0x61,
  0x74, 0x4d, 0x75, 0x6c, 0x3b, 0x73, 0x65, 0x71, 0x75, 0x65, 0x6e, 0x74,
  0x69, 0x61, 0x6c, 0x5f, 0x38, 0x2f, 0x64, 0x65, 0x6e, 0x73, 0x65, 0x5f,
  0x34, 0x31, 0x2f, 0x52, 0x65, 0x6c, 0x75, 0x3b, 0x73, 0x65, 0x71, 0x75,
  0x65, 0x6e, 0x74, 0x69, 0x61, 0x6c, 0x5f, 0x38, 0x2f, 0x64, 0x65, 0x6e,
  0x73, 0x65, 0x5f, 0x34, 0x31, 0x2f, 0x42, 0x69, 0x61, 0x73, 0x41, 0x64,
  0x64, 0x00, 0x00, 0x00, 0x02, 0x00, 0x00, 0x00, 0x01, 0x00, 0x00, 0x00,
  0x0a, 0x00, 0x00, 0x00, 0xf6, 0xf5, 0xff, 0xff, 0x00, 0x00, 0x00, 0x01,
  0x14, 0x00, 0x00, 0x00, 0x1c, 0x00, 0x00, 0x00, 0x1c, 0x00, 0x00, 0x00,
  0x1c, 0x00, 0x00, 0x00, 0x70, 0x00, 0x00, 0x00, 0x02, 0x00, 0x00, 0x00,
  0xff, 0xff, 0xff, 0xff, 0x0a, 0x00, 0x00, 0x00, 0xe0, 0xf5, 0xff, 0xff,
  0x55, 0x00, 0x00, 0x00, 0x73, 0x65, 0x71, 0x75, 0x65, 0x6e, 0x74, 0x69,
  0x61, 0x6c, 0x5f, 0x38, 0x2f, 0x64, 0x65, 0x6e, 0x73, 0x65, 0x5f, 0x34,
  0x30, 0x2f, 0x4d, 0x61, 0x74, 0x4d, 0x75, 0x6c, 0x3b, 0x73, 0x65, 0x71,
  0x75, 0x65, 0x6e, 0x74, 0x69, 0x61, 0x6c, 0x5f, 0x38, 0x2f, 0x64, 0x65,
  0x6e, 0x73, 0x65, 0x5f, 0x34, 0x30, 0x2f, 0x52, 0x65, 0x6c, 0x75, 0x3b,
  0x73, 0x65, 0x71, 0x75, 0x65, 0x6e, 0x74, 0x69, 0x61, 0x6c, 0x5f, 0x38,
  0x2f, 0x64, 0x65, 0x6e, 0x73, 0x65, 0x5f, 0x34, 0x30, 0x2f, 0x42, 0x69,
  0x61, 0x73, 0x41, 0x64, 0x64, 0x00, 0x00, 0x00, 0x02, 0x00, 0x00, 0x00,
  0x01, 0x00, 0x00, 0x00, 0x0a, 0x00, 0x00, 0x00, 0x8a, 0xf6, 0xff, 0xff,
  0x00, 0x00, 0x00, 0x01, 0x14, 0x00, 0x00, 0x00, 0x1c, 0x00, 0x00, 0x00,
  0x1c, 0x00, 0x00, 0x00, 0x1b, 0x00, 0x00, 0x00, 0x70, 0x00, 0x00, 0x00,
  0x02, 0x00, 0x00, 0x00, 0xff, 0xff, 0xff, 0xff, 0x0a, 0x00, 0x00, 0x00,
  0x74, 0xf6, 0xff, 0xff, 0x55, 0x00, 0x00, 0x00, 0x73, 0x65, 0x71, 0x75,
  0x65, 0x6e, 0x74, 0x69, 0x61, 0x6c, 0x5f, 0x38, 0x2f, 0x64, 0x65, 0x6e,
  0x73, 0x65, 0x5f, 0x33, 0x39, 0x2f, 0x4d, 0x61, 0x74, 0x4d, 0x75, 0x6c,
  0x3b, 0x73, 0x65, 0x71, 0x75, 0x65, 0x6e, 0x74, 0x69, 0x61, 0x6c, 0x5f,
  0x38, 0x2f, 0x64, 0x65, 0x6e, 0x73, 0x65, 0x5f, 0x33, 0x39, 0x2f, 0x52,
  0x65, 0x6c, 0x75, 0x3b, 0x73, 0x65, 0x71, 0x75, 0x65, 0x6e, 0x74, 0x69,
  0x61, 0x6c, 0x5f, 0x38, 0x2f, 0x64, 0x65, 0x6e, 0x73, 0x65, 0x5f, 0x33,
  0x39, 0x2f, 0x42, 0x69, 0x61, 0x73, 0x41, 0x64, 0x64, 0x00, 0x00, 0x00,
  0x02, 0x00, 0x00, 0x00, 0x01, 0x00, 0x00, 0x00, 0x0a, 0x00, 0x00, 0x00,
  0x1e, 0xf7, 0xff, 0xff, 0x00, 0x00, 0x00, 0x01, 0x14, 0x00, 0x00, 0x00,
  0x1c, 0x00, 0x00, 0x00, 0x1c, 0x00, 0x00, 0x00, 0x1a, 0x00, 0x00, 0x00,
  0x70, 0x00, 0x00, 0x00, 0x02, 0x00, 0x00, 0x00, 0xff, 0xff, 0xff, 0xff,
  0x0a, 0x00, 0x00, 0x00, 0x08, 0xf7, 0xff, 0xff, 0x55, 0x00, 0x00, 0x00,
  0x73, 0x65, 0x71, 0x75, 0x65, 0x6e, 0x74, 0x69, 0x61, 0x6c, 0x5f, 0x38,
  0x2f, 0x64, 0x65, 0x6e, 0x73, 0x65, 0x5f, 0x33, 0x38, 0x2f, 0x4d, 0x61,
  0x74, 0x4d, 0x75, 0x6c, 0x3b, 0x73, 0x65, 0x71, 0x75, 0x65, 0x6e, 0x74,
  0x69, 0x61, 0x6c, 0x5f, 0x38, 0x2f, 0x64, 0x65, 0x6e, 0x73, 0x65, 0x5f,
  0x33, 0x38, 0x2f, 0x52, 0x65, 0x6c, 0x75, 0x3b, 0x73, 0x65, 0x71, 0x75,
  0x65, 0x6e, 0x74, 0x69, 0x61, 0x6c, 0x5f, 0x38, 0x2f, 0x64, 0x65, 0x6e,
  0x73, 0x65, 0x5f, 0x33, 0x38, 0x2f, 0x42, 0x69, 0x61, 0x73, 0x41, 0x64,
  0x64, 0x00, 0x00, 0x00, 0x02, 0x00, 0x00, 0x00, 0x01, 0x00, 0x00, 0x00,
  0x0a, 0x00, 0x00, 0x00, 0xb2, 0xf7, 0xff, 0xff, 0x00, 0x00, 0x00, 0x01,
  0x14, 0x00, 0x00, 0x00, 0x1c, 0x00, 0x00, 0x00, 0x1c, 0x00, 0x00, 0x00,
  0x19, 0x00, 0x00, 0x00, 0x70, 0x00, 0x00, 0x00, 0x02, 0x00, 0x00, 0x00,
  0xff, 0xff, 0xff, 0xff, 0x0a, 0x00, 0x00, 0x00, 0x9c, 0xf7, 0xff, 0xff,
  0x55, 0x00, 0x00, 0x00, 0x73, 0x65, 0x71, 0x75, 0x65, 0x6e, 0x74, 0x69,
  0x61, 0x6c, 0x5f, 0x38, 0x2f, 0x64, 0x65, 0x6e, 0x73, 0x65, 0x5f, 0x33,
  0x37, 0x2f, 0x4d, 0x61, 0x74, 0x4d, 0x75, 0x6c, 0x3b, 0x73, 0x65, 0x71,
  0x75, 0x65, 0x6e, 0x74, 0x69, 0x61, 0x6c, 0x5f, 0x38, 0x2f, 0x64, 0x65,
  0x6e, 0x73, 0x65, 0x5f, 0x33, 0x37, 0x2f, 0x52, 0x65, 0x6c, 0x75, 0x3b,
  0x73, 0x65, 0x71, 0x75, 0x65, 0x6e, 0x74, 0x69, 0x61, 0x6c, 0x5f, 0x38,
  0x2f, 0x64, 0x65, 0x6e, 0x73, 0x65, 0x5f, 0x33, 0x37, 0x2f, 0x42, 0x69,
  0x61, 0x73, 0x41, 0x64, 0x64, 0x00, 0x00, 0x00, 0x02, 0x00, 0x00, 0x00,
  0x01, 0x00, 0x00, 0x00, 0x0a, 0x00, 0x00, 0x00, 0x46, 0xf8, 0xff, 0xff,
  0x00, 0x00, 0x00, 0x01, 0x14, 0x00, 0x00, 0x00, 0x1c, 0x00, 0x00, 0x00,
  0x1c, 0x00, 0x00, 0x00, 0x18, 0x00, 0x00, 0x00, 0x70, 0x00, 0x00, 0x00,
  0x02, 0x00, 0x00, 0x00, 0xff, 0xff, 0xff, 0xff, 0x0a, 0x00, 0x00, 0x00,
  0x30, 0xf8, 0xff, 0xff, 0x55, 0x00, 0x00, 0x00, 0x73, 0x65, 0x71, 0x75,
  0x65, 0x6e, 0x74, 0x69, 0x61, 0x6c, 0x5f, 0x38, 0x2f, 0x64, 0x65, 0x6e,
  0x73, 0x65, 0x5f, 0x33, 0x36, 0x2f, 0x4d, 0x61, 0x74, 0x4d, 0x75, 0x6c,
  0x3b, 0x73, 0x65, 0x71, 0x75, 0x65, 0x6e, 0x74, 0x69, 0x61, 0x6c, 0x5f,
  0x38, 0x2f, 0x64, 0x65, 0x6e, 0x73, 0x65, 0x5f, 0x33, 0x36, 0x2f, 0x52,
  0x65, 0x6c, 0x75, 0x3b, 0x73, 0x65, 0x71, 0x75, 0x65, 0x6e, 0x74, 0x69,
  0x61, 0x6c, 0x5f, 0x38, 0x2f, 0x64, 0x65, 0x6e, 0x73, 0x65, 0x5f, 0x33,
  0x36, 0x2f, 0x42, 0x69, 0x61, 0x73, 0x41, 0x64, 0x64, 0x00, 0x00, 0x00,
  0x02, 0x00, 0x00, 0x00, 0x01, 0x00, 0x00, 0x00, 0x0a, 0x00, 0x00, 0x00,
  0x4a, 0xf9, 0xff, 0xff, 0x00, 0x00, 0x00, 0x01, 0x10, 0x00, 0x00, 0x00,
  0x10, 0x00, 0x00, 0x00, 0x17, 0x00, 0x00, 0x00, 0x2c, 0x00, 0x00, 0x00,
  0xb4, 0xf8, 0xff, 0xff, 0x1c, 0x00, 0x00, 0x00, 0x73, 0x65, 0x71, 0x75,
  0x65, 0x6e, 0x74, 0x69, 0x61, 0x6c, 0x5f, 0x38, 0x2f, 0x64, 0x65, 0x6e,
  0x73, 0x65, 0x5f, 0x34, 0x36, 0x2f, 0x4d, 0x61, 0x74, 0x4d, 0x75, 0x6c,
  0x00, 0x00, 0x00, 0x00, 0x02, 0x00, 0x00, 0x00, 0x02, 0x00, 0x00, 0x00,
  0x0a, 0x00, 0x00, 0x00, 0x96, 0xf9, 0xff, 0xff, 0x00, 0x00, 0x00, 0x01,
  0x10, 0x00, 0x00, 0x00, 0x10, 0x00, 0x00, 0x00, 0x16, 0x00, 0x00, 0x00,
  0x2c, 0x00, 0x00, 0x00, 0x00, 0xf9, 0xff, 0xff, 0x1c, 0x00, 0x00, 0x00,
  0x73, 0x65, 0x71, 0x75, 0x65, 0x6e, 0x74, 0x69, 0x61, 0x6c, 0x5f, 0x38,
  0x2f, 0x64, 0x65, 0x6e, 0x73, 0x65, 0x5f, 0x34, 0x35, 0x2f, 0x4d, 0x61,
  0x74, 0x4d, 0x75, 0x6c, 0x00, 0x00, 0x00, 0x00, 0x02, 0x00, 0x00, 0x00,
  0x0a, 0x00, 0x00, 0x00, 0x0a, 0x00, 0x00, 0x00, 0xe2, 0xf9, 0xff, 0xff,
  0x00, 0x00, 0x00, 0x01, 0x10, 0x00, 0x00, 0x00, 0x10, 0x00, 0x00, 0x00,
  0x15, 0x00, 0x00, 0x00, 0x2c, 0x00, 0x00, 0x00, 0x4c, 0xf9, 0xff, 0xff,
  0x1c, 0x00, 0x00, 0x00, 0x73, 0x65, 0x71, 0x75, 0x65, 0x6e, 0x74, 0x69,
  0x61, 0x6c, 0x5f, 0x38, 0x2f, 0x64, 0x65, 0x6e, 0x73, 0x65, 0x5f, 0x34,
  0x34, 0x2f, 0x4d, 0x61, 0x74, 0x4d, 0x75, 0x6c, 0x00, 0x00, 0x00, 0x00,
  0x02, 0x00, 0x00, 0x00, 0x0a, 0x00, 0x00, 0x00, 0x0a, 0x00, 0x00, 0x00,
  0x2e, 0xfa, 0xff, 0xff, 0x00, 0x00, 0x00, 0x01, 0x10, 0x00, 0x00, 0x00,
  0x10, 0x00, 0x00, 0x00, 0x14, 0x00, 0x00, 0x00, 0x2c, 0x00, 0x00, 0x00,
  0x98, 0xf9, 0xff, 0xff, 0x1c, 0x00, 0x00, 0x00, 0x73, 0x65, 0x71, 0x75,
  0x65, 0x6e, 0x74, 0x69, 0x61, 0x6c, 0x5f, 0x38, 0x2f, 0x64, 0x65, 0x6e,
  0x73, 0x65, 0x5f, 0x34, 0x33, 0x2f, 0x4d, 0x61, 0x74, 0x4d, 0x75, 0x6c,
  0x00, 0x00, 0x00, 0x00, 0x02, 0x00, 0x00, 0x00, 0x0a, 0x00, 0x00, 0x00,
  0x0a, 0x00, 0x00, 0x00, 0x7a, 0xfa, 0xff, 0xff, 0x00, 0x00, 0x00, 0x01,
  0x10, 0x00, 0x00, 0x00, 0x10, 0x00, 0x00, 0x00, 0x13, 0x00, 0x00, 0x00,
  0x2c, 0x00, 0x00, 0x00, 0xe4, 0xf9, 0xff, 0xff, 0x1c, 0x00, 0x00, 0x00,
  0x73, 0x65, 0x71, 0x75, 0x65, 0x6e, 0x74, 0x69, 0x61, 0x6c, 0x5f, 0x38,
  0x2f, 0x64, 0x65, 0x6e, 0x73, 0x65, 0x5f, 0x34, 0x32, 0x2f, 0x4d, 0x61,
  0x74, 0x4d, 0x75, 0x6c, 0x00, 0x00, 0x00, 0x00, 0x02, 0x00, 0x00, 0x00,
  0x0a, 0x00, 0x00, 0x00, 0x0a, 0x00, 0x00, 0x00, 0xc6, 0xfa, 0xff, 0xff,
  0x00, 0x00, 0x00, 0x01, 0x10, 0x00, 0x00, 0x00, 0x10, 0x00, 0x00, 0x00,
  0x12, 0x00, 0x00, 0x00, 0x2c, 0x00, 0x00, 0x00, 0x30, 0xfa, 0xff, 0xff,
  0x1c, 0x00, 0x00, 0x00, 0x73, 0x65, 0x71, 0x75, 0x65, 0x6e, 0x74, 0x69,
  0x61, 0x6c, 0x5f, 0x38, 0x2f, 0x64, 0x65, 0x6e, 0x73, 0x65, 0x5f, 0x34,
  0x31, 0x2f, 0x4d, 0x61, 0x74, 0x4d, 0x75, 0x6c, 0x00, 0x00, 0x00, 0x00,
  0x02, 0x00, 0x00, 0x00, 0x0a, 0x00, 0x00, 0x00, 0x0a, 0x00, 0x00, 0x00,
  0x12, 0xfb, 0xff, 0xff, 0x00, 0x00, 0x00, 0x01, 0x10, 0x00, 0x00, 0x00,
  0x10, 0x00, 0x00, 0x00, 0x11, 0x00, 0x00, 0x00, 0x2c, 0x00, 0x00, 0x00,
  0x7c, 0xfa, 0xff, 0xff, 0x1c, 0x00, 0x00, 0x00, 0x73, 0x65, 0x71, 0x75,
  0x65, 0x6e, 0x74, 0x69, 0x61, 0x6c, 0x5f, 0x38, 0x2f, 0x64, 0x65, 0x6e,
  0x73, 0x65, 0x5f, 0x34, 0x30, 0x2f, 0x4d, 0x61, 0x74, 0x4d, 0x75, 0x6c,
  0x00, 0x00, 0x00, 0x00, 0x02, 0x00, 0x00, 0x00, 0x0a, 0x00, 0x00, 0x00,
  0x0a, 0x00, 0x00, 0x00, 0x5e, 0xfb, 0xff, 0xff, 0x00, 0x00, 0x00, 0x01,
  0x10, 0x00, 0x00, 0x00, 0x10, 0x00, 0x00, 0x00, 0x10, 0x00, 0x00, 0x00,
  0x2c, 0x00, 0x00, 0x00, 0xc8, 0xfa, 0xff, 0xff, 0x1c, 0x00, 0x00, 0x00,
  0x73, 0x65, 0x71, 0x75, 0x65, 0x6e, 0x74, 0x69, 0x61, 0x6c, 0x5f, 0x38,
  0x2f, 0x64, 0x65, 0x6e, 0x73, 0x65, 0x5f, 0x33, 0x39, 0x2f, 0x4d, 0x61,
  0x74, 0x4d, 0x75, 0x6c, 0x00, 0x00, 0x00, 0x00, 0x02, 0x00, 0x00, 0x00,
  0x0a, 0x00, 0x00, 0x00, 0x0a, 0x00, 0x00, 0x00, 0xaa, 0xfb, 0xff, 0xff,
  0x00, 0x00, 0x00, 0x01, 0x10, 0x00, 0x00, 0x00, 0x10, 0x00, 0x00, 0x00,
  0x0f, 0x00, 0x00, 0x00, 0x2c, 0x00, 0x00, 0x00, 0x14, 0xfb, 0xff, 0xff,
  0x1c, 0x00, 0x00, 0x00, 0x73, 0x65, 0x71, 0x75, 0x65, 0x6e, 0x74, 0x69,
  0x61, 0x6c, 0x5f, 0x38, 0x2f, 0x64, 0x65, 0x6e, 0x73, 0x65, 0x5f, 0x33,
  0x38, 0x2f, 0x4d, 0x61, 0x74, 0x4d, 0x75, 0x6c, 0x00, 0x00, 0x00, 0x00,
  0x02, 0x00, 0x00, 0x00, 0x0a, 0x00, 0x00, 0x00, 0x0a, 0x00, 0x00, 0x00,
  0xf6, 0xfb, 0xff, 0xff, 0x00, 0x00, 0x00, 0x01, 0x10, 0x00, 0x00, 0x00,
  0x10, 0x00, 0x00, 0x00, 0x0e, 0x00, 0x00, 0x00, 0x2c, 0x00, 0x00, 0x00,
  0x60, 0xfb, 0xff, 0xff, 0x1c, 0x00, 0x00, 0x00, 0x73, 0x65, 0x71, 0x75,
  0x65, 0x6e, 0x74, 0x69, 0x61, 0x6c, 0x5f, 0x38, 0x2f, 0x64, 0x65, 0x6e,
  0x73, 0x65, 0x5f, 0x33, 0x37, 0x2f, 0x4d, 0x61, 0x74, 0x4d, 0x75, 0x6c,
  0x00, 0x00, 0x00, 0x00, 0x02, 0x00, 0x00, 0x00, 0x0a, 0x00, 0x00, 0x00,
  0x0a, 0x00, 0x00, 0x00, 0x42, 0xfc, 0xff, 0xff, 0x00, 0x00, 0x00, 0x01,
  0x10, 0x00, 0x00, 0x00, 0x10, 0x00, 0x00, 0x00, 0x0d, 0x00, 0x00, 0x00,
  0x2c, 0x00, 0x00, 0x00, 0xac, 0xfb, 0xff, 0xff, 0x1c, 0x00, 0x00, 0x00,
  0x73, 0x65, 0x71, 0x75, 0x65, 0x6e, 0x74, 0x69, 0x61, 0x6c, 0x5f, 0x38,
  0x2f, 0x64, 0x65, 0x6e, 0x73, 0x65, 0x5f, 0x33, 0x36, 0x2f, 0x4d, 0x61,
  0x74, 0x4d, 0x75, 0x6c, 0x00, 0x00, 0x00, 0x00, 0x02, 0x00, 0x00, 0x00,
  0x0a, 0x00, 0x00, 0x00, 0x1e, 0x00, 0x00, 0x00, 0x8e, 0xfc, 0xff, 0xff,
  0x00, 0x00, 0x00, 0x01, 0x10, 0x00, 0x00, 0x00, 0x10, 0x00, 0x00, 0x00,
  0x0c, 0x00, 0x00, 0x00, 0x3c, 0x00, 0x00, 0x00, 0xf8, 0xfb, 0xff, 0xff,
  0x2c, 0x00, 0x00, 0x00, 0x73, 0x65, 0x71, 0x75, 0x65, 0x6e, 0x74, 0x69,
  0x61, 0x6c, 0x5f, 0x38, 0x2f, 0x64, 0x65, 0x6e, 0x73, 0x65, 0x5f, 0x33,
  0x36, 0x2f, 0x42, 0x69, 0x61, 0x73, 0x41, 0x64, 0x64, 0x2f, 0x52, 0x65,
  0x61, 0x64, 0x56, 0x61, 0x72, 0x69, 0x61, 0x62, 0x6c, 0x65, 0x4f, 0x70,
  0x00, 0x00, 0x00, 0x00, 0x01, 0x00, 0x00, 0x00, 0x0a, 0x00, 0x00, 0x00,
  0xe6, 0xfc, 0xff, 0xff, 0x00, 0x00, 0x00, 0x01, 0x10, 0x00, 0x00, 0x00,
  0x10, 0x00, 0x00, 0x00, 0x0b, 0x00, 0x00, 0x00, 0x3c, 0x00, 0x00, 0x00,
  0x50, 0xfc, 0xff, 0xff, 0x2c, 0x00, 0x00, 0x00, 0x73, 0x65, 0x71, 0x75,
  0x65, 0x6e, 0x74, 0x69, 0x61, 0x6c, 0x5f, 0x38, 0x2f, 0x64, 0x65, 0x6e,
  0x73, 0x65, 0x5f, 0x33, 0x37, 0x2f, 0x42, 0x69, 0x61, 0x73, 0x41, 0x64,
  0x64, 0x2f, 0x52, 0x65, 0x61, 0x64, 0x56, 0x61, 0x72, 0x69, 0x61, 0x62,
  0x6c, 0x65, 0x4f, 0x70, 0x00, 0x00, 0x00, 0x00, 0x01, 0x00, 0x00, 0x00,
  0x0a, 0x00, 0x00, 0x00, 0x3e, 0xfd, 0xff, 0xff, 0x00, 0x00, 0x00, 0x01,
  0x10, 0x00, 0x00, 0x00, 0x10, 0x00, 0x00, 0x00, 0x0a, 0x00, 0x00, 0x00,
  0x3c, 0x00, 0x00, 0x00, 0xa8, 0xfc, 0xff, 0xff, 0x2c, 0x00, 0x00, 0x00,
  0x73, 0x65, 0x71, 0x75, 0x65, 0x6e, 0x74, 0x69, 0x61, 0x6c, 0x5f, 0x38,
  0x2f, 0x64, 0x65, 0x6e, 0x73, 0x65, 0x5f, 0x33, 0x38, 0x2f, 0x42, 0x69,
  0x61, 0x73, 0x41, 0x64, 0x64, 0x2f, 0x52, 0x65, 0x61, 0x64, 0x56, 0x61,
  0x72, 0x69, 0x61, 0x62, 0x6c, 0x65, 0x4f, 0x70, 0x00, 0x00, 0x00, 0x00,
  0x01, 0x00, 0x00, 0x00, 0x0a, 0x00, 0x00, 0x00, 0x96, 0xfd, 0xff, 0xff,
  0x00, 0x00, 0x00, 0x01, 0x10, 0x00, 0x00, 0x00, 0x10, 0x00, 0x00, 0x00,
  0x09, 0x00, 0x00, 0x00, 0x3c, 0x00, 0x00, 0x00, 0x00, 0xfd, 0xff, 0xff,
  0x2c, 0x00, 0x00, 0x00, 0x73, 0x65, 0x71, 0x75, 0x65, 0x6e, 0x74, 0x69,
  0x61, 0x6c, 0x5f, 0x38, 0x2f, 0x64, 0x65, 0x6e, 0x73, 0x65, 0x5f, 0x33,
  0x39, 0x2f, 0x42, 0x69, 0x61, 0x73, 0x41, 0x64, 0x64, 0x2f, 0x52, 0x65,
  0x61, 0x64, 0x56, 0x61, 0x72, 0x69, 0x61, 0x62, 0x6c, 0x65, 0x4f, 0x70,
  0x00, 0x00, 0x00, 0x00, 0x01, 0x00, 0x00, 0x00, 0x0a, 0x00, 0x00, 0x00,
  0xee, 0xfd, 0xff, 0xff, 0x00, 0x00, 0x00, 0x01, 0x10, 0x00, 0x00, 0x00,
  0x10, 0x00, 0x00, 0x00, 0x08, 0x00, 0x00, 0x00, 0x3c, 0x00, 0x00, 0x00,
  0x58, 0xfd, 0xff, 0xff, 0x2c, 0x00, 0x00, 0x00, 0x73, 0x65, 0x71, 0x75,
  0x65, 0x6e, 0x74, 0x69, 0x61, 0x6c, 0x5f, 0x38, 0x2f, 0x64, 0x65, 0x6e,
  0x73, 0x65, 0x5f, 0x34, 0x30, 0x2f, 0x42, 0x69, 0x61, 0x73, 0x41, 0x64,
  0x64, 0x2f, 0x52, 0x65, 0x61, 0x64, 0x56, 0x61, 0x72, 0x69, 0x61, 0x62,
  0x6c, 0x65, 0x4f, 0x70, 0x00, 0x00, 0x00, 0x00, 0x01, 0x00, 0x00, 0x00,
  0x0a, 0x00, 0x00, 0x00, 0x46, 0xfe, 0xff, 0xff, 0x00, 0x00, 0x00, 0x01,
  0x10, 0x00, 0x00, 0x00, 0x10, 0x00, 0x00, 0x00, 0x07, 0x00, 0x00, 0x00,
  0x3c, 0x00, 0x00, 0x00, 0xb0, 0xfd, 0xff, 0xff, 0x2c, 0x00, 0x00, 0x00,
  0x73, 0x65, 0x71, 0x75, 0x65, 0x6e, 0x74, 0x69, 0x61, 0x6c, 0x5f, 0x38,
  0x2f, 0x64, 0x65, 0x6e, 0x73, 0x65, 0x5f, 0x34, 0x31, 0x2f, 0x42, 0x69,
  0x61, 0x73, 0x41, 0x64, 0x64, 0x2f, 0x52, 0x65, 0x61, 0x64, 0x56, 0x61,
  0x72, 0x69, 0x61, 0x62, 0x6c, 0x65, 0x4f, 0x70, 0x00, 0x00, 0x00, 0x00,
  0x01, 0x00, 0x00, 0x00, 0x0a, 0x00, 0x00, 0x00, 0x9e, 0xfe, 0xff, 0xff,
  0x00, 0x00, 0x00, 0x01, 0x10, 0x00, 0x00, 0x00, 0x10, 0x00, 0x00, 0x00,
  0x06, 0x00, 0x00, 0x00, 0x3c, 0x00, 0x00, 0x00, 0x08, 0xfe, 0xff, 0xff,
  0x2c, 0x00, 0x00, 0x00, 0x73, 0x65, 0x71, 0x75, 0x65, 0x6e, 0x74, 0x69,
  0x61, 0x6c, 0x5f, 0x38, 0x2f, 0x64, 0x65, 0x6e, 0x73, 0x65, 0x5f, 0x34,
  0x32, 0x2f, 0x42, 0x69, 0x61, 0x73, 0x41, 0x64, 0x64, 0x2f, 0x52, 0x65,
  0x61, 0x64, 0x56, 0x61, 0x72, 0x69, 0x61, 0x62, 0x6c, 0x65, 0x4f, 0x70,
  0x00, 0x00, 0x00, 0x00, 0x01, 0x00, 0x00, 0x00, 0x0a, 0x00, 0x00, 0x00,
  0xf6, 0xfe, 0xff, 0xff, 0x00, 0x00, 0x00, 0x01, 0x10, 0x00, 0x00, 0x00,
  0x10, 0x00, 0x00, 0x00, 0x05, 0x00, 0x00, 0x00, 0x3c, 0x00, 0x00, 0x00,
  0x60, 0xfe, 0xff, 0xff, 0x2c, 0x00, 0x00, 0x00, 0x73, 0x65, 0x71, 0x75,
  0x65, 0x6e, 0x74, 0x69, 0x61, 0x6c, 0x5f, 0x38, 0x2f, 0x64, 0x65, 0x6e,
  0x73, 0x65, 0x5f, 0x34, 0x33, 0x2f, 0x42, 0x69, 0x61, 0x73, 0x41, 0x64,
  0x64, 0x2f, 0x52, 0x65, 0x61, 0x64, 0x56, 0x61, 0x72, 0x69, 0x61, 0x62,
  0x6c, 0x65, 0x4f, 0x70, 0x00, 0x00, 0x00, 0x00, 0x01, 0x00, 0x00, 0x00,
  0x0a, 0x00, 0x00, 0x00, 0x4e, 0xff, 0xff, 0xff, 0x00, 0x00, 0x00, 0x01,
  0x10, 0x00, 0x00, 0x00, 0x10, 0x00, 0x00, 0x00, 0x04, 0x00, 0x00, 0x00,
  0x3c, 0x00, 0x00, 0x00, 0xb8, 0xfe, 0xff, 0xff, 0x2c, 0x00, 0x00, 0x00,
  0x73, 0x65, 0x71, 0x75, 0x65, 0x6e, 0x74, 0x69, 0x61, 0x6c, 0x5f, 0x38,
  0x2f, 0x64, 0x65, 0x6e, 0x73, 0x65, 0x5f, 0x34, 0x34, 0x2f, 0x42, 0x69,
  0x61, 0x73, 0x41, 0x64, 0x64, 0x2f, 0x52, 0x65, 0x61, 0x64, 0x56, 0x61,
  0x72, 0x69, 0x61, 0x62, 0x6c, 0x65, 0x4f, 0x70, 0x00, 0x00, 0x00, 0x00,
  0x01, 0x00, 0x00, 0x00, 0x0a, 0x00, 0x00, 0x00, 0xa6, 0xff, 0xff, 0xff,
  0x00, 0x00, 0x00, 0x01, 0x10, 0x00, 0x00, 0x00, 0x10, 0x00, 0x00, 0x00,
  0x03, 0x00, 0x00, 0x00, 0x3c, 0x00, 0x00, 0x00, 0x10, 0xff, 0xff, 0xff,
  0x2c, 0x00, 0x00, 0x00, 0x73, 0x65, 0x71, 0x75, 0x65, 0x6e, 0x74, 0x69,
  0x61, 0x6c, 0x5f, 0x38, 0x2f, 0x64, 0x65, 0x6e, 0x73, 0x65, 0x5f, 0x34,
  0x35, 0x2f, 0x42, 0x69, 0x61, 0x73, 0x41, 0x64, 0x64, 0x2f, 0x52, 0x65,
  0x61, 0x64, 0x56, 0x61, 0x72, 0x69, 0x61, 0x62, 0x6c, 0x65, 0x4f, 0x70,
  0x00, 0x00, 0x00, 0x00, 0x01, 0x00, 0x00, 0x00, 0x0a, 0x00, 0x00, 0x00,
  0x00, 0x00, 0x16, 0x00, 0x18, 0x00, 0x14, 0x00, 0x00, 0x00, 0x10, 0x00,
  0x0c, 0x00, 0x08, 0x00, 0x00, 0x00, 0x00, 0x00, 0x00, 0x00, 0x07, 0x00,
  0x16, 0x00, 0x00, 0x00, 0x00, 0x00, 0x00, 0x01, 0x10, 0x00, 0x00, 0x00,
  0x10, 0x00, 0x00, 0x00, 0x02, 0x00, 0x00, 0x00, 0x3c, 0x00, 0x00, 0x00,
  0x80, 0xff, 0xff, 0xff, 0x2c, 0x00, 0x00, 0x00, 0x73, 0x65, 0x71, 0x75,
  0x65, 0x6e, 0x74, 0x69, 0x61, 0x6c, 0x5f, 0x38, 0x2f, 0x64, 0x65, 0x6e,
  0x73, 0x65, 0x5f, 0x34, 0x36, 0x2f, 0x42, 0x69, 0x61, 0x73, 0x41, 0x64,
  0x64, 0x2f, 0x52, 0x65, 0x61, 0x64, 0x56, 0x61, 0x72, 0x69, 0x61, 0x62,
  0x6c, 0x65, 0x4f, 0x70, 0x00, 0x00, 0x00, 0x00, 0x01, 0x00, 0x00, 0x00,
  0x02, 0x00, 0x00, 0x00, 0x00, 0x00, 0x16, 0x00, 0x1c, 0x00, 0x18, 0x00,
  0x00, 0x00, 0x14, 0x00, 0x10, 0x00, 0x0c, 0x00, 0x00, 0x00, 0x00, 0x00,
  0x08, 0x00, 0x07, 0x00, 0x16, 0x00, 0x00, 0x00, 0x00, 0x00, 0x00, 0x01,
  0x14, 0x00, 0x00, 0x00, 0x20, 0x00, 0x00, 0x00, 0x20, 0x00, 0x00, 0x00,
  0x01, 0x00, 0x00, 0x00, 0x40, 0x00, 0x00, 0x00, 0x02, 0x00, 0x00, 0x00,
  0xff, 0xff, 0xff, 0xff, 0x1e, 0x00, 0x00, 0x00, 0x04, 0x00, 0x04, 0x00,
  0x04, 0x00, 0x00, 0x00, 0x20, 0x00, 0x00, 0x00, 0x73, 0x65, 0x72, 0x76,
  0x69, 0x6e, 0x67, 0x5f, 0x64, 0x65, 0x66, 0x61, 0x75, 0x6c, 0x74, 0x5f,
  0x64, 0x65, 0x6e, 0x73, 0x65, 0x5f, 0x33, 0x36, 0x5f, 0x69, 0x6e, 0x70,
  0x75, 0x74, 0x3a, 0x30, 0x00, 0x00, 0x00, 0x00, 0x02, 0x00, 0x00, 0x00,
  0x01, 0x00, 0x00, 0x00, 0x1e, 0x00, 0x00, 0x00, 0x02, 0x00, 0x00, 0x00,
  0x20, 0x00, 0x00, 0x00, 0x04, 0x00, 0x00, 0x00, 0xf4, 0xff, 0xff, 0xff,
  0x19, 0x00, 0x00, 0x00, 0x00, 0x00, 0x00, 0x19, 0x0c, 0x00, 0x0c, 0x00,
  0x0b, 0x00, 0x00, 0x00, 0x00, 0x00, 0x04, 0x00, 0x0c, 0x00, 0x00, 0x00,
  0x09, 0x00, 0x00, 0x00, 0x00, 0x00, 0x00, 0x09
};
unsigned int second_model_activations_tflite_len = 10820;
