unsigned char third_model_activations_tflite[] = {
  0x1c, 0x00, 0x00, 0x00, 0x54, 0x46, 0x4c, 0x33, 0x14, 0x00, 0x20, 0x00,
  0x1c, 0x00, 0x18, 0x00, 0x14, 0x00, 0x10, 0x00, 0x0c, 0x00, 0x00, 0x00,
  0x08, 0x00, 0x04, 0x00, 0x14, 0x00, 0x00, 0x00, 0x1c, 0x00, 0x00, 0x00,
  0x98, 0x00, 0x00, 0x00, 0xf0, 0x00, 0x00, 0x00, 0x14, 0x11, 0x00, 0x00,
  0x24, 0x11, 0x00, 0x00, 0x2c, 0x17, 0x00, 0x00, 0x03, 0x00, 0x00, 0x00,
  0x01, 0x00, 0x00, 0x00, 0x10, 0x00, 0x00, 0x00, 0x00, 0x00, 0x0a, 0x00,
  0x10, 0x00, 0x0c, 0x00, 0x08, 0x00, 0x04, 0x00, 0x0a, 0x00, 0x00, 0x00,
  0x0c, 0x00, 0x00, 0x00, 0x1c, 0x00, 0x00, 0x00, 0x3c, 0x00, 0x00, 0x00,
  0x0f, 0x00, 0x00, 0x00, 0x73, 0x65, 0x72, 0x76, 0x69, 0x6e, 0x67, 0x5f,
  0x64, 0x65, 0x66, 0x61, 0x75, 0x6c, 0x74, 0x00, 0x01, 0x00, 0x00, 0x00,
  0x04, 0x00, 0x00, 0x00, 0x90, 0xff, 0xff, 0xff, 0x0a, 0x00, 0x00, 0x00,
  0x04, 0x00, 0x00, 0x00, 0x08, 0x00, 0x00, 0x00, 0x64, 0x65, 0x6e, 0x73,
  0x65, 0x5f, 0x36, 0x30, 0x00, 0x00, 0x00, 0x00, 0x01, 0x00, 0x00, 0x00,
  0x04, 0x00, 0x00, 0x00, 0xd2, 0xee, 0xff, 0xff, 0x04, 0x00, 0x00, 0x00,
  0x0e, 0x00, 0x00, 0x00, 0x64, 0x65, 0x6e, 0x73, 0x65, 0x5f, 0x35, 0x38,
  0x5f, 0x69, 0x6e, 0x70, 0x75, 0x74, 0x00, 0x00, 0x02, 0x00, 0x00, 0x00,
  0x34, 0x00, 0x00, 0x00, 0x04, 0x00, 0x00, 0x00, 0xdc, 0xff, 0xff, 0xff,
  0x0d, 0x00, 0x00, 0x00, 0x04, 0x00, 0x00, 0x00, 0x13, 0x00, 0x00, 0x00,
  0x43, 0x4f, 0x4e, 0x56, 0x45, 0x52, 0x53, 0x49, 0x4f, 0x4e, 0x5f, 0x4d,
  0x45, 0x54, 0x41, 0x44, 0x41, 0x54, 0x41, 0x00, 0x08, 0x00, 0x0c, 0x00,
  0x08, 0x00, 0x04, 0x00, 0x08, 0x00, 0x00, 0x00, 0x0c, 0x00, 0x00, 0x00,
  0x04, 0x00, 0x00, 0x00, 0x13, 0x00, 0x00, 0x00, 0x6d, 0x69, 0x6e, 0x5f,
  0x72, 0x75, 0x6e, 0x74, 0x69, 0x6d, 0x65, 0x5f, 0x76, 0x65, 0x72, 0x73,
  0x69, 0x6f, 0x6e, 0x00, 0x0e, 0x00, 0x00, 0x00, 0x20, 0x10, 0x00, 0x00,
  0x18, 0x10, 0x00, 0x00, 0x00, 0x10, 0x00, 0x00, 0x28, 0x0f, 0x00, 0x00,
  0xf0, 0x0e, 0x00, 0x00, 0x30, 0x0a, 0x00, 0x00, 0x50, 0x02, 0x00, 0x00,
  0xb0, 0x00, 0x00, 0x00, 0xa8, 0x00, 0x00, 0x00, 0xa0, 0x00, 0x00, 0x00,
  0x98, 0x00, 0x00, 0x00, 0x90, 0x00, 0x00, 0x00, 0x70, 0x00, 0x00, 0x00,
  0x04, 0x00, 0x00, 0x00, 0x86, 0xef, 0xff, 0xff, 0x04, 0x00, 0x00, 0x00,
  0x5c, 0x00, 0x00, 0x00, 0x0c, 0x00, 0x00, 0x00, 0x08, 0x00, 0x0e, 0x00,
  0x08, 0x00, 0x04, 0x00, 0x08, 0x00, 0x00, 0x00, 0x14, 0x00, 0x00, 0x00,
  0x2c, 0x00, 0x00, 0x00, 0x00, 0x00, 0x0a, 0x00, 0x0c, 0x00, 0x08, 0x00,
  0x00, 0x00, 0x07, 0x00, 0x0a, 0x00, 0x00, 0x00, 0x00, 0x00, 0x00, 0x01,
  0x04, 0x00, 0x00, 0x00, 0x00, 0x00, 0x00, 0x00, 0x00, 0x00, 0x0a, 0x00,
  0x10, 0x00, 0x0c, 0x00, 0x08, 0x00, 0x04, 0x00, 0x0a, 0x00, 0x00, 0x00,
  0x01, 0x00, 0x00, 0x00, 0x02, 0x00, 0x00, 0x00, 0x04, 0x00, 0x00, 0x00,
  0x06, 0x00, 0x00, 0x00, 0x32, 0x2e, 0x31, 0x31, 0x2e, 0x30, 0x00, 0x00,
  0xee, 0xef, 0xff, 0xff, 0x04, 0x00, 0x00, 0x00, 0x10, 0x00, 0x00, 0x00,
  0x31, 0x2e, 0x35, 0x2e, 0x30, 0x00, 0x00, 0x00, 0x00, 0x00, 0x00, 0x00,
  0x00, 0x00, 0x00, 0x00, 0xb4, 0xea, 0xff, 0xff, 0xb8, 0xea, 0xff, 0xff,
  0xbc, 0xea, 0xff, 0xff, 0xc0, 0xea, 0xff, 0xff, 0x1a, 0xf0, 0xff, 0xff,
  0x04, 0x00, 0x00, 0x00, 0x90, 0x01, 0x00, 0x00, 0xda, 0x7e, 0xf3, 0x3e,
  0x46, 0x51, 0x31, 0x3f, 0xaa, 0xc6, 0x93, 0x3e, 0x48, 0x9b, 0x52, 0x3e,
  0x73, 0xfb, 0x5b, 0x3e, 0xcb, 0xb6, 0x82, 0x3d, 0xac, 0xab, 0xc2, 0xbd,
  0x81, 0xb6, 0xe3, 0xbe, 0xec, 0xd3, 0xa2, 0xbe, 0x4f, 0xf0, 0x13, 0xbe,
  0x61, 0x2a, 0x87, 0xbe, 0xaf, 0xf8, 0x99, 0xbe, 0x11, 0x46, 0x19, 0x3f,
  0x61, 0x58, 0x77, 0xbd, 0x18, 0x81, 0x2d, 0x3f, 0xe3, 0xac, 0x05, 0xbe,
  0xb8, 0x24, 0x09, 0x3e, 0xe6, 0xbc, 0x6d, 0xbe, 0x95, 0xb3, 0x5a, 0x3f,
  0x63, 0x16, 0x53, 0xbe, 0xd6, 0x9e, 0xc7, 0xbd, 0x78, 0xf6, 0x81, 0xbe,
  0x6b, 0x57, 0x96, 0xbe, 0x95, 0xe9, 0xac, 0x3d, 0xb2, 0x69, 0x40, 0x3f,
  0x36, 0x98, 0x92, 0xbe, 0x78, 0xdc, 0x80, 0x3e, 0x2a, 0x16, 0xd4, 0x3e,
  0xf6, 0xfb, 0xbb, 0xbe, 0xc2, 0xec, 0xde, 0x3c, 0x67, 0xee, 0xfd, 0x3d,
  0x77, 0x07, 0x0f, 0x3e, 0x95, 0x08, 0x2e, 0x3f, 0xf4, 0x72, 0xc9, 0xbe,
  0xc5, 0x74, 0x32, 0xbe, 0x7f, 0xe0, 0x08, 0xbe, 0xcd, 0x7b, 0x25, 0x3f,
  0xfa, 0x11, 0x78, 0xbe, 0x7d, 0xc4, 0x19, 0x3e, 0x5c, 0x48, 0x8a, 0xbd,
  0x41, 0x40, 0xbe, 0x3c, 0x75, 0xfe, 0x99, 0xbe, 0x83, 0x7f, 0x90, 0xbe,
  0x6d, 0x37, 0xd9, 0xbd, 0xf7, 0xe1, 0x97, 0x3e, 0xaf, 0xdb, 0x97, 0xbe,
  0x0a, 0x0e, 0x0e, 0xbf, 0x86, 0x01, 0x9b, 0x3e, 0x32, 0x6a, 0x18, 0xbe,
  0x90, 0x2a, 0x43, 0x3e, 0x7c, 0x78, 0x89, 0xbe, 0x71, 0xe5, 0x30, 0xbf,
  0x34, 0xd1, 0x9a, 0xbe, 0xd1, 0x07, 0x41, 0xbe, 0xaa, 0x58, 0x9b, 0x3e,
  0x75, 0x08, 0xa4, 0xbe, 0x78, 0x00, 0xa7, 0xbe, 0x42, 0x43, 0xcf, 0x3e,
  0xb0, 0x8f, 0x9d, 0xbe, 0xf5, 0xf8, 0x90, 0x3e, 0x7d, 0x0f, 0xad, 0xbe,
  0x00, 0x63, 0x8c, 0x3e, 0xdc, 0x24, 0x0c, 0xbf, 0xf4, 0xa2, 0x19, 0x3e,
  0x61, 0xf1, 0xc3, 0xbe, 0x33, 0x85, 0x72, 0xbe, 0x47, 0xb9, 0x55, 0xbe,
  0x43, 0x21, 0x24, 0x3d, 0xd4, 0x89, 0x61, 0xbf, 0x8e, 0xa6, 0xa3, 0x3e,
  0xda, 0x20, 0x00, 0xbe, 0xb0, 0x0f, 0x91, 0x3e, 0x8b, 0x5d, 0xcd, 0x3e,
  0x4b, 0xb2, 0x94, 0x3d, 0x17, 0x06, 0x4d, 0xbf, 0xd6, 0x0d, 0xc3, 0x3e,
  0xa3, 0x14, 0x2b, 0xbf, 0x0b, 0x2e, 0xeb, 0x3c, 0xcd, 0x76, 0xef, 0x3e,
  0xf9, 0x15, 0xad, 0x3d, 0xdd, 0x29, 0xd7, 0xbd, 0x35, 0xdc, 0x1a, 0xbf,
  0x27, 0xd7, 0x4f, 0xbf, 0x0d, 0x47, 0xa7, 0x3e, 0xd0, 0x96, 0xca, 0x3d,
  0x60, 0xbf, 0x4b, 0x3e, 0x99, 0xf5, 0xc0, 0xbe, 0xa5, 0x97, 0xe8, 0xbd,
  0xa2, 0x4d, 0x22, 0x3d, 0xee, 0x22, 0xc4, 0xbe, 0x3a, 0x37, 0x8f, 0xbe,
  0x3c, 0xf5, 0x88, 0x3e, 0x14, 0xcf, 0x8a, 0xbe, 0xa0, 0xa2, 0xb8, 0x3e,
  0x43, 0xf3, 0x8c, 0xbe, 0xd7, 0xda, 0x36, 0xbd, 0x0d, 0x76, 0x22, 0x3f,
  0xde, 0xc0, 0x22, 0x3e, 0x59, 0x1b, 0x53, 0xba, 0x63, 0xe8, 0x90, 0x3e,
  0xb6, 0xf1, 0xff, 0xff, 0x04, 0x00, 0x00, 0x00, 0xd0, 0x07, 0x00, 0x00,
  0x92, 0xd3, 0x90, 0xbe, 0xa7, 0x71, 0xa6, 0xbd, 0x34, 0xe9, 0xe4, 0xbc,
  0xf4, 0xb4, 0x0b, 0xbd, 0xc2, 0xe1, 0xfd, 0x3d, 0xbc, 0x51, 0x80, 0xbd,
  0xa1, 0x69, 0xef, 0x3d, 0x6d, 0x54, 0x71, 0x3d, 0xd9, 0xa7, 0xca, 0xbc,
  0x74, 0xab, 0x13, 0x3d, 0x83, 0x34, 0x14, 0xbf, 0xae, 0xe5, 0x5b, 0xbe,
  0x1b, 0x58, 0xea, 0xbc, 0x8f, 0xd7, 0xdc, 0xbd, 0x87, 0xe4, 0x98, 0x3e,
  0xe8, 0x32, 0x15, 0xbd, 0x9c, 0xfb, 0xe6, 0xba, 0xd5, 0xc9, 0x89, 0x3d,
  0x44, 0xbd, 0x21, 0xbd, 0x5e, 0x75, 0xb0, 0xbc, 0xb7, 0x35, 0xc8, 0x3c,
  0x8e, 0x17, 0x52, 0x3c, 0x38, 0x0e, 0x47, 0xbc, 0xd1, 0xa1, 0x59, 0xbd,
  0xe1, 0xc0, 0xfe, 0xbd, 0x43, 0x7a, 0x73, 0x3c, 0xc6, 0xd2, 0x74, 0x3c,
  0xdd, 0x9b, 0x2a, 0xbd, 0x8e, 0x49, 0xf8, 0xbc, 0x8d, 0xe6, 0xf6, 0x3b,
  0x36, 0x5d, 0x00, 0xbc, 0x8d, 0x83, 0x2c, 0x3c, 0xc6, 0x88, 0x91, 0xbd,
  0x08, 0x3a, 0x58, 0x39, 0x18, 0x5d, 0x3d, 0x3e, 0x8e, 0x20, 0x2e, 0xbd,
  0xbd, 0x22, 0x59, 0xbc, 0xb3, 0xc6, 0xff, 0x3c, 0x38, 0x90, 0xaf, 0xbd,
  0xef, 0x22, 0x21, 0x3d, 0xaa, 0x01, 0x90, 0x3d, 0x74, 0xef, 0x2b, 0x3d,
  0x3b, 0xc1, 0x25, 0xbd, 0xa5, 0x24, 0x81, 0x3d, 0xc7, 0x18, 0x5a, 0x3d,
  0x62, 0xe7, 0x42, 0xbc, 0x2e, 0x10, 0x0d, 0x3d, 0xf1, 0x9d, 0x82, 0xbc,
  0x23, 0xca, 0x07, 0x3d, 0xec, 0x8a, 0xed, 0xbc, 0xdf, 0xd0, 0x2b, 0xbe,
  0xc2, 0x8d, 0x8b, 0xbd, 0xd3, 0x88, 0x0d, 0xbd, 0x89, 0x76, 0x8b, 0xbc,
  0xf1, 0x8c, 0x98, 0x3d, 0xec, 0xa3, 0x8e, 0x3d, 0xcf, 0x09, 0xe6, 0xbc,
  0x2b, 0xd1, 0x8b, 0x3c, 0xa6, 0x73, 0x9e, 0xbd, 0x67, 0xb1, 0x8a, 0x3d,
  0x59, 0x83, 0xb0, 0x3c, 0xec, 0xb5, 0x12, 0x3c, 0x0b, 0xab, 0x47, 0xbd,
  0x7a, 0xc0, 0x45, 0x3d, 0x66, 0xc0, 0x2c, 0xbd, 0x39, 0x29, 0x70, 0x3d,
  0x10, 0x0b, 0x28, 0xbe, 0x5d, 0x0b, 0xf1, 0xbc, 0xf0, 0x28, 0x06, 0xbe,
  0x01, 0x0e, 0xf3, 0x3b, 0xf8, 0x0d, 0xa9, 0x3e, 0x9c, 0xe3, 0x8c, 0x3e,
  0x4e, 0xcf, 0x8c, 0x3d, 0x7f, 0x8a, 0x61, 0x3e, 0xd5, 0x0c, 0x43, 0xbd,
  0xdb, 0x26, 0x83, 0x3d, 0xa3, 0xec, 0x06, 0xbd, 0xd1, 0x54, 0x52, 0xbd,
  0x6f, 0xad, 0xf8, 0x3c, 0xa7, 0x8e, 0x70, 0xbd, 0xef, 0xe1, 0x55, 0xbd,
  0x3b, 0x56, 0x84, 0xbc, 0xeb, 0x27, 0x88, 0xbd, 0x62, 0x16, 0x31, 0xbd,
  0xb6, 0xb0, 0x59, 0xbd, 0xee, 0x19, 0x43, 0x3b, 0x9f, 0x15, 0xc4, 0x3d,
  0x0a, 0xc2, 0x51, 0x3d, 0x90, 0xfa, 0x90, 0xbd, 0xd4, 0x9a, 0x6f, 0xbc,
  0xb6, 0x5f, 0x2d, 0x3e, 0x3a, 0xa9, 0x60, 0x3e, 0x94, 0x78, 0xcf, 0xbc,
  0x3d, 0xcb, 0xfb, 0x3d, 0xfb, 0x31, 0x5e, 0xbd, 0xb9, 0x50, 0xbb, 0x3b,
  0x9c, 0x3c, 0x36, 0xbd, 0x4a, 0x60, 0x7f, 0xbd, 0x0d, 0x1f, 0x95, 0x3d,
  0xbf, 0x36, 0xed, 0x3c, 0x89, 0xb6, 0xdc, 0x3c, 0x33, 0x7c, 0x6d, 0xbd,
  0x74, 0xf6, 0xd2, 0x3c, 0x7b, 0xac, 0xbe, 0xbb, 0x30, 0x7f, 0x5f, 0xbd,
  0x4d, 0x6e, 0x92, 0x3c, 0x2d, 0xea, 0xd9, 0x3c, 0x42, 0x55, 0x98, 0x3d,
  0xfd, 0x3b, 0x91, 0xbd, 0xc4, 0xe5, 0xee, 0x3c, 0x3c, 0xb7, 0x2b, 0xbc,
  0xf1, 0x4b, 0x97, 0xbd, 0x2b, 0x8c, 0xfe, 0xbc, 0x3d, 0x04, 0xf7, 0xbc,
  0x3e, 0x88, 0x8b, 0x3c, 0x7a, 0xb0, 0xe2, 0xbc, 0x46, 0x93, 0x8d, 0x3d,
  0xbd, 0x7e, 0xc6, 0xbd, 0xb7, 0x40, 0x95, 0xbc, 0xff, 0x12, 0x74, 0xbc,
  0x87, 0xb7, 0x00, 0xbf, 0x2f, 0xcc, 0x4e, 0xbe, 0xb9, 0xa4, 0xe4, 0xbd,
  0x05, 0x33, 0x43, 0xbd, 0x86, 0x42, 0x17, 0x3e, 0x82, 0x87, 0x5d, 0xbd,
  0x96, 0x3f, 0x59, 0x3d, 0xb7, 0xec, 0x09, 0x3e, 0xfe, 0xc7, 0x5f, 0x3d,
  0x64, 0xa6, 0x35, 0x3d, 0x10, 0xe9, 0x95, 0x3d, 0xa0, 0xf8, 0xa7, 0x3d,
  0x71, 0xd9, 0x87, 0x3d, 0x1d, 0x7a, 0xb4, 0x3d, 0x32, 0x6b, 0x46, 0xbd,
  0x4b, 0xd6, 0xa5, 0x3d, 0xdb, 0xf0, 0x03, 0x3d, 0xed, 0x59, 0x39, 0x3c,
  0xba, 0x8d, 0x74, 0xbd, 0xa6, 0xd4, 0xde, 0x3d, 0x5b, 0x8d, 0xe9, 0xbe,
  0xa9, 0xff, 0x3d, 0xbe, 0x2e, 0xe5, 0x93, 0xbd, 0xb0, 0xa0, 0x76, 0xbd,
  0x44, 0x90, 0x49, 0x3e, 0x56, 0xf5, 0x02, 0xbd, 0x32, 0xed, 0xf6, 0xbb,
  0x47, 0x09, 0x99, 0x3d, 0x76, 0x32, 0x29, 0xbd, 0x27, 0xbc, 0xad, 0x3d,
  0x5f, 0x49, 0xc1, 0xbc, 0x5f, 0x7d, 0x4e, 0xbd, 0x9f, 0xe3, 0x8e, 0xba,
  0x23, 0x90, 0x1f, 0x3c, 0x14, 0xef, 0xbb, 0xbd, 0xca, 0x0f, 0x7e, 0xbd,
  0xb3, 0xa3, 0xfd, 0xbc, 0xf7, 0x7b, 0xb7, 0xbc, 0x05, 0x6f, 0xe2, 0xbc,
  0x9c, 0x8a, 0x0c, 0x3c, 0x85, 0xcd, 0x5a, 0x3c, 0xfe, 0xbf, 0x4d, 0xbc,
  0x67, 0xaa, 0xe9, 0xbd, 0x7e, 0xdc, 0x9c, 0x3c, 0x0b, 0x0b, 0xce, 0x3d,
  0xc1, 0xd8, 0x4e, 0x3d, 0x4f, 0x89, 0xb1, 0xbc, 0x03, 0x53, 0x24, 0xbd,
  0x23, 0x79, 0x90, 0xbd, 0xff, 0xaa, 0x33, 0x3d, 0xa4, 0x16, 0xd6, 0x3d,
  0xb6, 0xe2, 0x13, 0x3c, 0x67, 0x37, 0x9f, 0xbc, 0x7e, 0x45, 0xd9, 0x3c,
  0x79, 0xba, 0x3b, 0xbd, 0xc2, 0xd6, 0x0a, 0x3d, 0x1d, 0x6f, 0xe1, 0xbd,
  0x1f, 0xa0, 0x33, 0x3c, 0x7f, 0x10, 0x46, 0xbd, 0x13, 0x5c, 0x49, 0xbd,
  0x6b, 0xb2, 0x40, 0xbf, 0x94, 0x3b, 0x91, 0xbe, 0xc9, 0x9c, 0xf1, 0xbd,
  0x29, 0x9f, 0xe3, 0xbd, 0x7e, 0x14, 0x91, 0x3e, 0x69, 0x3b, 0x88, 0xbc,
  0x4d, 0x51, 0x97, 0x3c, 0xe4, 0x01, 0x33, 0x3e, 0x8e, 0x9c, 0x4c, 0x3c,
  0x93, 0x12, 0x01, 0x3c, 0xa6, 0x5d, 0x0a, 0xbe, 0x90, 0xf5, 0xd3, 0xbc,
  0xf6, 0x8e, 0x35, 0x3d, 0xa6, 0xed, 0x29, 0xbd, 0xb3, 0x79, 0xa8, 0xbd,
  0x19, 0xcc, 0x34, 0x3d, 0xd2, 0xe7, 0xb4, 0xbd, 0x80, 0xb1, 0xfd, 0xbb,
  0xe1, 0x18, 0xcf, 0x3d, 0x70, 0x0e, 0x44, 0x3d, 0x71, 0x16, 0x9b, 0x3c,
  0xe5, 0xbb, 0x9a, 0xbb, 0xb9, 0x1f, 0x25, 0xbd, 0x3c, 0x70, 0x01, 0x3d,
  0x37, 0x18, 0x4c, 0x3d, 0x79, 0x9c, 0x9c, 0xbd, 0x52, 0x70, 0x1b, 0xbc,
  0x75, 0x00, 0x23, 0xbc, 0x0c, 0x73, 0x97, 0xbc, 0x1d, 0x1a, 0x3a, 0x3d,
  0x82, 0x88, 0x58, 0x3e, 0x3c, 0xe5, 0x70, 0x3e, 0x6d, 0x0e, 0x8b, 0x3d,
  0x8f, 0xd0, 0x26, 0x3e, 0x9a, 0x7a, 0x1d, 0xbd, 0x19, 0x5e, 0xa5, 0xbb,
  0x83, 0xf5, 0x88, 0xbd, 0xca, 0x6d, 0xa3, 0xbc, 0x43, 0xd7, 0x4d, 0xbc,
  0x9c, 0xf6, 0xe6, 0xbd, 0x9b, 0xf8, 0xaa, 0x3e, 0x63, 0xaa, 0x5a, 0x3e,
  0x6a, 0x2f, 0x12, 0x3d, 0x09, 0xf2, 0x61, 0x3e, 0xf7, 0xf7, 0x43, 0xbd,
  0xea, 0x0a, 0xe1, 0x3d, 0xf5, 0x9d, 0xcd, 0xbb, 0x8a, 0x19, 0xec, 0xbc,
  0x45, 0x32, 0x15, 0xbd, 0xbe, 0x7d, 0x40, 0xbc, 0x90, 0x8e, 0x76, 0xbc,
  0x70, 0xde, 0x08, 0xbd, 0x0f, 0x4c, 0x1f, 0xbd, 0xad, 0x2f, 0x04, 0x3e,
  0x3b, 0x5f, 0xbf, 0x3d, 0x76, 0x4d, 0x98, 0x3d, 0x93, 0xda, 0xdd, 0xbc,
  0x99, 0xb5, 0xb6, 0x3d, 0x80, 0x3e, 0x84, 0x3c, 0x78, 0x50, 0x10, 0x3c,
  0x08, 0x49, 0x2c, 0xbf, 0x4c, 0x55, 0x7c, 0xbe, 0x57, 0xb0, 0x92, 0xbd,
  0x2c, 0x16, 0xb5, 0xbd, 0xc1, 0x12, 0x9a, 0x3e, 0xef, 0x7e, 0x87, 0xbd,
  0xf9, 0x43, 0x77, 0x3d, 0x30, 0x1d, 0x0f, 0x3d, 0x8a, 0x37, 0x0d, 0x3d,
  0x99, 0x4d, 0x0f, 0xbd, 0xd7, 0x00, 0x7f, 0x3e, 0x9c, 0x5e, 0x89, 0x3e,
  0xcc, 0x3b, 0xac, 0x3d, 0x0d, 0x13, 0x52, 0x3e, 0xd2, 0x77, 0x1d, 0xbd,
  0xbf, 0xbc, 0x91, 0x3d, 0x1d, 0x3e, 0x50, 0xbd, 0x06, 0x93, 0x48, 0xbd,
  0x6f, 0xb3, 0x11, 0xbd, 0xb9, 0xc8, 0x0e, 0x3d, 0x7d, 0xfb, 0xc2, 0xbe,
  0x0c, 0x22, 0x6a, 0xbe, 0xec, 0x55, 0x38, 0x3c, 0x27, 0xb3, 0xaf, 0xbd,
  0x00, 0xae, 0x47, 0x3e, 0x45, 0x8a, 0x23, 0x3c, 0x6f, 0x3c, 0x45, 0x3d,
  0x9f, 0x47, 0x26, 0x3e, 0x77, 0x56, 0x7e, 0x3c, 0x2f, 0xd4, 0xc4, 0xbc,
  0xc8, 0x7d, 0x01, 0xbe, 0x43, 0x6d, 0x3d, 0xbd, 0x1c, 0x2e, 0x80, 0xbc,
  0xa7, 0xca, 0x54, 0x3c, 0x16, 0x53, 0xfb, 0x3d, 0x79, 0x67, 0x94, 0xbc,
  0x8f, 0xbc, 0xac, 0x3d, 0xb9, 0xf5, 0x8d, 0x3d, 0x25, 0xd9, 0x87, 0x3b,
  0xeb, 0xd6, 0x6e, 0xbd, 0x02, 0x8e, 0xa9, 0x3e, 0xb3, 0x3a, 0xa9, 0x3e,
  0xd4, 0xa4, 0x7a, 0x3d, 0x27, 0x26, 0x7d, 0x3e, 0xda, 0x03, 0x45, 0xbd,
  0xa3, 0xc8, 0x9b, 0xbb, 0x04, 0xc1, 0x2c, 0xbd, 0x43, 0xa2, 0xb3, 0xbd,
  0xd4, 0x92, 0x9c, 0xbd, 0x1a, 0xd6, 0xfc, 0xbc, 0xc4, 0xa0, 0xc0, 0xbc,
  0xc6, 0xed, 0x58, 0xbd, 0x61, 0xfc, 0x3a, 0xbc, 0x5c, 0xee, 0x27, 0xbb,
  0xac, 0xde, 0xae, 0xbd, 0xf8, 0xb2, 0x9b, 0xbd, 0xa9, 0x9f, 0xb8, 0xbd,
  0x00, 0xf0, 0x9a, 0xbd, 0xbe, 0x2f, 0xf8, 0xbc, 0xc8, 0x3d, 0x88, 0x3d,
  0xab, 0xa5, 0x51, 0x3b, 0xe0, 0xc2, 0x82, 0xbd, 0x41, 0x20, 0xd3, 0xbd,
  0x7b, 0x16, 0xf8, 0xbc, 0xa5, 0xa4, 0x11, 0x3d, 0xd2, 0xff, 0x64, 0xbd,
  0x21, 0x08, 0x34, 0x3d, 0x78, 0x29, 0xa7, 0x3c, 0x6e, 0xd3, 0xd7, 0xbb,
  0x09, 0x8e, 0x8a, 0xbb, 0x41, 0xa8, 0xb3, 0xbe, 0xbf, 0x09, 0x28, 0xbe,
  0x26, 0xc0, 0xa2, 0xbc, 0xf5, 0xee, 0xaa, 0x3c, 0xad, 0xb3, 0x98, 0x3d,
  0x3b, 0x76, 0xb8, 0xbc, 0xa0, 0xe9, 0x0d, 0xbc, 0xa6, 0x9b, 0x3c, 0x3d,
  0x07, 0x59, 0x0c, 0x3d, 0xbe, 0x8f, 0x33, 0x3d, 0xa3, 0x4d, 0x21, 0xbf,
  0x5c, 0x1b, 0x80, 0xbe, 0x20, 0xd7, 0x37, 0xbd, 0x07, 0x44, 0xdf, 0xbd,
  0x79, 0x25, 0x9a, 0x3e, 0x38, 0xa8, 0xf7, 0xbc, 0xf3, 0x4a, 0xb7, 0xbc,
  0xcd, 0x3a, 0x06, 0x3e, 0xfc, 0xd5, 0x80, 0x39, 0xd8, 0x7e, 0xe1, 0x3a,
  0x01, 0x95, 0x69, 0x3e, 0xd8, 0x66, 0x5a, 0x3e, 0x08, 0xd6, 0xd5, 0x3c,
  0x3c, 0x2b, 0x67, 0x3e, 0xab, 0xac, 0x45, 0xbd, 0x83, 0x26, 0x96, 0x3a,
  0x44, 0xf2, 0xd1, 0x3c, 0x70, 0xfd, 0xb3, 0xbd, 0xbf, 0x49, 0x8b, 0xbc,
  0x46, 0x74, 0xfc, 0xbd, 0x9a, 0xc3, 0xc5, 0xbd, 0x48, 0x48, 0x70, 0x3c,
  0x1b, 0xf3, 0x07, 0xbe, 0xd0, 0x12, 0x0c, 0x3d, 0xa9, 0xa0, 0xb3, 0xbd,
  0xb5, 0xbb, 0xde, 0xbc, 0xc7, 0x6a, 0xff, 0x3c, 0x95, 0x07, 0x21, 0xbc,
  0xba, 0xe1, 0xd4, 0xbd, 0x2a, 0x44, 0x26, 0xba, 0xa4, 0x5f, 0x44, 0x3c,
  0x72, 0x2d, 0x6f, 0xbc, 0xab, 0x7e, 0xb6, 0xbc, 0x9f, 0x96, 0xe7, 0xbc,
  0x9d, 0x64, 0x3d, 0x3d, 0x86, 0x1c, 0x52, 0x3d, 0x04, 0x82, 0xe9, 0x3c,
  0x67, 0x69, 0x1a, 0xbc, 0x60, 0x1c, 0xf5, 0xbd, 0x8c, 0xd9, 0x94, 0xbb,
  0xf6, 0xc0, 0xe4, 0xbe, 0xe2, 0xc9, 0x25, 0xbe, 0x04, 0x28, 0xbe, 0xbd,
  0x04, 0x85, 0x6c, 0xbd, 0x0a, 0xd4, 0x35, 0x3e, 0x67, 0xd4, 0xe1, 0xbd,
  0x54, 0xa4, 0xb5, 0xbb, 0x3b, 0x0d, 0xef, 0x3d, 0xa5, 0xd4, 0x03, 0x3b,
  0x0c, 0x1c, 0x80, 0xbc, 0xde, 0x7a, 0x98, 0x3d, 0x35, 0x8c, 0xf9, 0x3c,
  0xa2, 0x9c, 0x04, 0x3d, 0xf4, 0x4c, 0x50, 0x3d, 0x31, 0x24, 0x8e, 0xbd,
  0xd8, 0xbe, 0x17, 0x3d, 0x7a, 0x52, 0xe2, 0x3c, 0x6a, 0xf7, 0x4e, 0x3d,
  0x82, 0x5f, 0x97, 0x3d, 0x28, 0xea, 0x2d, 0xbd, 0x5b, 0x8d, 0xe6, 0x3c,
  0x64, 0xd1, 0xc0, 0xbc, 0x9c, 0x61, 0x3a, 0xbd, 0x60, 0x8f, 0x00, 0xbd,
  0x49, 0x0a, 0xf6, 0x3b, 0x12, 0x2e, 0x87, 0x3c, 0xf4, 0x64, 0x46, 0x3d,
  0x08, 0xa1, 0x47, 0x3d, 0xb9, 0xde, 0x1a, 0x3d, 0xa5, 0x44, 0x49, 0x3c,
  0x8f, 0xe9, 0xd0, 0xbd, 0x32, 0xb0, 0x82, 0xbd, 0xab, 0xd7, 0x5b, 0x3c,
  0xd3, 0xb0, 0xfa, 0xbc, 0x7c, 0xa8, 0x97, 0x3d, 0x50, 0x67, 0xbd, 0x3c,
  0x5d, 0xa0, 0x40, 0xbd, 0xe9, 0xbb, 0x61, 0x3d, 0xa1, 0x91, 0x0b, 0xbd,
  0x4b, 0xbc, 0xf4, 0xbc, 0x21, 0x65, 0x30, 0xbe, 0x41, 0x95, 0x2b, 0xbd,
  0x5e, 0x08, 0xd1, 0xbb, 0x3c, 0x35, 0xde, 0xbc, 0xc1, 0x11, 0xc4, 0xbb,
  0x55, 0xff, 0x36, 0x3c, 0x51, 0xf2, 0xe2, 0x3b, 0xe1, 0xae, 0x41, 0xbc,
  0x49, 0xb1, 0xe6, 0xbd, 0x29, 0x09, 0xd6, 0x3a, 0x81, 0x3c, 0x01, 0x3e,
  0x23, 0x2b, 0x26, 0x3e, 0x85, 0xaa, 0x48, 0xba, 0x9b, 0xe0, 0xaf, 0x3d,
  0x30, 0x26, 0x7f, 0xbd, 0x52, 0xe4, 0xcc, 0x3c, 0xe3, 0xe8, 0x72, 0xbd,
  0x3a, 0xa3, 0x0c, 0xbd, 0x5b, 0xfa, 0xf3, 0xbd, 0x0e, 0xd5, 0x85, 0xbc,
  0x3d, 0x11, 0x84, 0xbb, 0x65, 0xac, 0xfd, 0xbc, 0x8b, 0x51, 0x66, 0x3d,
  0x17, 0xf5, 0x03, 0xbe, 0x3c, 0x39, 0x94, 0xbd, 0x70, 0x32, 0x47, 0xbc,
  0xe0, 0xd7, 0xb1, 0xbc, 0xf2, 0xfd, 0xb6, 0x3b, 0x67, 0x57, 0x29, 0x3c,
  0xfb, 0xa0, 0x94, 0xbd, 0xc1, 0xe5, 0x8a, 0x3e, 0x8a, 0x3e, 0x1c, 0x3d,
  0xab, 0xaa, 0x96, 0xbc, 0x99, 0xd6, 0xc7, 0x3d, 0x5a, 0x33, 0x6e, 0xbd,
  0x7b, 0x04, 0xae, 0x3c, 0x5c, 0xd0, 0x9b, 0xbd, 0xd7, 0x85, 0x97, 0xbd,
  0xbc, 0x80, 0x02, 0xbe, 0xe5, 0xa7, 0x89, 0xbd, 0x53, 0x0e, 0xa3, 0x3c,
  0xa9, 0xce, 0x4f, 0xbc, 0xda, 0xe9, 0x0e, 0xbd, 0x16, 0x14, 0xb3, 0xbc,
  0x86, 0x3c, 0xfe, 0xbd, 0x55, 0x00, 0xf1, 0x3b, 0xb2, 0xe9, 0xda, 0xbc,
  0x7c, 0x1f, 0x34, 0xbc, 0xa6, 0xae, 0xc3, 0xbd, 0xbb, 0x9c, 0xb9, 0xbc,
  0x8a, 0x22, 0xaf, 0x3d, 0x44, 0xb1, 0xf6, 0xbc, 0xbb, 0x05, 0x84, 0xbd,
  0x54, 0x33, 0xdb, 0x3c, 0x24, 0x43, 0x81, 0x38, 0x9e, 0xf6, 0x55, 0x3d,
  0x32, 0x09, 0x53, 0xbe, 0xe8, 0x0c, 0x01, 0xbb, 0xe3, 0xda, 0xa4, 0xbd,
  0x68, 0x32, 0x0e, 0x3b, 0x62, 0x2d, 0x01, 0x3f, 0x75, 0x63, 0xec, 0x3e,
  0x59, 0x8a, 0x08, 0x3e, 0x38, 0x95, 0xa8, 0x3e, 0x1a, 0x21, 0x91, 0xbd,
  0x2e, 0x3d, 0x7e, 0x3d, 0xa7, 0x9a, 0x85, 0x3b, 0x29, 0x22, 0xc0, 0xbd,
  0x7c, 0x83, 0x64, 0x3d, 0xcd, 0x40, 0x13, 0xbd, 0xec, 0x50, 0xd0, 0x3c,
  0x52, 0x5d, 0xad, 0xbd, 0x00, 0x99, 0x4b, 0x3d, 0x37, 0x68, 0xa8, 0x3d,
  0x0b, 0x3b, 0xc7, 0x3d, 0x97, 0x2f, 0x78, 0x3d, 0x62, 0x7f, 0x2e, 0x3d,
  0xee, 0xed, 0x13, 0x3d, 0x2f, 0x44, 0xdf, 0xbc, 0x93, 0x65, 0x5a, 0x3d,
  0xf4, 0xe8, 0xdd, 0xbc, 0x18, 0x32, 0x76, 0x3c, 0xfe, 0x99, 0x10, 0xbd,
  0xad, 0xfb, 0xc8, 0xbd, 0xb8, 0x46, 0xe8, 0xbc, 0xf5, 0x18, 0x06, 0x3b,
  0x3e, 0x51, 0xf4, 0xbc, 0x4c, 0x13, 0xe9, 0x3c, 0xf2, 0x1d, 0x38, 0x3c,
  0x23, 0x88, 0x9a, 0x3d, 0x56, 0x12, 0xcc, 0xbb, 0x77, 0x04, 0x54, 0x3d,
  0xe3, 0xf3, 0x85, 0xbc, 0x6d, 0xd1, 0xae, 0xbd, 0x14, 0x13, 0xd1, 0x3b,
  0xd3, 0xa6, 0x91, 0xbd, 0x86, 0x74, 0x8c, 0x3d, 0x61, 0x1d, 0x19, 0xbd,
  0xa8, 0x6b, 0x14, 0x3d, 0x57, 0xca, 0x58, 0xbc, 0x92, 0xf9, 0xff, 0xff,
  0x04, 0x00, 0x00, 0x00, 0xb0, 0x04, 0x00, 0x00, 0xb9, 0x37, 0xa6, 0x3d,
  0xeb, 0xfe, 0x2e, 0x3e, 0x9c, 0x09, 0xb5, 0x3d, 0xe4, 0x7e, 0xc0, 0xbc,
  0xe8, 0xc1, 0x88, 0xbd, 0x15, 0x9a, 0xf9, 0x3e, 0x2c, 0x4c, 0xb9, 0xbe,
  0x1e, 0x32, 0xdf, 0xbe, 0xc7, 0x93, 0x14, 0x3e, 0x21, 0x6c, 0xb4, 0x3c,
  0xfe, 0xbe, 0x2c, 0xbf, 0x6d, 0x03, 0x82, 0x3e, 0x35, 0xfc, 0x5b, 0xbd,
  0x2d, 0x82, 0x29, 0xbf, 0x77, 0xc8, 0x1a, 0xbe, 0x34, 0xb2, 0xa9, 0x3d,
  0x2f, 0x09, 0x33, 0x3e, 0x70, 0x09, 0x2f, 0xbe, 0x43, 0x93, 0x68, 0x3d,
  0x3d, 0x28, 0xdd, 0x3e, 0x25, 0xa7, 0xd1, 0xbe, 0xb9, 0x74, 0x3e, 0xbf,
  0xa2, 0x1e, 0xae, 0xbe, 0x18, 0x6e, 0x09, 0xbf, 0x68, 0x68, 0x7d, 0xbe,
  0xde, 0xcb, 0x50, 0x3e, 0x32, 0x00, 0xd3, 0xbe, 0x6a, 0x28, 0x96, 0xbe,
  0x20, 0x77, 0xb5, 0xbe, 0x25, 0xe2, 0x84, 0xbe, 0xe1, 0x74, 0x03, 0x3e,
  0x9e, 0x38, 0xc2, 0xbe, 0x4e, 0xe8, 0x2b, 0x3d, 0xb2, 0xf1, 0xb4, 0x3d,
  0x49, 0x79, 0x21, 0x3e, 0x65, 0x82, 0x78, 0x3d, 0xeb, 0xc6, 0x54, 0xbe,
  0x01, 0x74, 0xc8, 0xbd, 0x5c, 0xc0, 0x96, 0x3d, 0xd8, 0xe9, 0x98, 0xbd,
  0xb5, 0xa1, 0xd3, 0xbe, 0x70, 0xa9, 0x09, 0x3d, 0x05, 0x23, 0x77, 0xbe,
  0x43, 0x3d, 0x26, 0xbe, 0xd6, 0xce, 0x3f, 0x3e, 0x42, 0x8a, 0x7a, 0x3e,
  0x36, 0x7c, 0x27, 0xbe, 0x5d, 0x90, 0x50, 0xbe, 0xde, 0xd7, 0x80, 0x3e,
  0x44, 0x1e, 0xe3, 0x3d, 0x45, 0x6c, 0x60, 0xbe, 0x65, 0x60, 0xa0, 0xbe,
  0x30, 0x7e, 0x33, 0xbe, 0xf0, 0x7a, 0x00, 0xbe, 0x4c, 0x45, 0xea, 0x3d,
  0x9b, 0xc0, 0xa0, 0x3b, 0xfc, 0x75, 0x91, 0xbe, 0x9d, 0x19, 0x61, 0xbe,
  0xa8, 0xe2, 0x01, 0x3e, 0x2f, 0x2d, 0xc2, 0xbe, 0xf9, 0x5b, 0x8c, 0x3d,
  0x19, 0x8e, 0xc1, 0xbd, 0x26, 0xce, 0x47, 0xbd, 0x92, 0xd4, 0xcd, 0xbc,
  0x87, 0xc2, 0xfa, 0xbc, 0xda, 0xf0, 0x83, 0x3b, 0x04, 0xa6, 0x61, 0xbc,
  0x16, 0x37, 0xd3, 0xbc, 0xb3, 0x8d, 0x0d, 0x3d, 0x02, 0x75, 0xa7, 0xbd,
  0x47, 0xa4, 0x2c, 0xbd, 0x35, 0x57, 0xeb, 0xbc, 0xde, 0x04, 0x91, 0xbd,
  0xff, 0x22, 0x1a, 0xbd, 0xae, 0xf8, 0xfb, 0x3d, 0x24, 0x0c, 0x25, 0x3d,
  0x72, 0x6d, 0x94, 0xbc, 0xe5, 0x12, 0xf3, 0xbc, 0x85, 0x4c, 0xbb, 0xbc,
  0x83, 0x2a, 0x0e, 0x3d, 0x2f, 0xbd, 0x12, 0x3d, 0x14, 0xd5, 0x35, 0xbe,
  0xf9, 0xde, 0x58, 0xbe, 0x5b, 0x2e, 0x13, 0xbe, 0xa9, 0x8c, 0xa5, 0x3d,
  0x37, 0x57, 0x21, 0x3c, 0x26, 0x34, 0xc4, 0xbc, 0xe8, 0x14, 0x09, 0xbd,
  0x6d, 0xfb, 0x3a, 0x3d, 0xf2, 0xbc, 0xa7, 0xbd, 0x5e, 0x16, 0x66, 0x3d,
  0x65, 0x7e, 0xf5, 0x3d, 0xf6, 0xdf, 0x02, 0x3a, 0x38, 0x32, 0xcc, 0x3d,
  0xe5, 0x82, 0x2d, 0xbd, 0x09, 0x96, 0x4b, 0x3e, 0x0a, 0x5c, 0xed, 0x3c,
  0x41, 0x5a, 0x8f, 0xbd, 0xf4, 0x6a, 0x35, 0x3d, 0x08, 0x52, 0x43, 0x3d,
  0xdb, 0x5a, 0x5f, 0xbe, 0x0e, 0x50, 0xef, 0x3d, 0x1a, 0x98, 0xad, 0xbd,
  0xa7, 0x09, 0x12, 0xbe, 0x72, 0x45, 0x04, 0x3c, 0xc8, 0x80, 0xa1, 0x3e,
  0x66, 0x8f, 0xa5, 0x3d, 0xcd, 0x37, 0x5e, 0x3d, 0x68, 0x59, 0xb9, 0x3c,
  0xb5, 0x17, 0x43, 0x3e, 0xcd, 0xd4, 0x98, 0xbd, 0xfe, 0x50, 0x3c, 0xbd,
  0x0d, 0x79, 0x8a, 0xbd, 0x3a, 0x6a, 0x2e, 0xbe, 0x22, 0xd5, 0x4e, 0xbe,
  0x5f, 0xd7, 0xd6, 0x3d, 0xdf, 0x88, 0xb3, 0xbc, 0xbc, 0xf8, 0x09, 0xbe,
  0x29, 0x0d, 0x9d, 0xbd, 0x43, 0x60, 0xa0, 0xbd, 0xe3, 0xeb, 0x17, 0x3e,
  0x88, 0xab, 0xf8, 0x3d, 0xec, 0xc6, 0xbb, 0x3d, 0xba, 0x26, 0x58, 0x3e,
  0xc4, 0xf6, 0x2e, 0x3e, 0xca, 0x17, 0x22, 0x3e, 0x59, 0xee, 0xc1, 0x3d,
  0x4f, 0xdf, 0x94, 0x3e, 0xbb, 0x3c, 0x07, 0x3e, 0x94, 0x45, 0x94, 0xbd,
  0xee, 0xa7, 0x1b, 0x3e, 0x3d, 0x80, 0xa8, 0x3d, 0xe4, 0xc8, 0xf1, 0x3d,
  0xb4, 0x88, 0xad, 0x3d, 0xe4, 0x8b, 0xdb, 0x3d, 0x3e, 0xf3, 0x1c, 0x3e,
  0xd6, 0x2b, 0x77, 0x3a, 0xd6, 0x10, 0x96, 0x3e, 0x75, 0x45, 0x0f, 0x3e,
  0x5e, 0x8d, 0x83, 0xbc, 0xb5, 0xb8, 0xc0, 0x3d, 0xfa, 0x22, 0xb1, 0x3d,
  0x3c, 0x2a, 0x70, 0x3e, 0xaf, 0x57, 0x11, 0x3e, 0x43, 0x9f, 0xcd, 0x3d,
  0x09, 0xe7, 0x62, 0x3c, 0xf2, 0xe2, 0x34, 0x3d, 0x60, 0xd5, 0x6e, 0x3e,
  0x3a, 0x2d, 0x2d, 0x3d, 0x2a, 0x2f, 0x99, 0xbd, 0x38, 0x77, 0x84, 0xbd,
  0x74, 0xc4, 0x54, 0x3d, 0x06, 0x94, 0x3a, 0xbd, 0x8a, 0xce, 0x4a, 0xbc,
  0x17, 0x02, 0xf0, 0xbc, 0x88, 0x6e, 0x1c, 0x3c, 0x9a, 0x7c, 0x35, 0xbc,
  0x8e, 0x26, 0x74, 0xbd, 0xee, 0x94, 0xb7, 0x3d, 0xdc, 0xaa, 0x31, 0x3d,
  0x29, 0x13, 0xa7, 0xbd, 0x31, 0x2e, 0xba, 0x3c, 0x32, 0x10, 0xd8, 0x3d,
  0xa5, 0x17, 0xb9, 0xbd, 0x2d, 0x41, 0xd6, 0x3b, 0xf1, 0xa1, 0xea, 0x3d,
  0x95, 0x59, 0xac, 0x3d, 0x48, 0xc6, 0xf6, 0x3c, 0xb5, 0x7c, 0x40, 0xbd,
  0xca, 0xa8, 0x87, 0x3d, 0x03, 0x52, 0x6f, 0x3c, 0x92, 0x50, 0x32, 0x3c,
  0x8a, 0xca, 0x32, 0xbd, 0x47, 0xc2, 0xd5, 0xbd, 0x0e, 0x21, 0x67, 0xbd,
  0x41, 0x2c, 0xb1, 0x3d, 0x0d, 0x85, 0x63, 0x3c, 0x71, 0x5e, 0x3d, 0xbc,
  0x85, 0xe1, 0xc2, 0x3c, 0x43, 0x4a, 0x68, 0xbd, 0x86, 0xce, 0x41, 0xbd,
  0x5f, 0xa5, 0xf2, 0xbc, 0x07, 0x77, 0x2b, 0xbd, 0x20, 0x74, 0xea, 0xbc,
  0x93, 0xfe, 0xa1, 0x3d, 0x0c, 0xed, 0x14, 0x3d, 0x5e, 0x92, 0xb0, 0xbc,
  0xfb, 0xac, 0x9b, 0x3a, 0x47, 0x6f, 0x1b, 0xbd, 0x4b, 0x31, 0x40, 0xbd,
  0x3a, 0xdc, 0x7d, 0x3d, 0x60, 0xd3, 0xd1, 0x3c, 0xd4, 0x91, 0x5d, 0x3d,
  0x7a, 0x01, 0xc5, 0xbc, 0x3b, 0x41, 0x00, 0x3d, 0xab, 0xdc, 0x9b, 0x3d,
  0x16, 0x13, 0xa1, 0xbc, 0x5c, 0x38, 0x48, 0x3e, 0x57, 0xd3, 0x92, 0x3d,
  0x94, 0xe6, 0xcb, 0xbc, 0x8b, 0x3d, 0x4c, 0x3c, 0x45, 0x60, 0x96, 0xbb,
  0x13, 0x4c, 0xc9, 0xbd, 0xd8, 0x98, 0xa2, 0xba, 0x51, 0x9b, 0x63, 0xbc,
  0xfc, 0x32, 0x8a, 0xbd, 0x55, 0x85, 0x9d, 0xbd, 0x24, 0x5b, 0x22, 0xbd,
  0xf2, 0x69, 0x3e, 0x3c, 0x69, 0x26, 0x8e, 0xbd, 0xc1, 0x15, 0x9f, 0x3d,
  0x45, 0xd2, 0x3c, 0xbd, 0x1b, 0x46, 0x85, 0xbc, 0xe5, 0xc2, 0xe1, 0x3d,
  0xe3, 0xea, 0x95, 0x3b, 0x90, 0x28, 0x84, 0x3d, 0xb2, 0x4e, 0x28, 0x3e,
  0x49, 0xbf, 0xd4, 0x3d, 0xe3, 0x9d, 0x9d, 0x3c, 0xbf, 0x2b, 0x17, 0x3d,
  0x9d, 0x05, 0x53, 0x3d, 0x89, 0xa1, 0xdf, 0xbc, 0x31, 0x5d, 0x1c, 0x3d,
  0xa5, 0xe4, 0xb5, 0xbc, 0x23, 0xd0, 0xd1, 0xbd, 0xed, 0x5a, 0x15, 0x3d,
  0x61, 0xb2, 0x87, 0x39, 0x34, 0x91, 0xe6, 0xbd, 0x53, 0xc8, 0xc1, 0xbd,
  0xad, 0x2f, 0x25, 0xbe, 0x9c, 0x3c, 0xb3, 0x3d, 0x62, 0x42, 0x31, 0x3d,
  0xfd, 0x71, 0xa5, 0x3d, 0x8a, 0xd2, 0x0a, 0x3e, 0x2d, 0x21, 0x00, 0x3e,
  0xe4, 0xc4, 0x28, 0x3d, 0x4f, 0x7b, 0x9e, 0x3d, 0x52, 0xb5, 0x2f, 0x3b,
  0xf4, 0xeb, 0x92, 0x3d, 0x91, 0x31, 0x5e, 0x3d, 0x75, 0x66, 0x8f, 0xbd,
  0x37, 0x84, 0x98, 0xbd, 0x1e, 0x6f, 0x06, 0xbd, 0xcc, 0x54, 0x14, 0xbc,
  0xde, 0xca, 0x0d, 0xbd, 0xba, 0x6a, 0xea, 0x3c, 0xb3, 0xf8, 0x4c, 0x3d,
  0x75, 0x5d, 0xdb, 0xbb, 0x1d, 0xad, 0x5e, 0xbd, 0x03, 0x4e, 0x14, 0x3e,
  0x83, 0xe2, 0x61, 0x3c, 0xd2, 0x04, 0x22, 0x3e, 0xe6, 0x2b, 0x10, 0xbd,
  0x57, 0xb7, 0xae, 0x3c, 0xad, 0xea, 0x6f, 0x3d, 0xcf, 0x5d, 0xac, 0x3c,
  0x0b, 0x05, 0x86, 0xbb, 0x77, 0x98, 0x6d, 0xbc, 0xdc, 0xbc, 0x97, 0xbc,
  0xe3, 0x9e, 0xd1, 0x3c, 0x90, 0xb0, 0x43, 0xbd, 0xc9, 0x40, 0xba, 0xbc,
  0x7f, 0xd9, 0x15, 0x3e, 0x4b, 0xe8, 0xb3, 0xbb, 0x0f, 0xe7, 0xa1, 0xbb,
  0x64, 0xbe, 0x5c, 0xbd, 0x18, 0x3b, 0xb0, 0xbd, 0xa0, 0x10, 0x8f, 0xbd,
  0xf7, 0x17, 0xbb, 0x3c, 0xc2, 0x19, 0x00, 0x3a, 0x82, 0xe9, 0xb2, 0xbc,
  0xb6, 0x39, 0x11, 0x3d, 0x03, 0x79, 0xe1, 0x3d, 0x8d, 0xbf, 0xd9, 0xbd,
  0x7b, 0x6f, 0xb1, 0x3c, 0xc0, 0xb2, 0xdc, 0x3c, 0xeb, 0xef, 0x60, 0xbb,
  0xf7, 0x36, 0xab, 0xbb, 0x01, 0xdb, 0xbf, 0xbc, 0xfb, 0xc0, 0x18, 0x3d,
  0xd4, 0xea, 0xbd, 0x3d, 0x2e, 0x63, 0xe8, 0x3c, 0xe0, 0x72, 0x5e, 0x3d,
  0x6a, 0xda, 0x82, 0xbd, 0x0d, 0x3d, 0x9d, 0xbd, 0x69, 0x2d, 0x80, 0x3d,
  0xfe, 0xae, 0x2a, 0xba, 0x8a, 0x01, 0xa5, 0x3d, 0xd8, 0xee, 0xa6, 0x3d,
  0x6e, 0x60, 0x2b, 0x3c, 0xd7, 0x78, 0xab, 0x3a, 0x61, 0x4d, 0xd0, 0xbc,
  0xab, 0xd1, 0x22, 0xbd, 0xe5, 0x14, 0xbf, 0xbd, 0x83, 0xcd, 0xc5, 0xbc,
  0x43, 0x0a, 0x5c, 0xbd, 0x90, 0xd9, 0x82, 0xbd, 0x13, 0xc8, 0x9f, 0xbc,
  0xdb, 0xc2, 0x5a, 0x3c, 0x80, 0xd0, 0xb5, 0xbd, 0x4e, 0xfe, 0xff, 0xff,
  0x04, 0x00, 0x00, 0x00, 0x28, 0x00, 0x00, 0x00, 0xbc, 0x14, 0x22, 0x3f,
  0xb4, 0xee, 0x45, 0xbb, 0x02, 0x98, 0xaf, 0xbc, 0x74, 0x89, 0x8a, 0x3e,
  0xb2, 0x64, 0xc6, 0x3d, 0xd5, 0x57, 0x82, 0x3d, 0x0b, 0x57, 0x76, 0xbc,
  0x26, 0xca, 0xa2, 0x3d, 0x29, 0x60, 0x0b, 0xbd, 0xf5, 0xb1, 0x15, 0xbd,
  0x82, 0xfe, 0xff, 0xff, 0x04, 0x00, 0x00, 0x00, 0xc8, 0x00, 0x00, 0x00,
  0x2e, 0x0a, 0x94, 0x3e, 0x53, 0x04, 0x1c, 0x3f, 0x0c, 0x96, 0xd6, 0xbd,
  0x66, 0x61, 0xa7, 0xbc, 0xee, 0x17, 0xed, 0xbb, 0xa4, 0x43, 0x34, 0x3e,
  0xfe, 0x00, 0xc0, 0xbd, 0x9a, 0xcb, 0x0b, 0xbd, 0x46, 0x02, 0x8f, 0xbd,
  0xf4, 0x56, 0x8b, 0xbc, 0x78, 0xe4, 0x5a, 0x3d, 0x27, 0xf7, 0x70, 0xbd,
  0x1d, 0x5d, 0x07, 0x3f, 0xaf, 0xc2, 0x0b, 0xbc, 0x31, 0x6a, 0xf6, 0x3e,
  0xb3, 0x4e, 0x80, 0xbd, 0x3d, 0x63, 0xa0, 0xbd, 0x81, 0x3f, 0x7c, 0xbb,
  0x5e, 0xb1, 0x4a, 0x3f, 0x33, 0x6f, 0xd7, 0xbd, 0x51, 0x3b, 0xfb, 0x3c,
  0xc7, 0x24, 0xa9, 0xbc, 0x7b, 0xc6, 0xe9, 0xbc, 0xa6, 0xbc, 0x95, 0xbd,
  0x14, 0x28, 0x35, 0x3f, 0xdd, 0xbe, 0xda, 0xbc, 0x73, 0x0c, 0xcf, 0x3e,
  0x79, 0x12, 0x4f, 0x3e, 0x9b, 0x86, 0x05, 0xbd, 0x9d, 0xf9, 0x96, 0xbb,
  0x99, 0xc2, 0x02, 0x3e, 0x40, 0x25, 0xbc, 0x3e, 0xf9, 0xe6, 0x29, 0x3f,
  0x80, 0x76, 0xe3, 0xbc, 0xb6, 0x0a, 0x96, 0xbd, 0xcf, 0xa4, 0x86, 0xbd,
  0xa7, 0xcf, 0xf0, 0x3e, 0x96, 0xd7, 0xc5, 0xbb, 0x48, 0xea, 0xd3, 0x3d,
  0x34, 0xd5, 0x2f, 0x3e, 0x1f, 0xd8, 0x37, 0x3e, 0xaa, 0x32, 0x9f, 0xbc,
  0x57, 0xd2, 0x53, 0xbd, 0x2b, 0x1a, 0x80, 0xbc, 0x48, 0x08, 0xa6, 0xbd,
  0xce, 0x22, 0x35, 0xbc, 0x51, 0xd5, 0x43, 0xbd, 0x8c, 0x36, 0xe5, 0x3d,
  0x13, 0xff, 0xd7, 0xbc, 0xcc, 0x9c, 0xe4, 0xbc, 0x56, 0xff, 0xff, 0xff,
  0x04, 0x00, 0x00, 0x00, 0x08, 0x00, 0x00, 0x00, 0xcb, 0x30, 0xe0, 0xbe,
  0x93, 0xd9, 0x31, 0xbf, 0x14, 0xfa, 0xff, 0xff, 0x18, 0xfa, 0xff, 0xff,
  0x0f, 0x00, 0x00, 0x00, 0x4d, 0x4c, 0x49, 0x52, 0x20, 0x43, 0x6f, 0x6e,
  0x76, 0x65, 0x72, 0x74, 0x65, 0x64, 0x2e, 0x00, 0x01, 0x00, 0x00, 0x00,
  0x14, 0x00, 0x00, 0x00, 0x00, 0x00, 0x0e, 0x00, 0x18, 0x00, 0x14, 0x00,
  0x10, 0x00, 0x0c, 0x00, 0x08, 0x00, 0x04, 0x00, 0x0e, 0x00, 0x00, 0x00,
  0x14, 0x00, 0x00, 0x00, 0x1c, 0x00, 0x00, 0x00, 0x24, 0x01, 0x00, 0x00,
  0x28, 0x01, 0x00, 0x00, 0x2c, 0x01, 0x00, 0x00, 0x04, 0x00, 0x00, 0x00,
  0x6d, 0x61, 0x69, 0x6e, 0x00, 0x00, 0x00, 0x00, 0x04, 0x00, 0x00, 0x00,
  0xcc, 0x00, 0x00, 0x00, 0x84, 0x00, 0x00, 0x00, 0x50, 0x00, 0x00, 0x00,
  0x14, 0x00, 0x00, 0x00, 0x00, 0x00, 0x0e, 0x00, 0x1a, 0x00, 0x14, 0x00,
  0x10, 0x00, 0x0c, 0x00, 0x0b, 0x00, 0x04, 0x00, 0x0e, 0x00, 0x00, 0x00,
  0x1c, 0x00, 0x00, 0x00, 0x00, 0x00, 0x00, 0x09, 0x1c, 0x00, 0x00, 0x00,
  0x20, 0x00, 0x00, 0x00, 0x01, 0x00, 0x00, 0x00, 0x00, 0x00, 0x06, 0x00,
  0x08, 0x00, 0x04, 0x00, 0x06, 0x00, 0x00, 0x00, 0x00, 0x00, 0x80, 0x3f,
  0x01, 0x00, 0x00, 0x00, 0x0a, 0x00, 0x00, 0x00, 0x01, 0x00, 0x00, 0x00,
  0x09, 0x00, 0x00, 0x00, 0x9a, 0xff, 0xff, 0xff, 0x10, 0x00, 0x00, 0x00,
  0x00, 0x00, 0x00, 0x08, 0x0c, 0x00, 0x00, 0x00, 0x10, 0x00, 0x00, 0x00,
  0xdc, 0xfa, 0xff, 0xff, 0x01, 0x00, 0x00, 0x00, 0x09, 0x00, 0x00, 0x00,
  0x03, 0x00, 0x00, 0x00, 0x08, 0x00, 0x00, 0x00, 0x06, 0x00, 0x00, 0x00,
  0x01, 0x00, 0x00, 0x00, 0xca, 0xff, 0xff, 0xff, 0x10, 0x00, 0x00, 0x00,
  0x00, 0x00, 0x00, 0x08, 0x10, 0x00, 0x00, 0x00, 0x14, 0x00, 0x00, 0x00,
  0xba, 0xff, 0xff, 0xff, 0x00, 0x00, 0x00, 0x01, 0x01, 0x00, 0x00, 0x00,
  0x08, 0x00, 0x00, 0x00, 0x03, 0x00, 0x00, 0x00, 0x07, 0x00, 0x00, 0x00,
  0x05, 0x00, 0x00, 0x00, 0x02, 0x00, 0x00, 0x00, 0x00, 0x00, 0x0e, 0x00,
  0x16, 0x00, 0x00, 0x00, 0x10, 0x00, 0x0c, 0x00, 0x0b, 0x00, 0x04, 0x00,
  0x0e, 0x00, 0x00, 0x00, 0x18, 0x00, 0x00, 0x00, 0x00, 0x00, 0x00, 0x08,
  0x18, 0x00, 0x00, 0x00, 0x1c, 0x00, 0x00, 0x00, 0x00, 0x00, 0x06, 0x00,
  0x08, 0x00, 0x07, 0x00, 0x06, 0x00, 0x00, 0x00, 0x00, 0x00, 0x00, 0x01,
  0x01, 0x00, 0x00, 0x00, 0x07, 0x00, 0x00, 0x00, 0x03, 0x00, 0x00, 0x00,
  0x00, 0x00, 0x00, 0x00, 0x04, 0x00, 0x00, 0x00, 0x03, 0x00, 0x00, 0x00,
  0x01, 0x00, 0x00, 0x00, 0x0a, 0x00, 0x00, 0x00, 0x01, 0x00, 0x00, 0x00,
  0x00, 0x00, 0x00, 0x00, 0x0b, 0x00, 0x00, 0x00, 0x4c, 0x04, 0x00, 0x00,
  0xd8, 0x03, 0x00, 0x00, 0x64, 0x03, 0x00, 0x00, 0x08, 0x03, 0x00, 0x00,
  0xb8, 0x02, 0x00, 0x00, 0x68, 0x02, 0x00, 0x00, 0x18, 0x02, 0x00, 0x00,
  0x7c, 0x01, 0x00, 0x00, 0xe0, 0x00, 0x00, 0x00, 0x60, 0x00, 0x00, 0x00,
  0x04, 0x00, 0x00, 0x00, 0xf6, 0xfb, 0xff, 0xff, 0x00, 0x00, 0x00, 0x01,
  0x14, 0x00, 0x00, 0x00, 0x1c, 0x00, 0x00, 0x00, 0x1c, 0x00, 0x00, 0x00,
  0x0b, 0x00, 0x00, 0x00, 0x34, 0x00, 0x00, 0x00, 0x02, 0x00, 0x00, 0x00,
  0xff, 0xff, 0xff, 0xff, 0x02, 0x00, 0x00, 0x00, 0xe0, 0xfb, 0xff, 0xff,
  0x19, 0x00, 0x00, 0x00, 0x53, 0x74, 0x61, 0x74, 0x65, 0x66, 0x75, 0x6c,
  0x50, 0x61, 0x72, 0x74, 0x69, 0x74, 0x69, 0x6f, 0x6e, 0x65, 0x64, 0x43,
  0x61, 0x6c, 0x6c, 0x3a, 0x30, 0x00, 0x00, 0x00, 0x02, 0x00, 0x00, 0x00,
  0x01, 0x00, 0x00, 0x00, 0x02, 0x00, 0x00, 0x00, 0x4e, 0xfc, 0xff, 0xff,
  0x00, 0x00, 0x00, 0x01, 0x14, 0x00, 0x00, 0x00, 0x1c, 0x00, 0x00, 0x00,
  0x1c, 0x00, 0x00, 0x00, 0x0a, 0x00, 0x00, 0x00, 0x58, 0x00, 0x00, 0x00,
  0x02, 0x00, 0x00, 0x00, 0xff, 0xff, 0xff, 0xff, 0x02, 0x00, 0x00, 0x00,
  0x38, 0xfc, 0xff, 0xff, 0x3c, 0x00, 0x00, 0x00, 0x73, 0x65, 0x71, 0x75,
  0x65, 0x6e, 0x74, 0x69, 0x61, 0x6c, 0x5f, 0x31, 0x30, 0x2f, 0x64, 0x65,
  0x6e, 0x73, 0x65, 0x5f, 0x36, 0x30, 0x2f, 0x4d, 0x61, 0x74, 0x4d, 0x75,
  0x6c, 0x3b, 0x73, 0x65, 0x71, 0x75, 0x65, 0x6e, 0x74, 0x69, 0x61, 0x6c,
  0x5f, 0x31, 0x30, 0x2f, 0x64, 0x65, 0x6e, 0x73, 0x65, 0x5f, 0x36, 0x30,
  0x2f, 0x42, 0x69, 0x61, 0x73, 0x41, 0x64, 0x64, 0x00, 0x00, 0x00, 0x00,
  0x02, 0x00, 0x00, 0x00, 0x01, 0x00, 0x00, 0x00, 0x02, 0x00, 0x00, 0x00,
  0xca, 0xfc, 0xff, 0xff, 0x00, 0x00, 0x00, 0x01, 0x14, 0x00, 0x00, 0x00,
  0x1c, 0x00, 0x00, 0x00, 0x1c, 0x00, 0x00, 0x00, 0x09, 0x00, 0x00, 0x00,
  0x74, 0x00, 0x00, 0x00, 0x02, 0x00, 0x00, 0x00, 0xff, 0xff, 0xff, 0xff,
  0x32, 0x00, 0x00, 0x00, 0xb4, 0xfc, 0xff, 0xff, 0x58, 0x00, 0x00, 0x00,
  0x73, 0x65, 0x71, 0x75, 0x65, 0x6e, 0x74, 0x69, 0x61, 0x6c, 0x5f, 0x31,
  0x30, 0x2f, 0x64, 0x65, 0x6e, 0x73, 0x65, 0x5f, 0x35, 0x39, 0x2f, 0x4d,
  0x61, 0x74, 0x4d, 0x75, 0x6c, 0x3b, 0x73, 0x65, 0x71, 0x75, 0x65, 0x6e,
  0x74, 0x69, 0x61, 0x6c, 0x5f, 0x31, 0x30, 0x2f, 0x64, 0x65, 0x6e, 0x73,
  0x65, 0x5f, 0x35, 0x39, 0x2f, 0x52, 0x65, 0x6c, 0x75, 0x3b, 0x73, 0x65,
  0x71, 0x75, 0x65, 0x6e, 0x74, 0x69, 0x61, 0x6c, 0x5f, 0x31, 0x30, 0x2f,
  0x64, 0x65, 0x6e, 0x73, 0x65, 0x5f, 0x35, 0x39, 0x2f, 0x42, 0x69, 0x61,
  0x73, 0x41, 0x64, 0x64, 0x00, 0x00, 0x00, 0x00, 0x02, 0x00, 0x00, 0x00,
  0x01, 0x00, 0x00, 0x00, 0x32, 0x00, 0x00, 0x00, 0x62, 0xfd, 0xff, 0xff,
  0x00, 0x00, 0x00, 0x01, 0x14, 0x00, 0x00, 0x00, 0x1c, 0x00, 0x00, 0x00,
  0x1c, 0x00, 0x00, 0x00, 0x08, 0x00, 0x00, 0x00, 0x74, 0x00, 0x00, 0x00,
  0x02, 0x00, 0x00, 0x00, 0xff, 0xff, 0xff, 0xff, 0x0a, 0x00, 0x00, 0x00,
  0x4c, 0xfd, 0xff, 0xff, 0x58, 0x00, 0x00, 0x00, 0x73, 0x65, 0x71, 0x75,
  0x65, 0x6e, 0x74, 0x69, 0x61, 0x6c, 0x5f, 0x31, 0x30, 0x2f, 0x64, 0x65,
  0x6e, 0x73, 0x65, 0x5f, 0x35, 0x38, 0x2f, 0x4d, 0x61, 0x74, 0x4d, 0x75,
  0x6c, 0x3b, 0x73, 0x65, 0x71, 0x75, 0x65, 0x6e, 0x74, 0x69, 0x61, 0x6c,
  0x5f, 0x31, 0x30, 0x2f, 0x64, 0x65, 0x6e, 0x73, 0x65, 0x5f, 0x35, 0x38,
  0x2f, 0x52, 0x65, 0x6c, 0x75, 0x3b, 0x73, 0x65, 0x71, 0x75, 0x65, 0x6e,
  0x74, 0x69, 0x61, 0x6c, 0x5f, 0x31, 0x30, 0x2f, 0x64, 0x65, 0x6e, 0x73,
  0x65, 0x5f, 0x35, 0x38, 0x2f, 0x42, 0x69, 0x61, 0x73, 0x41, 0x64, 0x64,
  0x00, 0x00, 0x00, 0x00, 0x02, 0x00, 0x00, 0x00, 0x01, 0x00, 0x00, 0x00,
  0x0a, 0x00, 0x00, 0x00, 0x6a, 0xfe, 0xff, 0xff, 0x00, 0x00, 0x00, 0x01,
  0x10, 0x00, 0x00, 0x00, 0x10, 0x00, 0x00, 0x00, 0x07, 0x00, 0x00, 0x00,
  0x2c, 0x00, 0x00, 0x00, 0xd4, 0xfd, 0xff, 0xff, 0x1d, 0x00, 0x00, 0x00,
  0x73, 0x65, 0x71, 0x75, 0x65, 0x6e, 0x74, 0x69, 0x61, 0x6c, 0x5f, 0x31,
  0x30, 0x2f, 0x64, 0x65, 0x6e, 0x73, 0x65, 0x5f, 0x36, 0x30, 0x2f, 0x4d,
  0x61, 0x74, 0x4d, 0x75, 0x6c, 0x00, 0x00, 0x00, 0x02, 0x00, 0x00, 0x00,
  0x02, 0x00, 0x00, 0x00, 0x32, 0x00, 0x00, 0x00, 0xb6, 0xfe, 0xff, 0xff,
  0x00, 0x00, 0x00, 0x01, 0x10, 0x00, 0x00, 0x00, 0x10, 0x00, 0x00, 0x00,
  0x06, 0x00, 0x00, 0x00, 0x2c, 0x00, 0x00, 0x00, 0x20, 0xfe, 0xff, 0xff,
  0x1d, 0x00, 0x00, 0x00, 0x73, 0x65, 0x71, 0x75, 0x65, 0x6e, 0x74, 0x69,
  0x61, 0x6c, 0x5f, 0x31, 0x30, 0x2f, 0x64, 0x65, 0x6e, 0x73, 0x65, 0x5f,
  0x35, 0x39, 0x2f, 0x4d, 0x61, 0x74, 0x4d, 0x75, 0x6c, 0x00, 0x00, 0x00,
  0x02, 0x00, 0x00, 0x00, 0x32, 0x00, 0x00, 0x00, 0x0a, 0x00, 0x00, 0x00,
  0x02, 0xff, 0xff, 0xff, 0x00, 0x00, 0x00, 0x01, 0x10, 0x00, 0x00, 0x00,
  0x10, 0x00, 0x00, 0x00, 0x05, 0x00, 0x00, 0x00, 0x2c, 0x00, 0x00, 0x00,
  0x6c, 0xfe, 0xff, 0xff, 0x1d, 0x00, 0x00, 0x00, 0x73, 0x65, 0x71, 0x75,
  0x65, 0x6e, 0x74, 0x69, 0x61, 0x6c, 0x5f, 0x31, 0x30, 0x2f, 0x64, 0x65,
  0x6e, 0x73, 0x65, 0x5f, 0x35, 0x38, 0x2f, 0x4d, 0x61, 0x74, 0x4d, 0x75,
  0x6c, 0x00, 0x00, 0x00, 0x02, 0x00, 0x00, 0x00, 0x0a, 0x00, 0x00, 0x00,
  0x1e, 0x00, 0x00, 0x00, 0x4e, 0xff, 0xff, 0xff, 0x00, 0x00, 0x00, 0x01,
  0x10, 0x00, 0x00, 0x00, 0x10, 0x00, 0x00, 0x00, 0x04, 0x00, 0x00, 0x00,
  0x3c, 0x00, 0x00, 0x00, 0xb8, 0xfe, 0xff, 0xff, 0x2d, 0x00, 0x00, 0x00,
  0x73, 0x65, 0x71, 0x75, 0x65, 0x6e, 0x74, 0x69, 0x61, 0x6c, 0x5f, 0x31,
  0x30, 0x2f, 0x64, 0x65, 0x6e, 0x73, 0x65, 0x5f, 0x35, 0x38, 0x2f, 0x42,
  0x69, 0x61, 0x73, 0x41, 0x64, 0x64, 0x2f, 0x52, 0x65, 0x61, 0x64, 0x56,
  0x61, 0x72, 0x69, 0x61, 0x62, 0x6c, 0x65, 0x4f, 0x70, 0x00, 0x00, 0x00,
  0x01, 0x00, 0x00, 0x00, 0x0a, 0x00, 0x00, 0x00, 0xa6, 0xff, 0xff, 0xff,
  0x00, 0x00, 0x00, 0x01, 0x10, 0x00, 0x00, 0x00, 0x10, 0x00, 0x00, 0x00,
  0x03, 0x00, 0x00, 0x00, 0x3c, 0x00, 0x00, 0x00, 0x10, 0xff, 0xff, 0xff,
  0x2d, 0x00, 0x00, 0x00, 0x73, 0x65, 0x71, 0x75, 0x65, 0x6e, 0x74, 0x69,
  0x61, 0x6c, 0x5f, 0x31, 0x30, 0x2f, 0x64, 0x65, 0x6e, 0x73, 0x65, 0x5f,
  0x35, 0x39, 0x2f, 0x42, 0x69, 0x61, 0x73, 0x41, 0x64, 0x64, 0x2f, 0x52,
  0x65, 0x61, 0x64, 0x56, 0x61, 0x72, 0x69, 0x61, 0x62, 0x6c, 0x65, 0x4f,
  0x70, 0x00, 0x00, 0x00, 0x01, 0x00, 0x00, 0x00, 0x32, 0x00, 0x00, 0x00,
  0x00, 0x00, 0x16, 0x00, 0x18, 0x00, 0x14, 0x00, 0x00, 0x00, 0x10, 0x00,
  0x0c, 0x00, 0x08, 0x00, 0x00, 0x00, 0x00, 0x00, 0x00, 0x00, 0x07, 0x00,
  0x16, 0x00, 0x00, 0x00, 0x00, 0x00, 0x00, 0x01, 0x10, 0x00, 0x00, 0x00,
  0x10, 0x00, 0x00, 0x00, 0x02, 0x00, 0x00, 0x00, 0x3c, 0x00, 0x00, 0x00,
  0x80, 0xff, 0xff, 0xff, 0x2d, 0x00, 0x00, 0x00, 0x73, 0x65, 0x71, 0x75,
  0x65, 0x6e, 0x74, 0x69, 0x61, 0x6c, 0x5f, 0x31, 0x30, 0x2f, 0x64, 0x65,
  0x6e, 0x73, 0x65, 0x5f, 0x36, 0x30, 0x2f, 0x42, 0x69, 0x61, 0x73, 0x41,
  0x64, 0x64, 0x2f, 0x52, 0x65, 0x61, 0x64, 0x56, 0x61, 0x72, 0x69, 0x61,
  0x62, 0x6c, 0x65, 0x4f, 0x70, 0x00, 0x00, 0x00, 0x01, 0x00, 0x00, 0x00,
  0x02, 0x00, 0x00, 0x00, 0x00, 0x00, 0x16, 0x00, 0x1c, 0x00, 0x18, 0x00,
  0x00, 0x00, 0x14, 0x00, 0x10, 0x00, 0x0c, 0x00, 0x00, 0x00, 0x00, 0x00,
  0x08, 0x00, 0x07, 0x00, 0x16, 0x00, 0x00, 0x00, 0x00, 0x00, 0x00, 0x01,
  0x14, 0x00, 0x00, 0x00, 0x20, 0x00, 0x00, 0x00, 0x20, 0x00, 0x00, 0x00,
  0x01, 0x00, 0x00, 0x00, 0x40, 0x00, 0x00, 0x00, 0x02, 0x00, 0x00, 0x00,
  0xff, 0xff, 0xff, 0xff, 0x1e, 0x00, 0x00, 0x00, 0x04, 0x00, 0x04, 0x00,
  0x04, 0x00, 0x00, 0x00, 0x20, 0x00, 0x00, 0x00, 0x73, 0x65, 0x72, 0x76,
  0x69, 0x6e, 0x67, 0x5f, 0x64, 0x65, 0x66, 0x61, 0x75, 0x6c, 0x74, 0x5f,
  0x64, 0x65, 0x6e, 0x73, 0x65, 0x5f, 0x35, 0x38, 0x5f, 0x69, 0x6e, 0x70,
  0x75, 0x74, 0x3a, 0x30, 0x00, 0x00, 0x00, 0x00, 0x02, 0x00, 0x00, 0x00,
  0x01, 0x00, 0x00, 0x00, 0x1e, 0x00, 0x00, 0x00, 0x02, 0x00, 0x00, 0x00,
  0x20, 0x00, 0x00, 0x00, 0x04, 0x00, 0x00, 0x00, 0xf4, 0xff, 0xff, 0xff,
  0x19, 0x00, 0x00, 0x00, 0x00, 0x00, 0x00, 0x19, 0x0c, 0x00, 0x0c, 0x00,
  0x0b, 0x00, 0x00, 0x00, 0x00, 0x00, 0x04, 0x00, 0x0c, 0x00, 0x00, 0x00,
  0x09, 0x00, 0x00, 0x00, 0x00, 0x00, 0x00, 0x09
};
unsigned int third_model_activations_tflite_len = 6032;
