#include "model.h"

unsigned char cnn_tflite[] = {
  0x1c, 0x00, 0x00, 0x00, 0x54, 0x46, 0x4c, 0x33, 0x14, 0x00, 0x20, 0x00,
  0x1c, 0x00, 0x18, 0x00, 0x14, 0x00, 0x10, 0x00, 0x0c, 0x00, 0x00, 0x00,
  0x08, 0x00, 0x04, 0x00, 0x14, 0x00, 0x00, 0x00, 0x1c, 0x00, 0x00, 0x00,
  0x88, 0x00, 0x00, 0x00, 0xe0, 0x00, 0x00, 0x00, 0xc4, 0x11, 0x00, 0x00,
  0xd4, 0x11, 0x00, 0x00, 0x70, 0x19, 0x00, 0x00, 0x03, 0x00, 0x00, 0x00,
  0x01, 0x00, 0x00, 0x00, 0x04, 0x00, 0x00, 0x00, 0x76, 0xed, 0xff, 0xff,
  0x0c, 0x00, 0x00, 0x00, 0x1c, 0x00, 0x00, 0x00, 0x38, 0x00, 0x00, 0x00,
  0x0f, 0x00, 0x00, 0x00, 0x73, 0x65, 0x72, 0x76, 0x69, 0x6e, 0x67, 0x5f,
  0x64, 0x65, 0x66, 0x61, 0x75, 0x6c, 0x74, 0x00, 0x01, 0x00, 0x00, 0x00,
  0x04, 0x00, 0x00, 0x00, 0x94, 0xff, 0xff, 0xff, 0x0c, 0x00, 0x00, 0x00,
  0x04, 0x00, 0x00, 0x00, 0x05, 0x00, 0x00, 0x00, 0x64, 0x65, 0x6e, 0x73,
  0x65, 0x00, 0x00, 0x00, 0x01, 0x00, 0x00, 0x00, 0x04, 0x00, 0x00, 0x00,
  0x16, 0xee, 0xff, 0xff, 0x04, 0x00, 0x00, 0x00, 0x0c, 0x00, 0x00, 0x00,
  0x63, 0x6f, 0x6e, 0x76, 0x32, 0x64, 0x5f, 0x69, 0x6e, 0x70, 0x75, 0x74,
  0x00, 0x00, 0x00, 0x00, 0x02, 0x00, 0x00, 0x00, 0x34, 0x00, 0x00, 0x00,
  0x04, 0x00, 0x00, 0x00, 0xdc, 0xff, 0xff, 0xff, 0x0f, 0x00, 0x00, 0x00,
  0x04, 0x00, 0x00, 0x00, 0x13, 0x00, 0x00, 0x00, 0x43, 0x4f, 0x4e, 0x56,
  0x45, 0x52, 0x53, 0x49, 0x4f, 0x4e, 0x5f, 0x4d, 0x45, 0x54, 0x41, 0x44,
  0x41, 0x54, 0x41, 0x00, 0x08, 0x00, 0x0c, 0x00, 0x08, 0x00, 0x04, 0x00,
  0x08, 0x00, 0x00, 0x00, 0x0e, 0x00, 0x00, 0x00, 0x04, 0x00, 0x00, 0x00,
  0x13, 0x00, 0x00, 0x00, 0x6d, 0x69, 0x6e, 0x5f, 0x72, 0x75, 0x6e, 0x74,
  0x69, 0x6d, 0x65, 0x5f, 0x76, 0x65, 0x72, 0x73, 0x69, 0x6f, 0x6e, 0x00,
  0x10, 0x00, 0x00, 0x00, 0xe0, 0x10, 0x00, 0x00, 0xd8, 0x10, 0x00, 0x00,
  0xc0, 0x10, 0x00, 0x00, 0x90, 0x10, 0x00, 0x00, 0x40, 0x10, 0x00, 0x00,
  0x28, 0x10, 0x00, 0x00, 0xc8, 0x00, 0x00, 0x00, 0xc0, 0x00, 0x00, 0x00,
  0xb8, 0x00, 0x00, 0x00, 0xb0, 0x00, 0x00, 0x00, 0xa8, 0x00, 0x00, 0x00,
  0xa0, 0x00, 0x00, 0x00, 0x98, 0x00, 0x00, 0x00, 0x90, 0x00, 0x00, 0x00,
  0x70, 0x00, 0x00, 0x00, 0x04, 0x00, 0x00, 0x00, 0xd2, 0xee, 0xff, 0xff,
  0x04, 0x00, 0x00, 0x00, 0x5c, 0x00, 0x00, 0x00, 0x0c, 0x00, 0x00, 0x00,
  0x08, 0x00, 0x0e, 0x00, 0x08, 0x00, 0x04, 0x00, 0x08, 0x00, 0x00, 0x00,
  0x14, 0x00, 0x00, 0x00, 0x2c, 0x00, 0x00, 0x00, 0x00, 0x00, 0x0a, 0x00,
  0x0c, 0x00, 0x08, 0x00, 0x00, 0x00, 0x07, 0x00, 0x0a, 0x00, 0x00, 0x00,
  0x00, 0x00, 0x00, 0x01, 0x04, 0x00, 0x00, 0x00, 0x00, 0x00, 0x00, 0x00,
  0x00, 0x00, 0x0a, 0x00, 0x10, 0x00, 0x0c, 0x00, 0x08, 0x00, 0x04, 0x00,
  0x0a, 0x00, 0x00, 0x00, 0x01, 0x00, 0x00, 0x00, 0x02, 0x00, 0x00, 0x00,
  0x04, 0x00, 0x00, 0x00, 0x06, 0x00, 0x00, 0x00, 0x32, 0x2e, 0x31, 0x31,
  0x2e, 0x30, 0x00, 0x00, 0x3a, 0xef, 0xff, 0xff, 0x04, 0x00, 0x00, 0x00,
  0x10, 0x00, 0x00, 0x00, 0x31, 0x2e, 0x35, 0x2e, 0x30, 0x00, 0x00, 0x00,
  0x00, 0x00, 0x00, 0x00, 0x00, 0x00, 0x00, 0x00, 0x6c, 0xe8, 0xff, 0xff,
  0x70, 0xe8, 0xff, 0xff, 0x74, 0xe8, 0xff, 0xff, 0x78, 0xe8, 0xff, 0xff,
  0x7c, 0xe8, 0xff, 0xff, 0x80, 0xe8, 0xff, 0xff, 0x84, 0xe8, 0xff, 0xff,
  0x72, 0xef, 0xff, 0xff, 0x04, 0x00, 0x00, 0x00, 0x50, 0x0f, 0x00, 0x00,
  0xaf, 0x07, 0xdc, 0xba, 0xfd, 0x05, 0xa2, 0x3c, 0x48, 0x3d, 0x22, 0x3d,
  0x19, 0xf1, 0x3d, 0xbf, 0x58, 0x3a, 0x03, 0x3e, 0xf8, 0xad, 0x80, 0xbf,
  0xc9, 0xed, 0x45, 0x3e, 0x4d, 0xbb, 0x39, 0xbf, 0x2b, 0xaf, 0x29, 0x3e,
  0x3a, 0x95, 0x0f, 0xbf, 0x58, 0x6e, 0x50, 0x3e, 0x19, 0x0d, 0xd9, 0x3e,
  0x6e, 0x32, 0x0a, 0xbf, 0x56, 0xaf, 0x46, 0xbf, 0x12, 0x1e, 0x32, 0xbd,
  0x1d, 0xfc, 0x2c, 0xbe, 0xe9, 0xfc, 0x63, 0xbf, 0x2a, 0x41, 0x03, 0x3e,
  0xaf, 0x7d, 0x87, 0x3f, 0x35, 0x5d, 0x6c, 0xbd, 0x6f, 0xf1, 0x05, 0xbf,
  0x26, 0x5e, 0x47, 0xbe, 0x60, 0x49, 0x87, 0xbe, 0xba, 0x74, 0x7f, 0xbf,
  0xe7, 0x38, 0x22, 0xbc, 0xd6, 0x15, 0xad, 0x3e, 0x05, 0x08, 0xbf, 0xbe,
  0x19, 0x4a, 0x22, 0x3f, 0xb0, 0x5d, 0xac, 0x3e, 0x69, 0xcb, 0x0b, 0x3f,
  0x9d, 0x98, 0x2d, 0xbf, 0xd5, 0x81, 0x49, 0xbf, 0x03, 0x61, 0x91, 0xbf,
  0xd5, 0xc6, 0xd2, 0x3e, 0x1f, 0xcf, 0xe4, 0x3e, 0x13, 0x78, 0x85, 0x3d,
  0x10, 0xb1, 0x45, 0x3f, 0x38, 0x87, 0x9b, 0x3e, 0xd4, 0x26, 0xcc, 0xbe,
  0xeb, 0x7e, 0x26, 0x3e, 0x64, 0x41, 0x84, 0x3f, 0x46, 0xe7, 0x40, 0x3f,
  0x24, 0xf6, 0x2a, 0xbf, 0x38, 0xb9, 0x3c, 0x3f, 0x70, 0x3a, 0xa5, 0xbb,
  0xd7, 0xa1, 0x0c, 0x3f, 0xe2, 0xb5, 0x50, 0xbe, 0x80, 0x9a, 0x87, 0x3d,
  0x07, 0x84, 0x04, 0xbf, 0xbc, 0x01, 0xa8, 0xbf, 0x67, 0x21, 0x9d, 0x3e,
  0xc5, 0x80, 0xaa, 0x3f, 0xa0, 0x66, 0x1b, 0xbf, 0x1b, 0x77, 0xde, 0x3f,
  0xdc, 0x73, 0x34, 0x3e, 0xe4, 0x29, 0x07, 0xbf, 0x96, 0xbc, 0xea, 0xbe,
  0x76, 0x04, 0x1a, 0x3f, 0x74, 0x74, 0x07, 0xbe, 0xc1, 0x66, 0x6e, 0x3f,
  0xbd, 0xb5, 0x5d, 0xbf, 0x22, 0x9c, 0x0f, 0xbe, 0x1e, 0x2c, 0x84, 0xbf,
  0x2a, 0xc9, 0xd5, 0x3e, 0xfe, 0x71, 0x30, 0xbf, 0x4e, 0x15, 0xab, 0x3f,
  0x1c, 0xb8, 0x11, 0x3f, 0x72, 0xab, 0xa9, 0x3f, 0xc0, 0x68, 0x4b, 0x3f,
  0x78, 0xd7, 0x9a, 0xbe, 0x02, 0x6a, 0x96, 0xbd, 0x6c, 0x32, 0x43, 0x3d,
  0x15, 0x16, 0x59, 0xbe, 0xc3, 0x5f, 0x4c, 0xbf, 0x3f, 0x3b, 0xc6, 0x3d,
  0xba, 0x0f, 0x1e, 0xbf, 0x73, 0x56, 0xe8, 0x3d, 0xa6, 0xf4, 0xb6, 0xbf,
  0x94, 0x52, 0x12, 0x3e, 0xff, 0x9c, 0x23, 0xbf, 0xfc, 0x3d, 0xd9, 0x3e,
  0xb3, 0x73, 0xc8, 0x3c, 0xed, 0xc1, 0x09, 0x3f, 0xb3, 0x39, 0x2a, 0xbe,
  0x40, 0x9c, 0xb9, 0xbe, 0xf2, 0x46, 0x75, 0x3c, 0xdf, 0xa5, 0xec, 0xbc,
  0x4d, 0x9c, 0xd2, 0xbe, 0xbb, 0xe5, 0x0b, 0x3f, 0x72, 0x8b, 0x5e, 0xbf,
  0x58, 0xa8, 0xda, 0x3e, 0x50, 0xc2, 0xaa, 0xbf, 0xf0, 0xf1, 0xc4, 0x3e,
  0x85, 0x37, 0xa2, 0xbf, 0xf1, 0xfc, 0x06, 0x3e, 0x5b, 0xcb, 0x18, 0xbe,
  0xa9, 0x6e, 0x99, 0xbe, 0x06, 0x43, 0xc5, 0xbd, 0x46, 0xde, 0xe1, 0x3d,
  0x51, 0x66, 0x3d, 0x3e, 0xef, 0x69, 0x19, 0x3d, 0x95, 0x74, 0x0f, 0xbc,
  0x2d, 0x9b, 0x8e, 0x3d, 0xee, 0xdb, 0x94, 0x3f, 0xe1, 0x1d, 0x3e, 0x3f,
  0xef, 0xa7, 0xaf, 0x3f, 0x99, 0x97, 0x7e, 0xbe, 0x32, 0x50, 0x09, 0x3f,
  0x54, 0x4e, 0xad, 0xbd, 0xd4, 0x6c, 0x7a, 0xbf, 0xfe, 0x46, 0x2f, 0xbd,
  0x81, 0xa2, 0x0e, 0x3f, 0x73, 0xc0, 0xbe, 0xbc, 0x4a, 0x0d, 0x44, 0xbf,
  0x3c, 0xd0, 0x3d, 0x3c, 0x5e, 0x31, 0x4a, 0xbf, 0x8f, 0x47, 0xb8, 0xbf,
  0x3e, 0xa3, 0x35, 0x3e, 0xb1, 0xff, 0x4d, 0xbf, 0xe4, 0xbf, 0x74, 0xbd,
  0x25, 0x29, 0xb7, 0xbf, 0x87, 0x6a, 0xd6, 0xbe, 0x4c, 0x77, 0x06, 0xbf,
  0x1f, 0x5d, 0x9f, 0x3e, 0x8b, 0x3f, 0x9a, 0xbf, 0x15, 0x14, 0x07, 0xbe,
  0x39, 0x92, 0xe7, 0xbc, 0x37, 0xb2, 0x8b, 0xbf, 0x32, 0x23, 0xc9, 0xbf,
  0x1a, 0x67, 0xee, 0x3b, 0x58, 0x86, 0x0b, 0x3f, 0x40, 0xa7, 0xc3, 0xbf,
  0x9f, 0x00, 0xe4, 0xbf, 0x97, 0x02, 0x2c, 0x3f, 0xf1, 0x91, 0xd1, 0xbf,
  0xc4, 0x5e, 0x25, 0xbe, 0x26, 0x19, 0xd3, 0x3f, 0x49, 0xb3, 0x4f, 0xbf,
  0x5e, 0xce, 0x6e, 0xbf, 0x43, 0x74, 0x9f, 0x3f, 0xb4, 0xc0, 0xaa, 0xbe,
  0x4d, 0x10, 0x33, 0x3f, 0x05, 0xcc, 0xad, 0x3e, 0x18, 0x81, 0xc3, 0x3f,
  0xdf, 0xeb, 0x81, 0xbe, 0x2a, 0x71, 0x27, 0x3f, 0x05, 0x47, 0x2f, 0xbf,
  0xdc, 0xd4, 0x82, 0x3f, 0x39, 0x7f, 0x82, 0xbe, 0xb4, 0xad, 0x83, 0xbf,
  0x81, 0x6b, 0x7e, 0xbf, 0xb0, 0x2e, 0xbd, 0xbc, 0x80, 0xa0, 0x43, 0xbe,
  0x1d, 0xb7, 0x05, 0x3f, 0xe4, 0xd6, 0xae, 0xbc, 0x55, 0x9f, 0x00, 0xbf,
  0xd7, 0xfa, 0xa1, 0xbf, 0x85, 0x4f, 0x9a, 0xbf, 0xd8, 0xda, 0xbe, 0xbf,
  0xa4, 0x67, 0x2b, 0x3f, 0x5d, 0xd7, 0xc6, 0x3d, 0x99, 0x65, 0x4b, 0x3f,
  0x44, 0x47, 0x3d, 0x3f, 0x33, 0xa5, 0xcd, 0xbf, 0xc6, 0x13, 0xf3, 0xbf,
  0xb2, 0xf3, 0xe9, 0xbd, 0xcd, 0xa7, 0x68, 0xbe, 0x02, 0x49, 0x14, 0x3f,
  0x15, 0x41, 0x01, 0x3d, 0xe1, 0xa0, 0x8c, 0x3d, 0xc1, 0x9b, 0x35, 0xbe,
  0x64, 0x48, 0x31, 0x3e, 0x3a, 0xf5, 0x19, 0xbf, 0x13, 0xcd, 0xda, 0xbd,
  0xd8, 0xe5, 0x4c, 0x3f, 0xb4, 0x0e, 0x23, 0x3f, 0xb7, 0x5a, 0xff, 0xbe,
  0x68, 0x56, 0xe7, 0xbe, 0x0e, 0xcb, 0x05, 0x3f, 0xfd, 0x8b, 0xad, 0x3d,
  0x70, 0x27, 0xed, 0xbd, 0x97, 0x38, 0x01, 0x3f, 0x12, 0x40, 0x8c, 0xbd,
  0xae, 0x3b, 0xae, 0x3e, 0xea, 0x03, 0x42, 0x3f, 0xfc, 0xec, 0x58, 0xbf,
  0xc4, 0x9a, 0x53, 0xbe, 0xe7, 0xbe, 0xbf, 0xbc, 0x5b, 0xbd, 0xde, 0x3e,
  0x30, 0xf5, 0xbd, 0xbd, 0x4c, 0x6f, 0x8d, 0x3e, 0x71, 0x15, 0xe5, 0x3e,
  0x98, 0x45, 0xc1, 0xbd, 0xf1, 0x1c, 0xbc, 0x3e, 0xac, 0x0e, 0x6c, 0xbd,
  0x7c, 0x3c, 0x1a, 0x3f, 0xe7, 0x09, 0x1a, 0xbc, 0xe0, 0xe1, 0x8d, 0xbd,
  0x9d, 0x50, 0x3a, 0xbd, 0x89, 0xcb, 0x7e, 0xbf, 0xf6, 0xc3, 0x5a, 0xbd,
  0xcf, 0x7d, 0x11, 0x3f, 0x90, 0x01, 0x29, 0xbd, 0xe0, 0xad, 0x67, 0x3f,
  0xd7, 0xd2, 0xd8, 0x3e, 0xe5, 0x68, 0x50, 0x3f, 0xf7, 0xd8, 0x8e, 0x3f,
  0x32, 0x33, 0x22, 0x3f, 0xed, 0x33, 0x56, 0xbd, 0x7f, 0x98, 0x1b, 0xbf,
  0x34, 0x34, 0xb5, 0xbe, 0x53, 0x98, 0x2b, 0x3f, 0x04, 0xd7, 0x83, 0x3f,
  0xf1, 0x79, 0xb1, 0x3e, 0xad, 0x01, 0x88, 0x3e, 0xe0, 0x25, 0xe5, 0xbe,
  0xf6, 0xb6, 0x6c, 0x3f, 0x6a, 0xad, 0xb8, 0xbe, 0x38, 0xd5, 0x33, 0x3c,
  0xf0, 0x48, 0xa5, 0xbe, 0x95, 0xba, 0x1b, 0xbf, 0xc2, 0x98, 0x20, 0xbf,
  0xa4, 0x80, 0xd9, 0xbe, 0x3c, 0x46, 0x9f, 0x3e, 0x5e, 0xe2, 0x5b, 0x3f,
  0xfc, 0x34, 0xa7, 0xbf, 0xdf, 0xda, 0xbf, 0x3d, 0xab, 0xd8, 0x3b, 0xbf,
  0x3b, 0x9e, 0xdb, 0x3e, 0x3e, 0xda, 0x23, 0xbd, 0xa8, 0x69, 0x70, 0x3f,
  0x38, 0xa7, 0xee, 0x3e, 0x1d, 0x34, 0xb6, 0x3e, 0xb5, 0x67, 0x09, 0x3f,
  0x93, 0x9c, 0x0f, 0xbf, 0xf9, 0xfc, 0x25, 0x3f, 0xd1, 0x8a, 0x44, 0x3f,
  0x73, 0x68, 0x8d, 0x3f, 0x13, 0x87, 0x44, 0x3e, 0xbd, 0x34, 0x1c, 0x3f,
  0x11, 0x4d, 0x93, 0x3e, 0x26, 0x96, 0x58, 0xbf, 0x9e, 0x5c, 0xcc, 0x3e,
  0x3e, 0x63, 0xab, 0x3e, 0x05, 0x07, 0x96, 0xbe, 0x20, 0xf1, 0x3b, 0x3f,
  0xe1, 0x3f, 0xba, 0xbe, 0x81, 0x00, 0x52, 0x3f, 0x74, 0x7a, 0xc4, 0xbe,
  0xf7, 0x6c, 0x45, 0x3f, 0xb0, 0x12, 0x23, 0x3e, 0xd4, 0xfe, 0xf7, 0x3e,
  0xff, 0x75, 0x3d, 0x3e, 0x53, 0x8d, 0x3a, 0x3f, 0xd0, 0x66, 0x08, 0xbf,
  0x1a, 0x80, 0x81, 0x3f, 0x46, 0x29, 0x2c, 0xbe, 0x6a, 0x62, 0xa7, 0x3e,
  0x22, 0x8a, 0x94, 0x3a, 0x34, 0x45, 0x35, 0xbf, 0x09, 0x51, 0x6c, 0xbe,
  0x95, 0x3a, 0x54, 0xbf, 0x2a, 0x95, 0x21, 0x3f, 0xf8, 0x91, 0x5a, 0xbf,
  0x8d, 0x70, 0xdc, 0x3f, 0xe2, 0x1d, 0x8a, 0xbe, 0x2b, 0x72, 0x2c, 0x3f,
  0x03, 0xac, 0xe7, 0x3d, 0xca, 0xea, 0x56, 0xbc, 0xb6, 0x0d, 0x6c, 0x3d,
  0x13, 0x1b, 0x92, 0xbe, 0x9a, 0x7f, 0x22, 0x3f, 0xfc, 0x41, 0x7b, 0xbe,
  0xfe, 0xcf, 0x17, 0xbf, 0x0e, 0x8f, 0xc1, 0x3e, 0x02, 0xe7, 0x41, 0xbf,
  0xe8, 0x31, 0x56, 0x3f, 0x8b, 0x1e, 0x02, 0xbf, 0x83, 0x64, 0x81, 0x3f,
  0xd8, 0x0d, 0x19, 0xbf, 0xe3, 0x3a, 0x86, 0x3e, 0x35, 0xf2, 0xa6, 0xbe,
  0x5e, 0x2f, 0xdd, 0xbb, 0xe3, 0x75, 0x8b, 0xbf, 0x29, 0x9d, 0x41, 0x3d,
  0x7e, 0xd2, 0xb9, 0xbf, 0x36, 0xaa, 0xf4, 0xbe, 0xe7, 0x14, 0x09, 0xbf,
  0x75, 0x25, 0xfe, 0x3e, 0x86, 0x5c, 0x3a, 0xbf, 0x38, 0xc5, 0x4e, 0x3f,
  0xd2, 0xe4, 0x64, 0xbe, 0xe1, 0x89, 0xb7, 0x3e, 0x57, 0x7c, 0xc3, 0xbe,
  0xa1, 0xb3, 0xae, 0xbc, 0x45, 0xa5, 0xc0, 0xbd, 0x17, 0xbc, 0xa2, 0xbc,
  0x35, 0x63, 0x1b, 0x3f, 0x87, 0xed, 0x1e, 0x3d, 0x2e, 0x81, 0x93, 0x3f,
  0xb6, 0x58, 0x3f, 0xbc, 0xd2, 0x55, 0x52, 0x3f, 0xb5, 0x28, 0x2e, 0x3f,
  0x52, 0xe7, 0x40, 0x3f, 0xd1, 0x1f, 0x9a, 0x3f, 0xe4, 0xf3, 0x66, 0xbe,
  0xa8, 0xcd, 0x6f, 0xbf, 0x51, 0xfc, 0xdc, 0xbe, 0x71, 0xf0, 0x80, 0x3f,
  0xc1, 0x4a, 0xfd, 0x3e, 0x12, 0x06, 0x9d, 0x3f, 0xee, 0x31, 0x81, 0x3e,
  0x07, 0x46, 0xe7, 0x3d, 0x1c, 0x08, 0xc8, 0x3d, 0x74, 0xc7, 0x53, 0x3f,
  0xfb, 0xdb, 0x14, 0xbf, 0xa8, 0xa7, 0x08, 0xbf, 0x6b, 0xf6, 0xf2, 0x3b,
  0x20, 0x8a, 0x03, 0x3f, 0x3b, 0xa7, 0xf4, 0x3e, 0xc2, 0x67, 0xda, 0xbe,
  0x79, 0xee, 0x4c, 0xbf, 0x9f, 0xe4, 0xe7, 0x3f, 0xbb, 0x6a, 0x8b, 0xbf,
  0x4f, 0x61, 0xcd, 0x3e, 0xae, 0x8a, 0x73, 0x3e, 0x16, 0x66, 0x1c, 0x3f,
  0x61, 0x3a, 0xed, 0xbe, 0x03, 0x0b, 0x38, 0x3e, 0xdf, 0x36, 0x2d, 0x3f,
  0x9d, 0x17, 0xeb, 0x3e, 0xa9, 0xd0, 0x07, 0xbd, 0xcb, 0x96, 0x1b, 0xbf,
  0x09, 0xa3, 0xf1, 0x3e, 0xe9, 0xd0, 0x01, 0x3e, 0x24, 0x37, 0xa3, 0x3b,
  0x57, 0x10, 0x56, 0x3f, 0x4f, 0x27, 0x0c, 0x3f, 0x51, 0xf5, 0x40, 0x3e,
  0xde, 0x98, 0x02, 0xbf, 0x1d, 0xa5, 0x7e, 0x3e, 0x99, 0x65, 0xea, 0x3d,
  0xc5, 0x25, 0x46, 0x3f, 0xf6, 0x17, 0x90, 0xbd, 0x21, 0x88, 0xef, 0x3e,
  0x5b, 0x7c, 0x9c, 0xbf, 0xe4, 0xed, 0xa0, 0xbd, 0x4a, 0xbd, 0x92, 0xbf,
  0xaa, 0xab, 0xa0, 0xbf, 0x92, 0x2d, 0xea, 0x3d, 0x7d, 0x08, 0x31, 0xbe,
  0x65, 0x27, 0xd5, 0x3e, 0x12, 0x95, 0xb0, 0xbd, 0x27, 0x30, 0x26, 0xbf,
  0x0a, 0x2b, 0xf7, 0x3e, 0x73, 0x7e, 0x50, 0xbf, 0x56, 0xda, 0x4a, 0x3f,
  0x95, 0xd8, 0x44, 0xbe, 0x24, 0x39, 0x27, 0xbd, 0x4e, 0xa8, 0x07, 0x3f,
  0xd4, 0xb5, 0x3d, 0xbf, 0xf4, 0x07, 0x12, 0xbe, 0xea, 0x75, 0x51, 0xbf,
  0xe1, 0x7a, 0xcf, 0xbc, 0x44, 0x9b, 0x2f, 0x3f, 0x9d, 0x25, 0x60, 0x3f,
  0x6a, 0x92, 0xdf, 0x3e, 0x7b, 0xd7, 0x5c, 0x3f, 0x91, 0x4a, 0xd0, 0x3d,
  0xf5, 0xe8, 0x53, 0x3e, 0x15, 0xd8, 0x29, 0x3e, 0xa9, 0xb3, 0xae, 0x3e,
  0xa1, 0xe4, 0x7c, 0x3e, 0xcb, 0x76, 0x26, 0x3e, 0x68, 0x0a, 0xd0, 0xbe,
  0xb3, 0x79, 0x41, 0x3e, 0x3c, 0x7b, 0xc5, 0xbe, 0x3d, 0xa1, 0x62, 0x3c,
  0x7f, 0x54, 0x36, 0x3f, 0x22, 0x3e, 0x44, 0xbc, 0xf1, 0xf5, 0xce, 0x3e,
  0x93, 0x3c, 0x34, 0x3f, 0xfb, 0x16, 0x98, 0x3e, 0xe1, 0x28, 0x05, 0x3f,
  0x10, 0x02, 0x78, 0x3e, 0x59, 0xfe, 0x1d, 0xbe, 0x6e, 0xe2, 0x9f, 0xbd,
  0x40, 0x5d, 0x96, 0xbe, 0x43, 0x0b, 0xd3, 0xbe, 0x33, 0x94, 0x39, 0xbe,
  0x5b, 0xbe, 0xf9, 0xbe, 0x84, 0x83, 0xe3, 0x3c, 0xca, 0xaf, 0x81, 0x3d,
  0x8c, 0x3b, 0x6a, 0x3d, 0xbc, 0xd9, 0x7f, 0xbd, 0x88, 0x4c, 0x3f, 0x3e,
  0xfa, 0xf5, 0xbe, 0x3d, 0x64, 0x27, 0x1d, 0xbd, 0xc8, 0x62, 0x4a, 0x3d,
  0x81, 0x24, 0x9c, 0x3c, 0x3d, 0xd9, 0x9f, 0x3e, 0x8a, 0x4c, 0x98, 0xbe,
  0x01, 0xb3, 0x93, 0xbf, 0x8a, 0x55, 0x97, 0xbe, 0x1f, 0x6b, 0xdb, 0xbd,
  0xd2, 0x2c, 0x37, 0x3f, 0x9a, 0xbe, 0x33, 0xbd, 0xd7, 0xe3, 0xc4, 0x3d,
  0x66, 0xc0, 0x94, 0xbf, 0x88, 0xae, 0x4c, 0xbf, 0xc3, 0xf4, 0xcf, 0xbf,
  0x28, 0x68, 0x22, 0xbe, 0x66, 0x41, 0x80, 0x3d, 0x39, 0x49, 0x20, 0x3e,
  0xfa, 0x0d, 0xcd, 0xbe, 0x6e, 0xd6, 0x84, 0x3f, 0xcd, 0xed, 0xe6, 0xbe,
  0xfb, 0x70, 0x9e, 0xbe, 0xc4, 0xba, 0x5b, 0x3e, 0x41, 0x75, 0x28, 0xbf,
  0x2e, 0xda, 0x38, 0xbf, 0x4d, 0x82, 0xb5, 0x3f, 0xcc, 0xa4, 0x86, 0x3f,
  0x1e, 0x92, 0x5f, 0x3f, 0xc4, 0x1a, 0x12, 0xbd, 0xd7, 0x1e, 0xa5, 0x3f,
  0x57, 0xe8, 0xb8, 0xbf, 0x7f, 0xf4, 0x68, 0x3f, 0x5c, 0xa0, 0x32, 0xbf,
  0xec, 0xb7, 0x99, 0x3f, 0x75, 0x7a, 0x37, 0xbf, 0x41, 0x69, 0x2f, 0x3e,
  0x49, 0xc5, 0x95, 0x3d, 0xa4, 0xa9, 0x82, 0xbf, 0xd0, 0x83, 0x71, 0xbf,
  0x4c, 0x06, 0xcf, 0xbe, 0xfc, 0x37, 0x0e, 0xbe, 0x86, 0x39, 0xeb, 0xbe,
  0x96, 0x59, 0x9a, 0x3e, 0x04, 0x5f, 0x9d, 0xbe, 0x0c, 0x71, 0x0b, 0x3d,
  0x9f, 0x40, 0xf5, 0xbe, 0x98, 0xad, 0x66, 0xbf, 0x91, 0x37, 0x45, 0x3f,
  0x13, 0x27, 0x35, 0x3f, 0xd3, 0xd9, 0x04, 0xbe, 0x4d, 0xec, 0x86, 0xbe,
  0x34, 0x94, 0x1a, 0x3d, 0xd4, 0xed, 0xd2, 0xbd, 0x2a, 0x37, 0xc0, 0xbe,
  0x7e, 0x7b, 0x8f, 0x3f, 0x88, 0xf7, 0x93, 0xbe, 0x9d, 0x06, 0x4d, 0x3f,
  0x0c, 0x74, 0x38, 0xbf, 0x35, 0x6b, 0xb7, 0x3e, 0xa1, 0x87, 0x99, 0xbe,
  0x57, 0x09, 0x54, 0x3e, 0xe6, 0x92, 0x32, 0xbf, 0xd0, 0x29, 0x5b, 0x3f,
  0xee, 0xe7, 0xfe, 0xbe, 0xef, 0x19, 0x1f, 0xbf, 0xb4, 0x63, 0xbd, 0x3d,
  0x23, 0x32, 0xa2, 0xbe, 0x8c, 0xb3, 0x0c, 0xbf, 0xaa, 0xe4, 0xd0, 0x3e,
  0xd6, 0x6c, 0x20, 0xbf, 0x47, 0x19, 0xc6, 0x3d, 0xce, 0xb0, 0x87, 0x3e,
  0x45, 0xfe, 0x98, 0xbe, 0x3b, 0x14, 0x51, 0x3f, 0x10, 0x88, 0x02, 0xbd,
  0xf4, 0xda, 0x5b, 0x3f, 0x80, 0x8e, 0xc0, 0x3d, 0xe6, 0x23, 0x89, 0xbc,
  0x80, 0xe8, 0x1d, 0xbf, 0x94, 0xab, 0xb2, 0x3d, 0xc0, 0xd1, 0x15, 0xbe,
  0xd6, 0x2c, 0xd6, 0x3d, 0x84, 0x62, 0x8d, 0xbe, 0xa6, 0x3f, 0xed, 0x3c,
  0x88, 0xb4, 0x5f, 0xbd, 0x95, 0x96, 0x86, 0xbe, 0x43, 0xca, 0xee, 0xbe,
  0xd3, 0x0a, 0x90, 0x3e, 0x6e, 0x49, 0x05, 0xbe, 0x66, 0xb4, 0x86, 0xbd,
  0x47, 0x90, 0x8e, 0x3e, 0x86, 0x3d, 0x96, 0xbb, 0x40, 0x0d, 0x72, 0x3e,
  0x48, 0xe9, 0xaf, 0xb8, 0xb2, 0xdb, 0x8c, 0xbd, 0x05, 0xb3, 0xb7, 0xbd,
  0xb1, 0x42, 0xcf, 0xbc, 0xc6, 0x5f, 0x00, 0x3e, 0x76, 0x03, 0x17, 0x3c,
  0xb8, 0xa9, 0xa4, 0xbf, 0xbe, 0x77, 0x8c, 0xbe, 0x6d, 0x36, 0x89, 0xbe,
  0x38, 0x49, 0x85, 0xbc, 0xc8, 0x8c, 0x16, 0x3e, 0x4e, 0x11, 0x35, 0x3e,
  0x1c, 0x94, 0x69, 0x3f, 0x3a, 0x63, 0xab, 0x3f, 0xe2, 0xe8, 0x05, 0x3f,
  0x10, 0xc4, 0x5d, 0xbf, 0x33, 0x28, 0xdd, 0x3d, 0xc4, 0x75, 0x94, 0xbe,
  0x8a, 0x66, 0xc8, 0xbb, 0x5e, 0x59, 0x25, 0x3f, 0x88, 0x53, 0x8e, 0x3f,
  0xf6, 0xb7, 0x4f, 0x3f, 0xa0, 0x01, 0x19, 0xbd, 0x51, 0xe6, 0x04, 0x3f,
  0x46, 0xbe, 0xac, 0x3d, 0x33, 0xe9, 0x1c, 0x3f, 0xb0, 0x27, 0xff, 0x3e,
  0x9a, 0x09, 0xb7, 0xbe, 0x18, 0xe2, 0xb8, 0x3f, 0xdc, 0x3a, 0xa5, 0xbf,
  0x62, 0xf2, 0x85, 0xbd, 0x92, 0xd0, 0x88, 0x3e, 0xb4, 0x30, 0x28, 0x3f,
  0x9a, 0x8b, 0xc1, 0xbe, 0x83, 0x09, 0xd9, 0xbe, 0xa4, 0x2c, 0x21, 0x3e,
  0x39, 0xb8, 0xce, 0xbe, 0x2b, 0x84, 0x6c, 0x3f, 0xc8, 0xfb, 0x5e, 0xbf,
  0x8d, 0x41, 0xf1, 0x3e, 0x09, 0xec, 0x79, 0xbf, 0x08, 0x30, 0x9f, 0x3f,
  0x2a, 0x9b, 0x62, 0xbf, 0x59, 0x9f, 0x96, 0x3e, 0x58, 0x99, 0x29, 0xbf,
  0x08, 0x0d, 0x74, 0x3d, 0xcf, 0x8f, 0xe1, 0xbe, 0x95, 0xf5, 0x86, 0x3d,
  0x84, 0x74, 0xab, 0x3e, 0x7b, 0xef, 0xca, 0x3e, 0xfb, 0x0d, 0x58, 0xbf,
  0xc8, 0x4b, 0x21, 0x3f, 0x04, 0x66, 0x81, 0xbf, 0x32, 0x54, 0xf0, 0xbe,
  0x60, 0xef, 0x84, 0xbf, 0xe7, 0x5d, 0xf9, 0x3f, 0x1a, 0x6c, 0xed, 0xbb,
  0x5e, 0x8b, 0x3e, 0xbd, 0x12, 0x5d, 0x21, 0x3e, 0xb0, 0xdb, 0x91, 0x3e,
  0xae, 0x91, 0x2d, 0xbf, 0x70, 0xf2, 0x06, 0x3f, 0x85, 0x5c, 0x32, 0xbf,
  0xd8, 0x01, 0xcd, 0x3e, 0x06, 0xb3, 0x7d, 0xbd, 0x4b, 0x23, 0xd5, 0xbc,
  0xb2, 0xa8, 0x2a, 0x3f, 0x12, 0xee, 0xa6, 0xbf, 0xc7, 0xd5, 0x19, 0x3f,
  0xac, 0x8f, 0x0d, 0xbf, 0x32, 0x29, 0x0f, 0xbe, 0xa9, 0xcd, 0x54, 0xbe,
  0x34, 0x64, 0x22, 0x3e, 0x28, 0x47, 0x9c, 0x3e, 0xf4, 0xf0, 0x23, 0x3f,
  0x49, 0x03, 0xb9, 0x3d, 0x21, 0x2b, 0x91, 0x3e, 0x17, 0x56, 0x1e, 0x3e,
  0x3c, 0x48, 0x74, 0x3e, 0xb4, 0x80, 0xa7, 0xbe, 0xf4, 0x91, 0xdf, 0x3e,
  0xcc, 0x1a, 0xd9, 0xbe, 0x33, 0x84, 0xd7, 0x3e, 0x82, 0x3c, 0x9e, 0x3d,
  0x42, 0xb4, 0x28, 0xbe, 0x7b, 0x74, 0xba, 0xbd, 0x7a, 0xf2, 0x98, 0xbe,
  0x8c, 0xde, 0x55, 0xbd, 0x76, 0xb5, 0x11, 0xbf, 0x3a, 0x0d, 0x6b, 0x3d,
  0xa7, 0xc0, 0xa1, 0xbe, 0xf5, 0x02, 0x0d, 0xbd, 0x24, 0xf0, 0xe3, 0xbe,
  0x85, 0xef, 0xc6, 0xbe, 0xc5, 0xf8, 0x12, 0xbf, 0xc2, 0x30, 0x46, 0xbd,
  0x66, 0xd4, 0xd4, 0xbd, 0x6f, 0x9d, 0x54, 0x3e, 0xa8, 0x05, 0x07, 0xbe,
  0xb7, 0x01, 0x5b, 0x3b, 0xe3, 0xab, 0x55, 0x3b, 0xcb, 0x5d, 0x4c, 0xbc,
  0x45, 0xb4, 0xa8, 0x3f, 0xe3, 0x2e, 0x3c, 0xbc, 0x7c, 0xf1, 0x84, 0x3f,
  0x34, 0x84, 0x69, 0xbe, 0xa3, 0x10, 0x09, 0x3e, 0x16, 0x97, 0x4f, 0xbf,
  0x5b, 0xac, 0xd0, 0x3f, 0x38, 0x7e, 0x8f, 0xbf, 0xc2, 0x1e, 0x92, 0x3f,
  0xf2, 0x9f, 0xbc, 0x3f, 0x52, 0x69, 0x90, 0x3e, 0x7e, 0xe8, 0x78, 0xbe,
  0xa8, 0x4a, 0x93, 0xbe, 0xfb, 0xc7, 0xaf, 0xbf, 0xfc, 0x0a, 0x2e, 0xbf,
  0x21, 0x59, 0xc2, 0x3d, 0x1f, 0x3a, 0x5f, 0xbe, 0x8e, 0x2f, 0xc0, 0xbe,
  0xb5, 0x05, 0x2c, 0x3f, 0xe9, 0x48, 0xf2, 0x3e, 0xde, 0xd1, 0x8d, 0xbf,
  0xbf, 0x81, 0x63, 0xbe, 0xd2, 0x0a, 0x6f, 0xbe, 0x62, 0xad, 0xe6, 0x3e,
  0x33, 0xfb, 0x82, 0xbf, 0xc8, 0xbe, 0xae, 0xbf, 0x41, 0x73, 0xcc, 0x3e,
  0xba, 0x55, 0xf4, 0xbe, 0x2c, 0x94, 0x8b, 0x3e, 0x14, 0xc4, 0xf1, 0xbc,
  0x7a, 0xf1, 0xf7, 0x3e, 0xb2, 0x03, 0xc5, 0xbd, 0x86, 0x48, 0xfd, 0x3c,
  0x39, 0x1c, 0x5d, 0xbe, 0xad, 0x67, 0xb1, 0x3e, 0x58, 0xb8, 0x36, 0x3f,
  0x44, 0xad, 0x49, 0x3f, 0x0e, 0x34, 0x54, 0x3f, 0xae, 0x49, 0x35, 0x3e,
  0x88, 0xc7, 0x81, 0xbe, 0xb5, 0x11, 0xae, 0xbf, 0x03, 0x84, 0x86, 0xbf,
  0xdf, 0x22, 0x38, 0x3f, 0x1c, 0x97, 0x77, 0xbf, 0x80, 0x49, 0x08, 0x3f,
  0xbb, 0xcb, 0x21, 0xbf, 0x55, 0x73, 0xa3, 0x3d, 0x14, 0xc1, 0x50, 0x3e,
  0xc7, 0x7f, 0x24, 0xbe, 0x9f, 0xa6, 0xc6, 0xbe, 0x9e, 0x20, 0x20, 0xbe,
  0xfe, 0x7b, 0x0d, 0xbf, 0x83, 0x31, 0x4e, 0xbf, 0xeb, 0xf8, 0x71, 0xbe,
  0x75, 0x5e, 0x3d, 0xbf, 0x50, 0x35, 0x25, 0x3e, 0x03, 0x73, 0xfe, 0x3c,
  0x20, 0x36, 0x43, 0xbf, 0x85, 0x9a, 0xa1, 0x3e, 0x59, 0x9a, 0x22, 0x3e,
  0x22, 0x5a, 0x1c, 0x3e, 0xe2, 0x53, 0x5f, 0x3e, 0xc9, 0xc8, 0xd5, 0x3e,
  0xc7, 0x54, 0x2f, 0x3f, 0xf7, 0xea, 0x0e, 0x3f, 0x81, 0x78, 0x60, 0x3f,
  0x0b, 0x19, 0xb7, 0xbe, 0x6b, 0xbf, 0x9e, 0xbe, 0x37, 0x51, 0x75, 0xbe,
  0x9a, 0x8b, 0x80, 0xbf, 0x36, 0x9e, 0x9c, 0xbe, 0x59, 0x86, 0x3b, 0x3e,
  0x54, 0x16, 0x5e, 0xbf, 0x69, 0x1a, 0x1c, 0x3f, 0x3d, 0x9f, 0xc1, 0xbf,
  0x15, 0x3c, 0x39, 0x3f, 0xc1, 0xca, 0xf9, 0xbe, 0x81, 0xde, 0x1b, 0x3f,
  0xd8, 0xe8, 0xb5, 0xbd, 0x65, 0x3a, 0x38, 0xbe, 0xc0, 0x26, 0x83, 0xbd,
  0x4c, 0x42, 0x0b, 0xbd, 0x31, 0xa1, 0x43, 0xbe, 0xba, 0x3d, 0xc6, 0xbf,
  0x9c, 0xc9, 0x92, 0xbe, 0x25, 0x59, 0x03, 0xbf, 0x0c, 0xf3, 0x03, 0xbf,
  0xab, 0x89, 0x93, 0x3e, 0x44, 0x77, 0x5a, 0xbf, 0x58, 0xcc, 0xb1, 0x3d,
  0x7c, 0x47, 0x0c, 0xbf, 0xc7, 0x61, 0x14, 0xbe, 0x77, 0x3b, 0xaa, 0xbe,
  0xf7, 0x2b, 0x36, 0xbe, 0x3d, 0xfa, 0xab, 0xbe, 0xcd, 0x6a, 0x85, 0x3d,
  0x34, 0x4d, 0xb9, 0x3d, 0x77, 0x69, 0x18, 0x3d, 0x84, 0x16, 0xab, 0xbe,
  0x42, 0x3e, 0x23, 0xbc, 0x97, 0x97, 0x4e, 0xbf, 0x15, 0x11, 0x8e, 0xbd,
  0xcb, 0x09, 0x94, 0xbf, 0x17, 0x11, 0xcd, 0x3d, 0x3f, 0x1e, 0xdb, 0xbe,
  0x09, 0x87, 0xe1, 0xbe, 0x8b, 0x8f, 0xaa, 0xbf, 0x57, 0xf3, 0xd9, 0xbe,
  0xa8, 0x6c, 0x9e, 0x3c, 0xd5, 0x97, 0xb2, 0x3f, 0x53, 0xc5, 0x91, 0x3f,
  0x0b, 0x38, 0xa4, 0x3f, 0xa0, 0x49, 0x68, 0x3f, 0x34, 0x33, 0x18, 0x3e,
  0x63, 0x15, 0x48, 0xbf, 0x33, 0x1d, 0xfd, 0x3c, 0x80, 0x04, 0xfe, 0xbe,
  0x9c, 0xb5, 0x74, 0x3f, 0x10, 0xdd, 0x27, 0x3f, 0x8b, 0x25, 0x33, 0x3f,
  0x08, 0x5e, 0xe6, 0xbc, 0x8e, 0x85, 0xa9, 0x3e, 0x5d, 0xce, 0x95, 0x3d,
  0x28, 0x70, 0x64, 0x3f, 0x9c, 0x09, 0x55, 0x3f, 0xc8, 0xbc, 0xaa, 0x3e,
  0xd9, 0x11, 0x84, 0xbf, 0xa1, 0xf3, 0x85, 0x3e, 0xd4, 0x79, 0x1e, 0x3e,
  0x0d, 0x81, 0x5e, 0x3f, 0xef, 0xb5, 0xa6, 0xbf, 0x1a, 0xa3, 0xb0, 0xbe,
  0x48, 0xb4, 0x9a, 0xbf, 0x2b, 0xd3, 0x23, 0xbe, 0x3e, 0xc4, 0x5f, 0xbe,
  0xfb, 0x2f, 0xa5, 0xbf, 0x57, 0xf7, 0x4c, 0xbf, 0x0e, 0xf9, 0x77, 0x3f,
  0xc0, 0xee, 0xee, 0xbd, 0x3d, 0x36, 0xb2, 0x3d, 0x0a, 0x39, 0x31, 0xbf,
  0xe4, 0xc5, 0xcf, 0x3d, 0x0d, 0x2c, 0xca, 0xbf, 0x6a, 0xa5, 0x63, 0x3f,
  0xf6, 0xad, 0xc4, 0x3f, 0x9b, 0xab, 0x87, 0xbd, 0x4b, 0x3c, 0xa2, 0x3f,
  0x2e, 0x8d, 0x44, 0x3f, 0x5e, 0x5c, 0xa0, 0x3d, 0xc0, 0x9a, 0x45, 0xbe,
  0x95, 0x89, 0xd2, 0x3d, 0xe5, 0x63, 0xf9, 0x3e, 0x59, 0x85, 0xaa, 0x3d,
  0x06, 0x96, 0xd3, 0x3e, 0x94, 0xeb, 0x00, 0x3e, 0x1b, 0x94, 0x28, 0x3f,
  0x34, 0x9c, 0x70, 0x3f, 0xc5, 0xfb, 0x7c, 0xbf, 0x6f, 0x4c, 0x2b, 0x3f,
  0xe6, 0x71, 0x94, 0x3e, 0x07, 0xd1, 0x2a, 0x3f, 0x44, 0xb4, 0xa5, 0x3f,
  0x93, 0x36, 0xa9, 0xbe, 0x65, 0x35, 0xe8, 0xbd, 0x4b, 0x26, 0x0a, 0x3e,
  0x85, 0x04, 0x36, 0x3d, 0xd0, 0x22, 0x63, 0xbd, 0xab, 0x39, 0xc8, 0x3d,
  0x0d, 0x70, 0xc6, 0xbe, 0x4b, 0xc0, 0xc3, 0xbe, 0x5e, 0x03, 0x6f, 0xbe,
  0x14, 0x09, 0x54, 0xbf, 0x82, 0x16, 0x27, 0x3f, 0x31, 0x55, 0xa8, 0xbe,
  0xde, 0x35, 0x1d, 0x3e, 0x54, 0xdd, 0x92, 0xbe, 0xe4, 0xff, 0x9a, 0xbe,
  0x7a, 0x55, 0xdb, 0xbe, 0x92, 0xb5, 0x02, 0x3e, 0x01, 0x04, 0x3a, 0x3e,
  0x6c, 0x2d, 0x3b, 0x3f, 0x8e, 0xda, 0xed, 0x3e, 0x79, 0xa8, 0x02, 0x40,
  0xca, 0x97, 0x5d, 0xbe, 0x24, 0x50, 0x0e, 0x40, 0x1d, 0xa9, 0xff, 0xbe,
  0x83, 0x6c, 0xfa, 0x3f, 0x53, 0x8e, 0x8d, 0xbe, 0xd5, 0x56, 0xc0, 0x3f,
  0xb1, 0xa6, 0x68, 0xbf, 0x17, 0x85, 0xd0, 0x3e, 0x66, 0xf6, 0x2c, 0xbe,
  0xb7, 0xd9, 0x59, 0x3e, 0x06, 0x1c, 0xe8, 0xbc, 0x55, 0xd2, 0x06, 0xbd,
  0xfa, 0xe9, 0x85, 0xbd, 0x66, 0xa6, 0x91, 0xbe, 0x4c, 0x64, 0x1c, 0xbd,
  0x31, 0xd7, 0xe8, 0xbe, 0xc7, 0x0b, 0x0f, 0xbe, 0xa6, 0xa3, 0xc8, 0xbd,
  0x8c, 0xb6, 0x6c, 0xbe, 0x39, 0x6e, 0xf0, 0xbe, 0x3c, 0x68, 0x08, 0x3f,
  0xc5, 0x48, 0x0f, 0x3f, 0x54, 0x27, 0xb0, 0x3e, 0xde, 0x13, 0x94, 0xbd,
  0x3e, 0x4e, 0xca, 0xbe, 0xc2, 0xe3, 0x9f, 0x3e, 0xbb, 0x2c, 0x44, 0x3e,
  0xa9, 0x94, 0xaa, 0x3c, 0x34, 0xd1, 0xb8, 0x3e, 0x16, 0xec, 0x97, 0x3e,
  0x3a, 0x31, 0xea, 0x3e, 0x9b, 0x93, 0xb1, 0x3e, 0x3d, 0x4f, 0xd2, 0x3e,
  0x31, 0xbc, 0xce, 0x3e, 0xc8, 0x99, 0x42, 0xbf, 0x07, 0xbc, 0x84, 0x3e,
  0x09, 0x92, 0x88, 0x3f, 0xd1, 0x1e, 0x27, 0x3f, 0xe6, 0x84, 0xd4, 0xbd,
  0x2b, 0x13, 0x98, 0xbe, 0x3b, 0x68, 0xdd, 0xbe, 0xab, 0x6d, 0x92, 0x3d,
  0xbc, 0xe0, 0x7d, 0x3e, 0x91, 0xd1, 0x4b, 0xbe, 0xde, 0xba, 0x56, 0x3e,
  0x4c, 0x38, 0xbb, 0xbe, 0x29, 0xe4, 0x9f, 0x3e, 0xc2, 0xb0, 0x32, 0xbd,
  0x4f, 0x08, 0x0b, 0xbe, 0x45, 0xee, 0xee, 0xbd, 0x71, 0x40, 0x4e, 0xbe,
  0x54, 0x2f, 0xc9, 0xbe, 0xfa, 0xc3, 0x6c, 0xbe, 0x7e, 0xf4, 0x38, 0x3c,
  0xfb, 0xe7, 0xa8, 0x3e, 0x7a, 0xb2, 0xb2, 0x3e, 0xdf, 0x75, 0x98, 0x3e,
  0xa2, 0xc8, 0x50, 0xbe, 0xf6, 0x58, 0x3d, 0xbf, 0x9d, 0xc4, 0xdf, 0xbe,
  0x36, 0x86, 0x25, 0x3f, 0x6c, 0xc0, 0xbf, 0xbe, 0x82, 0x37, 0x90, 0x3f,
  0x56, 0x21, 0xad, 0xbe, 0x16, 0x00, 0x0f, 0x3f, 0xa4, 0x52, 0xb3, 0x3d,
  0xb4, 0x33, 0x7b, 0x3d, 0xe5, 0x67, 0x88, 0xbd, 0x86, 0x22, 0xe5, 0xbe,
  0x24, 0x53, 0x72, 0x3f, 0xbc, 0x18, 0xaf, 0xbe, 0xc8, 0x2c, 0x7a, 0x3f,
  0x1e, 0x96, 0x14, 0x3e, 0xbe, 0xed, 0x51, 0xbe, 0xd1, 0xb8, 0xc9, 0x3e,
  0x88, 0x60, 0xb7, 0xbe, 0x23, 0xb4, 0x17, 0x3c, 0x5c, 0x51, 0x31, 0xbf,
  0xf6, 0x3f, 0xdf, 0xbe, 0xba, 0xd5, 0x02, 0x3e, 0x38, 0x08, 0x06, 0x3c,
  0x07, 0x94, 0x43, 0xbe, 0x73, 0x6b, 0x80, 0xbe, 0xbf, 0x1b, 0xff, 0x3e,
  0x84, 0xcc, 0xbf, 0xbe, 0xc0, 0x6a, 0x97, 0x3e, 0x20, 0x47, 0x9d, 0xbd,
  0xff, 0xd0, 0x09, 0x3f, 0x2f, 0xad, 0x01, 0x3e, 0x17, 0x1a, 0x37, 0x3f,
  0xe1, 0x17, 0xb2, 0xbe, 0x9f, 0xbc, 0x5e, 0x3e, 0x76, 0xd7, 0x6a, 0x3e,
  0x4c, 0xb2, 0xaa, 0x3d, 0x4e, 0xb3, 0xc9, 0xbe, 0xeb, 0xc2, 0xba, 0xbe,
  0xe9, 0x4c, 0x18, 0xbd, 0x93, 0xa8, 0xae, 0xbf, 0xe8, 0xd1, 0xbd, 0x3d,
  0xd7, 0x52, 0x70, 0xbf, 0x1b, 0xe7, 0x19, 0x3f, 0x53, 0xcf, 0x8e, 0xbf,
  0x52, 0xf1, 0x75, 0x3e, 0x6a, 0xd2, 0x05, 0xbf, 0xa1, 0x44, 0x4f, 0x3e,
  0x70, 0x17, 0x6b, 0xbb, 0xca, 0xc2, 0xb3, 0xbd, 0x24, 0xe6, 0x10, 0x3e,
  0x5e, 0x69, 0x69, 0xbd, 0xef, 0xce, 0xaf, 0x3d, 0xf8, 0x38, 0x20, 0x3d,
  0xba, 0xd7, 0x99, 0xbe, 0xab, 0x8b, 0x2a, 0x3d, 0x23, 0x7f, 0xf1, 0xbe,
  0x96, 0x8a, 0x14, 0xbe, 0xc1, 0x36, 0x6c, 0xbf, 0x71, 0x48, 0xe4, 0xbe,
  0x71, 0x5a, 0x0c, 0xc0, 0x3e, 0x68, 0x00, 0xbf, 0xa6, 0x08, 0x4b, 0xbf,
  0x72, 0x54, 0x83, 0xbf, 0x93, 0xfb, 0xb8, 0xbe, 0x42, 0xe0, 0x08, 0xbf,
  0xba, 0xa8, 0xd2, 0xbf, 0x1e, 0x58, 0xc1, 0xbd, 0xcd, 0xcf, 0x11, 0x3f,
  0xc0, 0xb7, 0xf7, 0x3e, 0x58, 0x91, 0x07, 0xbe, 0xf0, 0x9b, 0x92, 0xbf,
  0x95, 0x08, 0xec, 0x3e, 0x03, 0x95, 0xdb, 0x3d, 0x27, 0x68, 0x10, 0x3f,
  0x8d, 0x02, 0x35, 0x3f, 0x8d, 0x9c, 0x37, 0xbf, 0xc0, 0x0b, 0x11, 0x3f,
  0x24, 0x34, 0x2e, 0xbf, 0xa1, 0xe9, 0xb6, 0xbe, 0x67, 0x44, 0x27, 0x3f,
  0xd3, 0x67, 0x80, 0x3f, 0x63, 0xc0, 0x0d, 0x3f, 0x9c, 0x39, 0x27, 0xbf,
  0x7a, 0x7d, 0x0a, 0x3f, 0x23, 0x58, 0x16, 0x3f, 0x67, 0x6c, 0x0b, 0xbf,
  0x1d, 0xc0, 0x30, 0x3e, 0xf0, 0xab, 0xa7, 0xbc, 0xfd, 0x77, 0xac, 0xbe,
  0x1c, 0xfb, 0x21, 0xbe, 0x74, 0xa4, 0xbe, 0xbf, 0xda, 0x81, 0x2e, 0xbe,
  0x56, 0x47, 0x21, 0x3d, 0xcd, 0x2f, 0xb4, 0xbd, 0x8d, 0xb3, 0x63, 0xbd,
  0x26, 0xcc, 0xaa, 0xbe, 0xda, 0x36, 0xe6, 0x3d, 0x41, 0x45, 0xd3, 0xbc,
  0x8b, 0x82, 0x48, 0x3f, 0xe5, 0x23, 0x3c, 0xbe, 0xeb, 0xc9, 0x40, 0xbf,
  0xc0, 0x4c, 0xa8, 0xbd, 0x89, 0x46, 0xed, 0x3e, 0x1f, 0xac, 0x53, 0x3e,
  0xc8, 0x6e, 0xac, 0xbe, 0xf2, 0x40, 0x9f, 0x3d, 0x83, 0x72, 0x67, 0x3e,
  0xb0, 0x7e, 0x7b, 0xbe, 0xf0, 0x64, 0xf7, 0x3e, 0x4d, 0x5b, 0xa2, 0xbe,
  0x82, 0xda, 0x74, 0x3f, 0x49, 0xa7, 0x6b, 0xbf, 0x30, 0xfa, 0xb6, 0x3e,
  0xd4, 0x88, 0x95, 0xbe, 0x0c, 0xfc, 0xf0, 0xbe, 0xbf, 0xf4, 0xf0, 0x3c,
  0xc6, 0x83, 0xb8, 0xbe, 0x37, 0x64, 0x82, 0x3d, 0x40, 0x61, 0x32, 0xbf,
  0xc2, 0x99, 0xb0, 0x3d, 0x27, 0xe9, 0x95, 0xbe, 0xc8, 0x9a, 0x86, 0xbe,
  0x4f, 0xcc, 0x30, 0x3e, 0x88, 0x74, 0x53, 0x3d, 0x2d, 0x5f, 0x53, 0x3f,
  0x5e, 0x75, 0x16, 0x3f, 0xde, 0xa3, 0x6a, 0xbe, 0xa3, 0x10, 0xd2, 0x3e,
  0xae, 0x21, 0xca, 0xbe, 0x88, 0x09, 0xf9, 0x39, 0x1b, 0x9b, 0x7a, 0xbf,
  0x08, 0xc2, 0x22, 0xbd, 0xf1, 0x3d, 0xfb, 0xbd, 0x25, 0xab, 0xee, 0x3d,
  0xf3, 0xec, 0xd0, 0x3d, 0x1d, 0x0f, 0x23, 0x3e, 0x48, 0x94, 0x97, 0x3e,
  0xf0, 0xa7, 0xe7, 0x3f, 0x74, 0x4f, 0x16, 0x3e, 0x64, 0x07, 0xe3, 0x3f,
  0x16, 0x19, 0x0b, 0xbf, 0x89, 0xa3, 0x02, 0x40, 0x7f, 0x91, 0xb3, 0xbe,
  0x82, 0x98, 0xe9, 0x3f, 0xd5, 0x7f, 0x9e, 0x3d, 0xda, 0x42, 0x09, 0x3e,
  0x80, 0x0f, 0x09, 0x3f, 0x13, 0x00, 0xf2, 0x3d, 0xce, 0xfe, 0xff, 0xff,
  0x04, 0x00, 0x00, 0x00, 0x08, 0x00, 0x00, 0x00, 0xff, 0xff, 0xff, 0xff,
  0x62, 0x00, 0x00, 0x00, 0xe2, 0xfe, 0xff, 0xff, 0x04, 0x00, 0x00, 0x00,
  0x40, 0x00, 0x00, 0x00, 0x4a, 0x67, 0x34, 0x3f, 0xea, 0xf3, 0xff, 0xbc,
  0xb6, 0xaf, 0x45, 0x3f, 0xf5, 0x07, 0xf7, 0x3e, 0xe4, 0x90, 0x9c, 0xbf,
  0x18, 0xa3, 0xbd, 0xbe, 0x1b, 0x75, 0x05, 0xbf, 0x26, 0x20, 0x1e, 0xbf,
  0x09, 0x13, 0x37, 0xbf, 0xff, 0x30, 0x92, 0xbe, 0x0a, 0x21, 0xc9, 0xbd,
  0x41, 0xb8, 0x8d, 0x3e, 0xd9, 0x1d, 0x20, 0xbf, 0x33, 0xa7, 0x10, 0xbd,
  0x8d, 0xf6, 0xe6, 0x3e, 0x04, 0xb7, 0xec, 0x3e, 0x2e, 0xff, 0xff, 0xff,
  0x04, 0x00, 0x00, 0x00, 0x20, 0x00, 0x00, 0x00, 0x1d, 0x11, 0xda, 0x3e,
  0x38, 0xaf, 0xb5, 0x3e, 0x72, 0x75, 0xf9, 0x3d, 0xfa, 0xdf, 0xb3, 0x3e,
  0x53, 0xc8, 0xb0, 0xbe, 0xd4, 0xbe, 0x2e, 0x3e, 0xfb, 0xf8, 0x1a, 0xbd,
  0xd0, 0xa8, 0x09, 0x3f, 0x5a, 0xff, 0xff, 0xff, 0x04, 0x00, 0x00, 0x00,
  0x08, 0x00, 0x00, 0x00, 0x00, 0x00, 0x00, 0x00, 0x00, 0x00, 0x00, 0x00,
  0x84, 0xf8, 0xff, 0xff, 0x88, 0xf8, 0xff, 0xff, 0x0f, 0x00, 0x00, 0x00,
  0x4d, 0x4c, 0x49, 0x52, 0x20, 0x43, 0x6f, 0x6e, 0x76, 0x65, 0x72, 0x74,
  0x65, 0x64, 0x2e, 0x00, 0x01, 0x00, 0x00, 0x00, 0x14, 0x00, 0x00, 0x00,
  0x00, 0x00, 0x0e, 0x00, 0x18, 0x00, 0x14, 0x00, 0x10, 0x00, 0x0c, 0x00,
  0x08, 0x00, 0x04, 0x00, 0x0e, 0x00, 0x00, 0x00, 0x14, 0x00, 0x00, 0x00,
  0x1c, 0x00, 0x00, 0x00, 0x10, 0x02, 0x00, 0x00, 0x14, 0x02, 0x00, 0x00,
  0x18, 0x02, 0x00, 0x00, 0x04, 0x00, 0x00, 0x00, 0x6d, 0x61, 0x69, 0x6e,
  0x00, 0x00, 0x00, 0x00, 0x07, 0x00, 0x00, 0x00, 0xa8, 0x01, 0x00, 0x00,
  0x44, 0x01, 0x00, 0x00, 0xf0, 0x00, 0x00, 0x00, 0xac, 0x00, 0x00, 0x00,
  0x84, 0x00, 0x00, 0x00, 0x40, 0x00, 0x00, 0x00, 0x04, 0x00, 0x00, 0x00,
  0xe2, 0xfe, 0xff, 0xff, 0x1c, 0x00, 0x00, 0x00, 0x00, 0x00, 0x00, 0x09,
  0x1c, 0x00, 0x00, 0x00, 0x20, 0x00, 0x00, 0x00, 0x04, 0x00, 0x00, 0x00,
  0x00, 0x00, 0x06, 0x00, 0x08, 0x00, 0x04, 0x00, 0x06, 0x00, 0x00, 0x00,
  0x00, 0x00, 0x80, 0x3f, 0x01, 0x00, 0x00, 0x00, 0x0c, 0x00, 0x00, 0x00,
  0x01, 0x00, 0x00, 0x00, 0x0b, 0x00, 0x00, 0x00, 0x1a, 0xff, 0xff, 0xff,
  0x14, 0x00, 0x00, 0x00, 0x00, 0x00, 0x00, 0x08, 0x10, 0x00, 0x00, 0x00,
  0x14, 0x00, 0x00, 0x00, 0x03, 0x00, 0x00, 0x00, 0x4c, 0xf9, 0xff, 0xff,
  0x01, 0x00, 0x00, 0x00, 0x0b, 0x00, 0x00, 0x00, 0x03, 0x00, 0x00, 0x00,
  0x0a, 0x00, 0x00, 0x00, 0x05, 0x00, 0x00, 0x00, 0xff, 0xff, 0xff, 0xff,
  0x00, 0x00, 0x0a, 0x00, 0x10, 0x00, 0x0c, 0x00, 0x08, 0x00, 0x04, 0x00,
  0x0a, 0x00, 0x00, 0x00, 0x0c, 0x00, 0x00, 0x00, 0x10, 0x00, 0x00, 0x00,
  0x02, 0x00, 0x00, 0x00, 0x01, 0x00, 0x00, 0x00, 0x0a, 0x00, 0x00, 0x00,
  0x02, 0x00, 0x00, 0x00, 0x09, 0x00, 0x00, 0x00, 0x04, 0x00, 0x00, 0x00,
  0x7e, 0xff, 0xff, 0xff, 0x14, 0x00, 0x00, 0x00, 0x00, 0x00, 0x00, 0x05,
  0x24, 0x00, 0x00, 0x00, 0x28, 0x00, 0x00, 0x00, 0x01, 0x00, 0x00, 0x00,
  0x6e, 0xff, 0xff, 0xff, 0x02, 0x00, 0x00, 0x00, 0x02, 0x00, 0x00, 0x00,
  0x02, 0x00, 0x00, 0x00, 0x02, 0x00, 0x00, 0x00, 0x00, 0x00, 0x00, 0x01,
  0x01, 0x00, 0x00, 0x00, 0x09, 0x00, 0x00, 0x00, 0x01, 0x00, 0x00, 0x00,
  0x08, 0x00, 0x00, 0x00, 0x5e, 0xff, 0xff, 0xff, 0x10, 0x00, 0x00, 0x00,
  0x00, 0x00, 0x00, 0x01, 0x1c, 0x00, 0x00, 0x00, 0x20, 0x00, 0x00, 0x00,
  0x50, 0xff, 0xff, 0xff, 0x00, 0x00, 0x00, 0x01, 0x01, 0x00, 0x00, 0x00,
  0x01, 0x00, 0x00, 0x00, 0x00, 0x00, 0x00, 0x01, 0x01, 0x00, 0x00, 0x00,
  0x08, 0x00, 0x00, 0x00, 0x03, 0x00, 0x00, 0x00, 0x07, 0x00, 0x00, 0x00,
  0x03, 0x00, 0x00, 0x00, 0x01, 0x00, 0x00, 0x00, 0x00, 0x00, 0x0e, 0x00,
  0x1a, 0x00, 0x14, 0x00, 0x10, 0x00, 0x0c, 0x00, 0x0b, 0x00, 0x04, 0x00,
  0x0e, 0x00, 0x00, 0x00, 0x24, 0x00, 0x00, 0x00, 0x00, 0x00, 0x00, 0x05,
  0x34, 0x00, 0x00, 0x00, 0x38, 0x00, 0x00, 0x00, 0x01, 0x00, 0x00, 0x00,
  0x00, 0x00, 0x0e, 0x00, 0x18, 0x00, 0x17, 0x00, 0x10, 0x00, 0x0c, 0x00,
  0x08, 0x00, 0x04, 0x00, 0x0e, 0x00, 0x00, 0x00, 0x02, 0x00, 0x00, 0x00,
  0x02, 0x00, 0x00, 0x00, 0x02, 0x00, 0x00, 0x00, 0x02, 0x00, 0x00, 0x00,
  0x00, 0x00, 0x00, 0x01, 0x01, 0x00, 0x00, 0x00, 0x07, 0x00, 0x00, 0x00,
  0x01, 0x00, 0x00, 0x00, 0x06, 0x00, 0x00, 0x00, 0x00, 0x00, 0x0e, 0x00,
  0x14, 0x00, 0x00, 0x00, 0x10, 0x00, 0x0c, 0x00, 0x0b, 0x00, 0x04, 0x00,
  0x0e, 0x00, 0x00, 0x00, 0x1c, 0x00, 0x00, 0x00, 0x00, 0x00, 0x00, 0x01,
  0x28, 0x00, 0x00, 0x00, 0x2c, 0x00, 0x00, 0x00, 0x0c, 0x00, 0x14, 0x00,
  0x13, 0x00, 0x0c, 0x00, 0x08, 0x00, 0x07, 0x00, 0x0c, 0x00, 0x00, 0x00,
  0x00, 0x00, 0x00, 0x01, 0x01, 0x00, 0x00, 0x00, 0x01, 0x00, 0x00, 0x00,
  0x00, 0x00, 0x00, 0x01, 0x01, 0x00, 0x00, 0x00, 0x06, 0x00, 0x00, 0x00,
  0x03, 0x00, 0x00, 0x00, 0x00, 0x00, 0x00, 0x00, 0x02, 0x00, 0x00, 0x00,
  0x01, 0x00, 0x00, 0x00, 0x01, 0x00, 0x00, 0x00, 0x0c, 0x00, 0x00, 0x00,
  0x01, 0x00, 0x00, 0x00, 0x00, 0x00, 0x00, 0x00, 0x0d, 0x00, 0x00, 0x00,
  0xe8, 0x04, 0x00, 0x00, 0x88, 0x04, 0x00, 0x00, 0x1c, 0x04, 0x00, 0x00,
  0xc8, 0x03, 0x00, 0x00, 0x78, 0x03, 0x00, 0x00, 0x14, 0x03, 0x00, 0x00,
  0x94, 0x02, 0x00, 0x00, 0x1c, 0x02, 0x00, 0x00, 0x98, 0x01, 0x00, 0x00,
  0x20, 0x01, 0x00, 0x00, 0xbc, 0x00, 0x00, 0x00, 0x60, 0x00, 0x00, 0x00,
  0x04, 0x00, 0x00, 0x00, 0x62, 0xfb, 0xff, 0xff, 0x00, 0x00, 0x00, 0x01,
  0x14, 0x00, 0x00, 0x00, 0x1c, 0x00, 0x00, 0x00, 0x1c, 0x00, 0x00, 0x00,
  0x0d, 0x00, 0x00, 0x00, 0x34, 0x00, 0x00, 0x00, 0x02, 0x00, 0x00, 0x00,
  0xff, 0xff, 0xff, 0xff, 0x0a, 0x00, 0x00, 0x00, 0x44, 0xfb, 0xff, 0xff,
  0x19, 0x00, 0x00, 0x00, 0x53, 0x74, 0x61, 0x74, 0x65, 0x66, 0x75, 0x6c,
  0x50, 0x61, 0x72, 0x74, 0x69, 0x74, 0x69, 0x6f, 0x6e, 0x65, 0x64, 0x43,
  0x61, 0x6c, 0x6c, 0x3a, 0x30, 0x00, 0x00, 0x00, 0x02, 0x00, 0x00, 0x00,
  0x01, 0x00, 0x00, 0x00, 0x0a, 0x00, 0x00, 0x00, 0xba, 0xfb, 0xff, 0xff,
  0x00, 0x00, 0x00, 0x01, 0x14, 0x00, 0x00, 0x00, 0x1c, 0x00, 0x00, 0x00,
  0x1c, 0x00, 0x00, 0x00, 0x0c, 0x00, 0x00, 0x00, 0x34, 0x00, 0x00, 0x00,
  0x02, 0x00, 0x00, 0x00, 0xff, 0xff, 0xff, 0xff, 0x0a, 0x00, 0x00, 0x00,
  0x9c, 0xfb, 0xff, 0xff, 0x18, 0x00, 0x00, 0x00, 0x73, 0x65, 0x71, 0x75,
  0x65, 0x6e, 0x74, 0x69, 0x61, 0x6c, 0x2f, 0x64, 0x65, 0x6e, 0x73, 0x65,
  0x2f, 0x4d, 0x61, 0x74, 0x4d, 0x75, 0x6c, 0x32, 0x00, 0x00, 0x00, 0x00,
  0x02, 0x00, 0x00, 0x00, 0x01, 0x00, 0x00, 0x00, 0x0a, 0x00, 0x00, 0x00,
  0x12, 0xfc, 0xff, 0xff, 0x00, 0x00, 0x00, 0x01, 0x14, 0x00, 0x00, 0x00,
  0x1c, 0x00, 0x00, 0x00, 0x1c, 0x00, 0x00, 0x00, 0x0b, 0x00, 0x00, 0x00,
  0x3c, 0x00, 0x00, 0x00, 0x02, 0x00, 0x00, 0x00, 0xff, 0xff, 0xff, 0xff,
  0x62, 0x00, 0x00, 0x00, 0xf4, 0xfb, 0xff, 0xff, 0x20, 0x00, 0x00, 0x00,
  0x73, 0x65, 0x71, 0x75, 0x65, 0x6e, 0x74, 0x69, 0x61, 0x6c, 0x2f, 0x66,
  0x6c, 0x61, 0x74, 0x74, 0x65, 0x6e, 0x5f, 0x31, 0x30, 0x39, 0x35, 0x30,
  0x2f, 0x52, 0x65, 0x73, 0x68, 0x61, 0x70, 0x65, 0x00, 0x00, 0x00, 0x00,
  0x02, 0x00, 0x00, 0x00, 0x01, 0x00, 0x00, 0x00, 0x62, 0x00, 0x00, 0x00,
  0x72, 0xfc, 0xff, 0xff, 0x00, 0x00, 0x00, 0x01, 0x14, 0x00, 0x00, 0x00,
  0x24, 0x00, 0x00, 0x00, 0x24, 0x00, 0x00, 0x00, 0x0a, 0x00, 0x00, 0x00,
  0x48, 0x00, 0x00, 0x00, 0x04, 0x00, 0x00, 0x00, 0xff, 0xff, 0xff, 0xff,
  0x07, 0x00, 0x00, 0x00, 0x07, 0x00, 0x00, 0x00, 0x02, 0x00, 0x00, 0x00,
  0x5c, 0xfc, 0xff, 0xff, 0x26, 0x00, 0x00, 0x00, 0x73, 0x65, 0x71, 0x75,
  0x65, 0x6e, 0x74, 0x69, 0x61, 0x6c, 0x2f, 0x6d, 0x61, 0x78, 0x5f, 0x70,
  0x6f, 0x6f, 0x6c, 0x69, 0x6e, 0x67, 0x32, 0x64, 0x5f, 0x32, 0x31, 0x39,
  0x30, 0x31, 0x2f, 0x4d, 0x61, 0x78, 0x50, 0x6f, 0x6f, 0x6c, 0x00, 0x00,
  0x04, 0x00, 0x00, 0x00, 0x01, 0x00, 0x00, 0x00, 0x07, 0x00, 0x00, 0x00,
  0x07, 0x00, 0x00, 0x00, 0x02, 0x00, 0x00, 0x00, 0xe6, 0xfc, 0xff, 0xff,
  0x00, 0x00, 0x00, 0x01, 0x14, 0x00, 0x00, 0x00, 0x24, 0x00, 0x00, 0x00,
  0x24, 0x00, 0x00, 0x00, 0x09, 0x00, 0x00, 0x00, 0x54, 0x00, 0x00, 0x00,
  0x04, 0x00, 0x00, 0x00, 0xff, 0xff, 0xff, 0xff, 0x0e, 0x00, 0x00, 0x00,
  0x0e, 0x00, 0x00, 0x00, 0x02, 0x00, 0x00, 0x00, 0xd0, 0xfc, 0xff, 0xff,
  0x33, 0x00, 0x00, 0x00, 0x73, 0x65, 0x71, 0x75, 0x65, 0x6e, 0x74, 0x69,
  0x61, 0x6c, 0x2f, 0x63, 0x6f, 0x6e, 0x76, 0x32, 0x64, 0x5f, 0x31, 0x2f,
  0x52, 0x65, 0x6c, 0x75, 0x3b, 0x73, 0x65, 0x71, 0x75, 0x65, 0x6e, 0x74,
  0x69, 0x61, 0x6c, 0x2f, 0x63, 0x6f, 0x6e, 0x76, 0x32, 0x64, 0x5f, 0x31,
  0x2f, 0x43, 0x6f, 0x6e, 0x76, 0x32, 0x44, 0x00, 0x04, 0x00, 0x00, 0x00,
  0x01, 0x00, 0x00, 0x00, 0x0e, 0x00, 0x00, 0x00, 0x0e, 0x00, 0x00, 0x00,
  0x02, 0x00, 0x00, 0x00, 0x66, 0xfd, 0xff, 0xff, 0x00, 0x00, 0x00, 0x01,
  0x14, 0x00, 0x00, 0x00, 0x24, 0x00, 0x00, 0x00, 0x24, 0x00, 0x00, 0x00,
  0x08, 0x00, 0x00, 0x00, 0x48, 0x00, 0x00, 0x00, 0x04, 0x00, 0x00, 0x00,
  0xff, 0xff, 0xff, 0xff, 0x0f, 0x00, 0x00, 0x00, 0x0f, 0x00, 0x00, 0x00,
  0x02, 0x00, 0x00, 0x00, 0x50, 0xfd, 0xff, 0xff, 0x26, 0x00, 0x00, 0x00,
  0x73, 0x65, 0x71, 0x75, 0x65, 0x6e, 0x74, 0x69, 0x61, 0x6c, 0x2f, 0x6d,
  0x61, 0x78, 0x5f, 0x70, 0x6f, 0x6f, 0x6c, 0x69, 0x6e, 0x67, 0x32, 0x64,
  0x5f, 0x32, 0x31, 0x39, 0x30, 0x30, 0x2f, 0x4d, 0x61, 0x78, 0x50, 0x6f,
  0x6f, 0x6c, 0x00, 0x00, 0x04, 0x00, 0x00, 0x00, 0x01, 0x00, 0x00, 0x00,
  0x0f, 0x00, 0x00, 0x00, 0x0f, 0x00, 0x00, 0x00, 0x02, 0x00, 0x00, 0x00,
  0xda, 0xfd, 0xff, 0xff, 0x00, 0x00, 0x00, 0x01, 0x14, 0x00, 0x00, 0x00,
  0x24, 0x00, 0x00, 0x00, 0x24, 0x00, 0x00, 0x00, 0x07, 0x00, 0x00, 0x00,
  0x50, 0x00, 0x00, 0x00, 0x04, 0x00, 0x00, 0x00, 0xff, 0xff, 0xff, 0xff,
  0x1f, 0x00, 0x00, 0x00, 0x1f, 0x00, 0x00, 0x00, 0x02, 0x00, 0x00, 0x00,
  0xc4, 0xfd, 0xff, 0xff, 0x2f, 0x00, 0x00, 0x00, 0x73, 0x65, 0x71, 0x75,
  0x65, 0x6e, 0x74, 0x69, 0x61, 0x6c, 0x2f, 0x63, 0x6f, 0x6e, 0x76, 0x32,
  0x64, 0x2f, 0x52, 0x65, 0x6c, 0x75, 0x3b, 0x73, 0x65, 0x71, 0x75, 0x65,
  0x6e, 0x74, 0x69, 0x61, 0x6c, 0x2f, 0x63, 0x6f, 0x6e, 0x76, 0x32, 0x64,
  0x2f, 0x43, 0x6f, 0x6e, 0x76, 0x32, 0x44, 0x00, 0x04, 0x00, 0x00, 0x00,
  0x01, 0x00, 0x00, 0x00, 0x1f, 0x00, 0x00, 0x00, 0x1f, 0x00, 0x00, 0x00,
  0x02, 0x00, 0x00, 0x00, 0xb2, 0xfe, 0xff, 0xff, 0x00, 0x00, 0x00, 0x01,
  0x10, 0x00, 0x00, 0x00, 0x10, 0x00, 0x00, 0x00, 0x06, 0x00, 0x00, 0x00,
  0x28, 0x00, 0x00, 0x00, 0x28, 0xfe, 0xff, 0xff, 0x18, 0x00, 0x00, 0x00,
  0x73, 0x65, 0x71, 0x75, 0x65, 0x6e, 0x74, 0x69, 0x61, 0x6c, 0x2f, 0x64,
  0x65, 0x6e, 0x73, 0x65, 0x2f, 0x4d, 0x61, 0x74, 0x4d, 0x75, 0x6c, 0x31,
  0x00, 0x00, 0x00, 0x00, 0x02, 0x00, 0x00, 0x00, 0x0a, 0x00, 0x00, 0x00,
  0x62, 0x00, 0x00, 0x00, 0x00, 0x00, 0x16, 0x00, 0x1c, 0x00, 0x18, 0x00,
  0x17, 0x00, 0x10, 0x00, 0x0c, 0x00, 0x08, 0x00, 0x00, 0x00, 0x00, 0x00,
  0x00, 0x00, 0x07, 0x00, 0x16, 0x00, 0x00, 0x00, 0x00, 0x00, 0x00, 0x01,
  0x14, 0x00, 0x00, 0x00, 0x14, 0x00, 0x00, 0x00, 0x05, 0x00, 0x00, 0x00,
  0x00, 0x00, 0x00, 0x02, 0x2c, 0x00, 0x00, 0x00, 0x8c, 0xfe, 0xff, 0xff,
  0x1e, 0x00, 0x00, 0x00, 0x73, 0x65, 0x71, 0x75, 0x65, 0x6e, 0x74, 0x69,
  0x61, 0x6c, 0x2f, 0x66, 0x6c, 0x61, 0x74, 0x74, 0x65, 0x6e, 0x5f, 0x31,
  0x30, 0x39, 0x35, 0x30, 0x2f, 0x43, 0x6f, 0x6e, 0x73, 0x74, 0x00, 0x00,
  0x01, 0x00, 0x00, 0x00, 0x02, 0x00, 0x00, 0x00, 0x5e, 0xff, 0xff, 0xff,
  0x00, 0x00, 0x00, 0x01, 0x10, 0x00, 0x00, 0x00, 0x10, 0x00, 0x00, 0x00,
  0x04, 0x00, 0x00, 0x00, 0x28, 0x00, 0x00, 0x00, 0xd4, 0xfe, 0xff, 0xff,
  0x1b, 0x00, 0x00, 0x00, 0x73, 0x65, 0x71, 0x75, 0x65, 0x6e, 0x74, 0x69,
  0x61, 0x6c, 0x2f, 0x63, 0x6f, 0x6e, 0x76, 0x32, 0x64, 0x5f, 0x31, 0x2f,
  0x43, 0x6f, 0x6e, 0x76, 0x32, 0x44, 0x31, 0x00, 0x04, 0x00, 0x00, 0x00,
  0x02, 0x00, 0x00, 0x00, 0x02, 0x00, 0x00, 0x00, 0x02, 0x00, 0x00, 0x00,
  0x02, 0x00, 0x00, 0x00, 0xae, 0xff, 0xff, 0xff, 0x00, 0x00, 0x00, 0x01,
  0x10, 0x00, 0x00, 0x00, 0x10, 0x00, 0x00, 0x00, 0x03, 0x00, 0x00, 0x00,
  0x28, 0x00, 0x00, 0x00, 0x24, 0xff, 0xff, 0xff, 0x18, 0x00, 0x00, 0x00,
  0x73, 0x65, 0x71, 0x75, 0x65, 0x6e, 0x74, 0x69, 0x61, 0x6c, 0x2f, 0x63,
  0x6f, 0x6e, 0x76, 0x32, 0x64, 0x2f, 0x43, 0x6f, 0x6e, 0x76, 0x32, 0x44,
  0x00, 0x00, 0x00, 0x00, 0x04, 0x00, 0x00, 0x00, 0x02, 0x00, 0x00, 0x00,
  0x02, 0x00, 0x00, 0x00, 0x02, 0x00, 0x00, 0x00, 0x01, 0x00, 0x00, 0x00,
  0x00, 0x00, 0x16, 0x00, 0x18, 0x00, 0x14, 0x00, 0x00, 0x00, 0x10, 0x00,
  0x0c, 0x00, 0x08, 0x00, 0x00, 0x00, 0x00, 0x00, 0x00, 0x00, 0x07, 0x00,
  0x16, 0x00, 0x00, 0x00, 0x00, 0x00, 0x00, 0x01, 0x10, 0x00, 0x00, 0x00,
  0x10, 0x00, 0x00, 0x00, 0x02, 0x00, 0x00, 0x00, 0x28, 0x00, 0x00, 0x00,
  0x8c, 0xff, 0xff, 0xff, 0x1a, 0x00, 0x00, 0x00, 0x73, 0x65, 0x71, 0x75,
  0x65, 0x6e, 0x74, 0x69, 0x61, 0x6c, 0x2f, 0x63, 0x6f, 0x6e, 0x76, 0x32,
  0x64, 0x5f, 0x31, 0x2f, 0x43, 0x6f, 0x6e, 0x76, 0x32, 0x44, 0x00, 0x00,
  0x01, 0x00, 0x00, 0x00, 0x02, 0x00, 0x00, 0x00, 0x00, 0x00, 0x16, 0x00,
  0x1c, 0x00, 0x18, 0x00, 0x00, 0x00, 0x14, 0x00, 0x10, 0x00, 0x0c, 0x00,
  0x00, 0x00, 0x00, 0x00, 0x08, 0x00, 0x07, 0x00, 0x16, 0x00, 0x00, 0x00,
  0x00, 0x00, 0x00, 0x01, 0x14, 0x00, 0x00, 0x00, 0x28, 0x00, 0x00, 0x00,
  0x28, 0x00, 0x00, 0x00, 0x01, 0x00, 0x00, 0x00, 0x44, 0x00, 0x00, 0x00,
  0x04, 0x00, 0x00, 0x00, 0xff, 0xff, 0xff, 0xff, 0x20, 0x00, 0x00, 0x00,
  0x20, 0x00, 0x00, 0x00, 0x01, 0x00, 0x00, 0x00, 0x04, 0x00, 0x04, 0x00,
  0x04, 0x00, 0x00, 0x00, 0x1e, 0x00, 0x00, 0x00, 0x73, 0x65, 0x72, 0x76,
  0x69, 0x6e, 0x67, 0x5f, 0x64, 0x65, 0x66, 0x61, 0x75, 0x6c, 0x74, 0x5f,
  0x63, 0x6f, 0x6e, 0x76, 0x32, 0x64, 0x5f, 0x69, 0x6e, 0x70, 0x75, 0x74,
  0x3a, 0x30, 0x00, 0x00, 0x04, 0x00, 0x00, 0x00, 0x01, 0x00, 0x00, 0x00,
  0x20, 0x00, 0x00, 0x00, 0x20, 0x00, 0x00, 0x00, 0x01, 0x00, 0x00, 0x00,
  0x05, 0x00, 0x00, 0x00, 0x50, 0x00, 0x00, 0x00, 0x34, 0x00, 0x00, 0x00,
  0x24, 0x00, 0x00, 0x00, 0x14, 0x00, 0x00, 0x00, 0x04, 0x00, 0x00, 0x00,
  0xd0, 0xff, 0xff, 0xff, 0x19, 0x00, 0x00, 0x00, 0x00, 0x00, 0x00, 0x19,
  0xdc, 0xff, 0xff, 0xff, 0x09, 0x00, 0x00, 0x00, 0x00, 0x00, 0x00, 0x09,
  0xe8, 0xff, 0xff, 0xff, 0x16, 0x00, 0x00, 0x00, 0x00, 0x00, 0x00, 0x16,
  0xf4, 0xff, 0xff, 0xff, 0x11, 0x00, 0x00, 0x00, 0x00, 0x00, 0x00, 0x11,
  0x0c, 0x00, 0x0c, 0x00, 0x0b, 0x00, 0x00, 0x00, 0x00, 0x00, 0x04, 0x00,
  0x0c, 0x00, 0x00, 0x00, 0x03, 0x00, 0x00, 0x00, 0x00, 0x00, 0x00, 0x03
};
unsigned int cnn_tflite_len = 6660;
