unsigned char one_conv_pool_tflite[] = {
  0x1c, 0x00, 0x00, 0x00, 0x54, 0x46, 0x4c, 0x33, 0x14, 0x00, 0x20, 0x00,
  0x1c, 0x00, 0x18, 0x00, 0x14, 0x00, 0x10, 0x00, 0x0c, 0x00, 0x00, 0x00,
  0x08, 0x00, 0x04, 0x00, 0x14, 0x00, 0x00, 0x00, 0x1c, 0x00, 0x00, 0x00,
  0x88, 0x00, 0x00, 0x00, 0xe0, 0x00, 0x00, 0x00, 0x64, 0x48, 0x00, 0x00,
  0x74, 0x48, 0x00, 0x00, 0x34, 0x4e, 0x00, 0x00, 0x03, 0x00, 0x00, 0x00,
  0x01, 0x00, 0x00, 0x00, 0x04, 0x00, 0x00, 0x00, 0xde, 0xb6, 0xff, 0xff,
  0x0c, 0x00, 0x00, 0x00, 0x1c, 0x00, 0x00, 0x00, 0x38, 0x00, 0x00, 0x00,
  0x0f, 0x00, 0x00, 0x00, 0x73, 0x65, 0x72, 0x76, 0x69, 0x6e, 0x67, 0x5f,
  0x64, 0x65, 0x66, 0x61, 0x75, 0x6c, 0x74, 0x00, 0x01, 0x00, 0x00, 0x00,
  0x04, 0x00, 0x00, 0x00, 0x94, 0xff, 0xff, 0xff, 0x09, 0x00, 0x00, 0x00,
  0x04, 0x00, 0x00, 0x00, 0x05, 0x00, 0x00, 0x00, 0x64, 0x65, 0x6e, 0x73,
  0x65, 0x00, 0x00, 0x00, 0x01, 0x00, 0x00, 0x00, 0x04, 0x00, 0x00, 0x00,
  0x7e, 0xb7, 0xff, 0xff, 0x04, 0x00, 0x00, 0x00, 0x0c, 0x00, 0x00, 0x00,
  0x63, 0x6f, 0x6e, 0x76, 0x32, 0x64, 0x5f, 0x69, 0x6e, 0x70, 0x75, 0x74,
  0x00, 0x00, 0x00, 0x00, 0x02, 0x00, 0x00, 0x00, 0x34, 0x00, 0x00, 0x00,
  0x04, 0x00, 0x00, 0x00, 0xdc, 0xff, 0xff, 0xff, 0x0c, 0x00, 0x00, 0x00,
  0x04, 0x00, 0x00, 0x00, 0x13, 0x00, 0x00, 0x00, 0x43, 0x4f, 0x4e, 0x56,
  0x45, 0x52, 0x53, 0x49, 0x4f, 0x4e, 0x5f, 0x4d, 0x45, 0x54, 0x41, 0x44,
  0x41, 0x54, 0x41, 0x00, 0x08, 0x00, 0x0c, 0x00, 0x08, 0x00, 0x04, 0x00,
  0x08, 0x00, 0x00, 0x00, 0x0b, 0x00, 0x00, 0x00, 0x04, 0x00, 0x00, 0x00,
  0x13, 0x00, 0x00, 0x00, 0x6d, 0x69, 0x6e, 0x5f, 0x72, 0x75, 0x6e, 0x74,
  0x69, 0x6d, 0x65, 0x5f, 0x76, 0x65, 0x72, 0x73, 0x69, 0x6f, 0x6e, 0x00,
  0x0d, 0x00, 0x00, 0x00, 0x80, 0x47, 0x00, 0x00, 0x78, 0x47, 0x00, 0x00,
  0x60, 0x47, 0x00, 0x00, 0x30, 0x47, 0x00, 0x00, 0x18, 0x47, 0x00, 0x00,
  0xb8, 0x00, 0x00, 0x00, 0xb0, 0x00, 0x00, 0x00, 0xa8, 0x00, 0x00, 0x00,
  0xa0, 0x00, 0x00, 0x00, 0x98, 0x00, 0x00, 0x00, 0x90, 0x00, 0x00, 0x00,
  0x70, 0x00, 0x00, 0x00, 0x04, 0x00, 0x00, 0x00, 0x2e, 0xb8, 0xff, 0xff,
  0x04, 0x00, 0x00, 0x00, 0x5c, 0x00, 0x00, 0x00, 0x0c, 0x00, 0x00, 0x00,
  0x08, 0x00, 0x0e, 0x00, 0x08, 0x00, 0x04, 0x00, 0x08, 0x00, 0x00, 0x00,
  0x14, 0x00, 0x00, 0x00, 0x2c, 0x00, 0x00, 0x00, 0x00, 0x00, 0x0a, 0x00,
  0x0c, 0x00, 0x08, 0x00, 0x00, 0x00, 0x07, 0x00, 0x0a, 0x00, 0x00, 0x00,
  0x00, 0x00, 0x00, 0x01, 0x04, 0x00, 0x00, 0x00, 0x00, 0x00, 0x00, 0x00,
  0x00, 0x00, 0x0a, 0x00, 0x10, 0x00, 0x0c, 0x00, 0x08, 0x00, 0x04, 0x00,
  0x0a, 0x00, 0x00, 0x00, 0x01, 0x00, 0x00, 0x00, 0x02, 0x00, 0x00, 0x00,
  0x04, 0x00, 0x00, 0x00, 0x06, 0x00, 0x00, 0x00, 0x32, 0x2e, 0x31, 0x31,
  0x2e, 0x30, 0x00, 0x00, 0x96, 0xb8, 0xff, 0xff, 0x04, 0x00, 0x00, 0x00,
  0x10, 0x00, 0x00, 0x00, 0x31, 0x2e, 0x35, 0x2e, 0x30, 0x00, 0x00, 0x00,
  0x00, 0x00, 0x00, 0x00, 0x00, 0x00, 0x00, 0x00, 0x9c, 0xb3, 0xff, 0xff,
  0xa0, 0xb3, 0xff, 0xff, 0xa4, 0xb3, 0xff, 0xff, 0xa8, 0xb3, 0xff, 0xff,
  0xac, 0xb3, 0xff, 0xff, 0xc6, 0xb8, 0xff, 0xff, 0x04, 0x00, 0x00, 0x00,
  0x50, 0x46, 0x00, 0x00, 0x71, 0x1f, 0x96, 0x3d, 0x31, 0x80, 0x7a, 0xbb,
  0x55, 0x15, 0x80, 0xbd, 0xc0, 0x81, 0x5c, 0xbd, 0x27, 0x6b, 0x5d, 0x3d,
  0xc1, 0xf3, 0x40, 0xbc, 0x67, 0xef, 0x59, 0x3d, 0x7e, 0x66, 0x34, 0x3d,
  0xfe, 0xaf, 0xc1, 0x3c, 0xb6, 0x05, 0xd9, 0x3d, 0xc2, 0x29, 0xad, 0x3c,
  0xb2, 0x7c, 0x98, 0x3d, 0xcf, 0x68, 0x62, 0x3d, 0xa8, 0x4a, 0xef, 0xbc,
  0x29, 0xca, 0x6c, 0xbc, 0xb0, 0x1f, 0x86, 0x3d, 0x9f, 0x9a, 0xb2, 0x3d,
  0xce, 0x3f, 0xb9, 0x3d, 0xa1, 0xf8, 0x93, 0x3d, 0x53, 0x2c, 0x5c, 0x3d,
  0x7f, 0x2f, 0x34, 0x3d, 0x96, 0xd1, 0xec, 0xbc, 0xf0, 0x3e, 0x8a, 0xbd,
  0x86, 0x9a, 0x3d, 0xbd, 0x81, 0xe4, 0x16, 0xbd, 0xbd, 0xae, 0xab, 0x3d,
  0xb2, 0x99, 0x7a, 0xbd, 0x68, 0xc5, 0xea, 0xbb, 0xd8, 0xc4, 0x83, 0xbd,
  0xe1, 0xa1, 0xd8, 0x3c, 0x5d, 0x49, 0xed, 0xbc, 0x57, 0x65, 0x11, 0x3d,
  0x3d, 0xd2, 0x89, 0x3d, 0xb9, 0xca, 0x80, 0xbd, 0xe4, 0x96, 0xcd, 0xbc,
  0xde, 0x4e, 0x92, 0xbd, 0xde, 0x89, 0x31, 0x3a, 0xb2, 0x97, 0x18, 0xbd,
  0x79, 0x91, 0xc6, 0xbc, 0x67, 0x9e, 0xd3, 0xbd, 0x08, 0xb7, 0x9c, 0xbe,
  0x83, 0xea, 0x60, 0xbe, 0x03, 0xeb, 0x93, 0xbd, 0x8b, 0x00, 0x8c, 0xbd,
  0x64, 0x92, 0x82, 0xbd, 0x43, 0x7f, 0xbf, 0xbd, 0x5b, 0x25, 0x09, 0xbe,
  0x60, 0x8e, 0x32, 0x3b, 0x29, 0x3f, 0x0d, 0xbe, 0x92, 0x3d, 0xb0, 0xbd,
  0xa5, 0x0e, 0x8d, 0xbb, 0x05, 0xe3, 0x22, 0xbd, 0xbc, 0x06, 0x85, 0x3e,
  0xaf, 0x28, 0x45, 0x3e, 0xbb, 0x64, 0x3e, 0x3e, 0xa7, 0xd0, 0x2c, 0x3e,
  0x8d, 0x11, 0xa6, 0xbb, 0x99, 0x75, 0x34, 0xbe, 0x92, 0x0b, 0x42, 0xbe,
  0x3b, 0x70, 0xab, 0xbd, 0x18, 0xa0, 0x9d, 0x3d, 0x9a, 0xfc, 0xae, 0x3b,
  0x7a, 0xba, 0xaf, 0xbd, 0x5d, 0xb3, 0xad, 0xbd, 0xa2, 0x75, 0xc5, 0xbe,
  0xd8, 0x96, 0xb6, 0xbc, 0x9c, 0x82, 0xaa, 0xbb, 0xb8, 0xa8, 0x26, 0x3e,
  0x96, 0xad, 0x81, 0x3e, 0xcc, 0x7e, 0x1e, 0x3f, 0xb5, 0xeb, 0x1c, 0x3e,
  0x9b, 0xef, 0xa6, 0x3d, 0xa8, 0x1d, 0x28, 0x3e, 0xbe, 0xeb, 0x8c, 0xbe,
  0x6d, 0x92, 0xeb, 0x3d, 0x08, 0x32, 0xc4, 0x3d, 0x79, 0x17, 0xf3, 0x3c,
  0xd2, 0x7d, 0x38, 0x3e, 0x4a, 0x01, 0xa5, 0xbe, 0xbc, 0x32, 0x33, 0x3e,
  0x63, 0xf4, 0x88, 0xbd, 0x5d, 0xad, 0xec, 0x3d, 0x0a, 0x99, 0x04, 0x3e,
  0x20, 0x0c, 0xe6, 0x3d, 0xac, 0x74, 0xe2, 0x3e, 0xfe, 0x5c, 0x99, 0x3e,
  0xb0, 0x95, 0x2c, 0x3e, 0x43, 0xa9, 0x39, 0x3f, 0xf5, 0x54, 0xb2, 0xbe,
  0x43, 0xcc, 0xf5, 0xbb, 0x70, 0xec, 0x83, 0xbd, 0x68, 0x7a, 0xb5, 0x3c,
  0xf0, 0xf6, 0x5d, 0xbe, 0x51, 0x40, 0x68, 0xbc, 0x8c, 0xd2, 0x05, 0xbe,
  0x70, 0xae, 0x26, 0xbd, 0x2e, 0x94, 0xfd, 0xbd, 0x7f, 0x96, 0x4b, 0xbe,
  0x55, 0x26, 0x4b, 0xbf, 0xf2, 0xb3, 0x1a, 0xbd, 0xd8, 0x1d, 0x57, 0x3e,
  0x49, 0x9b, 0x97, 0x3e, 0xa2, 0x9b, 0x96, 0x3e, 0xa7, 0x59, 0x2c, 0x3a,
  0x6e, 0x6b, 0x29, 0x3e, 0xec, 0x5b, 0xaa, 0x3e, 0x82, 0x6c, 0x24, 0x3e,
  0xcf, 0x90, 0x10, 0x3e, 0x42, 0xa2, 0xf2, 0x3d, 0x15, 0xad, 0xa0, 0x3e,
  0x5b, 0x59, 0x44, 0x3e, 0x02, 0xe9, 0x46, 0x3d, 0x03, 0xe8, 0xda, 0xbd,
  0x3a, 0x25, 0xc4, 0xbf, 0x47, 0x1e, 0x17, 0xbf, 0xf9, 0xb2, 0x72, 0xbe,
  0x4c, 0xa8, 0xaa, 0x3d, 0x86, 0x30, 0x52, 0x3f, 0x2e, 0x4e, 0x3e, 0x3e,
  0x91, 0x82, 0x8c, 0x3b, 0x92, 0x13, 0x56, 0xbb, 0xbf, 0x73, 0x0e, 0xbd,
  0xa5, 0xd7, 0x10, 0xbe, 0x9e, 0x80, 0x89, 0x3e, 0x15, 0xea, 0x96, 0x3e,
  0xad, 0x0d, 0xca, 0x3e, 0x32, 0xdd, 0x6c, 0x3e, 0xb9, 0xdd, 0x7f, 0xbf,
  0xed, 0xb6, 0x66, 0xbf, 0x13, 0x14, 0x98, 0xbe, 0x16, 0x78, 0x9c, 0x3d,
  0xe0, 0x62, 0x00, 0x3e, 0x64, 0x0e, 0x7e, 0x3e, 0x75, 0x8d, 0x93, 0x3d,
  0x8b, 0x9c, 0xc0, 0x3d, 0x65, 0x03, 0x9b, 0x3b, 0x1e, 0xc9, 0x98, 0x3e,
  0x10, 0x80, 0x58, 0xbc, 0x5c, 0x28, 0xf9, 0x3e, 0xa4, 0xb5, 0x03, 0x3e,
  0x91, 0xdd, 0xeb, 0x3e, 0x40, 0xbe, 0x82, 0xbe, 0x19, 0x0e, 0x54, 0xbf,
  0xe9, 0x9d, 0x6d, 0xbf, 0x4b, 0xf9, 0xdc, 0x3e, 0xb3, 0xee, 0x3d, 0xbd,
  0xab, 0xd2, 0xc1, 0x3d, 0x20, 0xa9, 0xbc, 0x3e, 0x85, 0x07, 0x23, 0xbe,
  0x4b, 0x96, 0x7c, 0xbd, 0x0e, 0x03, 0x8d, 0xbd, 0x66, 0xf6, 0x49, 0xbc,
  0x80, 0xf0, 0x9d, 0xbd, 0x32, 0x2d, 0x74, 0x3d, 0xcb, 0x24, 0xac, 0x3e,
  0xce, 0x6d, 0x16, 0x3f, 0x45, 0x97, 0xe7, 0x3e, 0xa7, 0x1d, 0xbd, 0xbe,
  0x82, 0xd5, 0xa1, 0x3d, 0xd2, 0xf5, 0x4f, 0xbe, 0x7a, 0x6c, 0xd8, 0xbd,
  0x67, 0xe3, 0x7e, 0x3e, 0x89, 0xc9, 0xf3, 0x3d, 0x8d, 0xfd, 0xb6, 0x3c,
  0x43, 0x39, 0xdc, 0x3d, 0xe1, 0xbb, 0x3d, 0xbd, 0x0f, 0x7e, 0xeb, 0x3d,
  0x4a, 0x61, 0x0c, 0xbf, 0xd4, 0x53, 0xdf, 0x3e, 0x4e, 0x56, 0xbf, 0xbe,
  0xce, 0x9f, 0x92, 0x3e, 0x0d, 0x06, 0x7b, 0x3e, 0x1a, 0xf4, 0x00, 0x3f,
  0xb5, 0xfd, 0xf5, 0xbe, 0xb9, 0x32, 0xd9, 0x3e, 0xab, 0x60, 0xd5, 0xbe,
  0x47, 0x94, 0x88, 0xbd, 0x21, 0x76, 0x08, 0xbe, 0xae, 0x84, 0x58, 0xbe,
  0xa0, 0x6b, 0x1a, 0xbc, 0xe7, 0xbc, 0xe9, 0xbb, 0x49, 0x11, 0xb6, 0x3c,
  0xca, 0x3b, 0x37, 0xbe, 0x2d, 0x33, 0xc0, 0x3c, 0xc2, 0x00, 0x02, 0x3e,
  0x08, 0x35, 0xe9, 0x3e, 0x73, 0x02, 0xe3, 0x3e, 0xa0, 0x44, 0x0b, 0x3f,
  0xb1, 0xc1, 0x66, 0x3d, 0x24, 0xa5, 0x0b, 0xbe, 0x10, 0x30, 0x91, 0xbe,
  0xc1, 0x8f, 0x72, 0x3d, 0xf2, 0x29, 0xe7, 0x3b, 0xbb, 0x25, 0x8a, 0xbc,
  0x15, 0xa6, 0xc6, 0xbe, 0xce, 0xb3, 0x4c, 0xbe, 0xe9, 0x69, 0x80, 0xbf,
  0x50, 0x41, 0xd1, 0xbb, 0xd8, 0xc8, 0x51, 0xbe, 0x2f, 0x0c, 0x94, 0xbe,
  0x63, 0x82, 0x40, 0xbe, 0x90, 0xff, 0x06, 0xbf, 0xf4, 0xe6, 0x90, 0x3e,
  0x8a, 0x20, 0x3c, 0xbf, 0x5f, 0x03, 0x8b, 0x3e, 0x03, 0x8a, 0xcb, 0xbe,
  0x95, 0x6a, 0xae, 0xbe, 0xaf, 0x79, 0x14, 0xbe, 0xeb, 0x76, 0x9d, 0xbc,
  0x0a, 0xf7, 0x2d, 0xbd, 0xc1, 0xd2, 0x34, 0x3d, 0xa0, 0x7b, 0x46, 0x3c,
  0x09, 0x47, 0xa9, 0x3a, 0x03, 0x94, 0x33, 0x3d, 0xac, 0x85, 0xdd, 0xbe,
  0x11, 0xff, 0x16, 0xbe, 0x3c, 0xff, 0x6f, 0x3e, 0x76, 0xc7, 0x58, 0x3e,
  0x96, 0xfd, 0xa6, 0x3e, 0xbd, 0x38, 0x00, 0x3d, 0x89, 0xbc, 0xfd, 0x3e,
  0x88, 0x48, 0x74, 0x3e, 0x0e, 0x70, 0x44, 0x3e, 0xab, 0xb1, 0xe7, 0xbd,
  0x3e, 0x0c, 0xe9, 0xbe, 0x66, 0x61, 0x3b, 0x3e, 0x5c, 0xa0, 0xd0, 0xbf,
  0x7c, 0x58, 0x9c, 0x3e, 0x74, 0x4e, 0x07, 0xbf, 0xf5, 0x5c, 0x3b, 0xbd,
  0x17, 0x2b, 0xa1, 0xbe, 0x5e, 0x0f, 0x07, 0xbd, 0xec, 0x3c, 0xce, 0xbb,
  0xab, 0x75, 0xd1, 0x3c, 0x21, 0xe3, 0x22, 0x3f, 0x27, 0x91, 0x1b, 0xbe,
  0x95, 0xf1, 0x3a, 0x3e, 0xbf, 0x81, 0x7d, 0x3d, 0x05, 0xc0, 0xb0, 0x3c,
  0x32, 0xbf, 0x03, 0xbb, 0x9c, 0x68, 0xbf, 0xbd, 0xba, 0xe6, 0xce, 0x3d,
  0xfe, 0x65, 0x1a, 0xba, 0xd9, 0xf4, 0x0a, 0xbb, 0x6d, 0xc6, 0x93, 0xbd,
  0x98, 0x8d, 0xee, 0x3d, 0xaf, 0x83, 0x84, 0x3e, 0x74, 0xa5, 0xcd, 0x3d,
  0x53, 0xa6, 0xaa, 0x3e, 0x02, 0x4a, 0x6b, 0xbd, 0xfc, 0xa4, 0xfd, 0x3e,
  0xcd, 0x41, 0x42, 0x3e, 0xbf, 0x48, 0x85, 0x3e, 0xe1, 0xd4, 0xa1, 0xbe,
  0x1a, 0x3a, 0x6a, 0xbf, 0x83, 0xf3, 0xfc, 0x3e, 0x3f, 0xdf, 0x87, 0xbf,
  0xf3, 0x17, 0xbb, 0x3e, 0xb2, 0x3c, 0x2b, 0xbe, 0xbe, 0x75, 0xb0, 0xbb,
  0x93, 0xf2, 0x12, 0xbe, 0xc5, 0x4a, 0x83, 0x3e, 0xb4, 0x82, 0x64, 0xbd,
  0x1b, 0xe3, 0x50, 0xbc, 0x9c, 0xa4, 0x01, 0x3f, 0x3b, 0x90, 0x3f, 0xbd,
  0x42, 0xcd, 0x21, 0x3d, 0xc8, 0x4b, 0xd2, 0x3d, 0x12, 0x11, 0x2f, 0xbb,
  0xc3, 0x97, 0x40, 0x3c, 0x8f, 0x20, 0xe6, 0x3d, 0x8b, 0x17, 0x92, 0xbc,
  0x6e, 0xfc, 0x13, 0xbd, 0xa3, 0xaf, 0x72, 0x3d, 0xe8, 0x09, 0x9d, 0x3c,
  0x4e, 0xfb, 0xdb, 0x3c, 0xb9, 0x16, 0x86, 0x3e, 0xc1, 0x11, 0x94, 0xbe,
  0xc3, 0xd8, 0xd3, 0x3e, 0x3b, 0xf2, 0x03, 0xbf, 0x85, 0xe3, 0xd9, 0x3e,
  0xe9, 0xe1, 0x9c, 0xbe, 0xf5, 0xd8, 0x74, 0x3e, 0x0c, 0x06, 0xe6, 0x3d,
  0x6c, 0x2f, 0x88, 0xbf, 0xde, 0x02, 0x16, 0x3f, 0x1b, 0x87, 0x01, 0xbf,
  0xa0, 0x69, 0x99, 0x3e, 0x24, 0x93, 0x8a, 0xbd, 0x9a, 0xda, 0x8c, 0xbb,
  0x32, 0x76, 0x66, 0x3d, 0x7a, 0xe1, 0xe5, 0x3e, 0xe9, 0x7a, 0xf5, 0x3d,
  0xd8, 0x51, 0xc2, 0x3e, 0x3c, 0xaa, 0x45, 0x3e, 0x4e, 0x60, 0x54, 0xbd,
  0xf2, 0xd1, 0x48, 0xbe, 0xb1, 0xd5, 0x10, 0x3e, 0x0d, 0xfa, 0x1c, 0x3d,
  0x20, 0x14, 0x2d, 0xbd, 0xd4, 0x83, 0xa7, 0x3c, 0x18, 0xbc, 0x5a, 0x3d,
  0x51, 0xfd, 0xb8, 0xbc, 0xc1, 0x0d, 0x95, 0x3c, 0x66, 0xb6, 0x7d, 0xbd,
  0x55, 0x67, 0xf7, 0xbd, 0x4b, 0xdf, 0xc8, 0x3d, 0xd7, 0xb2, 0x51, 0xbe,
  0xe1, 0x43, 0x6e, 0x3d, 0x55, 0x61, 0x31, 0xbf, 0x3d, 0xf9, 0x1f, 0x3f,
  0x5d, 0xe4, 0x7d, 0xbe, 0x79, 0xe1, 0x16, 0x3f, 0xbd, 0xcd, 0x67, 0x3e,
  0xbd, 0x52, 0x60, 0xbe, 0x05, 0xe8, 0x9b, 0x3e, 0x28, 0x5d, 0xf1, 0xbd,
  0x49, 0xe6, 0xac, 0x3e, 0x77, 0x26, 0x4d, 0x3e, 0xcc, 0xde, 0xb6, 0x3e,
  0xa1, 0x02, 0xa9, 0xbe, 0xd7, 0xc5, 0xff, 0x3e, 0x2d, 0xa6, 0xd4, 0x3d,
  0xba, 0x26, 0x1d, 0x3d, 0x20, 0x25, 0xe1, 0x3d, 0x2d, 0xef, 0xe8, 0xbc,
  0x2c, 0xd1, 0xd4, 0xbd, 0x83, 0x05, 0x3d, 0x3d, 0xb7, 0x70, 0x90, 0xbd,
  0xb1, 0xbc, 0xdb, 0x3c, 0x07, 0x18, 0x8d, 0x3d, 0xec, 0xfe, 0xa7, 0xbd,
  0x7e, 0xdd, 0x60, 0xbd, 0x2c, 0x2f, 0xd5, 0xbc, 0xf4, 0x21, 0xf0, 0xbd,
  0xc4, 0x93, 0x08, 0xbe, 0xbe, 0x5b, 0xd0, 0x3e, 0x80, 0xdf, 0xa2, 0xbe,
  0x4a, 0x2d, 0xf8, 0xbd, 0x89, 0xd4, 0x02, 0xbf, 0x85, 0x57, 0x5b, 0x3e,
  0x4e, 0x52, 0x9e, 0xbe, 0x15, 0xc9, 0x10, 0x3f, 0x09, 0xc6, 0x10, 0xbf,
  0x4e, 0xc2, 0xee, 0x3d, 0x1e, 0xe3, 0xc7, 0x3d, 0x7d, 0x82, 0x9b, 0xbe,
  0xe3, 0x3a, 0x66, 0x3e, 0x49, 0xa7, 0x83, 0xbe, 0xeb, 0xa1, 0x75, 0x3e,
  0x21, 0xde, 0x8c, 0xbe, 0x8b, 0xd6, 0xab, 0x3e, 0xcf, 0x19, 0x3f, 0x3d,
  0x32, 0xb1, 0xaa, 0x3d, 0xa8, 0xc6, 0x59, 0xbe, 0x17, 0x28, 0x17, 0x3e,
  0x25, 0xa7, 0xd5, 0xbd, 0xc0, 0x42, 0x5b, 0xbc, 0x36, 0x5a, 0x8d, 0xbd,
  0x00, 0x25, 0x53, 0xbc, 0xc8, 0xe4, 0x24, 0x3d, 0x9a, 0x92, 0x4a, 0x3d,
  0xdc, 0xd0, 0x11, 0xbc, 0xf7, 0x17, 0x33, 0xbb, 0x91, 0x16, 0x30, 0xbe,
  0x36, 0x9c, 0xaa, 0x3d, 0xb6, 0x87, 0x19, 0x3e, 0x67, 0x95, 0xbf, 0xbd,
  0xf0, 0x5d, 0x9b, 0x3e, 0x9f, 0x5c, 0x90, 0xbe, 0x86, 0x6f, 0xb7, 0x3e,
  0x1d, 0xd5, 0x9e, 0xbe, 0x99, 0x37, 0x02, 0x3f, 0xa5, 0x22, 0x17, 0xbe,
  0x15, 0x6a, 0x32, 0x3f, 0x0b, 0x52, 0xad, 0xbe, 0x8b, 0x46, 0xb9, 0x3e,
  0xf4, 0x87, 0x98, 0xbd, 0x74, 0x9a, 0x4f, 0xba, 0x76, 0x7a, 0x36, 0x3d,
  0x11, 0xab, 0x94, 0xbe, 0x43, 0xcb, 0x17, 0x3e, 0x63, 0x99, 0x9e, 0xbe,
  0xa5, 0xe1, 0x5d, 0x3e, 0x24, 0x31, 0x16, 0xbd, 0x39, 0xde, 0xc4, 0x3d,
  0x2f, 0x84, 0xa4, 0xbc, 0xb5, 0xac, 0x20, 0xbc, 0x83, 0x96, 0x50, 0x3d,
  0x64, 0xdd, 0xd7, 0xbb, 0x12, 0x85, 0x45, 0xbd, 0xb4, 0xc4, 0x85, 0xbd,
  0x69, 0x5b, 0xab, 0x3c, 0xca, 0xc1, 0xae, 0x3d, 0x3d, 0x95, 0x1f, 0xbd,
  0x56, 0xad, 0x9c, 0x3d, 0x0f, 0xc2, 0x22, 0xbd, 0x03, 0xa8, 0x10, 0x3d,
  0x12, 0xd6, 0xac, 0xbd, 0x32, 0x9b, 0x99, 0xbd, 0xb0, 0x3a, 0x30, 0xbe,
  0x4d, 0xd7, 0x31, 0xbd, 0x4b, 0x68, 0xfd, 0xbd, 0x40, 0x87, 0xf1, 0xbd,
  0x48, 0x9f, 0x1d, 0xbe, 0x85, 0x1c, 0x1b, 0xbd, 0xdc, 0x8d, 0xad, 0xbe,
  0xbb, 0x46, 0x73, 0xbd, 0x72, 0x3c, 0xdf, 0xbe, 0xe5, 0xbf, 0x8f, 0x3d,
  0xa4, 0x5a, 0x80, 0xbe, 0x7b, 0x78, 0x07, 0xbc, 0x81, 0xb7, 0x5b, 0xbe,
  0x71, 0x25, 0x0b, 0x3d, 0x15, 0x34, 0xdc, 0xbc, 0xad, 0x63, 0xb9, 0x3d,
  0x12, 0x90, 0x24, 0xbc, 0x1c, 0x53, 0x8a, 0x3c, 0x1b, 0xb3, 0xaf, 0xbc,
  0x41, 0x01, 0x32, 0x3c, 0x03, 0x15, 0x0a, 0x3d, 0xd2, 0xa5, 0x07, 0x3c,
  0x07, 0xda, 0xb0, 0x3c, 0x40, 0x56, 0x47, 0xbd, 0x23, 0xf5, 0x23, 0x3d,
  0x18, 0xdb, 0x8c, 0xbc, 0x5d, 0x51, 0x55, 0xbd, 0x9b, 0x26, 0x37, 0xbd,
  0x5c, 0xd5, 0x96, 0xbc, 0xbf, 0xfa, 0x55, 0x3d, 0x5a, 0x35, 0x07, 0xbe,
  0xea, 0x64, 0x9f, 0x3c, 0xef, 0x69, 0xac, 0xbc, 0x88, 0x89, 0x3c, 0xbb,
  0x5c, 0x6e, 0xe7, 0xbd, 0xa6, 0xba, 0xa1, 0x3d, 0xdb, 0xe5, 0x8f, 0xbd,
  0xc6, 0xe8, 0x97, 0xbd, 0x13, 0x6d, 0x59, 0x3c, 0x3d, 0x5b, 0x98, 0xbd,
  0x3b, 0x36, 0x0c, 0xbd, 0x39, 0x69, 0x7d, 0xbd, 0xc8, 0x07, 0xea, 0xbc,
  0x71, 0xac, 0xbc, 0xbc, 0x0d, 0xc2, 0x51, 0xbd, 0x3e, 0x98, 0x2f, 0xbd,
  0x3d, 0x09, 0x02, 0xbc, 0x00, 0xa4, 0x02, 0x3d, 0xb0, 0x26, 0x81, 0x3d,
  0x06, 0xe8, 0x00, 0xbc, 0xfa, 0x44, 0xd2, 0x3c, 0x86, 0xa9, 0x42, 0x3d,
  0xd7, 0xd3, 0xac, 0x3d, 0x6a, 0xb8, 0x23, 0x3d, 0xcd, 0x1d, 0xc9, 0xbc,
  0x9b, 0xc0, 0x2f, 0xbb, 0x66, 0xc7, 0x83, 0xbd, 0x42, 0x89, 0xb3, 0x3c,
  0x62, 0xc6, 0xbc, 0x3d, 0x9a, 0x1a, 0x6e, 0x3d, 0x4a, 0x6a, 0xdb, 0xbc,
  0x5e, 0x1b, 0xb4, 0xbc, 0x55, 0x06, 0xcf, 0xbd, 0xaa, 0x4a, 0x4c, 0x3d,
  0xae, 0x0a, 0x35, 0x3d, 0x48, 0x65, 0x9c, 0x3c, 0x6e, 0x13, 0x01, 0xbd,
  0xae, 0xd9, 0x28, 0xbc, 0x98, 0x39, 0xb1, 0x3c, 0xd7, 0x3a, 0xf5, 0x3c,
  0x73, 0x05, 0x5d, 0xbd, 0x67, 0x7f, 0x9d, 0xbc, 0x4a, 0x0d, 0xcf, 0x3d,
  0x31, 0xf3, 0xb5, 0x3d, 0x21, 0x0a, 0x2a, 0xbd, 0xe5, 0x2b, 0x51, 0xbd,
  0x8c, 0x44, 0xbc, 0xbc, 0xdb, 0x17, 0x6b, 0x3d, 0x15, 0xf4, 0xe2, 0x3c,
  0x66, 0x6e, 0xa4, 0x3e, 0xc5, 0x82, 0x50, 0x3b, 0x0b, 0x76, 0xe9, 0x3c,
  0x0d, 0x19, 0x90, 0x3c, 0xb9, 0x8b, 0x56, 0x3d, 0x81, 0x11, 0xf7, 0xbd,
  0xd0, 0x9d, 0xc3, 0xbd, 0x9f, 0x32, 0x5b, 0xbd, 0x90, 0x47, 0x9e, 0x3e,
  0x8c, 0x6b, 0xb1, 0x3e, 0x95, 0x84, 0x18, 0x3d, 0x51, 0xe2, 0x21, 0xbd,
  0x37, 0x27, 0x30, 0xbd, 0xf8, 0x42, 0xcd, 0xbd, 0x1c, 0x4a, 0xe7, 0x3d,
  0x09, 0xcc, 0xd3, 0x3d, 0x8a, 0xe1, 0xb3, 0x3e, 0x5b, 0x19, 0x5c, 0x3d,
  0xb8, 0x90, 0x2c, 0x3e, 0xce, 0x0b, 0x8b, 0x3c, 0xde, 0xb6, 0xae, 0xbd,
  0x25, 0x94, 0xa1, 0xbe, 0x40, 0x6c, 0x98, 0x3c, 0xf6, 0x4d, 0x13, 0x3e,
  0xfa, 0x15, 0xf1, 0x3d, 0x05, 0x45, 0xda, 0xbd, 0xc6, 0x20, 0x32, 0x3e,
  0x62, 0x07, 0xdf, 0x3e, 0xa3, 0xee, 0x85, 0x3e, 0xb0, 0x27, 0xfb, 0xbd,
  0x78, 0xe5, 0x20, 0x3e, 0x87, 0xf5, 0x08, 0x3d, 0xd2, 0x7a, 0x54, 0x3c,
  0xc2, 0xff, 0x01, 0x3e, 0x7a, 0x6d, 0x2d, 0xbe, 0xe1, 0x29, 0xb7, 0xbe,
  0x3a, 0x88, 0xe1, 0xbe, 0xa8, 0x52, 0xbc, 0xbe, 0x71, 0xbc, 0xcb, 0xbe,
  0xeb, 0x53, 0x33, 0xbf, 0xf3, 0x22, 0xc0, 0xbe, 0x93, 0x31, 0x06, 0xbe,
  0xfa, 0x1b, 0xcb, 0x3d, 0xb5, 0x43, 0xaf, 0xbe, 0xff, 0x29, 0xe1, 0x3e,
  0xd8, 0xaa, 0x9e, 0x3e, 0xad, 0xca, 0x0d, 0x3f, 0x3e, 0xd8, 0x28, 0x3e,
  0x48, 0x6b, 0x3d, 0x3f, 0x6e, 0x5f, 0x10, 0xbe, 0xc0, 0xfd, 0xe8, 0x3e,
  0x6d, 0xae, 0x64, 0xbe, 0x27, 0xed, 0x03, 0x3e, 0x89, 0x0a, 0x80, 0xbd,
  0x75, 0xf2, 0x5c, 0x3f, 0xc5, 0xd1, 0x84, 0xbd, 0xd8, 0x2a, 0x88, 0xbe,
  0xbd, 0xdb, 0xcc, 0xbe, 0xb2, 0xd9, 0x05, 0xbf, 0x3d, 0xdd, 0x4b, 0xbe,
  0x91, 0x2c, 0x1c, 0x3e, 0x03, 0xe0, 0x8f, 0xbc, 0xe6, 0x82, 0xb0, 0xbd,
  0x7a, 0x0f, 0x4d, 0x3a, 0xd1, 0xac, 0x58, 0xbe, 0x2e, 0x81, 0xde, 0xbe,
  0x4d, 0x2a, 0xb4, 0xbe, 0x49, 0xeb, 0x3a, 0xbf, 0x16, 0xab, 0x47, 0x3f,
  0xac, 0x62, 0x46, 0x3f, 0xcf, 0x84, 0x9d, 0xbe, 0x82, 0xa1, 0xe4, 0xbe,
  0xc5, 0xb5, 0xb3, 0xbe, 0xff, 0xcd, 0xad, 0xbd, 0x63, 0x73, 0x02, 0xbe,
  0x5d, 0x29, 0xe2, 0x3d, 0xf4, 0x07, 0xc9, 0x3d, 0x05, 0x80, 0x18, 0x3e,
  0xf9, 0x8e, 0xa6, 0x3e, 0x99, 0xea, 0x8a, 0x3d, 0xa8, 0xb5, 0xd2, 0x3e,
  0xd8, 0xae, 0x91, 0xbe, 0x7a, 0xeb, 0x87, 0xbe, 0x2e, 0xb0, 0x46, 0x3f,
  0x8e, 0xe2, 0x9d, 0x3f, 0xf1, 0x82, 0x60, 0x3e, 0x90, 0x6b, 0xcb, 0xbe,
  0x7e, 0x6d, 0xb9, 0xbe, 0xa1, 0xe8, 0x06, 0xbe, 0x68, 0x9f, 0x7d, 0xbd,
  0x6a, 0x53, 0xd7, 0x3d, 0xca, 0x50, 0x5c, 0xbd, 0x7e, 0xf5, 0xba, 0x3b,
  0x05, 0xd6, 0x84, 0xbd, 0x4a, 0x76, 0x2b, 0xbe, 0xd8, 0xa7, 0x93, 0xbe,
  0xbc, 0x13, 0x3c, 0xbf, 0xd3, 0x5d, 0x0e, 0xbf, 0xf5, 0xbd, 0x65, 0x3f,
  0x2d, 0x7b, 0x83, 0x3e, 0xe4, 0xdf, 0xd5, 0xbe, 0xd2, 0x1e, 0x64, 0xbf,
  0xba, 0x8e, 0x13, 0xbf, 0xa6, 0xf5, 0x2a, 0xbe, 0x0f, 0xc9, 0x66, 0xbf,
  0x35, 0x9d, 0xdc, 0xbe, 0x86, 0x05, 0xbe, 0xbe, 0x0a, 0x5e, 0xf2, 0xbe,
  0xe0, 0x5a, 0xf0, 0xbd, 0xba, 0xac, 0xdd, 0xbe, 0x58, 0xd0, 0x39, 0xbe,
  0xe5, 0x4c, 0x23, 0xbe, 0x43, 0xd9, 0x8d, 0x3d, 0x6c, 0xb4, 0x2a, 0x3f,
  0x5c, 0x08, 0x84, 0x3e, 0x3c, 0x59, 0x8a, 0xbf, 0x2e, 0x8c, 0xdb, 0xbe,
  0x32, 0xac, 0x89, 0xbe, 0xa0, 0x8f, 0x0b, 0xbe, 0x45, 0xab, 0x72, 0xbc,
  0x0d, 0x36, 0xc9, 0x3d, 0xa4, 0x3f, 0x32, 0x3c, 0x04, 0xb3, 0xa4, 0x3c,
  0xed, 0x2e, 0x6d, 0xbd, 0xaf, 0x48, 0x17, 0xbf, 0x18, 0xbc, 0x31, 0xbe,
  0x37, 0x97, 0x40, 0xbc, 0x82, 0x71, 0x98, 0xbe, 0x4f, 0x7b, 0x39, 0x3f,
  0x65, 0x42, 0xd0, 0xbe, 0x7f, 0x54, 0x1f, 0xbd, 0x7f, 0x6c, 0x4f, 0x3e,
  0x35, 0x81, 0x2b, 0xbe, 0xd9, 0x85, 0x41, 0xbe, 0xe0, 0x93, 0x88, 0xbe,
  0xb2, 0x7a, 0x51, 0x3e, 0xcd, 0xd2, 0xb1, 0xbe, 0x93, 0x52, 0xde, 0x3e,
  0x52, 0xed, 0x22, 0xbe, 0xfb, 0xcd, 0xa5, 0x3e, 0xec, 0x90, 0x46, 0xbe,
  0xab, 0x63, 0xb5, 0x3d, 0x37, 0x80, 0x3f, 0xbe, 0xda, 0x1f, 0x1d, 0xbf,
  0xd3, 0xdf, 0x3c, 0x3d, 0x43, 0xc4, 0x50, 0x3e, 0xe6, 0x1d, 0x12, 0x3f,
  0x6b, 0x4c, 0xcc, 0x3d, 0xff, 0x95, 0x34, 0x3d, 0xe5, 0x5a, 0xb2, 0x3d,
  0x48, 0x0c, 0x13, 0x3e, 0xa8, 0x53, 0x46, 0x3d, 0x9e, 0x40, 0x3a, 0x3d,
  0xfb, 0x70, 0x75, 0x3c, 0x7a, 0xb2, 0x27, 0x3f, 0xbf, 0xe2, 0xda, 0x3e,
  0x25, 0x70, 0x10, 0x3e, 0x95, 0x54, 0xf6, 0xbe, 0x7e, 0xe9, 0x3c, 0xbd,
  0xf2, 0x2f, 0xf0, 0xbd, 0x53, 0xdb, 0x8c, 0x3e, 0x66, 0x75, 0xaa, 0xbe,
  0x3c, 0x7a, 0x23, 0xbe, 0x82, 0xda, 0x6c, 0xbe, 0x34, 0x26, 0x75, 0xbe,
  0x09, 0xe4, 0x4a, 0x3f, 0x6c, 0xde, 0x73, 0x3e, 0x8c, 0x04, 0x5a, 0x3f,
  0x94, 0x2e, 0x17, 0xbf, 0x33, 0x60, 0x95, 0xbe, 0xa6, 0xe1, 0xe8, 0xbe,
  0x43, 0x01, 0xdf, 0xbe, 0x66, 0x06, 0xae, 0xbe, 0xdb, 0xba, 0x16, 0xbf,
  0xa4, 0xd9, 0x69, 0xbe, 0x4a, 0x19, 0xde, 0xbe, 0xe9, 0x52, 0x02, 0x3d,
  0xd8, 0x85, 0x61, 0xbe, 0x4a, 0x17, 0x8e, 0xbd, 0x57, 0x25, 0xba, 0x3c,
  0x36, 0xa8, 0x89, 0x3d, 0x69, 0xb8, 0x1c, 0x3d, 0x1b, 0x8f, 0x77, 0x3d,
  0x4d, 0x6a, 0x27, 0x3d, 0xc8, 0x65, 0xe2, 0x3d, 0xee, 0xb3, 0x6f, 0xbd,
  0x3f, 0xf6, 0x49, 0x3d, 0x9f, 0xf2, 0x6a, 0xbe, 0x37, 0x99, 0x86, 0xbe,
  0x5a, 0x68, 0x40, 0xbe, 0x4f, 0x3e, 0x88, 0x3d, 0xd6, 0xbc, 0x3e, 0xbf,
  0x2e, 0x92, 0x5f, 0xbe, 0x9d, 0xb3, 0xf9, 0xbd, 0xc5, 0xd0, 0x2a, 0x3f,
  0x07, 0xa3, 0x3b, 0x3f, 0x31, 0xce, 0xa6, 0x3e, 0x4e, 0x44, 0x64, 0x3f,
  0x25, 0xe4, 0x08, 0xbf, 0x5f, 0xdb, 0x59, 0x3d, 0x92, 0x8e, 0xa5, 0xbe,
  0x45, 0x17, 0xc9, 0xbe, 0x3d, 0x23, 0x68, 0x3e, 0x38, 0x86, 0x6f, 0xbe,
  0xf5, 0xf5, 0x38, 0xbb, 0xa3, 0x86, 0x85, 0xbd, 0x6d, 0xe7, 0x09, 0x3d,
  0xc5, 0x94, 0x9d, 0x3b, 0x78, 0x41, 0x2d, 0xbb, 0xbb, 0x92, 0xdc, 0xbc,
  0xc9, 0xb7, 0x63, 0x3c, 0x31, 0x39, 0x80, 0x3b, 0xad, 0x27, 0x85, 0xbc,
  0xf4, 0x58, 0xa6, 0xbd, 0x2d, 0xa0, 0xb3, 0x3d, 0x54, 0x0f, 0x19, 0xbd,
  0xff, 0x7b, 0xd9, 0x3d, 0x5f, 0xcd, 0x79, 0xbe, 0xc9, 0x94, 0x26, 0xbe,
  0x0a, 0x37, 0x58, 0xbe, 0x4c, 0x16, 0xa8, 0xbd, 0x4d, 0x95, 0x07, 0xbf,
  0xb3, 0xe3, 0xcd, 0x3d, 0xf8, 0x2c, 0xb8, 0xbe, 0x31, 0x8e, 0x8c, 0x3e,
  0xea, 0x27, 0x0b, 0x3f, 0x50, 0x38, 0xa9, 0xbe, 0x0c, 0x0a, 0x09, 0x3f,
  0x73, 0xc6, 0xfa, 0xbd, 0xb3, 0x21, 0x2b, 0xbf, 0xee, 0xb6, 0x94, 0x3c,
  0xf6, 0x84, 0x47, 0xbf, 0xec, 0x77, 0xb0, 0x3c, 0xe1, 0xcf, 0xbb, 0xbe,
  0x52, 0x92, 0x35, 0xbd, 0x98, 0x78, 0x1d, 0xbe, 0x86, 0x03, 0x82, 0x3b,
  0x41, 0x36, 0x56, 0xbd, 0x0c, 0x3b, 0x98, 0x3d, 0xf0, 0xeb, 0x88, 0xbc,
  0x2b, 0xb6, 0xc6, 0x3d, 0x60, 0xfb, 0x43, 0x3d, 0x7e, 0x2c, 0xae, 0x3a,
  0xd9, 0x59, 0x06, 0xbd, 0xba, 0x48, 0x83, 0x3d, 0x03, 0x30, 0xc5, 0xbd,
  0x70, 0x51, 0x3f, 0x3d, 0x31, 0x08, 0x1c, 0xbf, 0xd4, 0x1a, 0x91, 0xbe,
  0xff, 0xa0, 0xe7, 0xbe, 0x66, 0xcd, 0x42, 0x3e, 0xb6, 0x06, 0xdf, 0xbd,
  0x64, 0x8b, 0x06, 0xbc, 0x56, 0x1d, 0x12, 0xbf, 0x46, 0x23, 0x9b, 0xbe,
  0x39, 0xcf, 0x7a, 0x3f, 0x69, 0x47, 0xbe, 0xbe, 0x81, 0x7d, 0xd6, 0x3d,
  0x63, 0x58, 0x92, 0x3d, 0x20, 0xfe, 0x77, 0xbf, 0x5e, 0x92, 0x9c, 0x3c,
  0x7c, 0x14, 0xd5, 0xbe, 0xcb, 0xbb, 0x95, 0xbd, 0xd2, 0x54, 0x61, 0xbe,
  0xbe, 0x4d, 0xce, 0xbc, 0xe2, 0xf2, 0x55, 0xbe, 0xfc, 0xf9, 0x36, 0xbd,
  0xc5, 0x75, 0x58, 0xbc, 0xcb, 0x02, 0x89, 0xbd, 0x89, 0xe9, 0x8e, 0x3b,
  0x84, 0x19, 0xb9, 0xbb, 0x55, 0x4b, 0x6e, 0x3b, 0x4c, 0x3c, 0x27, 0xbc,
  0xaa, 0x4a, 0x1e, 0xbd, 0xd1, 0x55, 0x8f, 0x3d, 0x41, 0xa4, 0x1c, 0xbe,
  0xee, 0xcb, 0xdc, 0xbc, 0xb3, 0x60, 0x06, 0xbf, 0x53, 0x2c, 0x67, 0x3e,
  0x92, 0x8f, 0x45, 0xbe, 0x79, 0x52, 0xce, 0x3e, 0x6a, 0x5c, 0x81, 0xbe,
  0xe8, 0x95, 0x50, 0x3e, 0x44, 0xcb, 0xd5, 0xbd, 0xb2, 0x17, 0xa8, 0xbe,
  0x59, 0x12, 0x99, 0x3e, 0x21, 0x7a, 0x78, 0xbe, 0xac, 0x77, 0x02, 0xbe,
  0x7c, 0x3d, 0xbb, 0xbe, 0x33, 0xaf, 0x9c, 0xbd, 0x08, 0xa0, 0xcf, 0xbe,
  0xad, 0x5a, 0xda, 0x3d, 0x51, 0xd6, 0x97, 0xbe, 0x80, 0x2b, 0x0e, 0x3e,
  0x1d, 0x5f, 0x6f, 0xbd, 0x92, 0xf5, 0x2d, 0x3b, 0xdd, 0x3c, 0x88, 0xbd,
  0xfc, 0x77, 0x4e, 0x3d, 0x7f, 0xac, 0x98, 0x3d, 0xcc, 0x24, 0x64, 0x3c,
  0x06, 0x32, 0xb2, 0x3c, 0xc6, 0x07, 0x85, 0xbd, 0xf4, 0x16, 0x91, 0xbc,
  0x2b, 0x7e, 0x8f, 0x3c, 0x84, 0x8d, 0x74, 0x3d, 0x32, 0x07, 0xe4, 0x3d,
  0x49, 0xad, 0x9c, 0x3e, 0x67, 0xc1, 0xdc, 0x3e, 0x0d, 0x34, 0xdc, 0x3e,
  0x50, 0xec, 0x19, 0x3e, 0x18, 0xa1, 0x15, 0x3e, 0xfc, 0xba, 0xef, 0x3e,
  0x94, 0xd5, 0xae, 0x3e, 0x71, 0x87, 0x1f, 0xbe, 0xe7, 0x79, 0x38, 0xbe,
  0x9e, 0x03, 0xa7, 0xbe, 0x8b, 0x16, 0x9b, 0xbe, 0x04, 0x4f, 0xae, 0xbd,
  0x0e, 0x6f, 0x3b, 0xbf, 0x7f, 0xc7, 0xcf, 0x3e, 0xee, 0x52, 0x86, 0xbe,
  0x16, 0x43, 0x85, 0x3e, 0x21, 0x85, 0x72, 0xbe, 0x6e, 0xcb, 0x20, 0x3e,
  0xe3, 0xd1, 0x72, 0xbc, 0xc8, 0x46, 0xc0, 0xbb, 0x2b, 0x01, 0x94, 0xba,
  0x80, 0xeb, 0xc9, 0x3d, 0x66, 0x44, 0x24, 0x3d, 0x2d, 0x2c, 0xfb, 0xba,
  0xae, 0x02, 0xde, 0xbb, 0x9f, 0xf2, 0x70, 0x3d, 0x07, 0x32, 0xe5, 0xbc,
  0x9f, 0x51, 0x28, 0x3c, 0x47, 0xd0, 0x49, 0x3c, 0xdb, 0x06, 0x78, 0xbd,
  0x8a, 0xdf, 0x2d, 0xbd, 0x86, 0x3a, 0xcd, 0x3e, 0x02, 0xf5, 0xa6, 0x3c,
  0xc3, 0x28, 0x5e, 0x3e, 0x4a, 0x35, 0x8d, 0x3e, 0x12, 0x41, 0x31, 0x3b,
  0xea, 0x21, 0x0d, 0x3e, 0x4e, 0x26, 0x59, 0xbe, 0xc8, 0x52, 0x20, 0x3d,
  0x7c, 0xd7, 0x30, 0xbd, 0xf7, 0x0f, 0x7b, 0x3d, 0x29, 0x9e, 0x76, 0xbd,
  0x48, 0xf2, 0x7d, 0xbd, 0x3b, 0x0a, 0x8b, 0x3e, 0x6d, 0x4b, 0xe0, 0x3d,
  0x6b, 0xe9, 0xcd, 0x3b, 0xb4, 0xd8, 0x84, 0x3e, 0xf4, 0xb7, 0x43, 0xbe,
  0x48, 0x71, 0x38, 0x3e, 0xee, 0x2c, 0xfe, 0xbd, 0xaa, 0x48, 0xf3, 0x3c,
  0x1e, 0x32, 0x39, 0x3c, 0xff, 0x66, 0x80, 0x3e, 0xa3, 0x88, 0xdc, 0x3c,
  0x1b, 0xcb, 0xa2, 0x3d, 0x5b, 0x89, 0x56, 0xbc, 0xbe, 0x85, 0x4b, 0xbd,
  0xff, 0x57, 0x19, 0xbd, 0x91, 0xb5, 0xaa, 0xbc, 0x35, 0x22, 0x00, 0xbe,
  0xe1, 0xa4, 0x90, 0x3d, 0x0f, 0xe5, 0x08, 0xbe, 0x9a, 0x71, 0xb6, 0x3d,
  0xcc, 0x10, 0x8b, 0xbe, 0x83, 0x66, 0xb3, 0xba, 0xd4, 0xbf, 0xb1, 0xbe,
  0x0b, 0x2f, 0x4e, 0x3e, 0x0b, 0xb3, 0x0a, 0xbf, 0x1c, 0x44, 0x7f, 0x3e,
  0x9e, 0xf0, 0xcc, 0xbe, 0xe2, 0x7a, 0x5d, 0x3e, 0x19, 0x3a, 0xc0, 0xbe,
  0xca, 0xdf, 0x2f, 0x3e, 0xbf, 0x55, 0x26, 0xbe, 0x08, 0xb7, 0xb7, 0xbc,
  0xa5, 0x8e, 0xce, 0xbc, 0x8b, 0xbe, 0xfa, 0x3d, 0x86, 0x35, 0x77, 0xbc,
  0xa4, 0x19, 0x98, 0x3d, 0xd6, 0x5f, 0x68, 0xbd, 0x30, 0xd7, 0x42, 0xbc,
  0x90, 0x69, 0xdd, 0x39, 0x25, 0xe4, 0x89, 0x3d, 0xf5, 0x07, 0xe8, 0x3c,
  0x61, 0x39, 0x8c, 0x3d, 0x6f, 0x5d, 0x36, 0xbd, 0x8a, 0xf5, 0x5b, 0x3e,
  0xad, 0x8f, 0x4b, 0xbc, 0xa1, 0xf6, 0xa5, 0x3d, 0x08, 0x99, 0xcd, 0xba,
  0x4f, 0x36, 0xa6, 0x3d, 0xba, 0x95, 0x6a, 0x39, 0x91, 0x6d, 0xa0, 0xbc,
  0x9a, 0x37, 0x35, 0xbd, 0xe2, 0x4c, 0x9b, 0x3d, 0xbe, 0xe4, 0xb9, 0xbd,
  0x2c, 0x41, 0x31, 0x3c, 0x24, 0x92, 0x8c, 0xbd, 0x2b, 0x59, 0x1d, 0xbc,
  0x4b, 0x34, 0x0c, 0xbe, 0xc7, 0x60, 0x06, 0x3e, 0x62, 0x95, 0x0c, 0xbe,
  0xf4, 0x95, 0xfa, 0x3b, 0xa1, 0xa4, 0x30, 0xbd, 0x36, 0xd1, 0xc8, 0x3d,
  0xdb, 0x72, 0x85, 0xbc, 0x3d, 0x41, 0xa8, 0x3d, 0x05, 0x8f, 0xc5, 0xbd,
  0x83, 0x80, 0x71, 0xbd, 0x06, 0x85, 0x8a, 0x3c, 0x72, 0xf6, 0xee, 0x3c,
  0xdd, 0x2e, 0xe4, 0x3c, 0x11, 0xd4, 0xc3, 0x3d, 0xf0, 0x88, 0xcf, 0x3c,
  0xc8, 0x32, 0x08, 0xbd, 0x6b, 0xca, 0x95, 0xbd, 0x92, 0x98, 0xa5, 0x3d,
  0x0f, 0x6b, 0xef, 0x3d, 0xc5, 0x5c, 0x7b, 0x3c, 0x2f, 0x1f, 0x9e, 0x3d,
  0x03, 0x77, 0xb4, 0xbc, 0xd3, 0xe2, 0x0b, 0x3e, 0xd7, 0x85, 0x70, 0xbd,
  0x8e, 0xe7, 0xd0, 0x3d, 0xee, 0x92, 0x19, 0xbd, 0x73, 0xf4, 0xaf, 0x3d,
  0xb1, 0x05, 0x5d, 0x3d, 0x5f, 0xc4, 0x05, 0x3e, 0xca, 0xb9, 0x86, 0xbc,
  0x75, 0x11, 0x01, 0x3e, 0x33, 0xc5, 0x66, 0xbd, 0xe4, 0xed, 0x48, 0x3c,
  0x85, 0x26, 0xdb, 0xba, 0x5a, 0x23, 0x5d, 0x3d, 0x15, 0x8d, 0x55, 0xbc,
  0xd8, 0xb6, 0x9f, 0x3d, 0xf0, 0xbd, 0x28, 0xbd, 0x41, 0x31, 0x98, 0x3c,
  0x19, 0x87, 0x5b, 0x3d, 0x2a, 0x55, 0xae, 0x3d, 0x7d, 0x7e, 0x29, 0x3d,
  0xe9, 0x04, 0xec, 0x3d, 0x98, 0x22, 0x31, 0x3d, 0xe8, 0x75, 0x0a, 0x3d,
  0x06, 0x3c, 0x81, 0xbe, 0x17, 0x3d, 0x0c, 0xbd, 0xeb, 0x13, 0x95, 0x3d,
  0xc5, 0x17, 0xdd, 0x3c, 0xea, 0x00, 0xfd, 0xbd, 0x5e, 0xc9, 0xd3, 0x3d,
  0xa0, 0x2d, 0xcf, 0x3e, 0x62, 0x0f, 0xf8, 0x3e, 0x48, 0xde, 0xf7, 0x3e,
  0x1f, 0x60, 0xb3, 0x3e, 0x24, 0xb6, 0x91, 0x3e, 0xd4, 0x97, 0x4a, 0x3d,
  0x8f, 0xf2, 0x00, 0xbe, 0x30, 0xf4, 0xcc, 0xbd, 0x4d, 0x61, 0x09, 0x3e,
  0xb8, 0x8b, 0xf2, 0x3d, 0x42, 0x89, 0x57, 0xbe, 0x46, 0xa8, 0x59, 0x3d,
  0x84, 0x25, 0x8f, 0xbe, 0x6b, 0xb8, 0x2c, 0x3d, 0xc2, 0x76, 0x01, 0x3e,
  0xdf, 0x8a, 0xfc, 0x3e, 0xfb, 0x34, 0x82, 0x3e, 0x20, 0x07, 0xc7, 0x3e,
  0x0a, 0xbf, 0x90, 0x3e, 0x13, 0xd1, 0xce, 0x3e, 0x83, 0x58, 0xad, 0xbd,
  0xcc, 0x01, 0x45, 0x3c, 0xff, 0x29, 0x13, 0xbf, 0x64, 0xdb, 0x27, 0xbe,
  0x6d, 0x13, 0x3e, 0xbd, 0x9f, 0xfb, 0xa1, 0xbc, 0x55, 0x9c, 0x44, 0x3d,
  0x1a, 0x78, 0x26, 0x3e, 0x5c, 0xde, 0xd9, 0x3e, 0xcb, 0x18, 0xd1, 0x3e,
  0xa0, 0x17, 0x84, 0x3d, 0xed, 0x0e, 0x2d, 0x3e, 0x49, 0x50, 0x57, 0x3e,
  0xd3, 0xcc, 0xf1, 0x3d, 0x28, 0x8e, 0x34, 0xbe, 0xc7, 0x48, 0x78, 0x3e,
  0x1b, 0x0d, 0x83, 0xbd, 0xae, 0x1a, 0x35, 0x3e, 0xae, 0xd7, 0xbf, 0x3b,
  0x6f, 0x2d, 0xf7, 0x3e, 0x0b, 0x2b, 0x08, 0xbe, 0x26, 0x7d, 0x65, 0x3e,
  0xcd, 0x74, 0x0a, 0xbf, 0x48, 0xaa, 0x01, 0x3f, 0x9a, 0xf0, 0xb0, 0xbe,
  0x7d, 0x88, 0xa8, 0x3e, 0xce, 0x63, 0x90, 0xbd, 0x1f, 0x0f, 0x2d, 0x3d,
  0xbe, 0x6b, 0x30, 0x3e, 0x69, 0x15, 0x70, 0x3e, 0x3c, 0x77, 0x03, 0xbe,
  0xa7, 0x43, 0xa2, 0xbc, 0x1c, 0xd3, 0xf7, 0xbe, 0xdd, 0xb1, 0x53, 0xbe,
  0x1a, 0xcc, 0x9d, 0xbc, 0xa0, 0x7b, 0xf1, 0xbc, 0x86, 0x9f, 0x69, 0xbc,
  0x5e, 0x54, 0x63, 0x3d, 0x92, 0x1b, 0xdc, 0xbe, 0xd1, 0x1b, 0xe1, 0xbe,
  0x8c, 0x9d, 0x36, 0xbf, 0x34, 0xd9, 0x12, 0xbf, 0x9e, 0xaa, 0x7a, 0xbf,
  0x08, 0x1a, 0x2c, 0xbe, 0x73, 0x47, 0x8d, 0xbe, 0x31, 0xf0, 0x04, 0x3f,
  0xd4, 0xd5, 0x82, 0xbe, 0xa7, 0x9c, 0x6e, 0x3e, 0x0d, 0xd5, 0xbf, 0xbe,
  0xd3, 0xf8, 0x55, 0x3e, 0x19, 0x51, 0xca, 0xbe, 0xdc, 0xf7, 0x04, 0x3f,
  0xcf, 0xac, 0x1d, 0xbf, 0x39, 0x5e, 0x70, 0xbe, 0xad, 0xbd, 0xb2, 0xbf,
  0xe0, 0x84, 0x18, 0xbd, 0xd3, 0x9b, 0x50, 0xbf, 0xc8, 0x72, 0x06, 0xbe,
  0xe9, 0xb2, 0x1b, 0xbf, 0x25, 0x1c, 0x10, 0xbf, 0xcf, 0x79, 0x55, 0xbe,
  0xdd, 0x7b, 0x66, 0xbe, 0xbe, 0x3c, 0x57, 0xbe, 0x53, 0x09, 0x24, 0x3f,
  0xac, 0x83, 0xae, 0xbd, 0x34, 0x3c, 0x80, 0xbc, 0x5d, 0x54, 0x07, 0x3e,
  0x77, 0x24, 0x42, 0x3e, 0x28, 0x53, 0x83, 0x3d, 0x32, 0x54, 0xe1, 0x3e,
  0xbf, 0x6f, 0x85, 0xbd, 0x10, 0xfd, 0xf5, 0x3e, 0x54, 0x51, 0xeb, 0x3e,
  0xe9, 0x21, 0x9a, 0x3e, 0x86, 0x3c, 0x5d, 0x3c, 0x81, 0x13, 0xa9, 0xbd,
  0x27, 0xe8, 0x34, 0x3d, 0x26, 0x1e, 0xaa, 0x3d, 0x96, 0xa7, 0xa9, 0xbd,
  0x12, 0x7b, 0x3b, 0x3e, 0x12, 0x1f, 0x66, 0xbe, 0x6e, 0x43, 0x89, 0xbd,
  0x70, 0x2a, 0xa8, 0xbe, 0xe8, 0x15, 0x05, 0xbd, 0x7a, 0xa9, 0x5f, 0xbe,
  0xc7, 0xf3, 0x98, 0x3c, 0x51, 0xe3, 0x84, 0x3e, 0x29, 0x44, 0xbd, 0x3e,
  0xe8, 0x6f, 0xa1, 0xbd, 0x9e, 0x7f, 0x49, 0xbe, 0xde, 0x70, 0x2a, 0x3e,
  0x41, 0xc9, 0x04, 0x3e, 0x6f, 0x96, 0x0a, 0x3f, 0xfe, 0x5f, 0xb6, 0x3f,
  0x83, 0x60, 0xdd, 0xbc, 0x78, 0x06, 0x79, 0x3d, 0x51, 0xcc, 0x81, 0xbc,
  0x38, 0x36, 0x52, 0x3f, 0xdc, 0xf7, 0x3a, 0x3f, 0xc3, 0xfa, 0x10, 0x3f,
  0xc5, 0x3b, 0xd5, 0x3e, 0x6c, 0x11, 0x93, 0x3e, 0x44, 0xe1, 0x33, 0x3f,
  0xcc, 0x50, 0xa6, 0x3c, 0x2a, 0xc2, 0x01, 0x3f, 0x08, 0x16, 0x1b, 0xbe,
  0xf6, 0xd3, 0xf1, 0x3d, 0xe5, 0x5f, 0x8d, 0x3e, 0x8e, 0x6e, 0x50, 0xbe,
  0x07, 0x70, 0x7d, 0xbe, 0x02, 0x98, 0xfc, 0xbe, 0xb1, 0x12, 0x4f, 0x3e,
  0x1a, 0xf7, 0x85, 0xbe, 0x46, 0x85, 0x54, 0x3e, 0xb3, 0x2f, 0x0b, 0x3d,
  0x13, 0xb3, 0x29, 0x3e, 0xdf, 0xa2, 0xa8, 0x3d, 0xf8, 0x32, 0x65, 0xbe,
  0xf8, 0xe0, 0xfc, 0xb9, 0xb2, 0x4d, 0x5d, 0xbe, 0x9f, 0x3f, 0x03, 0x3f,
  0xd0, 0x17, 0xd9, 0x3e, 0x46, 0xb5, 0x13, 0x3f, 0x64, 0x23, 0xd8, 0x3e,
  0x7d, 0x59, 0x0f, 0xbe, 0xf2, 0x7f, 0x4c, 0xbd, 0x51, 0x7a, 0x24, 0x3d,
  0xa9, 0x79, 0x27, 0x3e, 0xf6, 0xe8, 0xac, 0x3d, 0x24, 0x87, 0xaa, 0xbb,
  0xad, 0x2b, 0x8a, 0x3e, 0xf4, 0xc5, 0x8f, 0xbe, 0x58, 0xb2, 0x7d, 0x3d,
  0xe2, 0x18, 0x22, 0xbf, 0xbf, 0xfe, 0xcc, 0x3e, 0x7b, 0x83, 0x98, 0xbe,
  0xaf, 0xd5, 0xc0, 0x3e, 0x56, 0x91, 0x4d, 0xbf, 0x62, 0xb8, 0x8d, 0xbc,
  0xba, 0x6c, 0x74, 0xbf, 0xd3, 0x78, 0x34, 0x3e, 0x92, 0xe3, 0x18, 0xbf,
  0x26, 0x08, 0x90, 0xbd, 0x9b, 0x55, 0x0f, 0xbf, 0x32, 0x07, 0xba, 0xbe,
  0x7e, 0x3c, 0x5c, 0xbe, 0xa4, 0x67, 0x0e, 0xbf, 0xe1, 0xe1, 0x2b, 0xbe,
  0x2a, 0xfe, 0x64, 0xbe, 0x80, 0x81, 0x8f, 0xbe, 0x40, 0xe1, 0x3c, 0xbc,
  0xeb, 0x91, 0xe6, 0x3d, 0xf3, 0x73, 0xb0, 0x3c, 0xee, 0xb7, 0x4e, 0x3c,
  0x04, 0x39, 0xb3, 0xbd, 0x33, 0x24, 0x9d, 0xbc, 0xc7, 0x10, 0x77, 0xbd,
  0xe3, 0xf6, 0x0d, 0xbd, 0x4b, 0xaf, 0xf6, 0xbd, 0x5a, 0x56, 0xe4, 0xbe,
  0x2c, 0xa5, 0x36, 0x3e, 0x4d, 0x44, 0x81, 0xbf, 0x25, 0xa0, 0x7e, 0x3f,
  0x43, 0xa0, 0x41, 0xbf, 0x32, 0xaa, 0x6c, 0x3f, 0xaf, 0xda, 0xf9, 0xbe,
  0x3b, 0x8b, 0x09, 0x3f, 0x19, 0x7e, 0x02, 0xbf, 0xf9, 0x20, 0x04, 0x3e,
  0x15, 0x4f, 0x15, 0xbe, 0x05, 0xaf, 0x50, 0xbd, 0x54, 0x34, 0xf9, 0xbe,
  0xd8, 0x89, 0x61, 0x3e, 0x7d, 0x50, 0xab, 0xbe, 0x31, 0x82, 0x16, 0x3f,
  0xe2, 0xe1, 0xbb, 0xbd, 0x4e, 0xa4, 0xac, 0x3e, 0x39, 0xc4, 0x80, 0xbe,
  0xc4, 0xa4, 0x10, 0x3f, 0x64, 0xf0, 0x42, 0x3b, 0xdb, 0x77, 0xfc, 0x3e,
  0x08, 0x7d, 0x05, 0x3f, 0x03, 0x88, 0x8f, 0x3e, 0x8e, 0x3d, 0x63, 0x3e,
  0xda, 0xb4, 0x08, 0x3d, 0x03, 0x2f, 0xa4, 0xbd, 0x85, 0xdc, 0x71, 0xbd,
  0xf7, 0xac, 0x4c, 0xbc, 0x78, 0x4d, 0x90, 0xbd, 0xcb, 0xd8, 0x5d, 0x3e,
  0xb8, 0x57, 0x1e, 0x3e, 0x94, 0xd7, 0x75, 0x3d, 0x4f, 0x78, 0x4f, 0x3f,
  0xc8, 0xe1, 0x8e, 0x3d, 0x24, 0xdd, 0x34, 0x3f, 0x70, 0x12, 0x35, 0x3c,
  0xbc, 0xcd, 0x1c, 0x3f, 0x9a, 0x3e, 0xe5, 0x3e, 0xc2, 0x9b, 0x10, 0x3f,
  0x5b, 0x9f, 0x32, 0x3f, 0xe3, 0xda, 0xa6, 0x3e, 0x59, 0x17, 0xbc, 0x3e,
  0x52, 0xcb, 0xe8, 0x3e, 0x36, 0x16, 0x6c, 0xbe, 0x24, 0x3c, 0x83, 0x3e,
  0xd2, 0x14, 0xba, 0xbd, 0x5e, 0xb6, 0xcd, 0x3e, 0xb6, 0x00, 0x03, 0xbe,
  0x2b, 0x2c, 0x92, 0x3e, 0x7d, 0xb8, 0x8b, 0x3e, 0x7d, 0xa0, 0x0e, 0x3f,
  0x0c, 0xdc, 0x57, 0x3f, 0x8d, 0x3b, 0x80, 0x3e, 0x29, 0x0e, 0x92, 0x3d,
  0x56, 0xdf, 0xd0, 0x3d, 0x64, 0x8f, 0xbb, 0xbd, 0xbd, 0x8b, 0x73, 0xbd,
  0xf0, 0xc6, 0x64, 0xbd, 0x81, 0x7e, 0xa2, 0xbd, 0x88, 0x53, 0x1c, 0x3f,
  0xb8, 0xf0, 0x82, 0x3d, 0x6e, 0x48, 0x61, 0x3e, 0x30, 0x88, 0x17, 0xbe,
  0x24, 0xc9, 0xb7, 0x3d, 0x61, 0x34, 0x11, 0x3f, 0x76, 0x56, 0x1a, 0x3d,
  0x25, 0xb1, 0x2f, 0x3f, 0xda, 0xa6, 0xcf, 0x3e, 0x4b, 0x5c, 0xcd, 0x3e,
  0x03, 0xd7, 0xd2, 0x3e, 0xc2, 0x4d, 0xa1, 0x3e, 0x31, 0x9a, 0x4a, 0x3e,
  0x0b, 0x00, 0x51, 0x3e, 0x9d, 0xcf, 0xa1, 0x3c, 0x75, 0x79, 0x8e, 0x3c,
  0x46, 0xc1, 0x35, 0x3e, 0xea, 0x34, 0x23, 0xbe, 0xb8, 0x3c, 0xa7, 0x3e,
  0x59, 0xe1, 0x1d, 0xbe, 0x81, 0xf3, 0xf5, 0x3e, 0xe3, 0x2c, 0xf6, 0x3e,
  0x16, 0x2c, 0x73, 0x3f, 0xfa, 0x2e, 0x8a, 0x3e, 0x95, 0x1d, 0x0b, 0x3e,
  0xd3, 0xde, 0xf8, 0x3d, 0x8d, 0x32, 0x75, 0xbd, 0x4d, 0xe2, 0x19, 0x3d,
  0x23, 0xe8, 0x42, 0x39, 0x84, 0x01, 0x16, 0xbe, 0x3c, 0x75, 0x1b, 0x3f,
  0xda, 0x8c, 0x6e, 0xbc, 0x2b, 0x35, 0x16, 0x3f, 0x61, 0xd9, 0x76, 0xbe,
  0x65, 0x37, 0xb3, 0x3e, 0x93, 0x6c, 0x78, 0x3d, 0x6d, 0x53, 0x82, 0x3e,
  0x88, 0xb5, 0xa5, 0x3e, 0x43, 0x13, 0x2b, 0x3f, 0xd9, 0x31, 0xc5, 0x3e,
  0xbf, 0x1f, 0x1c, 0x3f, 0x56, 0x6d, 0x3e, 0x3d, 0x2d, 0x4f, 0xa7, 0x3e,
  0x4f, 0xdb, 0x1b, 0x3e, 0xa9, 0x2f, 0xe3, 0x3e, 0xe8, 0xa3, 0x4d, 0xbe,
  0x50, 0xe9, 0x8d, 0xbe, 0xdd, 0x6c, 0x4f, 0xbe, 0x5f, 0xbe, 0x81, 0x3e,
  0x9b, 0xd0, 0x12, 0xbe, 0x43, 0x31, 0x1e, 0x3f, 0xe3, 0x9b, 0x18, 0x3e,
  0xdf, 0xf8, 0x0b, 0x3f, 0x0d, 0xb3, 0xbe, 0x3e, 0x0e, 0x23, 0x29, 0x3d,
  0x31, 0x30, 0x54, 0xbc, 0x1f, 0xa1, 0x7b, 0x3c, 0x84, 0xc9, 0x33, 0x3b,
  0x5b, 0x07, 0x80, 0xbd, 0xfd, 0xbc, 0x82, 0xbd, 0xe2, 0x45, 0xbd, 0x3e,
  0x90, 0xa8, 0x86, 0x3d, 0x8b, 0x94, 0x27, 0x3e, 0x15, 0x0b, 0xde, 0xbd,
  0x1d, 0x56, 0x0a, 0x3e, 0x66, 0x69, 0x39, 0xbd, 0x79, 0x14, 0xfe, 0x3d,
  0x66, 0x0e, 0x7d, 0xbe, 0x44, 0x17, 0x20, 0x3e, 0x77, 0x8d, 0xb8, 0xbd,
  0x17, 0xd2, 0xe3, 0xbc, 0x44, 0x62, 0x38, 0xbe, 0x48, 0x55, 0x1f, 0x3e,
  0xb1, 0x5c, 0x77, 0xbe, 0xb1, 0xaf, 0xb0, 0xbc, 0x5d, 0xe2, 0xc6, 0xbe,
  0xc2, 0x9a, 0xa4, 0x3e, 0xf4, 0x93, 0x88, 0xbe, 0xea, 0x7e, 0x82, 0x3e,
  0x3c, 0x62, 0xd3, 0x3c, 0xd6, 0x99, 0x04, 0x3f, 0x31, 0xc7, 0x3a, 0xbd,
  0x8e, 0x5d, 0x75, 0x3e, 0x37, 0x01, 0x84, 0x3e, 0x97, 0x32, 0x51, 0xbd,
  0x18, 0x82, 0xbd, 0x3c, 0x70, 0x70, 0xfe, 0xbc, 0x03, 0x69, 0x18, 0xbd,
  0xef, 0x8f, 0x1f, 0x3d, 0x7b, 0x08, 0xdc, 0xbd, 0xe8, 0x94, 0xa2, 0x3d,
  0x49, 0xa7, 0xac, 0xbe, 0xaf, 0x91, 0xed, 0x3d, 0xe4, 0x9b, 0x69, 0xbe,
  0x2f, 0xbb, 0x95, 0x3d, 0x0c, 0x79, 0x4a, 0xbe, 0xb6, 0xc3, 0x31, 0x3e,
  0x01, 0x09, 0x9e, 0xbe, 0x22, 0xf4, 0x66, 0x3d, 0x90, 0x8b, 0x80, 0xbe,
  0x5e, 0xd6, 0x30, 0xbe, 0x78, 0x39, 0x1d, 0xbe, 0xbc, 0x90, 0x8c, 0xbe,
  0x68, 0xb3, 0xc4, 0xbe, 0xe8, 0x4b, 0x8d, 0x3d, 0x63, 0x61, 0xda, 0xbe,
  0xa2, 0xc5, 0x7d, 0x3e, 0x1d, 0x71, 0x9f, 0xbe, 0x72, 0xcf, 0xbb, 0x3e,
  0x1e, 0xf4, 0xe8, 0xbd, 0x49, 0xa7, 0x5c, 0x3e, 0xb8, 0x7f, 0x96, 0x3d,
  0x98, 0xbb, 0x31, 0x3c, 0x8f, 0xa6, 0x9d, 0xbc, 0x2d, 0x62, 0xa5, 0x3d,
  0xfe, 0x2e, 0xf4, 0xbc, 0xe2, 0xd0, 0x7d, 0x3b, 0xca, 0xcb, 0x15, 0xbc,
  0xbd, 0x13, 0xd3, 0xbb, 0xff, 0x29, 0xb3, 0xbd, 0x46, 0x70, 0x39, 0xbe,
  0x57, 0xf0, 0xe2, 0xbd, 0x0c, 0xd7, 0x79, 0xbe, 0x09, 0x86, 0x00, 0xbe,
  0xb9, 0x58, 0xe0, 0xbe, 0xdc, 0xa1, 0x1a, 0xbe, 0x08, 0x0a, 0x03, 0xbf,
  0x7f, 0x52, 0xa2, 0xbe, 0x9a, 0x8d, 0x9b, 0xbe, 0x9b, 0x06, 0xdc, 0xbe,
  0x2e, 0xaf, 0x7c, 0xbd, 0x67, 0x6b, 0x03, 0xbf, 0xa7, 0x7c, 0x9e, 0xbb,
  0x26, 0x0e, 0x29, 0xbf, 0x80, 0x16, 0x60, 0xbe, 0x93, 0x6f, 0xf0, 0xbe,
  0x40, 0x71, 0x3b, 0xbe, 0x86, 0xc7, 0x4d, 0xbe, 0xb7, 0xa9, 0x0d, 0x3d,
  0xca, 0x52, 0x44, 0xbe, 0xfa, 0xf0, 0x2a, 0x3d, 0x37, 0xac, 0xa4, 0xbd,
  0x67, 0x0b, 0xbf, 0x3c, 0x0c, 0x00, 0x9c, 0xbd, 0xf6, 0x5b, 0x97, 0x3d,
  0x7e, 0x8d, 0x9c, 0xbd, 0x2a, 0x71, 0xa2, 0x3c, 0xa8, 0x9a, 0x28, 0xbe,
  0xad, 0xc5, 0x9a, 0xbd, 0xda, 0xe8, 0x72, 0x3d, 0xf6, 0xa7, 0x11, 0xbd,
  0x92, 0xd5, 0x50, 0xbd, 0x4a, 0xfe, 0x87, 0x3c, 0xc6, 0x99, 0x8e, 0xbc,
  0x51, 0x30, 0x75, 0x3a, 0xb4, 0x2f, 0xa0, 0xbd, 0xd2, 0xd4, 0x92, 0xbb,
  0xff, 0x71, 0xd4, 0xbd, 0x1a, 0x42, 0xaa, 0xbd, 0x77, 0x02, 0xb5, 0xbd,
  0x4b, 0x8a, 0x5e, 0xbd, 0xc4, 0x61, 0xee, 0xbd, 0x96, 0xdc, 0x04, 0xbe,
  0x43, 0xeb, 0x63, 0xbd, 0x73, 0x9a, 0x9d, 0xbd, 0xcf, 0x0d, 0x5b, 0xbe,
  0xd9, 0x56, 0xa7, 0xbd, 0x77, 0x8c, 0x9b, 0xbd, 0xea, 0x94, 0x2f, 0xbd,
  0x23, 0xeb, 0xb2, 0xbd, 0x4b, 0xcd, 0x88, 0x3d, 0x1b, 0x7a, 0xcc, 0xbd,
  0x59, 0xc9, 0x39, 0xbd, 0xd9, 0x02, 0xb1, 0xbc, 0xe2, 0x15, 0x9d, 0x3d,
  0x52, 0x31, 0xaf, 0xbd, 0xc9, 0x56, 0xff, 0xbc, 0x79, 0x95, 0xa6, 0x3c,
  0x58, 0xec, 0xdd, 0xbc, 0x29, 0x68, 0x74, 0xbd, 0x2c, 0x94, 0x7c, 0xbd,
  0x43, 0x48, 0x00, 0xbe, 0xd2, 0x30, 0x65, 0xbd, 0xa3, 0xcd, 0x12, 0xbc,
  0x79, 0x19, 0x4c, 0xbd, 0x52, 0xb5, 0xda, 0xbc, 0x87, 0x45, 0x3b, 0xbd,
  0xe3, 0xd6, 0xe9, 0xbd, 0x19, 0x11, 0x06, 0xbd, 0x1f, 0xa7, 0x0b, 0xbd,
  0x0a, 0xcb, 0x19, 0xbe, 0x49, 0x1a, 0x27, 0xbe, 0x84, 0x93, 0xe2, 0xbd,
  0xd9, 0x35, 0x75, 0xbd, 0x51, 0x0c, 0xd2, 0xbc, 0x80, 0xda, 0xdf, 0xbc,
  0x1b, 0x8d, 0xfc, 0xbc, 0xa6, 0x96, 0xf5, 0xbd, 0x66, 0x18, 0x84, 0x3c,
  0xba, 0xd3, 0x12, 0xbd, 0xc4, 0xac, 0xef, 0xbc, 0x5e, 0xd4, 0x17, 0xbd,
  0x0b, 0x24, 0x86, 0xbd, 0x01, 0x01, 0xfc, 0xbd, 0x1f, 0x3c, 0x19, 0x3c,
  0x2f, 0x4b, 0x5d, 0xbe, 0x0f, 0x61, 0x49, 0xbd, 0x30, 0x62, 0x2f, 0x3d,
  0x00, 0xdf, 0x45, 0xbd, 0x74, 0x71, 0xc5, 0x3d, 0x63, 0x56, 0x7e, 0x3e,
  0x27, 0xee, 0x80, 0x3e, 0x53, 0x18, 0x1a, 0x3f, 0xe1, 0xbc, 0xf5, 0x3e,
  0xbe, 0x0b, 0x4e, 0x3e, 0x71, 0xab, 0x25, 0x3e, 0x49, 0x7e, 0x38, 0x3d,
  0x98, 0x2c, 0xfd, 0xbd, 0x91, 0x15, 0x6c, 0xbe, 0x64, 0x66, 0x7d, 0x3d,
  0x04, 0x90, 0x53, 0xbd, 0x6b, 0x07, 0xc2, 0xbc, 0xfe, 0x16, 0xd3, 0xbd,
  0x5c, 0x58, 0xcf, 0x3d, 0x27, 0x4f, 0x0d, 0x3f, 0xdc, 0x63, 0x90, 0x3e,
  0x2f, 0xbb, 0xb5, 0x3e, 0x8e, 0xbe, 0x35, 0x3e, 0xe6, 0xfe, 0x16, 0x3e,
  0x91, 0x1a, 0x47, 0x3e, 0xe8, 0x8b, 0xc4, 0xbd, 0xe4, 0xd5, 0xa7, 0xbb,
  0x26, 0x38, 0xe5, 0xbe, 0x15, 0x0d, 0x0d, 0xbf, 0x46, 0xd7, 0x6b, 0xbc,
  0xf2, 0x8d, 0x82, 0xbd, 0x5b, 0x19, 0x83, 0xbd, 0xf6, 0x25, 0x3c, 0xbe,
  0xf4, 0x31, 0xbc, 0x3e, 0xc3, 0x75, 0xda, 0x3e, 0xa0, 0xfa, 0xef, 0x3d,
  0xb3, 0x0e, 0x98, 0x3e, 0x14, 0x5e, 0xa5, 0x3e, 0x8b, 0x9d, 0xb0, 0x3e,
  0xd2, 0xea, 0x51, 0x3e, 0x48, 0x8e, 0x65, 0x3e, 0xc9, 0x9c, 0x05, 0x3c,
  0x29, 0xa4, 0xf2, 0xbc, 0xf8, 0xf1, 0xd1, 0x3d, 0xf2, 0xf0, 0xd6, 0xbc,
  0x7c, 0x0f, 0x25, 0x3f, 0x73, 0x8a, 0x02, 0xbf, 0x74, 0x9c, 0x0c, 0x3e,
  0x8d, 0xa9, 0xa6, 0xbd, 0xe6, 0x80, 0xc4, 0x3e, 0x33, 0x86, 0x46, 0xbe,
  0x72, 0xe7, 0x95, 0xbe, 0xb3, 0x12, 0x37, 0xbf, 0xfc, 0x0e, 0xc1, 0xbd,
  0xc6, 0x02, 0xb6, 0x3e, 0xa7, 0x63, 0xa8, 0x3e, 0x5a, 0x04, 0x6f, 0x3e,
  0x9f, 0x49, 0xc0, 0x3e, 0x8e, 0x88, 0xe1, 0xbe, 0x25, 0x59, 0x91, 0xbe,
  0x53, 0x7c, 0x48, 0xbe, 0xde, 0xea, 0xb4, 0xbc, 0x4b, 0x2a, 0x30, 0xbc,
  0x7c, 0xe6, 0x66, 0x3e, 0x83, 0x8c, 0x8e, 0xbe, 0x72, 0xdc, 0xb5, 0xbe,
  0xd8, 0x42, 0xf9, 0xbe, 0x49, 0xb0, 0x81, 0xbe, 0x49, 0xaa, 0x0c, 0x3e,
  0xef, 0xe2, 0x0b, 0x3f, 0xc9, 0xf8, 0x7e, 0x3d, 0xac, 0x20, 0xe2, 0x3e,
  0x12, 0x8b, 0x76, 0xbd, 0x23, 0x46, 0x42, 0x3d, 0x32, 0x12, 0xa0, 0xbe,
  0xff, 0x3f, 0x62, 0x3d, 0x27, 0xef, 0x08, 0xbf, 0x55, 0x63, 0xd0, 0x3d,
  0xcd, 0xfe, 0x42, 0xbf, 0xd6, 0xcc, 0x66, 0xbe, 0x99, 0x5c, 0x8c, 0xbf,
  0xc1, 0x10, 0xc7, 0x3d, 0xdb, 0x4c, 0xf5, 0xbe, 0x67, 0xfe, 0xcf, 0x3e,
  0xd4, 0x65, 0x20, 0x3e, 0x2d, 0xd4, 0xa4, 0xbc, 0x9d, 0x0a, 0xf2, 0x3d,
  0x05, 0x65, 0x30, 0xbf, 0xb7, 0xed, 0x02, 0xbf, 0xf9, 0xc2, 0x33, 0xbd,
  0x42, 0x34, 0x2d, 0xbe, 0x7b, 0x25, 0x0c, 0x3d, 0xde, 0x78, 0x5c, 0xb9,
  0x62, 0x2a, 0xe7, 0x3e, 0x00, 0xe2, 0x82, 0xbe, 0xbd, 0xbe, 0x83, 0x3d,
  0xf4, 0x64, 0xff, 0xbe, 0x93, 0xc0, 0xcc, 0x3e, 0x8b, 0xf8, 0x3a, 0xbd,
  0x9e, 0xea, 0xf6, 0x3c, 0xd6, 0x0d, 0xe3, 0x3c, 0x01, 0x18, 0xcc, 0x3e,
  0xc2, 0x05, 0x94, 0xbd, 0xd5, 0xdd, 0x47, 0x3e, 0xd9, 0x43, 0x89, 0xbe,
  0x30, 0xa1, 0x2f, 0x3e, 0x6c, 0x5e, 0x30, 0xbf, 0xa1, 0xea, 0xf0, 0x3d,
  0xde, 0x21, 0x72, 0xbe, 0x58, 0xfa, 0x5a, 0x3e, 0x14, 0x45, 0x0e, 0xbf,
  0x1b, 0x76, 0x9e, 0xbe, 0x53, 0x24, 0x49, 0xbf, 0x4b, 0x3d, 0x8a, 0xbe,
  0xd3, 0x4f, 0xb0, 0xbe, 0x72, 0x63, 0x49, 0x3d, 0xdb, 0x7e, 0x58, 0x3e,
  0x8c, 0x11, 0x80, 0x3e, 0x1a, 0x7d, 0x0c, 0x3f, 0x9e, 0x32, 0xa6, 0xbd,
  0x0a, 0xc2, 0x2a, 0xbe, 0x52, 0x82, 0x9d, 0xbd, 0xd8, 0xd7, 0x31, 0x3e,
  0xcf, 0x2a, 0x46, 0x3f, 0x5d, 0x1a, 0x27, 0x3f, 0x4e, 0x2f, 0xe5, 0x3e,
  0x44, 0x85, 0xa0, 0xbe, 0xbd, 0x7c, 0x34, 0xbe, 0xbe, 0x7b, 0xe6, 0xbe,
  0x42, 0x1a, 0x82, 0x3c, 0xce, 0xdd, 0x1f, 0x3f, 0x84, 0x04, 0xaa, 0xbd,
  0x61, 0xa1, 0x15, 0x3f, 0x8e, 0xdd, 0xdb, 0xbe, 0x0d, 0xb3, 0xe4, 0x3e,
  0x1b, 0x14, 0x76, 0x3e, 0xa0, 0xba, 0x36, 0x3f, 0x54, 0xb8, 0x28, 0x3f,
  0xc7, 0x65, 0x33, 0x3f, 0x0e, 0x77, 0x5e, 0x3e, 0x9a, 0xad, 0xe9, 0x3e,
  0xd1, 0x05, 0x85, 0x3e, 0x95, 0xae, 0xb5, 0xbd, 0xd4, 0x2c, 0x28, 0x3e,
  0xf0, 0xd0, 0x06, 0x3e, 0x7f, 0x68, 0x82, 0x3e, 0xd2, 0x2e, 0x64, 0x3e,
  0x58, 0x10, 0x94, 0xbd, 0x7c, 0x19, 0xc4, 0xbe, 0x74, 0x34, 0x47, 0xbe,
  0x2a, 0x39, 0x1d, 0xbe, 0xf0, 0xd6, 0x27, 0x3d, 0x90, 0xfa, 0xdb, 0x3d,
  0xb6, 0xd4, 0xb4, 0x3e, 0xae, 0x86, 0xc4, 0x3e, 0x52, 0x1d, 0x41, 0x3e,
  0xe3, 0x74, 0xc4, 0x3d, 0x33, 0xa1, 0x37, 0x3e, 0x3e, 0xaa, 0x6b, 0x3e,
  0xc8, 0x6d, 0xb1, 0xbe, 0xa0, 0x12, 0x25, 0x3f, 0x42, 0xf8, 0xe5, 0xbe,
  0x9a, 0x0e, 0x68, 0x3f, 0x4a, 0x1d, 0x0f, 0xbf, 0x59, 0x0b, 0x69, 0x3f,
  0x5d, 0xe3, 0x85, 0x3e, 0x3e, 0x57, 0xc7, 0x3e, 0x34, 0xb9, 0xb9, 0x3e,
  0xa2, 0xd6, 0xe6, 0x3e, 0xc8, 0xc6, 0xcd, 0x3e, 0x93, 0x00, 0x6d, 0x3f,
  0x38, 0x69, 0xae, 0x3e, 0xd7, 0x12, 0x59, 0x3f, 0x0c, 0x85, 0xbb, 0x3e,
  0xcf, 0xa1, 0x25, 0x3f, 0xbe, 0x6d, 0x9f, 0xbe, 0xf5, 0x16, 0x63, 0x3e,
  0x31, 0xa2, 0xe7, 0xbe, 0x5e, 0x6f, 0x86, 0xbe, 0xf4, 0x82, 0x9f, 0xbd,
  0x5e, 0x1e, 0x9d, 0xbc, 0x1d, 0x3f, 0xb5, 0x3b, 0xae, 0x4e, 0xfb, 0xbb,
  0x2d, 0x82, 0x54, 0x3c, 0xe6, 0x5e, 0x00, 0x3d, 0xf6, 0xd2, 0xd1, 0xbd,
  0x48, 0x3b, 0x9b, 0x3d, 0x1f, 0xcb, 0x01, 0xbf, 0xd8, 0xf8, 0x25, 0x3e,
  0x13, 0xcd, 0x06, 0xbf, 0x13, 0xb0, 0x1b, 0x3f, 0x11, 0x4b, 0x58, 0xbe,
  0xa1, 0x5c, 0x06, 0x3f, 0x62, 0x58, 0x82, 0xbe, 0x5a, 0x7b, 0x1d, 0x3f,
  0x83, 0x7e, 0x18, 0x3f, 0x90, 0xa6, 0xfe, 0x3c, 0xa8, 0xfc, 0xd0, 0x3e,
  0x68, 0xf4, 0xbc, 0xbd, 0x0c, 0x85, 0xe6, 0x3e, 0xc7, 0x55, 0x36, 0x3d,
  0x30, 0xce, 0xdb, 0x38, 0x0b, 0x5f, 0x01, 0x3e, 0xc1, 0xc7, 0x23, 0xbf,
  0x41, 0xdc, 0x40, 0x3e, 0xc5, 0x04, 0xdb, 0xbe, 0xcf, 0x88, 0x41, 0xbc,
  0x99, 0x94, 0x70, 0x3d, 0x39, 0x36, 0xa4, 0xbd, 0x7a, 0x3f, 0x0a, 0xbd,
  0xf2, 0x38, 0xd2, 0xbd, 0x59, 0x13, 0xfe, 0x3c, 0x96, 0x17, 0x5e, 0x3b,
  0xf9, 0x16, 0xf8, 0xbb, 0x36, 0xe8, 0xf5, 0x3c, 0x26, 0xd2, 0x13, 0x3e,
  0x0d, 0x13, 0x30, 0x3e, 0x6e, 0xbe, 0xf0, 0xbe, 0xee, 0x95, 0x97, 0xbe,
  0xee, 0x56, 0x1e, 0xbf, 0xa9, 0x4b, 0x23, 0xbd, 0x4c, 0x2f, 0xa0, 0xbe,
  0xea, 0x31, 0xa4, 0xbe, 0xb4, 0x36, 0xba, 0xbe, 0x1a, 0x86, 0x92, 0xbe,
  0x7a, 0x33, 0x1c, 0x3e, 0x4b, 0xef, 0x2f, 0xbf, 0x92, 0x9b, 0x88, 0xbe,
  0x16, 0xc8, 0x00, 0xbf, 0x7b, 0x55, 0x6a, 0xbe, 0xb5, 0x9f, 0xc1, 0xbd,
  0x28, 0x2c, 0xb1, 0x3e, 0x04, 0x5b, 0xa2, 0xbe, 0x06, 0x52, 0x76, 0x3e,
  0x68, 0x11, 0x8c, 0xbe, 0x03, 0x78, 0x57, 0x3e, 0x44, 0xe8, 0x7f, 0xbe,
  0xd1, 0xfe, 0xf4, 0x3c, 0x82, 0xac, 0x4f, 0xbd, 0x4c, 0x37, 0x72, 0xbd,
  0xd3, 0xc0, 0xa3, 0xbd, 0x59, 0xc2, 0xb7, 0xbb, 0x7a, 0x15, 0xf8, 0xbd,
  0x66, 0x83, 0x83, 0x3d, 0x2b, 0x4e, 0x1a, 0x3e, 0x8d, 0xa0, 0x16, 0x3f,
  0xac, 0x97, 0x24, 0x3e, 0x42, 0xff, 0xbd, 0x3d, 0x74, 0x9a, 0xfd, 0xbd,
  0x45, 0x99, 0x0f, 0xbf, 0x85, 0x44, 0x85, 0xbe, 0x9c, 0x48, 0x19, 0xbf,
  0xfc, 0xd2, 0x00, 0xbf, 0xe9, 0x59, 0x15, 0xbf, 0x71, 0x50, 0x34, 0xbf,
  0xfe, 0xa2, 0xb5, 0xbe, 0x32, 0x75, 0x99, 0xbe, 0x65, 0x67, 0x05, 0xbe,
  0x6f, 0x61, 0x8e, 0xbd, 0xbf, 0xc2, 0x2a, 0x3e, 0xd3, 0xef, 0xb1, 0xbe,
  0xec, 0x2d, 0x83, 0x3d, 0x8c, 0x19, 0x6e, 0xbe, 0xd2, 0xe1, 0x03, 0x3e,
  0xbd, 0x69, 0x85, 0xbe, 0x4d, 0xbe, 0xb0, 0x3e, 0x6a, 0x02, 0x7e, 0xbe,
  0xf9, 0x3d, 0x1c, 0xbe, 0xe0, 0x6c, 0x00, 0xbd, 0x23, 0xd4, 0xe0, 0xbd,
  0xc2, 0x2b, 0x53, 0x3c, 0x99, 0x11, 0x2e, 0xbd, 0x8a, 0x0e, 0xc3, 0xbc,
  0x5c, 0x08, 0x9f, 0x3d, 0x6c, 0x90, 0x21, 0x3c, 0x55, 0x12, 0x38, 0x3f,
  0x3f, 0xd1, 0xc2, 0x3d, 0xf4, 0xd9, 0xea, 0x3e, 0x92, 0x2d, 0xc1, 0x3d,
  0x9f, 0xcf, 0x72, 0x3e, 0x56, 0x58, 0xdc, 0x3d, 0xe5, 0xb3, 0xa5, 0x3d,
  0x59, 0x9b, 0x38, 0xbd, 0xce, 0x12, 0xf1, 0xbe, 0xb0, 0x43, 0x20, 0xbe,
  0x62, 0xb8, 0xb7, 0xbe, 0x8b, 0x38, 0xbd, 0xbd, 0x8f, 0x35, 0x06, 0x3e,
  0x6c, 0xe5, 0x1a, 0xbe, 0xb9, 0x6a, 0x8b, 0x3e, 0xc6, 0x28, 0x92, 0x3e,
  0x68, 0xd5, 0x9e, 0x3e, 0x28, 0x5e, 0x54, 0x3e, 0xc7, 0x39, 0xcc, 0x3e,
  0x7a, 0xef, 0x3f, 0xbe, 0x62, 0x09, 0x8f, 0x3e, 0x39, 0x92, 0x8e, 0xbc,
  0xe2, 0xb4, 0x0f, 0xbe, 0x8c, 0x85, 0x55, 0xbe, 0x7e, 0x6d, 0x8e, 0xbd,
  0x26, 0x45, 0xc1, 0xbd, 0xdd, 0x9c, 0x78, 0xb9, 0x0c, 0xdb, 0x48, 0xbd,
  0x7d, 0xc0, 0x39, 0x3c, 0xb7, 0x42, 0x99, 0x3d, 0x59, 0x9a, 0xf7, 0x3e,
  0xc0, 0x41, 0x00, 0xbd, 0xf6, 0x69, 0x88, 0x3e, 0xf0, 0xf0, 0xfb, 0xbd,
  0xcb, 0xd0, 0x91, 0x3e, 0xbe, 0xbd, 0xc8, 0xbd, 0x1c, 0x9f, 0x46, 0x3e,
  0xa4, 0xe4, 0x1c, 0x3e, 0x9b, 0x01, 0x2e, 0xbe, 0x04, 0x7a, 0x4b, 0xbd,
  0xe1, 0x0c, 0x3b, 0x3e, 0x8a, 0x17, 0x7c, 0x3d, 0x83, 0xae, 0x45, 0x3e,
  0xc9, 0x92, 0xb6, 0x3e, 0x34, 0xf0, 0xdc, 0x3e, 0xb6, 0x86, 0x08, 0x3f,
  0xf0, 0x45, 0xf3, 0x3d, 0x23, 0x61, 0xec, 0x3e, 0x43, 0x4d, 0xe6, 0x3d,
  0x7c, 0xa6, 0x57, 0x3e, 0xf2, 0x53, 0x11, 0xbe, 0x77, 0x21, 0x38, 0x3d,
  0xe4, 0x3b, 0xcb, 0xbd, 0xe7, 0xe7, 0x1f, 0xbd, 0x1e, 0xcc, 0xeb, 0xbc,
  0xe4, 0x3c, 0x5b, 0xbc, 0x3b, 0x0e, 0x5c, 0xbd, 0x3f, 0xfa, 0xa7, 0x3d,
  0x91, 0xf0, 0x1a, 0x3d, 0x94, 0x01, 0x28, 0xbd, 0x5b, 0xf2, 0xab, 0x3e,
  0xc7, 0x27, 0x8e, 0x3e, 0x7f, 0x56, 0x95, 0x3e, 0xe9, 0x32, 0x0a, 0x3e,
  0xb2, 0xc2, 0xcd, 0x3e, 0xd6, 0x5d, 0x1b, 0x3e, 0xce, 0xb2, 0xc7, 0x3d,
  0xab, 0x00, 0xbd, 0x3e, 0xd8, 0xa2, 0x90, 0x3e, 0xb2, 0x8e, 0x3b, 0x3d,
  0xd7, 0x95, 0xc3, 0xbd, 0xbf, 0x63, 0x75, 0x3e, 0x82, 0xb5, 0xd7, 0xbc,
  0x94, 0x9e, 0x13, 0x3f, 0x34, 0xac, 0x90, 0x3e, 0xc5, 0x9b, 0xb7, 0x3e,
  0x98, 0x87, 0x58, 0x3e, 0x26, 0xfa, 0x32, 0x3e, 0x16, 0x27, 0x1e, 0x3d,
  0x8f, 0xb9, 0xad, 0x3d, 0x49, 0x14, 0x92, 0x3c, 0x01, 0xb9, 0xf3, 0xbb,
  0xc7, 0x92, 0xe0, 0xbc, 0x2c, 0x64, 0xb4, 0xbc, 0x70, 0xe9, 0x6e, 0x3c,
  0x3e, 0xd1, 0xba, 0xbd, 0xcb, 0x25, 0x49, 0xbb, 0x14, 0xbf, 0x0b, 0x3c,
  0x14, 0xd5, 0x6a, 0xbc, 0xf0, 0xff, 0x0c, 0xbd, 0xc8, 0x7a, 0x19, 0x3e,
  0x50, 0xce, 0xb5, 0x3b, 0xd4, 0x71, 0x03, 0x3f, 0x81, 0xb6, 0x80, 0x3d,
  0x26, 0x9b, 0x2f, 0x3f, 0xf6, 0x07, 0x21, 0x3d, 0xb6, 0x22, 0x09, 0x3f,
  0x3c, 0x75, 0x71, 0xbe, 0x86, 0x89, 0x0b, 0x3f, 0xe7, 0xb0, 0x9e, 0xbd,
  0x72, 0xb3, 0xd7, 0x3e, 0xf8, 0x25, 0xb4, 0xbe, 0xe9, 0x91, 0x36, 0x3e,
  0x89, 0x5c, 0x1f, 0x3d, 0x7a, 0xa1, 0x3f, 0x3e, 0x74, 0x8a, 0xfb, 0x3d,
  0x6e, 0xe3, 0xfd, 0xbc, 0xaa, 0xa6, 0x00, 0x3e, 0x69, 0x54, 0x42, 0xbd,
  0xc1, 0xcd, 0x0a, 0xbe, 0xd3, 0xa6, 0x7c, 0xbd, 0x05, 0x92, 0x9c, 0x3c,
  0x64, 0x51, 0x4f, 0xbd, 0xec, 0xff, 0x91, 0xbd, 0xc2, 0x77, 0x96, 0x3d,
  0x74, 0x80, 0x52, 0xbd, 0xee, 0x8f, 0xfd, 0x3c, 0x35, 0x8e, 0x61, 0xbe,
  0x9f, 0x5a, 0x70, 0x3b, 0xe6, 0xd6, 0x2d, 0xbd, 0x7e, 0x4a, 0xb9, 0xbc,
  0x6d, 0xbf, 0xa5, 0xbc, 0x30, 0x64, 0x44, 0xbd, 0xa3, 0x39, 0x62, 0xbd,
  0x32, 0x18, 0x6b, 0xbd, 0x0f, 0x19, 0xf4, 0xbd, 0x61, 0xf7, 0xc7, 0xbd,
  0xb2, 0xb2, 0x19, 0xbe, 0xba, 0xd0, 0x21, 0xbe, 0x29, 0x3f, 0x92, 0xbd,
  0x97, 0x75, 0xa7, 0xbd, 0x94, 0x3f, 0x66, 0xbe, 0x76, 0x41, 0x53, 0xbd,
  0x85, 0xf8, 0x1a, 0xbe, 0xe6, 0x9f, 0xbf, 0xbd, 0x96, 0x98, 0x14, 0xbe,
  0x3e, 0x05, 0xaf, 0xbd, 0xe6, 0x52, 0xff, 0xbd, 0x59, 0xfe, 0xb2, 0x3c,
  0x09, 0x76, 0x82, 0xbd, 0xd9, 0x74, 0x02, 0xbc, 0x8d, 0xd7, 0x06, 0xbe,
  0x96, 0x85, 0x1f, 0x3d, 0x6d, 0x19, 0x9e, 0xbd, 0x5e, 0xe1, 0xcd, 0x3d,
  0xa0, 0x79, 0x6b, 0xbc, 0xab, 0x25, 0x0d, 0x3d, 0x59, 0x90, 0xa3, 0xbd,
  0xce, 0x0e, 0x0a, 0xbd, 0x62, 0x37, 0xf4, 0xbc, 0xe8, 0xe7, 0x17, 0x3d,
  0x5f, 0x79, 0x36, 0x3d, 0x62, 0x07, 0x4f, 0xbd, 0xc2, 0xd7, 0x76, 0xbc,
  0xaf, 0x99, 0xc0, 0xbd, 0xb2, 0xd7, 0x49, 0x3c, 0x2b, 0x5f, 0xc2, 0x3c,
  0x23, 0xb2, 0x11, 0x3b, 0x1b, 0x5c, 0x19, 0xbd, 0x34, 0xda, 0x83, 0x3b,
  0x8c, 0x69, 0xf7, 0xbc, 0xd8, 0xfa, 0xc5, 0x3d, 0xce, 0x93, 0xc4, 0x3a,
  0x76, 0x49, 0x1a, 0x3e, 0x16, 0xcc, 0xd5, 0xbc, 0x18, 0x87, 0x9c, 0xbd,
  0xfe, 0x73, 0x5a, 0xbe, 0xdd, 0x9d, 0x31, 0xbe, 0x74, 0xda, 0x82, 0xbe,
  0x13, 0x07, 0xc8, 0xbd, 0x85, 0x34, 0xe3, 0xbd, 0xad, 0xc7, 0x55, 0xbd,
  0xb3, 0x3b, 0xc4, 0xbd, 0x06, 0x6c, 0x30, 0xbd, 0x13, 0x2f, 0x2d, 0xbb,
  0x47, 0xf2, 0x4f, 0x3e, 0x6b, 0x06, 0xc2, 0xbc, 0x36, 0x2e, 0x41, 0xbd,
  0x44, 0x9e, 0xf7, 0x3b, 0x86, 0xda, 0xde, 0xbd, 0x0d, 0x4c, 0x58, 0xbe,
  0x1d, 0x65, 0xcc, 0xbe, 0x54, 0x57, 0x1c, 0xbf, 0x0c, 0x45, 0x4e, 0xbf,
  0xaf, 0xce, 0x1a, 0xbf, 0x46, 0xbf, 0xe1, 0xbe, 0xf1, 0xa9, 0xc5, 0xbd,
  0x3f, 0xfa, 0x3c, 0xbe, 0x1b, 0x13, 0x35, 0xbe, 0x78, 0x51, 0x91, 0xbe,
  0xc5, 0x40, 0x14, 0xbe, 0x28, 0xea, 0x01, 0xbe, 0x61, 0x0f, 0x0c, 0xbe,
  0xa5, 0x36, 0x03, 0xbe, 0x9e, 0x0f, 0xd9, 0x3d, 0x3b, 0xca, 0xc4, 0x3d,
  0x94, 0xeb, 0xed, 0xbc, 0x19, 0xa0, 0x1c, 0xbe, 0x4b, 0x6a, 0x4e, 0xbe,
  0x2e, 0x2b, 0x40, 0x3c, 0x9c, 0xf2, 0x2a, 0x3c, 0x78, 0x2f, 0x23, 0x3e,
  0xaa, 0xd0, 0xaf, 0x3e, 0xea, 0xaf, 0x20, 0x3f, 0x18, 0x3b, 0xfa, 0x3d,
  0x1a, 0xab, 0x2d, 0xbd, 0x98, 0xdc, 0x51, 0xbc, 0x31, 0x3e, 0x48, 0xbd,
  0x14, 0x2f, 0xeb, 0x3d, 0x80, 0x55, 0x9b, 0x3e, 0x3d, 0x0d, 0x8d, 0x3d,
  0xa6, 0x45, 0x87, 0xbc, 0xc3, 0x86, 0x1d, 0xbf, 0x3f, 0x31, 0xe6, 0xbe,
  0xf7, 0xee, 0x5c, 0xbf, 0x8c, 0x9b, 0xe8, 0xbe, 0x35, 0x31, 0xdb, 0xbe,
  0x90, 0x51, 0x15, 0x3e, 0x09, 0x9e, 0x73, 0x3e, 0x1d, 0x88, 0xee, 0x3d,
  0x31, 0x85, 0x19, 0xbf, 0xc1, 0xdd, 0xe2, 0x3d, 0xdf, 0xae, 0xeb, 0xbe,
  0xcf, 0x75, 0x8b, 0x3e, 0xbc, 0x06, 0x05, 0xbf, 0xb3, 0x56, 0xc2, 0x3d,
  0xce, 0x46, 0x73, 0xbe, 0x47, 0xa0, 0xac, 0x3d, 0x74, 0xef, 0x1a, 0xbf,
  0xb6, 0x9d, 0x29, 0xbf, 0xf5, 0x93, 0x90, 0xbd, 0x28, 0xd7, 0xfb, 0x3b,
  0x56, 0x86, 0x2e, 0xbe, 0x71, 0x16, 0x18, 0xbe, 0xa1, 0x79, 0x50, 0xbe,
  0x91, 0x37, 0xcc, 0xbd, 0xe0, 0xaa, 0x93, 0xbc, 0xf2, 0x56, 0x9b, 0xbd,
  0x34, 0xd1, 0x15, 0xbf, 0x6d, 0xf8, 0x94, 0xbe, 0xf9, 0xbc, 0x2b, 0x3d,
  0xda, 0x4f, 0xaa, 0x3e, 0x7f, 0x02, 0x33, 0x3f, 0xa8, 0xbf, 0x19, 0xbf,
  0xf1, 0x91, 0x7b, 0xbe, 0xcf, 0xac, 0xae, 0x3e, 0xd3, 0x03, 0xbc, 0xbe,
  0xf2, 0x26, 0xbd, 0x3d, 0x08, 0x50, 0x9e, 0xbe, 0x17, 0x64, 0xeb, 0x3e,
  0x0d, 0x9a, 0xeb, 0xbc, 0x99, 0x46, 0xfc, 0x3e, 0xb5, 0xae, 0xf1, 0xbd,
  0xdc, 0xd5, 0x5a, 0x3f, 0xca, 0x0d, 0xb1, 0xbd, 0x1d, 0xac, 0x59, 0x3f,
  0x6f, 0x96, 0x1b, 0x3e, 0xaf, 0xb0, 0x91, 0x3f, 0xa8, 0xc3, 0x79, 0xbd,
  0xa4, 0xad, 0xa5, 0x3e, 0xed, 0x13, 0x15, 0x3f, 0x0c, 0x91, 0xb9, 0x3e,
  0xec, 0xb9, 0x83, 0x3e, 0x54, 0xba, 0xd2, 0x39, 0x99, 0x06, 0x84, 0xbe,
  0xdf, 0x29, 0xcf, 0xbd, 0xd2, 0xd0, 0xfa, 0xbc, 0x86, 0x6a, 0x11, 0x3c,
  0x5d, 0xfc, 0x23, 0xbe, 0x8d, 0x12, 0x0a, 0x3f, 0xd2, 0x25, 0xcf, 0x3e,
  0x68, 0x96, 0x04, 0x3f, 0x0d, 0x4a, 0x9e, 0x3e, 0x0e, 0x1e, 0x7a, 0xbe,
  0xf9, 0x97, 0xb5, 0x3e, 0x3d, 0x3d, 0xfd, 0x3e, 0xc2, 0xe0, 0x8e, 0x3e,
  0x70, 0x87, 0xa8, 0x3e, 0x71, 0xe6, 0xb4, 0xbe, 0x77, 0x6f, 0x90, 0x3e,
  0x19, 0xb7, 0xfc, 0xbe, 0xe2, 0x22, 0xb4, 0x3e, 0x9e, 0x95, 0x65, 0xbf,
  0x74, 0xf6, 0xc7, 0x3e, 0xf1, 0x02, 0xca, 0xbe, 0xa3, 0x98, 0x41, 0x3f,
  0xed, 0x09, 0xb4, 0xbe, 0x8f, 0x08, 0x1f, 0x3f, 0xe2, 0x06, 0x9c, 0x3e,
  0x68, 0x5b, 0x92, 0x3f, 0xc0, 0xdc, 0x26, 0x3e, 0xa8, 0x7e, 0x67, 0x3e,
  0x91, 0xd4, 0x0e, 0xbe, 0xe9, 0x8f, 0xad, 0xbe, 0xe0, 0xed, 0x76, 0xbe,
  0xe9, 0x95, 0x79, 0x3b, 0xb8, 0x3b, 0x0f, 0xbd, 0xfb, 0x0b, 0xe6, 0xbd,
  0xd0, 0x3f, 0xfe, 0xbe, 0x1f, 0x3b, 0xcb, 0xbe, 0xbe, 0xb5, 0x0a, 0xbf,
  0xff, 0xe9, 0x11, 0xbf, 0xf7, 0xbc, 0x04, 0xbf, 0x33, 0xba, 0xee, 0xbd,
  0xb2, 0xde, 0xdd, 0xbd, 0x00, 0xd9, 0x32, 0xbe, 0x69, 0x72, 0x25, 0xbf,
  0x2e, 0xc0, 0x2d, 0xbe, 0xe9, 0x95, 0xac, 0xbe, 0xf9, 0xf8, 0x62, 0x3e,
  0x3f, 0x1e, 0x27, 0xbf, 0xa9, 0x66, 0x8d, 0xbe, 0x92, 0x51, 0x1d, 0xbf,
  0x60, 0x21, 0xac, 0x3e, 0x81, 0xb6, 0xa7, 0xbe, 0xcc, 0x74, 0x28, 0xbe,
  0x83, 0xe4, 0x7a, 0xbe, 0x93, 0x66, 0x00, 0xbe, 0xe3, 0x61, 0xaf, 0xbd,
  0x31, 0x77, 0xd4, 0x3d, 0x42, 0x43, 0x96, 0xbe, 0xed, 0x56, 0x2e, 0x3c,
  0x4e, 0xd9, 0x2a, 0xbe, 0x39, 0x03, 0xa4, 0xbe, 0x6d, 0x6a, 0xf0, 0xbd,
  0xf2, 0xa6, 0x38, 0xbc, 0x12, 0x03, 0xea, 0x3c, 0x3b, 0xf9, 0xcd, 0x3b,
  0x64, 0xc2, 0x35, 0xbe, 0x80, 0x6f, 0x04, 0xbf, 0x23, 0xd2, 0x16, 0xbf,
  0xc1, 0xa3, 0x76, 0xbe, 0x14, 0x23, 0xa0, 0xbe, 0xd6, 0x3b, 0x1c, 0xbe,
  0x1b, 0xe9, 0xba, 0x3d, 0x86, 0x2e, 0x16, 0x3e, 0xeb, 0xb2, 0x1c, 0x3f,
  0xc6, 0x11, 0xfb, 0x3d, 0x62, 0x5b, 0x3f, 0x3f, 0x0e, 0x1a, 0xa3, 0x3e,
  0x6c, 0xb1, 0x24, 0xbf, 0x90, 0xbd, 0x67, 0x3d, 0xbd, 0x45, 0x2c, 0xbe,
  0xff, 0x38, 0x0f, 0xbe, 0x52, 0xbc, 0xd6, 0x3e, 0xef, 0x7c, 0x8b, 0xbd,
  0x1e, 0x7d, 0x57, 0x3c, 0xcd, 0xdb, 0x00, 0x3d, 0x67, 0x3d, 0x41, 0xbe,
  0x0b, 0x48, 0x9a, 0x3d, 0x1d, 0x16, 0xf7, 0xbe, 0xf7, 0x29, 0xbc, 0xbd,
  0x12, 0x76, 0xbc, 0xbe, 0xe5, 0x11, 0x0d, 0xbe, 0x69, 0x6e, 0x1a, 0xbc,
  0x99, 0x92, 0x13, 0xbe, 0x99, 0x1c, 0x99, 0x3d, 0x10, 0x80, 0x9c, 0x3d,
  0xb4, 0x94, 0x2d, 0xbe, 0xb4, 0xdb, 0xc9, 0xbc, 0xbc, 0xbd, 0x17, 0xbe,
  0x57, 0xb9, 0x20, 0xbe, 0x7e, 0xdc, 0x8a, 0x3e, 0x73, 0xf8, 0x12, 0xbf,
  0xbc, 0x6d, 0xcf, 0x3e, 0x30, 0x28, 0xa6, 0xbe, 0x04, 0xc0, 0x8d, 0x3e,
  0x1f, 0xb8, 0x76, 0xbd, 0xea, 0x01, 0x77, 0x3f, 0x8c, 0x29, 0x8a, 0xbe,
  0x0f, 0xbb, 0xdc, 0xbd, 0x42, 0xa2, 0x34, 0xbe, 0xf7, 0xf2, 0x54, 0xbd,
  0x99, 0x62, 0x11, 0xbf, 0x9e, 0x8f, 0xf3, 0x3e, 0x76, 0x54, 0x99, 0xbe,
  0x16, 0xfc, 0xe3, 0x3e, 0xd4, 0xf1, 0x94, 0x3e, 0x5c, 0xa6, 0xf4, 0x3e,
  0x6d, 0xf9, 0xed, 0x3d, 0x3e, 0x4b, 0xc4, 0xbd, 0x54, 0xb1, 0xac, 0x3e,
  0xcf, 0x51, 0x4f, 0xbe, 0x8a, 0xaa, 0x9b, 0x3c, 0xb7, 0x23, 0xb8, 0x3d,
  0x35, 0xf3, 0x85, 0xbd, 0x39, 0x47, 0x38, 0xbc, 0x58, 0xaf, 0x45, 0xbd,
  0x8b, 0x12, 0xff, 0x3c, 0x1e, 0x17, 0x8b, 0xba, 0x30, 0x60, 0x93, 0x3e,
  0x87, 0x5c, 0x8c, 0xbe, 0x66, 0xb8, 0x1e, 0x3f, 0x90, 0x1f, 0xe2, 0xbe,
  0xe5, 0xea, 0x43, 0x3f, 0x1e, 0x67, 0x84, 0xbe, 0xe7, 0xb2, 0xf7, 0x3e,
  0x61, 0x64, 0x76, 0xbd, 0x82, 0x58, 0xab, 0x3e, 0x14, 0x86, 0x35, 0xbe,
  0x52, 0x1f, 0xc7, 0xbe, 0x66, 0x9b, 0x72, 0xbe, 0xbc, 0x70, 0x33, 0x3f,
  0x1b, 0xf4, 0xdd, 0xbe, 0xbe, 0x98, 0x45, 0x3f, 0xf1, 0x68, 0x97, 0xbd,
  0x1a, 0x89, 0xd3, 0x3e, 0x7b, 0xed, 0x81, 0x3e, 0x6d, 0x77, 0xf7, 0x3d,
  0xbe, 0xd5, 0x08, 0x3f, 0x2a, 0x34, 0x53, 0xbe, 0x27, 0x6c, 0xc4, 0x3c,
  0xb4, 0x53, 0x7f, 0xbe, 0xad, 0xda, 0x0c, 0x3d, 0x59, 0xa9, 0x3d, 0xbc,
  0xf0, 0xc1, 0xac, 0xbd, 0x4d, 0xd5, 0xf4, 0xbc, 0x15, 0x95, 0x45, 0x3c,
  0x23, 0xd7, 0x73, 0xbc, 0x79, 0xa9, 0xaa, 0xbc, 0xf3, 0x9c, 0xb1, 0xbe,
  0x37, 0xe4, 0x33, 0xbc, 0x06, 0xdb, 0x31, 0x3d, 0xe6, 0x91, 0x8f, 0x3d,
  0x97, 0xaf, 0xc1, 0x3e, 0x2e, 0x0d, 0x02, 0xbe, 0x39, 0x9d, 0xa1, 0x3d,
  0x56, 0x6c, 0x87, 0xbd, 0x9b, 0x47, 0xd4, 0x3a, 0xa6, 0x3b, 0x9f, 0x3c,
  0x58, 0x1b, 0x5a, 0x3e, 0x29, 0xbc, 0xe1, 0xbe, 0xf4, 0x69, 0x50, 0x3f,
  0xd6, 0x66, 0xb8, 0xbe, 0xae, 0x76, 0x4e, 0x3e, 0xe9, 0x09, 0xde, 0xbe,
  0xc6, 0x41, 0x3e, 0x3e, 0xb6, 0x93, 0xec, 0xbc, 0xe1, 0xe9, 0x39, 0xbc,
  0x3f, 0x11, 0x57, 0x3e, 0xec, 0xb4, 0x86, 0xbe, 0xe4, 0xb6, 0x40, 0x3e,
  0x37, 0xa4, 0x74, 0xbe, 0x3b, 0x21, 0xf9, 0x3d, 0xf2, 0x38, 0x85, 0x3c,
  0x8f, 0x3d, 0xbe, 0xbd, 0xab, 0x4a, 0x3f, 0x3d, 0x9a, 0x8d, 0x95, 0x3d,
  0x06, 0xb8, 0x96, 0xbd, 0x95, 0x7c, 0x12, 0x3d, 0x94, 0x29, 0xb8, 0xbe,
  0xd1, 0xb9, 0x4a, 0x3d, 0xed, 0x59, 0xdf, 0xbd, 0xf3, 0x97, 0xc3, 0xbd,
  0x16, 0x51, 0xab, 0xbe, 0x78, 0x12, 0x55, 0xbb, 0x77, 0x0a, 0xbf, 0xbe,
  0xe2, 0x1c, 0xd4, 0x3e, 0x6d, 0xb1, 0xdf, 0xbe, 0x81, 0x20, 0x89, 0x3d,
  0xde, 0x01, 0x68, 0x3c, 0x7d, 0x5c, 0x3d, 0xbe, 0x36, 0xf1, 0xa3, 0x3e,
  0x16, 0xc0, 0x9c, 0xbe, 0x83, 0xcd, 0x8b, 0xbe, 0x54, 0xd9, 0xfa, 0xbe,
  0x60, 0x88, 0x67, 0xbe, 0x5b, 0x93, 0x87, 0xbe, 0x89, 0x21, 0x70, 0xbe,
  0xd3, 0x94, 0x48, 0xbe, 0x06, 0xcc, 0xda, 0xbe, 0x7a, 0x95, 0xfd, 0x3d,
  0xa4, 0xde, 0xc7, 0xbd, 0xc9, 0xff, 0x90, 0xbd, 0xf2, 0x15, 0xf7, 0x3d,
  0xe1, 0x3a, 0x8a, 0x3c, 0xd5, 0x47, 0x8c, 0xba, 0x98, 0xb8, 0x8a, 0x3c,
  0xe7, 0xc6, 0xb0, 0xbc, 0x33, 0xd4, 0xc9, 0x3c, 0x5b, 0xdd, 0xe7, 0xbd,
  0x82, 0x5d, 0x0a, 0xbd, 0x6b, 0x09, 0xca, 0xbe, 0xe2, 0xfe, 0xed, 0xbd,
  0xc5, 0xa2, 0xcb, 0xbe, 0x26, 0xce, 0xcf, 0x3e, 0x77, 0x44, 0xf8, 0xbe,
  0x39, 0x19, 0xdd, 0x3e, 0x2f, 0xc1, 0xec, 0xbe, 0x11, 0x3d, 0x38, 0x3e,
  0x23, 0xf3, 0x96, 0xbe, 0x1b, 0x7b, 0xc4, 0xbc, 0xc2, 0x1b, 0x7d, 0xbd,
  0xbe, 0xaa, 0x9c, 0xbe, 0xa7, 0xa1, 0x8b, 0xbe, 0x34, 0x8a, 0x09, 0xbf,
  0x8f, 0x8f, 0x6a, 0xbe, 0xbb, 0x2e, 0xff, 0xbe, 0x65, 0x28, 0x4a, 0xbd,
  0x26, 0xd6, 0xd0, 0xbd, 0x87, 0xf0, 0x2a, 0xbe, 0xe2, 0x58, 0x87, 0xbd,
  0xb2, 0xda, 0x25, 0xbe, 0xde, 0x2c, 0x6a, 0x3c, 0xa7, 0x19, 0xd5, 0xba,
  0x01, 0xa4, 0x09, 0xbb, 0xcb, 0x14, 0x65, 0x3d, 0x06, 0xcc, 0xa8, 0x3d,
  0x9d, 0x68, 0x09, 0x3d, 0xc1, 0x74, 0x8d, 0xbd, 0x8c, 0xbd, 0x24, 0x3d,
  0xce, 0xe8, 0xdb, 0xbc, 0x5c, 0x8c, 0x48, 0xbe, 0x4a, 0x08, 0x92, 0xbd,
  0x32, 0xb3, 0x81, 0xbe, 0xea, 0x4c, 0xdf, 0xbd, 0x2e, 0x84, 0x4d, 0xbe,
  0xa7, 0xa1, 0x22, 0x3e, 0xc2, 0x28, 0x80, 0xbd, 0xd3, 0xaf, 0x4c, 0x3c,
  0xd8, 0xf4, 0x98, 0x3c, 0x8c, 0x06, 0xe8, 0x3d, 0x03, 0x3d, 0xb9, 0xbd,
  0xbe, 0xec, 0x9b, 0xbc, 0x3a, 0x8a, 0xa5, 0x3d, 0x8f, 0xcd, 0xec, 0x3c,
  0xc2, 0x65, 0x67, 0x3e, 0x31, 0xde, 0x02, 0xbe, 0xbf, 0x6a, 0xdb, 0x3e,
  0xdd, 0x2f, 0x1d, 0x3d, 0xec, 0x86, 0x18, 0xbd, 0xbb, 0x04, 0xc0, 0x3d,
  0xb7, 0x9f, 0xd4, 0xba, 0x54, 0x3e, 0x73, 0x3d, 0x40, 0x6a, 0x94, 0x3c,
  0xe4, 0xca, 0x09, 0xbb, 0xf0, 0xc5, 0xe6, 0xba, 0xbb, 0x32, 0xf5, 0xbb,
  0x85, 0x4a, 0xb3, 0x3c, 0xa9, 0xeb, 0xff, 0xbc, 0x1b, 0x19, 0x50, 0xbc,
  0x59, 0xdc, 0x86, 0x3d, 0xd5, 0x77, 0x0e, 0xbe, 0xaa, 0x68, 0x50, 0x3c,
  0x94, 0xaf, 0x86, 0xbe, 0x08, 0xc1, 0xf0, 0xbc, 0xe3, 0xdf, 0x33, 0xbe,
  0xee, 0xf6, 0x17, 0x3d, 0x69, 0x66, 0xab, 0xbe, 0xc8, 0x64, 0xaf, 0x3e,
  0x45, 0xc4, 0xc7, 0xbe, 0x49, 0xd0, 0x68, 0x3e, 0xcb, 0xff, 0xad, 0xbe,
  0x3c, 0x63, 0xfd, 0x3e, 0xa5, 0x96, 0xd9, 0xbe, 0x49, 0x28, 0x97, 0x3e,
  0x01, 0x6f, 0xd7, 0xbe, 0x3c, 0x40, 0xa4, 0x3e, 0x1f, 0xf1, 0x60, 0xbe,
  0xd4, 0x83, 0x0a, 0x3e, 0x2d, 0x33, 0x1d, 0xbe, 0x47, 0x4a, 0x20, 0x3d,
  0x81, 0x69, 0x5e, 0xbd, 0x63, 0xb7, 0x3c, 0xbc, 0x8b, 0x77, 0x65, 0x3c,
  0x0e, 0xbe, 0x89, 0xbd, 0x89, 0x28, 0xb8, 0x3c, 0x73, 0x22, 0xc6, 0x3c,
  0x16, 0x83, 0xf9, 0x3a, 0x78, 0x20, 0x02, 0x3d, 0xc2, 0xd6, 0x56, 0xbc,
  0xe2, 0xa7, 0x37, 0xbd, 0x66, 0xaf, 0xaa, 0xbd, 0xce, 0x61, 0x2e, 0x3d,
  0xd0, 0x2b, 0x33, 0xbe, 0x8f, 0x2a, 0x92, 0xbc, 0x50, 0x53, 0x61, 0xbe,
  0xb2, 0x7a, 0x4a, 0x3b, 0xff, 0xcd, 0xa6, 0xbe, 0x03, 0x1d, 0x3b, 0xbd,
  0x7e, 0x0e, 0xb5, 0xbe, 0x2a, 0x43, 0x8f, 0xbd, 0x52, 0x10, 0x8e, 0xbe,
  0x9d, 0xf5, 0xb5, 0x3c, 0x41, 0xda, 0x8b, 0xbe, 0x6e, 0x36, 0xb3, 0xbd,
  0xd0, 0x78, 0x8c, 0xbe, 0x10, 0x0f, 0x28, 0xbe, 0x85, 0x1e, 0x03, 0xbe,
  0xc5, 0x39, 0x8e, 0xbd, 0xbf, 0xc7, 0x58, 0xbd, 0xfe, 0x2e, 0xe4, 0xbb,
  0x68, 0xf3, 0x98, 0x3c, 0x9a, 0xad, 0x1e, 0x3d, 0x5f, 0x2c, 0x9b, 0xbc,
  0x07, 0xd9, 0x56, 0xbd, 0xa9, 0xbd, 0xef, 0xbc, 0x62, 0xff, 0xa5, 0x3d,
  0x65, 0xdf, 0xba, 0xbd, 0x73, 0xec, 0xb9, 0xbd, 0x7d, 0xc8, 0x43, 0xbc,
  0x87, 0xb5, 0xb4, 0xbc, 0x59, 0x26, 0x3d, 0xbe, 0x49, 0xa0, 0x8e, 0xbd,
  0x7e, 0x7d, 0x15, 0xbb, 0xc0, 0xe0, 0x71, 0xbd, 0x65, 0xd1, 0x98, 0xbd,
  0xc3, 0x50, 0xca, 0xbd, 0xb6, 0x11, 0x3c, 0x3d, 0x41, 0x27, 0x0c, 0xbe,
  0xe9, 0x70, 0xca, 0x3d, 0x99, 0xf0, 0x5f, 0xbb, 0x06, 0x08, 0x29, 0x3d,
  0x0a, 0x71, 0xae, 0xbd, 0x34, 0x28, 0x53, 0xbc, 0xb7, 0xb4, 0x4c, 0xbd,
  0xf4, 0x58, 0x51, 0x3d, 0x7b, 0xa8, 0x64, 0xbd, 0xba, 0x97, 0x93, 0x39,
  0x2e, 0x64, 0x23, 0xbe, 0xae, 0x4c, 0xbc, 0xbd, 0xb3, 0x84, 0x7a, 0xbd,
  0x0e, 0xbe, 0x65, 0xbd, 0xb5, 0xdf, 0x84, 0xbd, 0x51, 0x6f, 0xdc, 0xbd,
  0x75, 0xec, 0xf4, 0x3e, 0xe7, 0xe0, 0xa0, 0x3d, 0xef, 0x24, 0x9d, 0xbd,
  0x2a, 0x3f, 0x1e, 0xbd, 0x9e, 0x2f, 0x1c, 0xbe, 0x68, 0x65, 0x53, 0xbe,
  0xe7, 0xc9, 0xbe, 0xbe, 0xc4, 0x16, 0x10, 0xbe, 0xf5, 0xd4, 0x9c, 0xbe,
  0x88, 0xba, 0xfc, 0x3d, 0x83, 0x68, 0xa3, 0x3e, 0xef, 0xf7, 0x7d, 0x3e,
  0x78, 0x07, 0x5c, 0x3e, 0xf1, 0xa2, 0xd6, 0x3d, 0xf5, 0x3a, 0x67, 0x3c,
  0x7a, 0xa3, 0x4d, 0xbc, 0x5f, 0x54, 0x07, 0xbe, 0xfa, 0xd4, 0x15, 0xbd,
  0xa3, 0x00, 0x8a, 0xbd, 0x51, 0x95, 0xc4, 0xbe, 0x56, 0xe3, 0x5c, 0xbe,
  0xf7, 0x74, 0xa7, 0xbb, 0x81, 0xfc, 0x76, 0xbd, 0x41, 0x96, 0x38, 0xbe,
  0x43, 0x09, 0x2d, 0xbe, 0xec, 0x4f, 0x35, 0x3c, 0x25, 0x74, 0x03, 0x3e,
  0xea, 0xf4, 0x34, 0x3d, 0x9e, 0xb4, 0x04, 0x3f, 0x00, 0x74, 0x0c, 0x3f,
  0x42, 0x56, 0x60, 0x3d, 0x4f, 0x53, 0x77, 0x3c, 0x82, 0x69, 0x86, 0xbd,
  0xa9, 0x3d, 0xf6, 0xbe, 0x0c, 0x74, 0x19, 0xbf, 0x08, 0xa2, 0xd4, 0xbc,
  0x22, 0xe7, 0x22, 0x3e, 0x05, 0x1d, 0xfd, 0x3d, 0x24, 0xfc, 0x89, 0xbe,
  0xce, 0x11, 0x23, 0xbc, 0xfe, 0xaf, 0x09, 0x3e, 0xd6, 0x7f, 0x87, 0x3e,
  0x2e, 0xb3, 0xa0, 0x3e, 0x06, 0x7d, 0xee, 0x3e, 0x0c, 0x55, 0xf6, 0x3e,
  0x5e, 0x03, 0x39, 0xbf, 0x27, 0xb7, 0x56, 0xbe, 0xb5, 0xf5, 0x8c, 0x3e,
  0x4c, 0x54, 0xbb, 0xbe, 0x49, 0xfa, 0x95, 0xbd, 0xae, 0xdd, 0x28, 0x3c,
  0xf8, 0x35, 0xaa, 0x3e, 0xec, 0x85, 0xa7, 0x3e, 0x96, 0xb4, 0x23, 0x3e,
  0x3f, 0x9f, 0x01, 0xbf, 0xcf, 0x41, 0xd9, 0xbe, 0xca, 0x10, 0xc5, 0x3c,
  0x30, 0x96, 0x86, 0x3e, 0xdb, 0x56, 0xb5, 0x3f, 0xef, 0x24, 0x07, 0x40,
  0xc7, 0xda, 0xe2, 0x3d, 0xbf, 0x69, 0x1b, 0x3d, 0xde, 0xc7, 0x6a, 0xbd,
  0xa5, 0x14, 0x0d, 0xbe, 0xa2, 0x45, 0xaf, 0xbd, 0x95, 0xa5, 0x06, 0x3e,
  0x30, 0xc6, 0x41, 0x3c, 0x9a, 0x31, 0xfe, 0x3e, 0x1f, 0x2e, 0x47, 0x3f,
  0x66, 0x45, 0xc2, 0xbe, 0x44, 0xe2, 0x25, 0xbe, 0xca, 0xb5, 0xc0, 0xbe,
  0x3d, 0xc5, 0x00, 0xbf, 0x54, 0x3b, 0x50, 0xbc, 0xba, 0xfe, 0x83, 0x3e,
  0xab, 0x9b, 0x81, 0xbe, 0x1c, 0xd9, 0xde, 0xbd, 0xdc, 0x7c, 0x41, 0x3d,
  0x8b, 0xca, 0x9f, 0xbe, 0x38, 0x28, 0xed, 0x3d, 0x5a, 0xf1, 0xfb, 0x3d,
  0xf8, 0x10, 0xbf, 0x3e, 0x26, 0xd8, 0x4b, 0x3f, 0x07, 0x06, 0xc5, 0x3e,
  0x85, 0xf7, 0x61, 0xbe, 0x06, 0xcc, 0x91, 0xbe, 0x1b, 0x00, 0xb3, 0xbe,
  0xa2, 0x5f, 0x3a, 0xbe, 0x66, 0xa3, 0x54, 0xbf, 0xe4, 0xc4, 0x79, 0xbe,
  0x5b, 0x5d, 0x20, 0x3e, 0x47, 0x35, 0x89, 0xbd, 0x33, 0xa2, 0x19, 0xbe,
  0xfd, 0x8a, 0x4f, 0xbe, 0xd0, 0xd7, 0x11, 0xbf, 0xa8, 0x7b, 0x10, 0xbf,
  0xbe, 0x04, 0xc3, 0x3c, 0xbd, 0xfd, 0x09, 0xbe, 0x81, 0x5e, 0xf3, 0xbd,
  0x30, 0xb2, 0xbf, 0xbe, 0x74, 0xda, 0xdb, 0xbe, 0x6c, 0x8b, 0xb2, 0x3e,
  0xf5, 0xce, 0x2c, 0xbf, 0x54, 0xdc, 0xc0, 0x3d, 0xa7, 0x16, 0x9c, 0xbd,
  0xba, 0x5e, 0x93, 0xbe, 0x1c, 0x95, 0x81, 0xbd, 0x48, 0x28, 0x00, 0x3c,
  0xe1, 0x60, 0x16, 0x3e, 0x9d, 0xef, 0x87, 0x3e, 0xca, 0x7c, 0x8b, 0xbe,
  0xa4, 0x04, 0xa1, 0xbe, 0x88, 0x23, 0x9e, 0xbe, 0x91, 0xfd, 0x91, 0xbd,
  0x95, 0x83, 0xc5, 0xbd, 0x13, 0x07, 0x1e, 0x3f, 0x5f, 0xff, 0x0f, 0x3e,
  0x09, 0x7d, 0x6f, 0x3f, 0x4e, 0xde, 0x01, 0x3f, 0xd4, 0x7d, 0x8a, 0xbd,
  0x23, 0x30, 0xad, 0x3e, 0x08, 0x1c, 0x26, 0xbc, 0x5f, 0x74, 0xff, 0xbd,
  0x06, 0xf7, 0x62, 0x3d, 0xba, 0x8d, 0x5c, 0x3f, 0x04, 0x0c, 0x98, 0x3e,
  0xd4, 0x4c, 0x4b, 0xbe, 0x82, 0x12, 0xca, 0xbe, 0xbe, 0x71, 0x79, 0xbd,
  0x34, 0xa9, 0x2d, 0x3e, 0xb0, 0xc7, 0xba, 0xbe, 0x83, 0xf1, 0xb5, 0x3e,
  0xa7, 0xc5, 0xd5, 0xbe, 0x67, 0xe4, 0x07, 0x3e, 0x66, 0x33, 0xf8, 0xbd,
  0xce, 0xd8, 0x05, 0x3e, 0xcc, 0xa8, 0x94, 0xbe, 0x61, 0xc3, 0x44, 0xbf,
  0xcd, 0xed, 0xf5, 0xbe, 0x9a, 0xda, 0x12, 0xbf, 0x20, 0x94, 0xa2, 0xbc,
  0x20, 0xb2, 0x4c, 0x3e, 0xc7, 0xc6, 0x9f, 0x3d, 0x14, 0x4b, 0x8d, 0x3d,
  0xc6, 0x0a, 0x0c, 0xbe, 0x10, 0x25, 0x32, 0x3f, 0x87, 0x33, 0x74, 0x3e,
  0x08, 0xa0, 0x8f, 0x3f, 0x89, 0x82, 0x57, 0x3f, 0x6f, 0x3d, 0x38, 0x3c,
  0x0c, 0x59, 0x8b, 0x3e, 0xc6, 0x18, 0xf1, 0xba, 0x56, 0x12, 0xa5, 0xbd,
  0x0b, 0x9d, 0x0b, 0x3e, 0x02, 0xe7, 0x46, 0x3e, 0xde, 0xa6, 0xe9, 0x3c,
  0xbc, 0x54, 0x3e, 0x3e, 0xb4, 0x8c, 0xf4, 0x3d, 0x53, 0xfd, 0x86, 0x3e,
  0x36, 0x7d, 0xc8, 0x3e, 0x06, 0x45, 0xd5, 0xbe, 0xcc, 0xd1, 0x59, 0x3e,
  0x02, 0xd3, 0x75, 0xbe, 0x6c, 0x8d, 0x1a, 0x3f, 0x08, 0x73, 0x8c, 0x3c,
  0xbb, 0xef, 0xb6, 0x3e, 0x61, 0xe4, 0x87, 0xbe, 0xe0, 0x3b, 0xa9, 0xbe,
  0x96, 0x2c, 0x32, 0xbf, 0x94, 0x30, 0x48, 0xbf, 0xc9, 0x02, 0xf0, 0xbe,
  0xf8, 0xc2, 0x8e, 0xbe, 0x64, 0x91, 0x75, 0x3e, 0x44, 0x67, 0xc8, 0xbd,
  0x62, 0xd3, 0xb9, 0x3e, 0x59, 0x22, 0x9b, 0x3e, 0x02, 0x44, 0x85, 0xbe,
  0x1f, 0x6c, 0x79, 0x3f, 0xd9, 0x8c, 0x49, 0x3f, 0x83, 0xbb, 0x83, 0x3d,
  0x91, 0x91, 0x81, 0x3e, 0x45, 0x01, 0x6c, 0xbd, 0xb4, 0x13, 0x1e, 0xbe,
  0x19, 0x5e, 0xac, 0xbd, 0xe6, 0x3d, 0x97, 0xbd, 0x5f, 0x3d, 0x9a, 0xbd,
  0xb6, 0x75, 0x43, 0xbd, 0xea, 0x43, 0x3f, 0xbb, 0x2b, 0x9c, 0x99, 0xbe,
  0xad, 0x51, 0xe1, 0x3d, 0x57, 0xfb, 0x9d, 0xbe, 0x50, 0x8d, 0xdd, 0x3e,
  0x95, 0x79, 0xa2, 0xbd, 0x1a, 0x07, 0x31, 0x3f, 0x45, 0x03, 0x6a, 0x3c,
  0x10, 0x26, 0xd2, 0x3e, 0x5b, 0x5f, 0xed, 0x3d, 0x8d, 0x64, 0xb1, 0xbe,
  0xcd, 0x51, 0x33, 0xbe, 0xd2, 0x8a, 0x1f, 0xbf, 0xab, 0xa9, 0x37, 0xbf,
  0x48, 0x16, 0xfe, 0xbe, 0x9a, 0x7e, 0x83, 0xbf, 0x7b, 0xaf, 0x7b, 0xbf,
  0x6a, 0x59, 0x64, 0xbf, 0x93, 0xc1, 0x55, 0xbf, 0xf1, 0xf8, 0x07, 0xbf,
  0x34, 0x0c, 0x73, 0xbe, 0x66, 0x47, 0x0d, 0x3d, 0xf7, 0x72, 0xf1, 0xb9,
  0xff, 0x79, 0xe7, 0x3d, 0xd8, 0x17, 0xbe, 0x3c, 0x63, 0xb2, 0x26, 0xbe,
  0x20, 0x7d, 0x31, 0xbd, 0xf4, 0x90, 0x13, 0xbe, 0x74, 0x1a, 0xcb, 0xbd,
  0xaa, 0xe3, 0xb9, 0x3d, 0x5b, 0x14, 0x4a, 0xbe, 0x25, 0x40, 0xc8, 0x3e,
  0x7f, 0x09, 0x57, 0xbe, 0x7d, 0x55, 0x0e, 0xbf, 0x9e, 0xe2, 0x33, 0x3d,
  0x4b, 0x6e, 0x09, 0xbf, 0x7a, 0x6a, 0x31, 0x3e, 0xea, 0xea, 0x28, 0xbe,
  0x9a, 0xae, 0x0a, 0xbd, 0x2b, 0xe5, 0x2b, 0xbe, 0x27, 0x69, 0x02, 0xbf,
  0x28, 0x6a, 0xfd, 0xbe, 0x27, 0xbe, 0xea, 0xbe, 0xfb, 0x25, 0xcc, 0xbe,
  0x9a, 0x8d, 0x87, 0xbe, 0xcd, 0x13, 0x02, 0xbf, 0x77, 0x6d, 0xc1, 0x3d,
  0x2e, 0x44, 0x0c, 0xbf, 0x7f, 0xd0, 0x4a, 0x3d, 0xf4, 0x2c, 0xf0, 0xbe,
  0xfa, 0x44, 0x52, 0xbd, 0xec, 0x5e, 0x2c, 0xbe, 0xfd, 0x81, 0xed, 0x3c,
  0x3d, 0x4d, 0x14, 0x3d, 0xd4, 0x53, 0x38, 0xb9, 0xdf, 0x00, 0xd6, 0xbd,
  0xba, 0x32, 0x7a, 0xbc, 0x68, 0x13, 0xb7, 0xbc, 0xc6, 0x4e, 0x56, 0x3e,
  0xae, 0x96, 0x13, 0x3f, 0xf8, 0x44, 0xe9, 0x3e, 0xd9, 0x11, 0x9c, 0x3f,
  0x89, 0x88, 0xd9, 0xbe, 0x40, 0x19, 0x2d, 0x3e, 0x39, 0xe1, 0x8d, 0xbe,
  0xdc, 0x6a, 0xff, 0xbd, 0xa3, 0x5f, 0xbb, 0xbe, 0x18, 0xbe, 0x39, 0xbe,
  0xae, 0x1b, 0xb9, 0xbe, 0xf1, 0x68, 0x9e, 0x3d, 0x1a, 0x9b, 0x3e, 0xbe,
  0xfe, 0xbc, 0x07, 0xbe, 0xc1, 0x65, 0x33, 0x3e, 0xf4, 0x5b, 0x8c, 0xbd,
  0x2d, 0x0e, 0x28, 0xbd, 0x47, 0xf9, 0x67, 0xbd, 0x2e, 0x33, 0xf5, 0xbc,
  0x25, 0x9a, 0x64, 0xbe, 0x68, 0x2a, 0x0d, 0x3e, 0x2b, 0x24, 0x77, 0xbe,
  0xaf, 0x21, 0x19, 0x3d, 0x8a, 0x64, 0x7f, 0xbb, 0x54, 0x56, 0xd4, 0xbd,
  0x6e, 0x2c, 0xea, 0xbc, 0x39, 0x76, 0x14, 0xbc, 0xd9, 0x6d, 0x0f, 0xbe,
  0x0b, 0xef, 0xe1, 0x3c, 0x8e, 0xfb, 0x9a, 0x3d, 0x35, 0x17, 0x6a, 0x3e,
  0xe8, 0xe3, 0xa6, 0x3e, 0x6a, 0x8c, 0x1e, 0x3f, 0x9c, 0x47, 0x5b, 0x3f,
  0xd3, 0xd4, 0x05, 0x3f, 0xda, 0x31, 0x9c, 0x3e, 0xca, 0x51, 0x4c, 0x3c,
  0x40, 0xf6, 0xfb, 0xbd, 0xab, 0xce, 0x38, 0x3e, 0xca, 0x2b, 0x86, 0x3d,
  0x12, 0x7c, 0x01, 0x3d, 0xb3, 0xbf, 0x01, 0xbe, 0x21, 0x8a, 0x64, 0x3e,
  0x9b, 0x6a, 0xf8, 0x3e, 0x54, 0x78, 0xab, 0x3c, 0xa7, 0x84, 0x1b, 0x3f,
  0x8d, 0x58, 0x31, 0x3e, 0x4b, 0x63, 0xb6, 0x3c, 0x76, 0x44, 0xee, 0x3d,
  0xb3, 0x0d, 0xc9, 0x3d, 0x2a, 0x42, 0x57, 0x3e, 0xe2, 0xa6, 0x2b, 0xbe,
  0x80, 0x57, 0xa8, 0x3d, 0x2f, 0xa1, 0x55, 0xbe, 0xba, 0xf4, 0x7b, 0xbd,
  0x9b, 0x98, 0x51, 0x3d, 0x81, 0x26, 0x92, 0xbc, 0x15, 0x25, 0xaf, 0xbd,
  0xc1, 0xa2, 0x75, 0x3c, 0x04, 0x2b, 0xa2, 0xbd, 0x2c, 0xb3, 0xa9, 0x3d,
  0x16, 0xd9, 0xbc, 0x3e, 0x0a, 0x11, 0xe5, 0x3d, 0x72, 0x85, 0x34, 0x3f,
  0x7a, 0x83, 0xbc, 0x3e, 0x0d, 0x51, 0x40, 0x3f, 0x10, 0x62, 0xc8, 0x3e,
  0x1b, 0x4d, 0xff, 0x3e, 0x28, 0xd5, 0xd1, 0x3e, 0x4a, 0x8d, 0x08, 0x3f,
  0xdd, 0x26, 0xda, 0x3d, 0xf9, 0x63, 0xa0, 0x3e, 0x52, 0xbf, 0x71, 0x3e,
  0x99, 0x37, 0x37, 0x3f, 0x68, 0x59, 0xd5, 0x3e, 0x6d, 0x3a, 0x43, 0x3f,
  0x0b, 0x93, 0x6d, 0x3d, 0xbb, 0xce, 0xad, 0x3e, 0x48, 0xd6, 0x03, 0x3f,
  0x2d, 0xc4, 0x4d, 0x3e, 0x72, 0xd7, 0xd5, 0x3e, 0x14, 0x9a, 0x53, 0x3c,
  0x95, 0x2e, 0xab, 0x3d, 0x19, 0x37, 0x00, 0x3d, 0x60, 0x7d, 0x9b, 0xbc,
  0x3e, 0x0f, 0xa7, 0x3d, 0x87, 0xad, 0xc4, 0x3c, 0xe8, 0xb5, 0xa7, 0xbd,
  0xed, 0x56, 0x27, 0xbd, 0xca, 0x7b, 0xeb, 0xbd, 0x76, 0x5a, 0xd6, 0x3d,
  0x02, 0xdc, 0x6f, 0x3d, 0x65, 0x9f, 0xf1, 0xbd, 0xda, 0x8b, 0x7d, 0x3e,
  0x27, 0x99, 0x0e, 0xbe, 0x2f, 0x85, 0xe3, 0x3e, 0x1a, 0x09, 0x20, 0x3e,
  0xe8, 0xf7, 0x5b, 0x3e, 0xf8, 0xf2, 0xa6, 0x3e, 0x99, 0x49, 0xe6, 0x3e,
  0x61, 0xf3, 0x89, 0x3e, 0x76, 0x39, 0xc0, 0x3e, 0xf8, 0x06, 0x7d, 0x3e,
  0x6c, 0xd1, 0xa3, 0x3e, 0x50, 0x1d, 0x7b, 0x3e, 0x3f, 0x9d, 0x9f, 0x3e,
  0x82, 0x48, 0xc4, 0x3e, 0x7d, 0xb7, 0xbf, 0x3d, 0xa2, 0xea, 0xb3, 0x3e,
  0xa2, 0xe3, 0x37, 0x3e, 0x06, 0xa2, 0x4d, 0x3e, 0xc3, 0xfd, 0x57, 0xbd,
  0xd9, 0x22, 0x20, 0x3e, 0x0e, 0x2d, 0x8e, 0xbd, 0xf6, 0x8a, 0x0a, 0xbd,
  0x6a, 0xd0, 0x03, 0x3d, 0xa8, 0xd6, 0xdc, 0xbc, 0xcb, 0xcb, 0x15, 0xbd,
  0x73, 0xad, 0x75, 0x3d, 0x4e, 0xd3, 0x08, 0xbc, 0x76, 0xe6, 0x1d, 0xbd,
  0x88, 0x12, 0x86, 0xbc, 0x9a, 0xdf, 0x64, 0xbd, 0x1d, 0x45, 0x77, 0x3c,
  0x5f, 0x07, 0xda, 0x3d, 0xd9, 0xc0, 0x1e, 0x3d, 0x27, 0x0c, 0x70, 0x3e,
  0x69, 0x6a, 0x70, 0xbd, 0xff, 0x2b, 0xb0, 0x3e, 0x48, 0x1a, 0x5c, 0xbd,
  0x6b, 0x16, 0x30, 0x3e, 0xa3, 0x57, 0x81, 0xbd, 0x17, 0xe4, 0xec, 0x3e,
  0xee, 0xc4, 0xb3, 0x3b, 0x46, 0xd3, 0xf0, 0x3e, 0xd4, 0xf3, 0x97, 0x3d,
  0x01, 0x7e, 0x10, 0x3e, 0x2e, 0x81, 0x6c, 0x3e, 0x6f, 0x84, 0xc7, 0x3d,
  0xe6, 0xb5, 0x85, 0x3d, 0xd1, 0x63, 0xa5, 0x3d, 0x47, 0xbd, 0xa8, 0xbc,
  0x5b, 0x66, 0xe3, 0x3d, 0xc9, 0x18, 0x13, 0xbe, 0x2e, 0x28, 0x3b, 0xbc,
  0x82, 0x8e, 0x5c, 0x3d, 0x18, 0x48, 0x32, 0x3d, 0x9e, 0xb8, 0xe9, 0x3e,
  0x70, 0xb2, 0x11, 0x3d, 0x05, 0xd5, 0x9b, 0x3d, 0x27, 0x24, 0xda, 0xbc,
  0x9a, 0x52, 0x58, 0x3c, 0x04, 0xcc, 0x0d, 0x3a, 0x55, 0x79, 0x61, 0x3d,
  0xdd, 0x0f, 0x17, 0xbe, 0xf6, 0x79, 0x94, 0xbb, 0x3f, 0x66, 0x73, 0xbd,
  0xe9, 0xcd, 0x94, 0xbd, 0x3e, 0xed, 0x9b, 0x3d, 0x23, 0x2a, 0xea, 0x3c,
  0x4b, 0x2c, 0x31, 0x3d, 0x5c, 0x4e, 0x50, 0x3d, 0xe9, 0xf2, 0x57, 0x3b,
  0x23, 0xb8, 0x3d, 0xbd, 0x39, 0x33, 0x8d, 0xba, 0xdb, 0x70, 0xe1, 0x3d,
  0xf4, 0xa9, 0x05, 0x3d, 0x33, 0x26, 0x21, 0xbb, 0x7f, 0x9a, 0x3b, 0x3d,
  0x40, 0xf8, 0x90, 0x3d, 0x0b, 0x00, 0x14, 0xbd, 0x80, 0x72, 0x91, 0xbc,
  0x53, 0x79, 0xac, 0x3c, 0x07, 0xef, 0xcc, 0x3c, 0xa2, 0x3b, 0x83, 0xbd,
  0x61, 0x1f, 0xc5, 0xbd, 0x8b, 0xbb, 0xd4, 0x3c, 0x59, 0x00, 0xc2, 0xbd,
  0x7c, 0x09, 0x22, 0xbc, 0x7c, 0x13, 0x3f, 0x3d, 0x5b, 0x71, 0x30, 0x3d,
  0x11, 0x9f, 0xb7, 0x3d, 0x92, 0xa4, 0x11, 0x3d, 0x30, 0x52, 0xd8, 0x3c,
  0x31, 0x4c, 0x1a, 0x3d, 0xc5, 0x7f, 0xb1, 0xbb, 0x4f, 0xd2, 0x2e, 0xbd,
  0x54, 0x73, 0x0a, 0x3e, 0xa7, 0x3e, 0x32, 0x3d, 0x64, 0xba, 0x8f, 0x3d,
  0xe6, 0x37, 0x4c, 0x3d, 0xd9, 0xd1, 0x3b, 0x3d, 0x9a, 0xb3, 0x1c, 0x3d,
  0xa7, 0x85, 0xbf, 0xbd, 0xdb, 0x88, 0x37, 0x3d, 0xce, 0xde, 0x27, 0x3e,
  0x0c, 0x7c, 0x8b, 0x3e, 0x84, 0x59, 0xbd, 0x3e, 0x00, 0x1b, 0x91, 0x3e,
  0xe5, 0xa3, 0x52, 0x3e, 0xd8, 0x4d, 0x43, 0x3e, 0xf8, 0x58, 0x18, 0x3e,
  0x1e, 0x42, 0x96, 0x3d, 0x40, 0x25, 0x6e, 0x3d, 0x12, 0xfb, 0x15, 0xbb,
  0xf8, 0xe6, 0x01, 0xbe, 0x7a, 0x93, 0x5f, 0xbc, 0xc4, 0xc9, 0x1b, 0x3e,
  0xfd, 0xd0, 0x16, 0x3d, 0x6f, 0x43, 0x62, 0x3c, 0xa8, 0x4b, 0x6c, 0x3e,
  0x1b, 0xca, 0x0d, 0x3f, 0x0c, 0xce, 0x8b, 0x3e, 0xf6, 0x35, 0xfa, 0x3e,
  0xd1, 0x0b, 0xd7, 0x3e, 0x1e, 0xec, 0xf5, 0x3e, 0x2f, 0x89, 0x29, 0x3f,
  0x6a, 0xd4, 0x25, 0x3f, 0x28, 0xea, 0xed, 0x3e, 0x0f, 0xea, 0x8f, 0x3e,
  0x05, 0x98, 0x2e, 0x3e, 0x8b, 0xba, 0xd6, 0x3e, 0x76, 0xcc, 0x16, 0x3e,
  0xf5, 0x6f, 0xb4, 0x3e, 0xea, 0x72, 0x12, 0x3e, 0x78, 0x23, 0xd6, 0x3e,
  0x83, 0x1d, 0x1e, 0x3e, 0xac, 0xbe, 0x2b, 0xbe, 0x1a, 0xf8, 0xa5, 0xbe,
  0xff, 0x13, 0x4b, 0xbe, 0xe2, 0x50, 0xd3, 0x3d, 0x76, 0x1a, 0xb3, 0x3d,
  0xd2, 0x18, 0x9d, 0x3d, 0x8d, 0xc2, 0x55, 0x3e, 0x2e, 0x73, 0x1b, 0xbd,
  0x41, 0xa8, 0x80, 0x3d, 0x07, 0x7a, 0xe0, 0x3d, 0x10, 0x03, 0x48, 0x3d,
  0x06, 0xc8, 0xc3, 0xbd, 0xf4, 0x94, 0x7f, 0xbe, 0x77, 0x0c, 0x76, 0xbe,
  0x3f, 0xef, 0xca, 0xbe, 0x1f, 0x0f, 0xdd, 0xbe, 0x22, 0x3b, 0xb2, 0xbe,
  0xf8, 0x8c, 0x1e, 0xbe, 0x2f, 0xae, 0x13, 0xbf, 0x86, 0x4c, 0xf8, 0xbc,
  0x36, 0xfa, 0x95, 0xbe, 0x97, 0xb6, 0xba, 0xbc, 0x25, 0x0b, 0xc4, 0xbd,
  0x5f, 0xc9, 0xb3, 0x3e, 0x01, 0x89, 0xe2, 0x3e, 0xf5, 0x12, 0x06, 0x3e,
  0xcf, 0x38, 0xd8, 0x3e, 0x85, 0x34, 0x1c, 0xbe, 0xce, 0x35, 0x30, 0x3e,
  0x00, 0x6d, 0x31, 0x3e, 0xc5, 0x99, 0x5a, 0xbd, 0x73, 0x88, 0x65, 0x3e,
  0x97, 0x8b, 0x0a, 0xbf, 0xb1, 0x83, 0x0d, 0xbf, 0x5e, 0x23, 0x89, 0xbf,
  0x78, 0xf8, 0xed, 0xbe, 0x17, 0x2d, 0xe7, 0xbe, 0xa3, 0xc0, 0xad, 0xbe,
  0x7c, 0xb1, 0x38, 0xbd, 0x18, 0x87, 0x87, 0xbd, 0x55, 0x42, 0x17, 0x3d,
  0x15, 0x66, 0x85, 0xbe, 0xa0, 0x64, 0x8a, 0xbe, 0xb6, 0x52, 0xd1, 0x3d,
  0x32, 0x21, 0x4f, 0xbe, 0xea, 0x3b, 0x4b, 0x3e, 0x29, 0x7f, 0xa4, 0xbe,
  0xc3, 0x56, 0xd8, 0xbe, 0x0c, 0x9e, 0x0b, 0xbf, 0xd0, 0x63, 0x15, 0x3d,
  0x12, 0xe4, 0x37, 0xbe, 0x88, 0xa9, 0x93, 0x3d, 0x64, 0x1b, 0xfd, 0xbd,
  0xaf, 0x6a, 0xb7, 0xbe, 0x9b, 0x2d, 0x11, 0x3f, 0x64, 0x24, 0x77, 0xbe,
  0x06, 0x89, 0xf4, 0x3e, 0xb6, 0xad, 0xd6, 0x3d, 0x67, 0xc6, 0xe8, 0x3e,
  0x0a, 0x6e, 0x27, 0x3e, 0x3c, 0x02, 0xce, 0x3e, 0xf0, 0x24, 0xb7, 0xbd,
  0x1f, 0x2f, 0x45, 0xbd, 0xad, 0xeb, 0x1d, 0x3c, 0x4f, 0xa2, 0x79, 0xbe,
  0xf4, 0x41, 0x90, 0x3e, 0xcd, 0xd1, 0x90, 0x3f, 0x47, 0x6f, 0xf1, 0x3c,
  0x6a, 0x9c, 0x5e, 0xbd, 0x6d, 0xc7, 0x9e, 0x3b, 0xfd, 0x92, 0xcc, 0x3b,
  0xe8, 0xf7, 0x0a, 0xbf, 0xd6, 0x7f, 0xdc, 0x3e, 0x28, 0xb9, 0x56, 0x3e,
  0xbf, 0x7b, 0x0b, 0x3f, 0xce, 0x90, 0x03, 0x3e, 0xea, 0xd6, 0x80, 0x3e,
  0x3b, 0x20, 0x2a, 0x3e, 0x45, 0x49, 0x8d, 0xbe, 0x5e, 0x9f, 0xac, 0xbc,
  0x05, 0xe4, 0xa8, 0x3e, 0x61, 0xf9, 0x67, 0xbe, 0xdf, 0x71, 0xd0, 0x3d,
  0xc6, 0xa6, 0xaf, 0xbe, 0x2a, 0xf7, 0xe6, 0x3e, 0x55, 0x5a, 0xa6, 0xbe,
  0xdb, 0xbd, 0xc6, 0x3e, 0xfc, 0x4d, 0x2f, 0xbf, 0xa5, 0x68, 0x00, 0x3f,
  0x36, 0x8e, 0x30, 0x3d, 0x58, 0xb2, 0x82, 0x3f, 0x02, 0x69, 0xab, 0xbe,
  0x7d, 0xe9, 0x77, 0x3e, 0xfb, 0x0d, 0x8d, 0xbe, 0xdd, 0x02, 0x00, 0x3f,
  0xae, 0x1c, 0x49, 0xbe, 0x9e, 0xb0, 0x90, 0x3e, 0x22, 0x45, 0x25, 0xbe,
  0x4a, 0x90, 0x14, 0xbe, 0x42, 0x61, 0xc8, 0x3c, 0xed, 0x90, 0x93, 0x3d,
  0x8a, 0xe4, 0xef, 0xbe, 0x4b, 0x8f, 0xab, 0xbe, 0x1a, 0x84, 0x58, 0xbe,
  0x64, 0x5f, 0x7b, 0x3f, 0x41, 0x3c, 0x93, 0x3e, 0xbe, 0x2b, 0xf7, 0x3e,
  0xb3, 0x36, 0xaf, 0xbc, 0x2d, 0x00, 0x08, 0x3f, 0xb4, 0x6d, 0x8e, 0xbd,
  0x8a, 0xb1, 0x1e, 0x3d, 0x6f, 0xc7, 0x0d, 0xbe, 0xe2, 0x4e, 0xa9, 0x3e,
  0xb6, 0x1b, 0xd4, 0xbe, 0x53, 0x24, 0x05, 0x3f, 0x4f, 0x92, 0xd3, 0xbe,
  0x4d, 0x45, 0xbc, 0x3e, 0x64, 0xbb, 0x8f, 0xbf, 0xd4, 0x29, 0xc5, 0x3e,
  0xc0, 0x06, 0x30, 0xbf, 0x20, 0xea, 0x86, 0x3f, 0x4c, 0xb4, 0x07, 0xbc,
  0xd6, 0xcc, 0x53, 0x3f, 0x27, 0xec, 0x5b, 0xbe, 0x73, 0xba, 0xb6, 0x3e,
  0x73, 0x3f, 0x32, 0xbe, 0xe1, 0x94, 0xb6, 0xbe, 0x16, 0x22, 0x6d, 0xbe,
  0x83, 0xa5, 0x06, 0xbe, 0xb0, 0xb9, 0x6d, 0x3d, 0x23, 0x3f, 0x4f, 0x3d,
  0x0f, 0x37, 0xf3, 0xbc, 0x59, 0x6f, 0x64, 0xbe, 0x3f, 0x47, 0x42, 0xbf,
  0x7f, 0x17, 0x4e, 0xbe, 0xec, 0x66, 0xb8, 0xbe, 0xb8, 0xe6, 0x92, 0xbb,
  0x50, 0x7c, 0x44, 0xbe, 0x14, 0x10, 0xaf, 0xbe, 0xdb, 0x15, 0x88, 0xbd,
  0x2d, 0x91, 0x2d, 0xbd, 0x75, 0xe6, 0x22, 0xbd, 0x70, 0xd5, 0x20, 0xbe,
  0x18, 0xd7, 0x0a, 0xbc, 0x5a, 0x0b, 0x03, 0x3e, 0x3e, 0x2b, 0xc0, 0xbe,
  0xf9, 0xa3, 0x25, 0x3f, 0x6a, 0x28, 0x11, 0xbf, 0xcb, 0xde, 0x92, 0xbe,
  0x8e, 0xd3, 0x1b, 0xbf, 0x03, 0x7d, 0x25, 0xbf, 0xc1, 0x2c, 0x35, 0xbf,
  0xcf, 0xfd, 0x50, 0xbf, 0x7e, 0xb2, 0xff, 0xbd, 0x7d, 0x24, 0x07, 0xbf,
  0x61, 0xc2, 0x6f, 0xbd, 0x06, 0xe4, 0xa0, 0xbe, 0x1e, 0x4e, 0x83, 0x3c,
  0x8b, 0xed, 0x2d, 0xbd, 0xe5, 0x66, 0xf2, 0x3c, 0xca, 0xd5, 0xf0, 0x3d,
  0x79, 0x2e, 0x60, 0xbc, 0xb1, 0xd4, 0x12, 0xbe, 0x30, 0x5d, 0x84, 0xbe,
  0x3b, 0x99, 0x9e, 0xbe, 0x1a, 0x29, 0xc6, 0x3d, 0x95, 0x8c, 0x1f, 0xbe,
  0xc3, 0x4d, 0x44, 0x3e, 0x06, 0x4d, 0xc3, 0xbd, 0xe5, 0x5b, 0x7b, 0x3e,
  0x74, 0xb6, 0x45, 0x3e, 0x4c, 0xe6, 0xa9, 0x3e, 0x1e, 0x61, 0xe5, 0xbb,
  0xfa, 0x76, 0xcd, 0xbd, 0x96, 0xe3, 0x80, 0x3e, 0x72, 0x6b, 0x12, 0x3e,
  0x61, 0x67, 0xc7, 0x3e, 0x42, 0xfd, 0x6d, 0xbe, 0x90, 0x26, 0x43, 0x3c,
  0x1d, 0x59, 0x21, 0xbe, 0xf6, 0x84, 0x19, 0xbf, 0x83, 0xf0, 0xb8, 0x3e,
  0xb3, 0xd5, 0xd0, 0xbe, 0xb7, 0xd7, 0x79, 0x3f, 0x51, 0x93, 0x0f, 0xbf,
  0xc0, 0x95, 0x54, 0x3e, 0xc0, 0x8d, 0x07, 0xbe, 0x1c, 0x79, 0x8e, 0xbd,
  0x98, 0x67, 0xe7, 0x3c, 0xa9, 0x36, 0xcd, 0x3d, 0xc0, 0xd9, 0x20, 0x3d,
  0xcd, 0xfd, 0xef, 0x3b, 0x0a, 0x9f, 0xa1, 0xbd, 0xd6, 0x21, 0x09, 0xbf,
  0x36, 0x29, 0xb3, 0xbe, 0xc0, 0xd9, 0xda, 0x3c, 0x61, 0x96, 0x2e, 0xbe,
  0x92, 0xd7, 0xd2, 0x3e, 0xd2, 0x57, 0xe3, 0xbe, 0x03, 0xe0, 0x27, 0x3e,
  0x66, 0x58, 0x4d, 0xbe, 0x19, 0x3b, 0x23, 0x3f, 0x79, 0x17, 0x3c, 0xbe,
  0x9e, 0x81, 0xaa, 0x3e, 0x62, 0x50, 0x13, 0x3f, 0xf7, 0x94, 0x6b, 0x3e,
  0xfb, 0xd3, 0xab, 0x3e, 0xc6, 0xd0, 0x19, 0xbe, 0x18, 0xbb, 0x21, 0x3e,
  0x21, 0x01, 0x97, 0xbc, 0x0b, 0xdd, 0x5f, 0x3e, 0xa6, 0xe7, 0x50, 0x3e,
  0x56, 0x9d, 0x7b, 0x3e, 0x69, 0xb6, 0x7d, 0x3e, 0x64, 0xce, 0x63, 0xbb,
  0x43, 0x3a, 0xc3, 0xbd, 0x58, 0x8a, 0x2b, 0xbe, 0x60, 0x8a, 0xbb, 0xbd,
  0x34, 0xc1, 0xbe, 0xbd, 0xaa, 0x7c, 0x9f, 0x3c, 0x8f, 0xf9, 0xf9, 0xbc,
  0x8c, 0x89, 0xec, 0xbc, 0x75, 0xdf, 0x00, 0xbd, 0x19, 0xa3, 0x0b, 0xbf,
  0x16, 0x36, 0x77, 0xbe, 0xc7, 0xa9, 0x26, 0xbe, 0x40, 0xfd, 0x8e, 0xbe,
  0xab, 0xab, 0x35, 0x3e, 0x87, 0xd3, 0x1f, 0xbf, 0x64, 0x1e, 0x2a, 0x3f,
  0xf8, 0x9c, 0x12, 0xbf, 0x9e, 0x25, 0x2f, 0x3f, 0xd2, 0x69, 0x87, 0xbe,
  0xac, 0x2d, 0x31, 0x3e, 0x6f, 0x6b, 0xa1, 0xbd, 0xbb, 0xb2, 0xb2, 0x3d,
  0xe4, 0xfa, 0x1d, 0x3e, 0x6f, 0xb4, 0xc6, 0x3e, 0xae, 0x28, 0xb6, 0x3e,
  0x56, 0x2b, 0x85, 0x3e, 0x33, 0x69, 0x87, 0x3e, 0x59, 0x48, 0x25, 0xbe,
  0x02, 0xe8, 0xec, 0x3e, 0x5c, 0x6f, 0xe0, 0xbd, 0xc8, 0x57, 0x25, 0x3e,
  0xea, 0x50, 0xa8, 0x3d, 0x4e, 0x6b, 0x23, 0xbe, 0x1a, 0x4c, 0xc3, 0xbc,
  0x9a, 0x00, 0x55, 0xbe, 0xee, 0x8c, 0x97, 0x3c, 0x54, 0xf2, 0x5f, 0xbd,
  0x85, 0x92, 0x8e, 0xbd, 0xf5, 0xc8, 0xa0, 0xbd, 0x45, 0x55, 0xcc, 0xbe,
  0xa4, 0x19, 0x3e, 0xbe, 0xc0, 0xb3, 0xad, 0xbe, 0xad, 0xf6, 0x98, 0xbe,
  0x71, 0xf6, 0xd5, 0x3d, 0x61, 0x09, 0x37, 0xbf, 0x01, 0x4a, 0x05, 0x3f,
  0xca, 0x3a, 0x5b, 0xbf, 0x0c, 0x26, 0x18, 0x3f, 0x1a, 0xd6, 0x5d, 0xbf,
  0xfe, 0x22, 0x1a, 0x3d, 0x02, 0x80, 0xcf, 0xbe, 0x00, 0x54, 0xda, 0x3e,
  0x89, 0xe7, 0x98, 0xbd, 0xf1, 0x7f, 0x63, 0x3e, 0x9d, 0xa5, 0x77, 0x3e,
  0xba, 0x07, 0x8e, 0x3e, 0xfb, 0xb4, 0xed, 0x3e, 0xa9, 0x37, 0xbb, 0x3d,
  0xdb, 0x41, 0x4d, 0x3e, 0x29, 0x53, 0x03, 0x3e, 0x67, 0xe5, 0x99, 0xbd,
  0x06, 0xf3, 0x18, 0xbd, 0x28, 0x96, 0xfc, 0x3d, 0xf2, 0x6d, 0x21, 0x3c,
  0x02, 0x14, 0xaf, 0xbd, 0x95, 0x8a, 0x45, 0x3d, 0xa9, 0x9f, 0xa2, 0x3d,
  0x7e, 0x2e, 0xba, 0xbc, 0x1b, 0x31, 0xfd, 0xbc, 0x3c, 0xc0, 0x28, 0xbe,
  0x80, 0x38, 0xfa, 0xbd, 0x69, 0x13, 0xb1, 0xbe, 0xd3, 0x0c, 0x7d, 0xbe,
  0x79, 0xb2, 0x98, 0x3d, 0x7a, 0x96, 0xc8, 0xbe, 0x15, 0x67, 0x89, 0x3d,
  0xa3, 0x4f, 0x48, 0xbf, 0xd4, 0x5d, 0x1f, 0x3f, 0x31, 0x10, 0x28, 0xbf,
  0xde, 0xd9, 0x35, 0x3f, 0x99, 0x81, 0x3f, 0xbf, 0x97, 0x24, 0xb3, 0x3e,
  0x9c, 0xef, 0x7c, 0xbe, 0xeb, 0x68, 0x77, 0x3e, 0x6f, 0x13, 0xb7, 0x3c,
  0x78, 0x56, 0xc2, 0x3e, 0xcc, 0x7c, 0x62, 0x3e, 0xab, 0x21, 0x69, 0xbd,
  0xa5, 0x38, 0xe6, 0x3d, 0xb3, 0x2f, 0x25, 0xbe, 0x5d, 0x6d, 0x75, 0xbd,
  0x3e, 0x82, 0xc9, 0xbd, 0xfd, 0xe0, 0xb0, 0xbc, 0x96, 0x81, 0x8e, 0xbc,
  0x2f, 0x67, 0xa8, 0xbd, 0x7b, 0x2c, 0x98, 0xbd, 0x26, 0x5f, 0xe2, 0x3c,
  0x4b, 0xfc, 0x2e, 0xbd, 0x78, 0x2e, 0x09, 0xbd, 0xb7, 0x5b, 0x27, 0xbe,
  0x73, 0xfd, 0x1b, 0xbd, 0x7d, 0x22, 0xa6, 0xbe, 0x1d, 0x9d, 0xa0, 0xbd,
  0x9d, 0x5a, 0xc4, 0xbe, 0x77, 0x64, 0x9a, 0xbd, 0xe9, 0x77, 0x80, 0xbe,
  0xf3, 0xd5, 0x97, 0xbe, 0x1b, 0x4f, 0x57, 0xbe, 0xc4, 0x7a, 0x23, 0xbe,
  0xbc, 0xa9, 0x0c, 0xbe, 0xf0, 0xce, 0x99, 0xbe, 0x57, 0x90, 0x94, 0xbe,
  0x39, 0x74, 0x16, 0xbe, 0xfd, 0xc0, 0x35, 0xbe, 0xb3, 0xaf, 0x10, 0xbe,
  0x77, 0x92, 0x47, 0xbe, 0x78, 0x29, 0x07, 0xbe, 0x1e, 0xd0, 0x26, 0xbe,
  0x9d, 0x2e, 0x0e, 0x3d, 0x63, 0xf8, 0x37, 0xbe, 0xe6, 0x23, 0x78, 0xbd,
  0x6d, 0x7f, 0x1e, 0xbe, 0xe6, 0x61, 0x94, 0xbd, 0xa6, 0x8e, 0xe7, 0x3b,
  0x00, 0xc8, 0xde, 0xbd, 0x92, 0xba, 0xef, 0xbd, 0x97, 0x28, 0x08, 0xbc,
  0x0d, 0x50, 0x0e, 0xbe, 0x7a, 0x1f, 0xad, 0xbc, 0xdf, 0x02, 0x4b, 0xbb,
  0xd1, 0x09, 0x1e, 0xbd, 0x2c, 0xb8, 0x2c, 0xbd, 0x49, 0x46, 0xdf, 0xbc,
  0x4f, 0x0b, 0x48, 0xbe, 0xb2, 0x8c, 0x9d, 0xbc, 0x29, 0xde, 0xbf, 0xbe,
  0xe4, 0x3a, 0x2a, 0xbe, 0xaa, 0x1f, 0x09, 0xbf, 0x95, 0xfa, 0x02, 0xbe,
  0xb2, 0x8d, 0x27, 0xbf, 0xdf, 0xec, 0x05, 0xbe, 0xc7, 0x2f, 0x05, 0xbf,
  0x78, 0x8f, 0x71, 0xbe, 0xd5, 0xa9, 0x99, 0xbe, 0x0e, 0x69, 0x28, 0xbe,
  0xf5, 0xc9, 0x3e, 0xbe, 0xb8, 0x37, 0xaa, 0xbd, 0x97, 0x9a, 0xca, 0xbd,
  0x9f, 0xa1, 0x8a, 0xbd, 0x36, 0x4f, 0x0f, 0xbd, 0x99, 0x08, 0xf4, 0x3b,
  0x28, 0x5c, 0x9d, 0x3c, 0x61, 0xd5, 0xdb, 0xbc, 0x3e, 0xc4, 0x52, 0x3c,
  0x72, 0x5a, 0xe0, 0xbd, 0xff, 0xbf, 0x1e, 0x3d, 0xba, 0xdb, 0x47, 0xbe,
  0xc8, 0xc7, 0x9c, 0xbc, 0xd9, 0xf0, 0x84, 0xbd, 0x3a, 0x4e, 0x93, 0x3d,
  0x74, 0x62, 0x90, 0xbd, 0x78, 0x88, 0x13, 0x3d, 0xd0, 0x97, 0xb1, 0xbd,
  0x12, 0x31, 0x30, 0xbc, 0xee, 0x77, 0x45, 0xbd, 0x07, 0xf9, 0xf6, 0xbd,
  0x2b, 0xff, 0x15, 0xbe, 0xa7, 0x48, 0x41, 0xbd, 0xd8, 0xe0, 0xe0, 0x3c,
  0x92, 0xe4, 0x39, 0xbd, 0x7d, 0xc6, 0x34, 0x3c, 0x7f, 0xd5, 0x8e, 0xbd,
  0xc6, 0xc6, 0x78, 0xbd, 0x2a, 0xcb, 0x49, 0xbd, 0x85, 0x43, 0xae, 0xbd,
  0xf3, 0x27, 0x19, 0xbd, 0x9c, 0x81, 0x05, 0xbd, 0x62, 0x07, 0xff, 0xbb,
  0x5b, 0x54, 0xb2, 0xbd, 0xf4, 0x13, 0x2e, 0x3d, 0xdf, 0x09, 0xb3, 0xbc,
  0xbd, 0x53, 0x7f, 0xbc, 0x64, 0xa6, 0x89, 0xbd, 0x0e, 0x29, 0x5e, 0x3b,
  0xa2, 0x15, 0xa6, 0xbd, 0xda, 0x96, 0xa2, 0xbd, 0x03, 0x45, 0x35, 0xbd,
  0x54, 0xc7, 0xe3, 0xbd, 0x40, 0xa8, 0x00, 0xbd, 0x90, 0x24, 0x8e, 0xbc,
  0x64, 0x85, 0x92, 0xbd, 0x86, 0x5f, 0x05, 0xbd, 0x4e, 0xe9, 0xdb, 0xbd,
  0x92, 0xe4, 0xa3, 0x3d, 0x6c, 0x2c, 0xd6, 0xbc, 0xa7, 0xb6, 0x13, 0xbd,
  0xbe, 0xb0, 0x9d, 0xbd, 0x48, 0x2c, 0xa3, 0xba, 0x20, 0x2d, 0x3a, 0xbe,
  0xdd, 0x77, 0x9f, 0xbd, 0xb2, 0x20, 0x48, 0xbd, 0x48, 0x99, 0xb3, 0xbd,
  0x18, 0x84, 0xda, 0xbc, 0xa5, 0xe4, 0xa0, 0xbc, 0x27, 0xcb, 0x16, 0x3c,
  0x3e, 0x24, 0xe2, 0xbc, 0xd8, 0x05, 0x3d, 0xbc, 0x4c, 0xb5, 0x89, 0xbc,
  0x9f, 0x1c, 0x28, 0xbe, 0x87, 0xff, 0x75, 0x3c, 0x22, 0x11, 0x6e, 0xbd,
  0xea, 0xdf, 0x66, 0xbd, 0x17, 0xc2, 0x7e, 0xbb, 0x50, 0x29, 0xf6, 0xbd,
  0x1d, 0xcf, 0x2b, 0x3e, 0x15, 0xed, 0xeb, 0xbc, 0x6a, 0xe0, 0xf3, 0xbd,
  0xf5, 0x20, 0x6e, 0x3c, 0x36, 0xbc, 0x34, 0x3d, 0x05, 0x4d, 0xc6, 0xbd,
  0xf0, 0x28, 0x1a, 0xbe, 0x24, 0x49, 0xcc, 0xbe, 0x1b, 0xd0, 0x5d, 0xbe,
  0xeb, 0x59, 0x8a, 0xbe, 0x8a, 0x60, 0x6d, 0xbe, 0xc9, 0xb9, 0x99, 0xbd,
  0xea, 0x40, 0xf4, 0xbd, 0xbe, 0x84, 0x4c, 0x3c, 0x87, 0xb0, 0x4e, 0xbd,
  0x99, 0x01, 0xf1, 0xbd, 0x97, 0xc4, 0x18, 0xbd, 0x9e, 0x29, 0x40, 0x3d,
  0x38, 0xca, 0x5b, 0xbd, 0x5c, 0xf0, 0x6e, 0x3c, 0xe5, 0x40, 0x22, 0x3e,
  0x18, 0xce, 0xbd, 0xbd, 0x2f, 0x09, 0x28, 0xbe, 0x76, 0x22, 0x0c, 0xbf,
  0xe0, 0x7a, 0xc3, 0xbe, 0x0b, 0xdf, 0x0c, 0xbf, 0x64, 0x2a, 0x1c, 0xbf,
  0xd3, 0x5e, 0x91, 0xbe, 0xc4, 0x88, 0x61, 0xbe, 0x2a, 0x40, 0xe7, 0xbd,
  0x25, 0x26, 0xed, 0x3d, 0x6f, 0xac, 0x53, 0xbc, 0x1c, 0x41, 0x88, 0x3d,
  0xde, 0x4a, 0x46, 0x3e, 0xc2, 0x76, 0xe5, 0x3e, 0xc2, 0xee, 0x12, 0x3f,
  0x01, 0x3d, 0xae, 0x3e, 0xf0, 0x62, 0x0f, 0x3f, 0x00, 0xdd, 0x2d, 0x3e,
  0x59, 0x87, 0x1e, 0xbd, 0x92, 0x41, 0x93, 0x3e, 0x02, 0x7c, 0x3c, 0xbb,
  0x8f, 0x01, 0xc9, 0xbd, 0x93, 0x18, 0xd2, 0xbe, 0xea, 0x18, 0xe0, 0xbe,
  0x6e, 0x33, 0x8a, 0xbe, 0x03, 0xa5, 0xb6, 0xbe, 0xcd, 0x7d, 0x9f, 0xbd,
  0xee, 0xbc, 0xaa, 0x3d, 0x8e, 0x8b, 0xaa, 0x3e, 0xec, 0x0d, 0x1f, 0xbd,
  0x89, 0x65, 0xe9, 0xbc, 0x53, 0x16, 0xf9, 0x3c, 0xe9, 0x78, 0x8e, 0x3e,
  0xa2, 0x8a, 0x16, 0x3f, 0x3c, 0x15, 0x2e, 0x3f, 0x94, 0xc5, 0xe2, 0x3e,
  0xe1, 0xe8, 0xa7, 0x3e, 0x26, 0x44, 0xcf, 0xbc, 0xdf, 0xf3, 0x60, 0xbe,
  0x82, 0x67, 0xb7, 0x3d, 0x16, 0x68, 0xff, 0xbc, 0x9b, 0xa1, 0x6d, 0x3e,
  0x42, 0xcb, 0x6b, 0x3f, 0xf2, 0x49, 0x04, 0x3f, 0x90, 0x1b, 0xc0, 0x3e,
  0xbb, 0x7d, 0xd9, 0x3e, 0x10, 0xac, 0xbe, 0x3d, 0xeb, 0x8c, 0xab, 0x3e,
  0x61, 0x5c, 0x2f, 0x3f, 0x6e, 0x32, 0x37, 0x3f, 0x3d, 0x27, 0x36, 0x3e,
  0x25, 0x27, 0xd2, 0x3d, 0xd4, 0x0d, 0xa2, 0xbe, 0x23, 0x05, 0x02, 0xbe,
  0xdc, 0x38, 0xa0, 0xbe, 0x5a, 0x45, 0x16, 0xbf, 0xfc, 0x72, 0x56, 0xbe,
  0x69, 0xf7, 0x8a, 0xbd, 0x70, 0xaa, 0x92, 0xbe, 0x00, 0xa5, 0x62, 0x37,
  0xad, 0x06, 0xab, 0xbe, 0xbf, 0x33, 0x33, 0xbf, 0x01, 0x7b, 0xaa, 0xbf,
  0x8a, 0xeb, 0x2b, 0x3e, 0x60, 0x46, 0x71, 0x3e, 0x6a, 0x5e, 0x8a, 0x3e,
  0x80, 0xf9, 0xab, 0x3e, 0xa7, 0xaf, 0x45, 0xbd, 0x78, 0x1b, 0xc0, 0xbd,
  0xba, 0x82, 0x43, 0xbd, 0xaf, 0x56, 0xc4, 0xbb, 0x48, 0x05, 0x87, 0xb9,
  0x75, 0xfa, 0xbf, 0x3e, 0xb0, 0x61, 0xb6, 0x3e, 0x72, 0x85, 0xf2, 0xbb,
  0x4d, 0x4a, 0x55, 0xbe, 0xf5, 0x96, 0x40, 0xbf, 0x73, 0x47, 0x2a, 0xbf,
  0x6d, 0xa7, 0x45, 0x3e, 0xa1, 0xc9, 0x5b, 0x3e, 0x19, 0x7a, 0x10, 0x3f,
  0xa0, 0xff, 0x98, 0x3d, 0x0e, 0xea, 0xaf, 0x3e, 0x6e, 0x15, 0x3c, 0xbe,
  0x7f, 0x0f, 0xe1, 0x3e, 0x0f, 0xb0, 0x3e, 0xbe, 0x54, 0x20, 0x57, 0x3e,
  0x9c, 0xc0, 0x0f, 0xbe, 0xaa, 0x89, 0x99, 0x3e, 0xc7, 0xb2, 0xf6, 0xbd,
  0x41, 0x42, 0xa7, 0x3d, 0xe2, 0x7f, 0x47, 0xbf, 0xfb, 0x02, 0x71, 0x3e,
  0xe8, 0xa0, 0x15, 0xbe, 0xd2, 0xa7, 0xd6, 0x3e, 0xb3, 0x42, 0x49, 0x3e,
  0x55, 0xe0, 0xa2, 0xbc, 0x15, 0x5c, 0xa0, 0xbe, 0xd7, 0xc7, 0x09, 0xbe,
  0x12, 0x99, 0xc2, 0xbd, 0xcb, 0x57, 0xdd, 0x3b, 0x89, 0xc5, 0xd3, 0x3b,
  0xc8, 0x35, 0x20, 0x3e, 0x09, 0xe0, 0x52, 0xbf, 0xd4, 0x63, 0x5d, 0xbe,
  0xd3, 0x06, 0x6c, 0xbf, 0xf4, 0xa6, 0xd7, 0x3e, 0x9f, 0x22, 0xf5, 0xbe,
  0xb5, 0x3b, 0xd2, 0x3d, 0x5d, 0x3c, 0x4b, 0xbf, 0xa0, 0xc4, 0x84, 0xbe,
  0x31, 0x07, 0x32, 0xbf, 0x9a, 0xc8, 0x5c, 0x3e, 0x22, 0x9d, 0x32, 0xbf,
  0x2e, 0x65, 0xf7, 0x3e, 0x68, 0x5d, 0xb3, 0xbe, 0x17, 0xea, 0xf2, 0x3e,
  0x71, 0x24, 0xdc, 0xbe, 0xff, 0x7d, 0x2e, 0x3f, 0xa8, 0xbc, 0xf8, 0xbe,
  0x74, 0xd8, 0x7f, 0x3e, 0xad, 0x7a, 0xb0, 0xbe, 0xb8, 0x82, 0x95, 0x3e,
  0x21, 0x85, 0xfb, 0xbd, 0x3e, 0x09, 0x9f, 0xbe, 0x1c, 0x5b, 0x51, 0xbf,
  0xa4, 0xbd, 0x62, 0xbf, 0x44, 0x23, 0xde, 0xbe, 0xae, 0xa4, 0x78, 0x3c,
  0xc8, 0xb7, 0x61, 0xbd, 0xc7, 0x4b, 0x1e, 0xbb, 0xf2, 0xc9, 0x2d, 0xbe,
  0x6a, 0xa7, 0x76, 0x3e, 0x7a, 0x7b, 0x33, 0x3e, 0xfe, 0x41, 0x0c, 0x3f,
  0xa8, 0x40, 0xf4, 0xbe, 0x9b, 0xb7, 0x9d, 0x3d, 0x9b, 0xcf, 0xf9, 0xbe,
  0xdb, 0x85, 0xe7, 0x3d, 0x48, 0xff, 0x43, 0xbe, 0xf6, 0x9e, 0xfa, 0xbc,
  0x00, 0x10, 0x04, 0xbf, 0xf3, 0x99, 0x12, 0xbe, 0x4d, 0xa3, 0x14, 0xbf,
  0x90, 0x24, 0x8d, 0x3e, 0x1e, 0x33, 0x64, 0xbe, 0x27, 0x2b, 0x50, 0x3f,
  0x42, 0xb8, 0xe0, 0x3d, 0x9b, 0x0a, 0x8b, 0x3f, 0xb8, 0xb0, 0xfe, 0x3e,
  0x0c, 0xfd, 0x5c, 0x3f, 0xaf, 0xe5, 0xff, 0x3e, 0x61, 0x64, 0xf5, 0x3e,
  0x62, 0x1d, 0x04, 0x3f, 0x58, 0x59, 0xfc, 0x3d, 0x90, 0xac, 0x13, 0xbd,
  0x7c, 0x09, 0x86, 0xbe, 0x4e, 0x5a, 0xe5, 0xbd, 0x28, 0x0b, 0x52, 0xbd,
  0x30, 0x1c, 0x1d, 0xbd, 0xf7, 0x64, 0xd6, 0x3c, 0x43, 0x17, 0x12, 0xbb,
  0xa7, 0xb4, 0x65, 0x3e, 0xcb, 0xa3, 0x03, 0x3c, 0xf7, 0xb9, 0x38, 0x3f,
  0xe2, 0xf4, 0xef, 0x3e, 0x48, 0x51, 0x1a, 0x3f, 0x9f, 0x63, 0xc5, 0x3e,
  0x1c, 0x2d, 0x39, 0x3e, 0x57, 0x91, 0xb0, 0x3e, 0x3b, 0x78, 0x70, 0x3e,
  0xf0, 0x84, 0x20, 0x3f, 0x83, 0xcf, 0x86, 0xbf, 0xa9, 0x26, 0x98, 0x3e,
  0x4a, 0xcf, 0x92, 0xbf, 0x0b, 0x9f, 0x29, 0x3e, 0xc2, 0x66, 0xcd, 0x3e,
  0x9e, 0x5a, 0x9e, 0x3e, 0x2b, 0x38, 0x8c, 0x3e, 0x6e, 0xf7, 0xa7, 0x3e,
  0x32, 0x66, 0x25, 0xbd, 0x04, 0xd2, 0xc6, 0x3d, 0x85, 0x01, 0xac, 0x3e,
  0xa2, 0x4a, 0x1b, 0x3d, 0x6d, 0x15, 0x23, 0xbe, 0x3f, 0xe1, 0xad, 0xbd,
  0x6f, 0x04, 0x44, 0xbd, 0xc5, 0x23, 0x27, 0xbe, 0x73, 0xf6, 0x63, 0xbd,
  0xde, 0x10, 0x0c, 0xbb, 0xac, 0x4a, 0x3b, 0xbd, 0xbd, 0xf0, 0x93, 0xbc,
  0x33, 0xa2, 0x03, 0x3c, 0xaf, 0x4a, 0x74, 0xbd, 0x48, 0xd4, 0x13, 0x3e,
  0x12, 0xcb, 0xda, 0x3d, 0xbd, 0x45, 0x8a, 0xbd, 0xc0, 0x9a, 0xbf, 0x3d,
  0x7b, 0x9b, 0x81, 0xbe, 0x44, 0x1e, 0x8d, 0x3f, 0xe9, 0xf3, 0x38, 0xbe,
  0xc4, 0x77, 0x9f, 0x3f, 0x38, 0x4a, 0x8d, 0xbf, 0x00, 0x81, 0x2a, 0x3f,
  0xe1, 0x79, 0x57, 0xbf, 0x52, 0xb9, 0x70, 0x3c, 0xa9, 0x25, 0x7a, 0xbd,
  0x99, 0xca, 0xc7, 0x3e, 0x9f, 0x4e, 0x23, 0x3f, 0x6c, 0xe0, 0x6a, 0x3d,
  0xd2, 0xa9, 0x43, 0x3f, 0x6e, 0xa4, 0x9f, 0x3d, 0xb2, 0x1b, 0x2d, 0x3f,
  0x96, 0x09, 0xdc, 0xbd, 0x66, 0xe6, 0x84, 0x3e, 0xc6, 0x9e, 0x5b, 0x3d,
  0xc4, 0xa4, 0x11, 0xbe, 0xf0, 0x89, 0x30, 0x3d, 0xe4, 0xae, 0x82, 0xbd,
  0xb6, 0x6f, 0xaa, 0xbc, 0xcd, 0x37, 0x00, 0xbd, 0x9e, 0x47, 0xea, 0xbd,
  0x2f, 0xef, 0x93, 0x3d, 0x42, 0xd6, 0x6a, 0xbc, 0x49, 0x25, 0x89, 0x3d,
  0xe6, 0xa1, 0x92, 0xbd, 0x6c, 0xab, 0xcd, 0xbe, 0x31, 0x9d, 0x1f, 0xbe,
  0x85, 0x6d, 0x67, 0x3d, 0x8a, 0x3e, 0x31, 0x3f, 0xcd, 0xba, 0xb0, 0xbe,
  0x11, 0xc7, 0x81, 0x3f, 0x76, 0xc3, 0x1c, 0xbf, 0x56, 0x2a, 0xc9, 0x3e,
  0x93, 0xe1, 0x90, 0xbd, 0x87, 0x9e, 0x07, 0xbd, 0x66, 0xd6, 0x13, 0xbe,
  0x0b, 0x9e, 0xd4, 0xbc, 0x2c, 0xb0, 0x49, 0x3e, 0xa9, 0xad, 0x54, 0x3e,
  0x60, 0x81, 0x83, 0x3e, 0x08, 0x8d, 0xdc, 0x3d, 0xef, 0xa2, 0xe9, 0x3d,
  0x67, 0xc6, 0x2e, 0x3e, 0xc7, 0x29, 0x98, 0xbd, 0x32, 0xbe, 0x40, 0x3e,
  0xd5, 0x05, 0x33, 0xbe, 0x29, 0xc6, 0xd6, 0xbd, 0x0d, 0x6a, 0x66, 0x3c,
  0xb5, 0xf2, 0x45, 0xbd, 0x2f, 0xf6, 0xd7, 0xbd, 0x3e, 0xc3, 0x1e, 0xbd,
  0x4e, 0x15, 0x50, 0xbc, 0xf9, 0x1b, 0x89, 0x3a, 0x39, 0xa4, 0xf4, 0xbd,
  0x93, 0x95, 0x63, 0xbd, 0x74, 0xdc, 0x09, 0xbf, 0xf1, 0xa8, 0x85, 0xbd,
  0x49, 0x06, 0x22, 0xbf, 0x9c, 0x58, 0x16, 0x3e, 0xfc, 0xfa, 0x4a, 0xbf,
  0x13, 0x83, 0xfb, 0x3e, 0x40, 0x26, 0x16, 0xbf, 0x34, 0x08, 0x6c, 0x3e,
  0xf3, 0xfc, 0xfc, 0x3d, 0x08, 0xa0, 0x29, 0x3d, 0x78, 0x13, 0x09, 0xbf,
  0x0b, 0x6f, 0xcf, 0x3d, 0x0f, 0x66, 0x20, 0xbf, 0x7d, 0x12, 0x22, 0x3d,
  0x1d, 0x4d, 0xd2, 0xbe, 0xd9, 0xdc, 0x78, 0xbe, 0x40, 0x19, 0x2a, 0xbf,
  0x43, 0xef, 0x2c, 0x3e, 0xf3, 0x2f, 0xda, 0xbe, 0xc2, 0xcb, 0x9b, 0x3d,
  0x1d, 0x63, 0x12, 0xbe, 0x95, 0x53, 0xde, 0xbc, 0x01, 0x6a, 0x45, 0xbd,
  0x7e, 0xb2, 0x43, 0xbb, 0x1d, 0xf9, 0xfb, 0xbc, 0xd8, 0x32, 0x93, 0xbd,
  0x1e, 0x1b, 0x02, 0x3c, 0x1a, 0xa1, 0x45, 0xbb, 0x12, 0xe0, 0x33, 0xbe,
  0xbc, 0x8a, 0x9c, 0x3c, 0xa4, 0xf0, 0xc3, 0xbe, 0x8d, 0x91, 0x34, 0x3e,
  0xf3, 0x54, 0xc5, 0xbe, 0xa4, 0x3f, 0x7d, 0x3e, 0x44, 0x82, 0x11, 0xbf,
  0x12, 0x4c, 0x0c, 0x3f, 0x5e, 0x28, 0xfb, 0xbd, 0x54, 0xf0, 0xce, 0x3e,
  0xaf, 0xec, 0xff, 0xbd, 0x73, 0xff, 0xb5, 0x3e, 0xa5, 0x01, 0x81, 0xbe,
  0x11, 0x20, 0x1b, 0xbe, 0xaa, 0x45, 0xff, 0xbe, 0xb5, 0x4b, 0xce, 0xbe,
  0x84, 0xfd, 0x50, 0xbf, 0xa3, 0xc9, 0x96, 0xbe, 0x61, 0x9f, 0x3c, 0xbf,
  0x7b, 0x4e, 0xf1, 0xbd, 0xab, 0x3c, 0xd9, 0xbe, 0x8f, 0x3e, 0x3e, 0xbe,
  0x21, 0x7c, 0x04, 0xbe, 0xdb, 0x42, 0x3e, 0xbd, 0x3f, 0xbf, 0xa5, 0xbb,
  0x0e, 0xfd, 0x88, 0xbc, 0x1b, 0x43, 0x9b, 0x3c, 0xee, 0x6e, 0x08, 0xbe,
  0x0b, 0xee, 0xad, 0xbb, 0xdd, 0x8b, 0x4d, 0xbb, 0x3c, 0x12, 0xdc, 0x3c,
  0xb7, 0xa9, 0x72, 0x3e, 0x32, 0x6e, 0x73, 0x3e, 0xee, 0x78, 0x49, 0x3e,
  0xf8, 0x1b, 0x5d, 0x3b, 0x13, 0x59, 0x43, 0x3e, 0x38, 0x53, 0x78, 0xbe,
  0x04, 0x2f, 0x0a, 0x3f, 0xef, 0x20, 0x1b, 0xbf, 0x44, 0xf7, 0xaa, 0x3e,
  0xcc, 0xee, 0xe1, 0xbe, 0xea, 0x04, 0x2d, 0x3e, 0x24, 0x89, 0x66, 0x3d,
  0xa7, 0x5d, 0x48, 0xbe, 0xb0, 0xb7, 0x8a, 0xbe, 0x5d, 0xb2, 0x72, 0xbe,
  0xba, 0x9c, 0x2e, 0xbf, 0x56, 0x69, 0xd6, 0xbe, 0x31, 0x6b, 0x06, 0xbf,
  0x1d, 0x4f, 0x72, 0xbe, 0x75, 0xe2, 0x9b, 0xbe, 0x0f, 0x43, 0x7e, 0xbe,
  0x14, 0x36, 0xe6, 0xbd, 0x49, 0x33, 0x29, 0x3d, 0x84, 0xb7, 0xa1, 0xbd,
  0x42, 0x5b, 0xb6, 0xbc, 0x2b, 0x28, 0x47, 0x3d, 0x8e, 0x87, 0x91, 0xbd,
  0xc5, 0xc0, 0xa2, 0xbd, 0xd4, 0xff, 0xb4, 0xbc, 0x5f, 0xa1, 0xe9, 0x3d,
  0x1c, 0x95, 0x4b, 0x3b, 0xbe, 0x97, 0x5a, 0x3e, 0xd7, 0x5b, 0x8a, 0x3c,
  0x95, 0xa1, 0x09, 0x3f, 0x1e, 0x2e, 0xf7, 0x3e, 0x90, 0x19, 0xb0, 0x3e,
  0x98, 0x23, 0xed, 0x3e, 0x49, 0xd0, 0x09, 0x3f, 0x4e, 0x4f, 0x9a, 0x3e,
  0x60, 0x1e, 0xe1, 0x3e, 0xaf, 0x06, 0xe8, 0x3e, 0x0a, 0x8e, 0x1c, 0x3f,
  0x74, 0x10, 0xaa, 0x3e, 0x1c, 0xf6, 0xc5, 0x3e, 0xcb, 0xfd, 0x43, 0xbd,
  0xb4, 0xb9, 0x3f, 0x3e, 0xce, 0x3b, 0x2d, 0xbe, 0xac, 0x64, 0x01, 0xbd,
  0xd7, 0x73, 0xff, 0xbd, 0x0b, 0xd5, 0xbb, 0xbd, 0x62, 0x19, 0x74, 0xbd,
  0x46, 0x9f, 0x2b, 0xbd, 0x11, 0x3e, 0x84, 0xbd, 0x0d, 0x57, 0x09, 0xbb,
  0x78, 0xe8, 0x1d, 0x3d, 0x67, 0xce, 0x44, 0x3c, 0xd6, 0x92, 0x38, 0x3e,
  0x0b, 0x89, 0x44, 0xbd, 0xa2, 0xa7, 0x25, 0x3d, 0x5b, 0x73, 0x43, 0x3d,
  0x1d, 0x9c, 0x32, 0x3c, 0x8d, 0x03, 0x0d, 0x3c, 0x39, 0xbb, 0x21, 0x3c,
  0xe8, 0x15, 0xe3, 0x3b, 0x6c, 0x67, 0x92, 0xbd, 0x9c, 0x60, 0x89, 0x3e,
  0x3e, 0x77, 0x6c, 0x3c, 0x5d, 0xa8, 0xbe, 0x3e, 0x71, 0x75, 0x97, 0x3e,
  0x18, 0xed, 0x08, 0x3f, 0xa6, 0x7f, 0xd9, 0x3d, 0x27, 0x31, 0xa7, 0x3e,
  0x2e, 0xaf, 0x67, 0x3d, 0x73, 0x80, 0x04, 0x3f, 0x87, 0x8b, 0x25, 0x3e,
  0xe2, 0x2e, 0x76, 0x3e, 0x0a, 0xf4, 0x6d, 0x3e, 0x36, 0x33, 0x8b, 0x3d,
  0x4a, 0x40, 0x95, 0x3d, 0x91, 0x43, 0xcf, 0x3d, 0xb8, 0x01, 0xf0, 0xbc,
  0xe9, 0x3d, 0x64, 0x3c, 0x9a, 0x31, 0x37, 0x3c, 0xca, 0x68, 0xab, 0xbd,
  0xd3, 0x98, 0x8d, 0xbc, 0x49, 0xa2, 0xa3, 0x3d, 0x7f, 0x16, 0x96, 0xbd,
  0xb1, 0x47, 0x86, 0xbd, 0x1b, 0xda, 0xfd, 0x3d, 0x4b, 0xf8, 0x09, 0x3e,
  0xb4, 0xa5, 0xb9, 0x3d, 0x75, 0x43, 0x26, 0xbc, 0x4c, 0xe6, 0x9a, 0x3d,
  0x49, 0x95, 0x56, 0x3d, 0xe3, 0x8f, 0x3a, 0xbd, 0xee, 0x1d, 0x5c, 0xbc,
  0x4d, 0xb4, 0x0c, 0x3d, 0x22, 0x42, 0x2f, 0xbc, 0x99, 0x78, 0x00, 0x3d,
  0x53, 0x09, 0x11, 0xbd, 0x56, 0xb3, 0xa4, 0x3d, 0x0e, 0x31, 0xc1, 0x3b,
  0xa1, 0x40, 0x3d, 0x3d, 0x13, 0x39, 0x2b, 0x3d, 0xc4, 0xe1, 0x86, 0xbc,
  0x8a, 0x35, 0x97, 0x3d, 0xd1, 0xce, 0xf5, 0x3c, 0x18, 0x4b, 0xb7, 0x3b,
  0x40, 0x19, 0xc1, 0xbd, 0x19, 0x82, 0x44, 0x3d, 0xd7, 0xdd, 0x8b, 0xbd,
  0x23, 0x1a, 0x07, 0x3d, 0x03, 0xe0, 0xda, 0x3d, 0x36, 0x0a, 0xb2, 0x3b,
  0xb2, 0x2e, 0xeb, 0xbd, 0x85, 0x5b, 0x3b, 0xbd, 0x09, 0x15, 0x64, 0xbd,
  0xe6, 0xb8, 0x6a, 0x3d, 0x58, 0x5c, 0x8b, 0x3d, 0xc8, 0x68, 0x31, 0xbd,
  0xb7, 0x18, 0x4b, 0xbd, 0x36, 0x90, 0xe7, 0xbd, 0xb8, 0xc8, 0xa6, 0xbd,
  0xfb, 0x25, 0xdd, 0x3c, 0xc9, 0x93, 0x03, 0xbe, 0xb8, 0x7f, 0xc2, 0xbd,
  0x07, 0xd4, 0xbc, 0xbd, 0x19, 0x89, 0x05, 0xbe, 0xc5, 0xd6, 0x4b, 0x3c,
  0xa0, 0xf1, 0xd2, 0xbc, 0x45, 0x12, 0x0a, 0x3d, 0x6f, 0xad, 0xba, 0xbd,
  0x5b, 0xa1, 0x2e, 0xbd, 0x2f, 0x11, 0x94, 0xbe, 0xe5, 0x39, 0x12, 0xbe,
  0xf6, 0x74, 0x4a, 0xbe, 0x30, 0xd6, 0xe1, 0x3d, 0x96, 0xbd, 0x3a, 0x3e,
  0x47, 0x0a, 0xb0, 0x3e, 0xd9, 0xe5, 0x41, 0x3e, 0x12, 0xa6, 0x53, 0x3d,
  0x10, 0xc0, 0xe3, 0x3d, 0x0d, 0xcd, 0xed, 0xbd, 0xc4, 0xf6, 0x98, 0xbc,
  0xa9, 0xe0, 0x67, 0xbd, 0x2d, 0x5b, 0x43, 0xbd, 0x8c, 0xcd, 0x87, 0x3c,
  0x4f, 0xf0, 0x9e, 0xbd, 0xdf, 0x2e, 0x9c, 0xbd, 0xdd, 0x83, 0xb6, 0x3d,
  0xe2, 0x41, 0x0b, 0xbd, 0xb3, 0x95, 0xbe, 0xbd, 0x0b, 0x55, 0x1b, 0xbe,
  0x46, 0x97, 0x8b, 0x3d, 0xb4, 0x42, 0x66, 0xbc, 0x9d, 0xba, 0x63, 0x3d,
  0xd9, 0x25, 0x59, 0xbd, 0xe9, 0xfa, 0xc7, 0x3e, 0xf8, 0xf6, 0x4a, 0x3e,
  0xf2, 0xbe, 0xd2, 0x3d, 0x41, 0xdf, 0x2c, 0x3e, 0xac, 0xbe, 0x3c, 0xbd,
  0x96, 0x60, 0xb4, 0x3d, 0xbe, 0x51, 0x1a, 0x3d, 0x0f, 0x69, 0xad, 0x3d,
  0x7f, 0xde, 0x35, 0x3e, 0x8c, 0x7d, 0xba, 0x3c, 0x37, 0xba, 0xff, 0xbd,
  0x7b, 0x9e, 0xd0, 0xbe, 0xe0, 0x1f, 0xa8, 0xbe, 0xc8, 0x68, 0x5e, 0x3e,
  0xae, 0x36, 0xd2, 0x3d, 0xff, 0x87, 0xd1, 0x3e, 0xf5, 0xc5, 0x4b, 0x3d,
  0x72, 0x69, 0x58, 0xbc, 0x25, 0x83, 0x8c, 0x3d, 0x4a, 0x9d, 0x90, 0x3d,
  0x3f, 0x1e, 0x54, 0xbc, 0xa1, 0x09, 0x66, 0x3e, 0x15, 0x2c, 0xea, 0x3e,
  0x1c, 0xf7, 0xa2, 0x3e, 0x7c, 0x32, 0xd6, 0x3d, 0x80, 0x17, 0xb6, 0x3e,
  0xef, 0x41, 0x89, 0xbe, 0xd3, 0x50, 0xa0, 0x3c, 0x0f, 0x99, 0x52, 0xbd,
  0xff, 0x24, 0xb5, 0x3e, 0x05, 0xdc, 0x97, 0x3e, 0xbf, 0x54, 0x05, 0x3f,
  0x46, 0xad, 0x7d, 0x3e, 0x4c, 0x76, 0x70, 0x3e, 0x05, 0x70, 0x83, 0x3e,
  0x5c, 0x98, 0x8d, 0x3e, 0x26, 0x88, 0x2f, 0x3d, 0xcc, 0x34, 0x24, 0xbc,
  0x0e, 0x14, 0x72, 0xbe, 0x9e, 0x1b, 0xb9, 0x3d, 0xd1, 0x71, 0xb5, 0x3e,
  0x58, 0x7b, 0x29, 0x3e, 0x9d, 0x85, 0x1c, 0xbe, 0x10, 0xad, 0x88, 0x3d,
  0xbf, 0x52, 0x3c, 0x3d, 0x12, 0xb6, 0x71, 0x3e, 0x08, 0x91, 0x9a, 0x3b,
  0x09, 0x3e, 0x29, 0x3d, 0x7e, 0xf0, 0xae, 0x3d, 0xcd, 0x7c, 0x60, 0xbd,
  0x4e, 0x36, 0x85, 0xbe, 0x24, 0x30, 0x3d, 0xbf, 0x5c, 0x58, 0xf1, 0xbe,
  0x7f, 0xef, 0xb0, 0xbe, 0x86, 0xfd, 0x96, 0xbc, 0xd4, 0xb7, 0x0b, 0x3f,
  0xad, 0x72, 0x25, 0x3e, 0xb7, 0x0f, 0x5e, 0xbd, 0x86, 0x02, 0x44, 0xbe,
  0xd1, 0xe9, 0x20, 0xbe, 0xc6, 0xf1, 0x01, 0xbe, 0xf8, 0xf3, 0x8b, 0x3e,
  0xbf, 0x29, 0x82, 0xbd, 0x8a, 0xe6, 0xbb, 0x3e, 0xf5, 0x7f, 0xe3, 0x3d,
  0xd9, 0x4d, 0x22, 0x3e, 0x99, 0x08, 0x71, 0xbd, 0x8a, 0xda, 0x1a, 0x3e,
  0x7f, 0x74, 0x98, 0x3e, 0xf5, 0x5d, 0xe4, 0x3e, 0xfa, 0x9b, 0x9f, 0x3d,
  0x47, 0xb6, 0xee, 0xbd, 0xa2, 0xfb, 0xb7, 0xbd, 0xd7, 0xab, 0x05, 0xbf,
  0xd8, 0x45, 0x2e, 0xbe, 0xb1, 0x59, 0x63, 0xbe, 0xad, 0xc8, 0x85, 0xbe,
  0x6d, 0x57, 0x7c, 0xbd, 0x60, 0x1a, 0x8f, 0xbd, 0xd7, 0x30, 0xe8, 0x3d,
  0x7d, 0xf8, 0x17, 0xbf, 0xa4, 0xec, 0x9a, 0xbd, 0x12, 0xe8, 0x09, 0x3e,
  0x11, 0x2c, 0x9e, 0x3e, 0xe3, 0xe5, 0xe1, 0x3b, 0xe8, 0xd3, 0x54, 0xbe,
  0xb2, 0xa1, 0x31, 0xbd, 0x30, 0xbd, 0x76, 0xbe, 0x7c, 0x62, 0xdd, 0x3e,
  0x1b, 0x38, 0x4f, 0xbd, 0x4f, 0x19, 0x7d, 0x3e, 0xa4, 0x15, 0x28, 0xbe,
  0x74, 0x99, 0x38, 0xbe, 0x95, 0xf3, 0x3b, 0xbe, 0x1a, 0x49, 0xfa, 0xbe,
  0xad, 0xd4, 0x68, 0x3e, 0x5d, 0x9d, 0x15, 0x3e, 0xa0, 0x3f, 0xe7, 0x3e,
  0x62, 0x46, 0xd4, 0x3d, 0x67, 0xbd, 0x4e, 0xbd, 0x7c, 0x68, 0x1c, 0x3e,
  0x6b, 0x62, 0xab, 0xbd, 0x8a, 0xd8, 0x2a, 0x3e, 0x64, 0x51, 0x6d, 0xbd,
  0xa1, 0x37, 0x14, 0x3f, 0x7b, 0xd0, 0xc7, 0x3e, 0x5a, 0x37, 0xdd, 0xbc,
  0x41, 0x9c, 0x6e, 0xba, 0xf2, 0x90, 0x2c, 0xbd, 0x19, 0xdc, 0x98, 0xbc,
  0xc2, 0xb0, 0xac, 0xbe, 0x36, 0xfb, 0xe3, 0xbe, 0xe7, 0x1e, 0x11, 0xbe,
  0xca, 0xa7, 0x0f, 0xbd, 0xc9, 0xa3, 0x91, 0x3e, 0xe2, 0x20, 0x71, 0x3e,
  0x8f, 0xfb, 0x0d, 0x3f, 0x25, 0xb8, 0x3e, 0xbe, 0xdb, 0x3f, 0x6b, 0x3e,
  0x86, 0xa3, 0xec, 0xbe, 0xfa, 0xef, 0x2c, 0xbe, 0x91, 0x72, 0x02, 0xbf,
  0x7e, 0x64, 0xa8, 0x3e, 0xcd, 0x8e, 0x2a, 0xbf, 0xfb, 0xec, 0x16, 0x3e,
  0xc2, 0xbe, 0x60, 0x3d, 0x86, 0xae, 0x7e, 0xbe, 0x63, 0xae, 0xf1, 0x3e,
  0xcd, 0x8c, 0x37, 0xbd, 0x3d, 0x6b, 0xc4, 0x3e, 0x06, 0x93, 0xe9, 0x3d,
  0xd8, 0xdf, 0xcb, 0x3e, 0xe6, 0x5a, 0xe5, 0x3e, 0x13, 0xff, 0x35, 0x3f,
  0x1a, 0xfe, 0x50, 0x3e, 0x36, 0xf0, 0x24, 0x3e, 0x33, 0xdc, 0x01, 0xbe,
  0x5b, 0xd2, 0x2c, 0x3b, 0x97, 0x99, 0xb3, 0xbd, 0xe2, 0x6a, 0x4c, 0xbc,
  0x10, 0xdb, 0xb1, 0x3c, 0x63, 0x34, 0x6e, 0x3d, 0x09, 0xee, 0xea, 0xbb,
  0x74, 0x87, 0xa8, 0xbe, 0x20, 0xf0, 0x0b, 0xbe, 0x5c, 0x03, 0x00, 0xbf,
  0x35, 0xe3, 0x98, 0xbe, 0x41, 0x34, 0x4a, 0xbf, 0x2e, 0xbe, 0x9b, 0xbe,
  0x70, 0x6a, 0x4a, 0xbf, 0x83, 0x89, 0x29, 0x3e, 0x4b, 0x83, 0x2b, 0xbf,
  0x70, 0x24, 0x44, 0x3e, 0x7e, 0x4c, 0x5c, 0xbf, 0xc0, 0xce, 0x8d, 0x3e,
  0x90, 0xe0, 0xc7, 0xbd, 0x88, 0x60, 0x08, 0x3e, 0x8a, 0xc5, 0x1e, 0x3f,
  0xcc, 0x50, 0xb5, 0x3e, 0x7a, 0x67, 0x47, 0x3f, 0x59, 0xc1, 0xc6, 0x3e,
  0xb6, 0xd8, 0x30, 0x3f, 0x55, 0x7b, 0xef, 0x3e, 0x7b, 0x99, 0x04, 0x3f,
  0xa6, 0x38, 0x20, 0xbd, 0x7f, 0xcc, 0x6d, 0x3e, 0x56, 0xc9, 0xa4, 0x3d,
  0xc5, 0xab, 0x97, 0xbc, 0x32, 0xc8, 0x81, 0xbd, 0xc3, 0xb1, 0xbc, 0xbc,
  0xc2, 0x3e, 0xef, 0xbc, 0xf5, 0x4c, 0xc6, 0xbc, 0x22, 0x0e, 0x4a, 0xbd,
  0xa6, 0xcb, 0x09, 0xbe, 0x7f, 0x54, 0x51, 0xbe, 0x84, 0x57, 0x74, 0x3e,
  0xb7, 0x8c, 0x8f, 0xbd, 0x15, 0x59, 0xae, 0x3e, 0x54, 0x7c, 0x8a, 0x3d,
  0x53, 0xe7, 0xb5, 0x3d, 0x04, 0x77, 0xac, 0x3e, 0x0d, 0xff, 0x65, 0x3e,
  0x7a, 0xa3, 0xe9, 0x3e, 0x7d, 0xf6, 0xa0, 0xbe, 0x69, 0x34, 0x8a, 0x3e,
  0x68, 0xb2, 0x14, 0xbe, 0x37, 0x7c, 0x4d, 0xbe, 0x7c, 0x45, 0xaa, 0xbc,
  0xf8, 0x77, 0xdf, 0xbe, 0xb8, 0xe8, 0x0b, 0xbe, 0x54, 0x9b, 0x32, 0xbf,
  0xba, 0x7e, 0xd0, 0xbd, 0x59, 0x49, 0xa4, 0xbe, 0xef, 0xf4, 0xa3, 0xbc,
  0x2f, 0x85, 0x34, 0xbd, 0xf6, 0x22, 0x74, 0xbd, 0x8b, 0x09, 0x6a, 0x3c,
  0xa4, 0x90, 0x3f, 0xbb, 0x86, 0x36, 0x47, 0x3d, 0xfb, 0xcd, 0xa3, 0x3c,
  0x87, 0xaf, 0x2e, 0xbd, 0x3b, 0x5a, 0xa2, 0x3a, 0x9a, 0x63, 0x75, 0xbe,
  0x4a, 0x5f, 0x98, 0xbe, 0x06, 0x87, 0xc5, 0xbd, 0x36, 0x7d, 0x29, 0x3e,
  0xaa, 0x86, 0xc4, 0x3d, 0xec, 0x9c, 0x03, 0x3f, 0x6e, 0x9a, 0xf8, 0x3d,
  0x2f, 0xea, 0x49, 0x3f, 0x13, 0x1f, 0x0d, 0x3f, 0xfe, 0x78, 0x1a, 0x3f,
  0x93, 0xaf, 0x33, 0x3e, 0x81, 0x8d, 0x12, 0xbe, 0x0c, 0x99, 0xae, 0xbe,
  0xca, 0x88, 0xc8, 0xbe, 0xa0, 0xd5, 0x3c, 0xbe, 0xdd, 0x99, 0x57, 0xbe,
  0x21, 0x89, 0xe6, 0xbe, 0x32, 0x41, 0x8e, 0xbe, 0xeb, 0xea, 0x7f, 0xbe,
  0x34, 0xb2, 0x06, 0xbf, 0xca, 0x50, 0x88, 0xbd, 0x09, 0x99, 0xb3, 0xbe,
  0xe0, 0x61, 0x77, 0xbe, 0x59, 0x65, 0xf0, 0xbd, 0x8b, 0x39, 0x01, 0xbb,
  0x64, 0xc0, 0x12, 0x3d, 0xcb, 0xd2, 0x27, 0xbd, 0xa5, 0x7c, 0x58, 0x3d,
  0x00, 0x33, 0x0f, 0xbd, 0xb8, 0xce, 0xdb, 0x3d, 0x81, 0x8e, 0xde, 0xbe,
  0x9d, 0xac, 0x22, 0xbe, 0xbd, 0x71, 0x81, 0x3c, 0x63, 0xed, 0xc9, 0xbd,
  0x3e, 0xf8, 0x14, 0x3e, 0x2f, 0x31, 0xd6, 0x3a, 0x1f, 0x46, 0xbb, 0x3e,
  0x2a, 0x8f, 0x80, 0x3e, 0x66, 0x2d, 0xf1, 0x3b, 0x00, 0x97, 0x9b, 0x3e,
  0x45, 0x43, 0x85, 0xbd, 0xc7, 0xad, 0x9c, 0xbd, 0x61, 0x9a, 0x87, 0xbe,
  0xcd, 0x41, 0x95, 0xbe, 0x4f, 0xa9, 0x67, 0x3d, 0x36, 0x1d, 0xa8, 0xbe,
  0x73, 0xf3, 0xcb, 0x3d, 0x18, 0xd9, 0x33, 0xbe, 0xc3, 0x70, 0x27, 0x3e,
  0x12, 0x51, 0xaf, 0xbe, 0x07, 0x1e, 0x97, 0x3e, 0xb2, 0xc4, 0x71, 0xbe,
  0xcc, 0xee, 0x3f, 0xbe, 0x8f, 0x3d, 0x08, 0x3e, 0x1a, 0x7d, 0x13, 0x3c,
