unsigned char first_model_activations_400_tflite[] = {
  0x1c, 0x00, 0x00, 0x00, 0x54, 0x46, 0x4c, 0x33, 0x14, 0x00, 0x20, 0x00,
  0x1c, 0x00, 0x18, 0x00, 0x14, 0x00, 0x10, 0x00, 0x0c, 0x00, 0x00, 0x00,
  0x08, 0x00, 0x04, 0x00, 0x14, 0x00, 0x00, 0x00, 0x1c, 0x00, 0x00, 0x00,
  0x90, 0x00, 0x00, 0x00, 0xe8, 0x00, 0x00, 0x00, 0xe4, 0x30, 0x00, 0x00,
  0xf4, 0x30, 0x00, 0x00, 0x44, 0x35, 0x00, 0x00, 0x03, 0x00, 0x00, 0x00,
  0x01, 0x00, 0x00, 0x00, 0x10, 0x00, 0x00, 0x00, 0x00, 0x00, 0x0a, 0x00,
  0x10, 0x00, 0x0c, 0x00, 0x08, 0x00, 0x04, 0x00, 0x0a, 0x00, 0x00, 0x00,
  0x0c, 0x00, 0x00, 0x00, 0x1c, 0x00, 0x00, 0x00, 0x38, 0x00, 0x00, 0x00,
  0x0f, 0x00, 0x00, 0x00, 0x73, 0x65, 0x72, 0x76, 0x69, 0x6e, 0x67, 0x5f,
  0x64, 0x65, 0x66, 0x61, 0x75, 0x6c, 0x74, 0x00, 0x01, 0x00, 0x00, 0x00,
  0x04, 0x00, 0x00, 0x00, 0x98, 0xff, 0xff, 0xff, 0x07, 0x00, 0x00, 0x00,
  0x04, 0x00, 0x00, 0x00, 0x07, 0x00, 0x00, 0x00, 0x64, 0x65, 0x6e, 0x73,
  0x65, 0x5f, 0x31, 0x00, 0x01, 0x00, 0x00, 0x00, 0x04, 0x00, 0x00, 0x00,
  0x02, 0xcf, 0xff, 0xff, 0x04, 0x00, 0x00, 0x00, 0x0b, 0x00, 0x00, 0x00,
  0x64, 0x65, 0x6e, 0x73, 0x65, 0x5f, 0x69, 0x6e, 0x70, 0x75, 0x74, 0x00,
  0x02, 0x00, 0x00, 0x00, 0x34, 0x00, 0x00, 0x00, 0x04, 0x00, 0x00, 0x00,
  0xdc, 0xff, 0xff, 0xff, 0x0a, 0x00, 0x00, 0x00, 0x04, 0x00, 0x00, 0x00,
  0x13, 0x00, 0x00, 0x00, 0x43, 0x4f, 0x4e, 0x56, 0x45, 0x52, 0x53, 0x49,
  0x4f, 0x4e, 0x5f, 0x4d, 0x45, 0x54, 0x41, 0x44, 0x41, 0x54, 0x41, 0x00,
  0x08, 0x00, 0x0c, 0x00, 0x08, 0x00, 0x04, 0x00, 0x08, 0x00, 0x00, 0x00,
  0x09, 0x00, 0x00, 0x00, 0x04, 0x00, 0x00, 0x00, 0x13, 0x00, 0x00, 0x00,
  0x6d, 0x69, 0x6e, 0x5f, 0x72, 0x75, 0x6e, 0x74, 0x69, 0x6d, 0x65, 0x5f,
  0x76, 0x65, 0x72, 0x73, 0x69, 0x6f, 0x6e, 0x00, 0x0b, 0x00, 0x00, 0x00,
  0xf8, 0x2f, 0x00, 0x00, 0xf0, 0x2f, 0x00, 0x00, 0xb8, 0x2f, 0x00, 0x00,
  0x08, 0x2f, 0x00, 0x00, 0xf8, 0x06, 0x00, 0x00, 0xa8, 0x00, 0x00, 0x00,
  0xa0, 0x00, 0x00, 0x00, 0x98, 0x00, 0x00, 0x00, 0x90, 0x00, 0x00, 0x00,
  0x70, 0x00, 0x00, 0x00, 0x04, 0x00, 0x00, 0x00, 0xa6, 0xcf, 0xff, 0xff,
  0x04, 0x00, 0x00, 0x00, 0x5c, 0x00, 0x00, 0x00, 0x0c, 0x00, 0x00, 0x00,
  0x08, 0x00, 0x0e, 0x00, 0x08, 0x00, 0x04, 0x00, 0x08, 0x00, 0x00, 0x00,
  0x14, 0x00, 0x00, 0x00, 0x2c, 0x00, 0x00, 0x00, 0x00, 0x00, 0x0a, 0x00,
  0x0c, 0x00, 0x08, 0x00, 0x00, 0x00, 0x07, 0x00, 0x0a, 0x00, 0x00, 0x00,
  0x00, 0x00, 0x00, 0x01, 0x04, 0x00, 0x00, 0x00, 0x00, 0x00, 0x00, 0x00,
  0x00, 0x00, 0x0a, 0x00, 0x10, 0x00, 0x0c, 0x00, 0x08, 0x00, 0x04, 0x00,
  0x0a, 0x00, 0x00, 0x00, 0x01, 0x00, 0x00, 0x00, 0x02, 0x00, 0x00, 0x00,
  0x04, 0x00, 0x00, 0x00, 0x06, 0x00, 0x00, 0x00, 0x32, 0x2e, 0x31, 0x31,
  0x2e, 0x30, 0x00, 0x00, 0x0e, 0xd0, 0xff, 0xff, 0x04, 0x00, 0x00, 0x00,
  0x10, 0x00, 0x00, 0x00, 0x31, 0x2e, 0x35, 0x2e, 0x30, 0x00, 0x00, 0x00,
  0x00, 0x00, 0x00, 0x00, 0x00, 0x00, 0x00, 0x00, 0x84, 0xcc, 0xff, 0xff,
  0x88, 0xcc, 0xff, 0xff, 0x8c, 0xcc, 0xff, 0xff, 0x36, 0xd0, 0xff, 0xff,
  0x04, 0x00, 0x00, 0x00, 0x40, 0x06, 0x00, 0x00, 0xd2, 0xf1, 0xb4, 0x3f,
  0x8b, 0xc7, 0x01, 0xbf, 0x21, 0x3e, 0xae, 0x3f, 0x81, 0x7f, 0x83, 0xbf,
  0x16, 0xd6, 0x08, 0x3e, 0xfa, 0xa8, 0x99, 0x3e, 0x88, 0xe5, 0x0c, 0xbf,
  0x2b, 0x56, 0x2a, 0xbe, 0xcc, 0xf8, 0xa9, 0xbe, 0x58, 0xe7, 0xdc, 0x3e,
  0x74, 0x19, 0xf6, 0x3e, 0xb8, 0x14, 0xa9, 0x3e, 0x8f, 0x3f, 0x59, 0xbe,
  0x18, 0x7e, 0x91, 0xbe, 0x92, 0xb6, 0xbe, 0x3e, 0x3e, 0x47, 0xa6, 0xbc,
  0xee, 0x97, 0xd5, 0xbd, 0x2a, 0x81, 0x84, 0xbe, 0xb8, 0xfd, 0x54, 0xbe,
  0x80, 0x45, 0xe7, 0x3e, 0xc1, 0xe8, 0x9f, 0xbe, 0x70, 0xc0, 0x9f, 0x3e,
  0xb6, 0x46, 0xfa, 0xbb, 0x38, 0x05, 0xaa, 0xbe, 0xcc, 0x57, 0x0b, 0xbe,
  0x44, 0x80, 0x2a, 0xbd, 0x5e, 0x3f, 0x08, 0x3e, 0xee, 0x85, 0x51, 0xbd,
  0x76, 0xb3, 0x95, 0x3d, 0x85, 0xd5, 0x1e, 0x3d, 0x00, 0x09, 0xfd, 0xbd,
  0x30, 0xb1, 0x33, 0x3e, 0x9b, 0x83, 0xa1, 0x3d, 0xe9, 0x49, 0xc0, 0x3d,
  0xe9, 0x9b, 0xf2, 0xbd, 0x51, 0x34, 0x5f, 0xbe, 0xc1, 0x39, 0x95, 0xbe,
  0x96, 0x22, 0x0d, 0xbe, 0x3d, 0x18, 0x84, 0x3e, 0x1a, 0x42, 0x4b, 0x3d,
  0xfe, 0xb0, 0x0b, 0xbe, 0x16, 0x90, 0xcb, 0x3e, 0x81, 0x6d, 0xe0, 0xbe,
  0x1f, 0x45, 0x80, 0xbe, 0x8a, 0x4c, 0x00, 0xbf, 0x37, 0x1e, 0xfa, 0xbe,
  0xd9, 0xb1, 0xf8, 0xbe, 0x05, 0xec, 0xbe, 0x3f, 0x1e, 0xae, 0x59, 0xbf,
  0x64, 0xa2, 0xee, 0x3d, 0xa9, 0xf8, 0x66, 0x3e, 0x34, 0x54, 0x84, 0xbe,
  0x3b, 0x43, 0x04, 0x3f, 0x11, 0x49, 0xf3, 0x3e, 0xf2, 0xd9, 0xfc, 0xbe,
  0xe4, 0x39, 0xef, 0xbe, 0xd0, 0x1f, 0xf6, 0xbe, 0xf7, 0x60, 0x3e, 0xbe,
  0x1f, 0xfa, 0x2b, 0xbe, 0x17, 0xbf, 0xbf, 0xbe, 0x23, 0xbd, 0x9a, 0xbd,
  0x99, 0xc8, 0x8f, 0x3e, 0xa1, 0xad, 0x57, 0x3e, 0xe6, 0xce, 0x8f, 0x3e,
  0x8e, 0xfb, 0x92, 0x3e, 0xf5, 0x32, 0xab, 0xbe, 0x9d, 0xb3, 0x9d, 0x3e,
  0x2d, 0x32, 0xfa, 0x3b, 0x34, 0xc9, 0x48, 0x3e, 0x5d, 0x1e, 0xad, 0xbe,
  0x25, 0x99, 0x4e, 0xbe, 0x69, 0xde, 0x8f, 0xbe, 0xa2, 0x31, 0x65, 0xbe,
  0x9b, 0xff, 0xbb, 0xbd, 0xb2, 0xae, 0x09, 0xbe, 0x77, 0xa7, 0x6f, 0x3e,
  0x79, 0xef, 0xbd, 0xbd, 0xf9, 0xe0, 0xb3, 0x3e, 0x6f, 0xc2, 0x23, 0x3e,
  0x16, 0x64, 0x94, 0xbe, 0x6b, 0x06, 0x84, 0x3f, 0xf5, 0xd6, 0x59, 0x3f,
  0x8d, 0x22, 0x18, 0xbf, 0x96, 0xb9, 0x43, 0x3f, 0x7a, 0xdd, 0x61, 0xbf,
  0xb5, 0x8c, 0xdc, 0xbd, 0x53, 0xc8, 0x47, 0xbb, 0xf2, 0x22, 0x9f, 0xbe,
  0x9d, 0x82, 0xc5, 0x3d, 0xc6, 0xec, 0xa6, 0x3f, 0xb8, 0xb9, 0x48, 0x3d,
  0x40, 0x17, 0xba, 0xbd, 0xaa, 0x9f, 0x22, 0xbf, 0x6a, 0xfc, 0xfc, 0x3e,
  0x2e, 0xbf, 0xef, 0xbe, 0xe7, 0xb4, 0xab, 0xbd, 0xad, 0xb6, 0x96, 0x3e,
  0x82, 0x0e, 0x63, 0xbe, 0x75, 0x80, 0x18, 0xbe, 0xa0, 0x46, 0x27, 0x3f,
  0x99, 0x0d, 0x33, 0xbe, 0xde, 0x01, 0xa2, 0xbe, 0xb6, 0xf5, 0x08, 0x3f,
  0x7a, 0xc6, 0x22, 0xbe, 0x67, 0x81, 0x82, 0x3d, 0xeb, 0xaf, 0xb2, 0xbd,
  0xa5, 0xde, 0xb0, 0xbe, 0x98, 0xbe, 0x19, 0x3d, 0x0e, 0x83, 0x5c, 0xbe,
  0x32, 0xb8, 0x5e, 0x3e, 0x85, 0xd8, 0xce, 0x3e, 0xf1, 0x89, 0x85, 0xbe,
  0xae, 0xd4, 0x2b, 0xbe, 0x5e, 0x8d, 0x50, 0xbe, 0xa9, 0xd0, 0x7a, 0xbd,
  0xa5, 0x8a, 0xcb, 0x3e, 0x2a, 0xc2, 0x9a, 0x3d, 0xff, 0x03, 0x1e, 0x3e,
  0x38, 0xf7, 0x87, 0x3e, 0xbb, 0x58, 0xba, 0xbb, 0xcd, 0xb1, 0xef, 0xbf,
  0x86, 0x10, 0xcf, 0x3f, 0x8a, 0x38, 0x16, 0xbe, 0x4c, 0xc0, 0x91, 0x3f,
  0x79, 0x93, 0x0b, 0xbf, 0xce, 0xb5, 0xd2, 0xbd, 0xdb, 0x7d, 0x9c, 0xbd,
  0xae, 0x1d, 0x35, 0xbf, 0x0f, 0x34, 0x4e, 0x3f, 0x5a, 0x74, 0x9d, 0xbe,
  0x8d, 0x0c, 0x7a, 0x3e, 0x59, 0x32, 0x0c, 0x3e, 0x5f, 0x8b, 0x4b, 0xbe,
  0xb2, 0x0e, 0xe1, 0x3e, 0xfb, 0x35, 0x02, 0x3f, 0x2a, 0xa1, 0x8e, 0xbe,
  0x04, 0x3f, 0xe7, 0x3e, 0xf8, 0xc7, 0x8c, 0xbe, 0x48, 0x7c, 0xdd, 0x3d,
  0x75, 0x38, 0x07, 0xbf, 0x31, 0xf7, 0x6b, 0xbe, 0x82, 0xde, 0xac, 0x3e,
  0xd4, 0x5d, 0xc8, 0xbd, 0xb0, 0x64, 0x12, 0x3f, 0x28, 0x36, 0x9c, 0xbe,
  0xcc, 0xa9, 0x3c, 0x3e, 0xce, 0xca, 0xa8, 0x3d, 0x09, 0x7e, 0x85, 0xbd,
  0x07, 0xec, 0x2f, 0x3e, 0x49, 0x98, 0x1f, 0x3e, 0x4c, 0xb9, 0x33, 0x3e,
  0x13, 0xec, 0xa1, 0xbe, 0x34, 0x62, 0x3a, 0x3e, 0x66, 0x98, 0x87, 0xbe,
  0x2e, 0xcb, 0x29, 0x3e, 0xa2, 0x08, 0x86, 0x3e, 0x46, 0x8e, 0xb6, 0xbd,
  0x55, 0x4a, 0x02, 0x3e, 0xba, 0x3a, 0x8a, 0xbe, 0x73, 0x77, 0x98, 0xbe,
  0x2f, 0x31, 0xc6, 0x3f, 0x72, 0x44, 0xb8, 0xbf, 0x89, 0x4a, 0x07, 0xbf,
  0x3e, 0x2c, 0x4a, 0xbf, 0x6e, 0x00, 0x9c, 0x3f, 0xb1, 0xb9, 0x29, 0x3f,
  0x44, 0x5d, 0x54, 0x3f, 0xd1, 0xe4, 0x98, 0x3e, 0x5b, 0x7f, 0x6d, 0x3d,
  0xd2, 0x74, 0x22, 0xbf, 0x30, 0x0f, 0x85, 0xbc, 0xf6, 0x14, 0xde, 0xbe,
  0x9d, 0xac, 0x4a, 0x3e, 0x25, 0x08, 0xd7, 0xbe, 0x2d, 0x1b, 0xc1, 0xbe,
  0x1e, 0x73, 0x5a, 0x3e, 0x1d, 0xde, 0x37, 0xbe, 0x0f, 0x32, 0x89, 0x3d,
  0x0f, 0x19, 0xea, 0x3e, 0xdc, 0xe9, 0xf8, 0x3e, 0x1b, 0x4f, 0x64, 0x3e,
  0x97, 0x21, 0x3a, 0x3e, 0x59, 0xbf, 0x9f, 0x3e, 0xea, 0xba, 0x61, 0xbd,
  0xf6, 0xbe, 0x87, 0x3d, 0x8f, 0x98, 0x81, 0xbe, 0x58, 0x81, 0xda, 0xbd,
  0x58, 0x19, 0x58, 0x3e, 0xf0, 0x99, 0xd3, 0x3d, 0xf7, 0x0b, 0x5e, 0x3c,
  0x15, 0x2d, 0xaa, 0xbc, 0x49, 0x20, 0x48, 0xbe, 0x76, 0x04, 0xe0, 0xbe,
  0x69, 0x72, 0x8a, 0xbe, 0x51, 0x80, 0x9b, 0x3c, 0x8c, 0x94, 0x25, 0xbe,
  0x9e, 0x01, 0x97, 0x3e, 0xe6, 0x0c, 0xe6, 0xbd, 0x5f, 0xdc, 0x00, 0xbe,
  0xa1, 0x5a, 0xa0, 0x3e, 0x1e, 0x90, 0x3f, 0xbf, 0x32, 0x73, 0x68, 0x3f,
  0x02, 0x50, 0x01, 0x40, 0x3f, 0x9f, 0xcb, 0xbf, 0xa1, 0x1f, 0x7d, 0xbf,
  0x35, 0x97, 0x3c, 0x3e, 0x44, 0x89, 0x16, 0x3e, 0x57, 0xaa, 0x44, 0xbf,
  0x1c, 0x17, 0x61, 0x3f, 0x38, 0xcc, 0x5d, 0xbd, 0x24, 0x90, 0xe6, 0xbd,
  0xf9, 0x08, 0xa9, 0xbd, 0xd9, 0xb6, 0x23, 0x3f, 0x7c, 0xcc, 0x70, 0xbd,
  0x27, 0x81, 0x86, 0xbe, 0x5c, 0x82, 0x3d, 0x3e, 0xa6, 0xd1, 0x16, 0xbe,
  0x67, 0x30, 0x4c, 0x3e, 0xb8, 0x72, 0x40, 0x3e, 0xf6, 0xad, 0x89, 0xbe,
  0x79, 0xfa, 0xa1, 0x3e, 0x93, 0x38, 0xdf, 0x3d, 0xc3, 0x3e, 0x9b, 0xbe,
  0xc9, 0x59, 0x0b, 0xbd, 0x7b, 0x3d, 0x93, 0x3e, 0xde, 0xd5, 0x84, 0x3d,
  0x5e, 0xdd, 0x85, 0x3e, 0x22, 0x39, 0x0c, 0xbd, 0xc2, 0x23, 0x89, 0xbe,
  0x78, 0x37, 0x04, 0x3e, 0xd0, 0x08, 0x76, 0xbe, 0x10, 0x41, 0x9f, 0x3e,
  0x2d, 0xc7, 0xd3, 0x3e, 0x2d, 0xa5, 0xa9, 0xbe, 0x6e, 0x09, 0x15, 0xbe,
  0xdc, 0xaa, 0xde, 0xbc, 0x0b, 0xd4, 0x9d, 0x3e, 0xdd, 0xe7, 0x65, 0xbe,
  0x37, 0x51, 0x1a, 0xbd, 0x34, 0xd7, 0xa8, 0x3c, 0x7e, 0x07, 0x05, 0xbe,
  0x45, 0xbb, 0xb0, 0x3f, 0xaa, 0xec, 0x7b, 0xbb, 0xba, 0xf2, 0x6d, 0xbf,
  0x01, 0x84, 0x9d, 0x3f, 0xa4, 0x78, 0x9f, 0xbe, 0xed, 0x76, 0x44, 0xbe,
  0x78, 0xe9, 0xda, 0x3e, 0x62, 0xb9, 0xae, 0xbe, 0x80, 0xd9, 0xec, 0x3d,
  0x04, 0x97, 0x2a, 0x3e, 0x13, 0xc0, 0xdf, 0xbe, 0x29, 0x92, 0xdf, 0xbe,
  0x36, 0xac, 0x32, 0x3e, 0xe9, 0xd4, 0xbd, 0x3d, 0x35, 0x32, 0x82, 0x3f,
  0x11, 0x56, 0x85, 0xbe, 0x8e, 0xf9, 0xb1, 0xbe, 0x59, 0x56, 0x50, 0xbe,
  0xb3, 0xb4, 0x00, 0xbf, 0x2b, 0x0a, 0xaf, 0xbe, 0x16, 0x5b, 0xbb, 0x3a,
  0x78, 0xc1, 0x57, 0xbe, 0x49, 0x0c, 0x9f, 0xbe, 0x86, 0x7c, 0xf3, 0x3e,
  0x3a, 0x63, 0xbe, 0xbe, 0x2d, 0x7e, 0x91, 0xbd, 0x05, 0xba, 0x9d, 0x3e,
  0xaa, 0x2a, 0xc6, 0xbe, 0x17, 0xfa, 0x8d, 0x3c, 0x0a, 0x32, 0x91, 0xbe,
  0x7e, 0x93, 0xf4, 0xbc, 0xcc, 0xbf, 0x26, 0x3e, 0x53, 0x34, 0x14, 0x3e,
  0x3f, 0xb1, 0xa1, 0xbe, 0xe8, 0x6a, 0xc5, 0x3d, 0x17, 0xd8, 0x7e, 0x3e,
  0xf5, 0x8b, 0xbd, 0x3a, 0x9b, 0xbb, 0x44, 0xbd, 0xeb, 0x1e, 0x2d, 0xbe,
  0xab, 0x02, 0x23, 0x3e, 0x34, 0x9a, 0x9f, 0xbf, 0x18, 0x5c, 0x3a, 0xbf,
  0x63, 0x1b, 0xb7, 0x3f, 0xc3, 0xf0, 0x87, 0xbf, 0x2f, 0x31, 0x7b, 0x3f,
  0x33, 0x3c, 0x9a, 0x3f, 0x05, 0x2a, 0x2f, 0xbf, 0xb6, 0x23, 0x43, 0xbf,
  0x23, 0x31, 0xae, 0xbe, 0x62, 0xf2, 0xd3, 0xbe, 0x01, 0x46, 0xd2, 0x3c,
  0x65, 0x8a, 0x40, 0xbe, 0x7f, 0x0b, 0xb5, 0x3e, 0x2d, 0x2c, 0x0d, 0xbe,
  0x30, 0x06, 0x9a, 0xbd, 0x3f, 0x9b, 0x5b, 0xbb, 0x0c, 0x28, 0x10, 0x3e,
  0xb3, 0xed, 0xfe, 0xbe, 0x2e, 0xbe, 0xcc, 0x3d, 0x26, 0x03, 0x3c, 0x3e,
  0xb3, 0xa1, 0x44, 0x3e, 0x55, 0x66, 0x30, 0xbd, 0x55, 0x59, 0xb5, 0xbe,
  0x2a, 0xf4, 0x00, 0xbe, 0x62, 0xdf, 0x69, 0xbe, 0xc8, 0xbd, 0xe1, 0xbc,
  0x8a, 0xb1, 0x6d, 0x3e, 0x34, 0x7e, 0xc1, 0x3e, 0xac, 0x53, 0x77, 0x3e,
  0x65, 0xa5, 0x14, 0xbb, 0xf3, 0xe2, 0x66, 0x3e, 0xa8, 0x37, 0xd3, 0x3d,
  0x7b, 0x4b, 0xe3, 0xbe, 0x92, 0xa6, 0xdd, 0x3e, 0x11, 0x96, 0xa7, 0xbe,
  0x79, 0x59, 0xca, 0xbe, 0xfe, 0xdc, 0x4d, 0xbe, 0x67, 0x3b, 0x65, 0x3e,
  0x07, 0xb4, 0x4c, 0x3d, 0xbe, 0x6d, 0x2d, 0xbf, 0x07, 0x2d, 0xf4, 0xbe,
  0xf7, 0x8a, 0x9a, 0xbf, 0xcc, 0x70, 0x27, 0x3f, 0x3e, 0xd9, 0x8c, 0x3f,
  0xd6, 0xab, 0xea, 0xbd, 0xfe, 0xbc, 0x6c, 0xbf, 0x12, 0xaf, 0x21, 0x3f,
  0x85, 0xd3, 0x5d, 0x3f, 0x68, 0x86, 0x0e, 0x3f, 0x54, 0xb8, 0xc5, 0xbe,
  0xa5, 0x84, 0x52, 0xbe, 0x8c, 0xc4, 0x46, 0xbf, 0x28, 0x05, 0x1c, 0xbf,
  0xba, 0xf7, 0x37, 0x3e, 0x70, 0xff, 0xcc, 0x3e, 0x5e, 0xf0, 0x05, 0x3f,
  0x72, 0x8d, 0x7e, 0x3f, 0xff, 0x6c, 0x40, 0x3e, 0xfd, 0xf7, 0x05, 0x3e,
  0xd8, 0x7e, 0xc9, 0x3d, 0xe6, 0x08, 0xad, 0xbe, 0xda, 0x81, 0xa3, 0x3e,
  0x3a, 0x05, 0xb9, 0xbe, 0x51, 0x72, 0xd0, 0xbd, 0x25, 0xa9, 0xe9, 0xbd,
  0x5a, 0x7c, 0xdc, 0xbe, 0xda, 0xae, 0xaf, 0x3e, 0xfa, 0xf5, 0x2e, 0xbe,
  0xe0, 0xca, 0x4d, 0x3e, 0x79, 0xb1, 0x8b, 0x3e, 0x4e, 0xd2, 0xf8, 0x3d,
  0x15, 0x70, 0x97, 0x3e, 0x0b, 0x02, 0x14, 0x3f, 0x31, 0x9c, 0x8a, 0x3d,
  0x00, 0x89, 0x19, 0xbe, 0xf0, 0x67, 0x8b, 0x3e, 0x47, 0x2a, 0xa5, 0xbc,
  0xc9, 0x3c, 0x93, 0xbe, 0x9f, 0xe2, 0x78, 0xbd, 0x44, 0x77, 0xb5, 0xbe,
  0xb0, 0x7a, 0x35, 0xbf, 0x34, 0xf2, 0x92, 0x3f, 0x1e, 0xbb, 0x5d, 0x3f,
  0xc8, 0xfc, 0x56, 0xbf, 0xdf, 0x96, 0x00, 0xbf, 0xee, 0xb9, 0xea, 0x3e,
  0x39, 0x92, 0x1b, 0x3f, 0xbd, 0xf3, 0x75, 0xbd, 0x58, 0xab, 0x08, 0xbf,
  0x97, 0x8f, 0x17, 0x3f, 0xff, 0xcc, 0xef, 0xbe, 0x5d, 0xd9, 0xb0, 0x3e,
  0x1d, 0x21, 0x0b, 0xbf, 0x91, 0x83, 0xf3, 0x3e, 0x91, 0x3e, 0x7d, 0x3e,
  0x25, 0x4b, 0x0b, 0xbf, 0x0f, 0x45, 0xc7, 0x3d, 0x13, 0xd7, 0x9e, 0xbe,
  0x52, 0x2a, 0x29, 0x3f, 0xb2, 0xa4, 0xb8, 0xbe, 0xf4, 0x80, 0xdd, 0xbc,
  0x54, 0x33, 0xbc, 0xbd, 0x85, 0x8b, 0xd0, 0x3d, 0x66, 0x48, 0x30, 0xbe,
  0xcc, 0x46, 0x0a, 0x3f, 0xda, 0x84, 0x26, 0xbe, 0xec, 0x7a, 0x92, 0xbe,
  0x84, 0x5d, 0x9b, 0xbe, 0x77, 0x85, 0xa4, 0xbd, 0x2c, 0x77, 0x02, 0x3e,
  0x5c, 0xd2, 0xaa, 0x3e, 0x8d, 0x59, 0xd4, 0xbe, 0x3d, 0x5f, 0xe7, 0x3e,
  0x6e, 0x06, 0xdb, 0xbd, 0x89, 0x6f, 0x61, 0xbe, 0xae, 0x80, 0x8d, 0x3e,
  0x17, 0xa3, 0x19, 0xbe, 0x22, 0x8d, 0xad, 0x3e, 0xc4, 0xc3, 0xac, 0xbd,
  0x82, 0xd6, 0xff, 0xff, 0x04, 0x00, 0x00, 0x00, 0x00, 0x28, 0x00, 0x00,
  0x20, 0xe4, 0xf6, 0x3b, 0xad, 0x67, 0xb9, 0xbd, 0x87, 0x01, 0xd5, 0x3c,
  0x0c, 0x7e, 0x15, 0xbf, 0x9a, 0x56, 0x68, 0x3e, 0x77, 0x17, 0x4a, 0xbf,
  0xe9, 0xe1, 0x37, 0xbf, 0x92, 0xd4, 0x2f, 0x3e, 0xb5, 0xee, 0x3b, 0xbd,
  0x3a, 0xd1, 0x0a, 0x3f, 0x57, 0xb0, 0x13, 0xbd, 0xee, 0x6f, 0x34, 0xbe,
  0x30, 0x16, 0x60, 0x3e, 0x0d, 0x63, 0x1b, 0xbf, 0xeb, 0x2b, 0xc8, 0xbe,
  0x7f, 0xdb, 0xff, 0x3d, 0x18, 0x3d, 0xae, 0xbd, 0x87, 0xb8, 0x31, 0xbe,
  0x3b, 0xc4, 0xb1, 0xbc, 0xd9, 0x6e, 0x20, 0x3e, 0x8a, 0xd4, 0xd6, 0x3d,
  0x0c, 0x7d, 0x8f, 0x3d, 0x07, 0x53, 0xc5, 0x3e, 0xc2, 0xce, 0x8b, 0x3e,
  0x14, 0x94, 0x7c, 0x3d, 0x7d, 0x9e, 0x38, 0xbd, 0x72, 0x09, 0x10, 0xbe,
  0xa4, 0xf0, 0xbd, 0xbf, 0x2b, 0x93, 0x26, 0xbf, 0xff, 0x28, 0x7a, 0xbe,
  0x59, 0x11, 0x36, 0x3f, 0xb7, 0x4b, 0x07, 0x3e, 0x1a, 0xd5, 0x6b, 0x3e,
  0x99, 0x91, 0x35, 0x3f, 0xbe, 0x32, 0xd4, 0xbe, 0xd6, 0x7c, 0xbc, 0xbd,
  0x71, 0x2d, 0x3f, 0xbe, 0x83, 0x6b, 0xd2, 0xba, 0x15, 0x1f, 0x35, 0x3e,
  0xbe, 0x88, 0x01, 0xbe, 0xf4, 0x77, 0x79, 0x3e, 0x5d, 0xe2, 0xce, 0x3e,
  0xff, 0xa0, 0xa1, 0x3c, 0x8c, 0xb1, 0x80, 0x3f, 0x66, 0xbc, 0x12, 0xbf,
  0x21, 0x42, 0xe2, 0xbe, 0xaa, 0x75, 0xfe, 0xbe, 0x7e, 0x70, 0x6a, 0x3e,
  0x16, 0x8e, 0xbb, 0x3c, 0xba, 0x17, 0x8f, 0x3e, 0xff, 0xc5, 0x20, 0xbe,
  0xad, 0xb9, 0xed, 0x3e, 0xc7, 0xac, 0x68, 0x3f, 0xb1, 0x62, 0xfb, 0x3e,
  0xed, 0xe2, 0x21, 0x3e, 0xa7, 0xb7, 0xaa, 0xbd, 0xde, 0x34, 0xb9, 0x3d,
  0x9a, 0x33, 0x19, 0x3e, 0x68, 0xb6, 0x16, 0x3d, 0x76, 0x45, 0x07, 0x3d,
  0xa7, 0x5b, 0x59, 0x3e, 0x78, 0x5b, 0xcb, 0x3d, 0x56, 0x4a, 0xab, 0x3e,
  0x38, 0x60, 0x07, 0x3d, 0x9c, 0xd9, 0xbb, 0xbd, 0x23, 0x29, 0x3b, 0xbc,
  0xae, 0xd7, 0x0c, 0xbe, 0x86, 0xbc, 0xa9, 0xbd, 0xb5, 0xbe, 0xf1, 0x3e,
  0x87, 0x9b, 0x28, 0x3e, 0xa4, 0x51, 0x4d, 0xbd, 0x14, 0x44, 0x18, 0xbe,
  0x9a, 0x9a, 0x37, 0xbe, 0x86, 0xb2, 0x5c, 0x3e, 0x01, 0xd7, 0xe9, 0xbc,
  0xce, 0x80, 0xaf, 0xbd, 0x6a, 0x3e, 0x15, 0x3e, 0xf1, 0x4f, 0x99, 0xbd,
  0x64, 0xb6, 0x7c, 0x3e, 0x11, 0xef, 0xf7, 0x3c, 0x92, 0x56, 0x2f, 0xbd,
  0x3a, 0x17, 0x95, 0xbe, 0xb8, 0x38, 0x1a, 0xbf, 0x70, 0xa0, 0x13, 0xbf,
  0xd4, 0xf3, 0x03, 0xbe, 0x84, 0x83, 0x92, 0xbf, 0x71, 0xbf, 0x33, 0xbe,
  0x83, 0x71, 0x3c, 0xbe, 0x80, 0x97, 0x48, 0xbe, 0xd4, 0x73, 0x66, 0xbe,
  0x7f, 0x9a, 0xcd, 0xbe, 0xf7, 0x47, 0x71, 0xbf, 0xff, 0x82, 0xce, 0xbe,
  0x39, 0x2c, 0x45, 0xbf, 0x74, 0x30, 0x97, 0xbf, 0xfe, 0x16, 0x72, 0xbe,
  0xf8, 0x85, 0xbf, 0xbc, 0x50, 0x92, 0xff, 0x3e, 0xbe, 0x2b, 0x12, 0xbe,
  0xab, 0x95, 0xfc, 0xbe, 0xa2, 0xee, 0x10, 0x3e, 0xb6, 0x05, 0x3d, 0x3e,
  0xef, 0x33, 0xcc, 0xbe, 0x70, 0x20, 0x96, 0x3d, 0x54, 0x0d, 0x6b, 0xbe,
  0xdc, 0xad, 0x07, 0xbf, 0xfb, 0xf7, 0xd9, 0x3d, 0xce, 0x74, 0xb5, 0x3d,
  0xb7, 0xa5, 0xc8, 0xbc, 0x72, 0xa7, 0xcd, 0xbe, 0x31, 0x7c, 0xfc, 0x3e,
  0x58, 0x95, 0xd5, 0x3e, 0x9f, 0xad, 0x58, 0xbe, 0xbe, 0xc4, 0x97, 0xbd,
  0x90, 0xd2, 0x0d, 0x3e, 0x2c, 0x2c, 0x27, 0x3f, 0x69, 0x54, 0x2b, 0x3f,
  0xa9, 0xdc, 0x5d, 0x3f, 0x29, 0x0f, 0xd6, 0x3e, 0x4b, 0x75, 0xa3, 0xbe,
  0x2f, 0x01, 0x2a, 0x3e, 0xad, 0x7f, 0xb3, 0x3d, 0xf8, 0x65, 0x2f, 0x3f,
  0x4a, 0x4e, 0x26, 0x3d, 0xa4, 0x0b, 0x05, 0x3f, 0x0c, 0x9f, 0x24, 0x3f,
  0xfd, 0xba, 0x23, 0x3e, 0xf5, 0x76, 0x3c, 0xbe, 0x32, 0xb6, 0x26, 0x3e,
  0x81, 0x35, 0x90, 0x3e, 0x85, 0xa5, 0xa0, 0x3e, 0x84, 0x23, 0xec, 0x3e,
  0x8f, 0x77, 0xd5, 0x3e, 0x76, 0xd4, 0x73, 0xbe, 0x85, 0x66, 0x14, 0x3f,
  0x26, 0x85, 0x10, 0xbf, 0xc8, 0x56, 0x82, 0x3d, 0x58, 0x01, 0xa0, 0xbd,
  0xe2, 0xb2, 0x2b, 0x3e, 0xb5, 0x6f, 0xbe, 0x3e, 0x53, 0x43, 0xcf, 0xbd,
  0xc0, 0x43, 0xb5, 0xbe, 0x08, 0x8c, 0xba, 0xbd, 0xca, 0x26, 0xce, 0xbe,
  0x3f, 0x89, 0x85, 0xbe, 0x8f, 0x65, 0x8d, 0x3e, 0x45, 0xdf, 0xea, 0x3e,
  0x26, 0xf8, 0x3b, 0xbe, 0x3d, 0x64, 0x96, 0xbf, 0x50, 0x73, 0xca, 0x3e,
  0xa8, 0xb1, 0xaf, 0xbd, 0x4f, 0xb8, 0x57, 0xbe, 0x72, 0xc9, 0x84, 0xbc,
  0xeb, 0x83, 0xb4, 0x3e, 0x15, 0x07, 0x68, 0x3f, 0xa8, 0x13, 0x8a, 0x3e,
  0x2b, 0x1d, 0x98, 0x3e, 0xf5, 0xe9, 0x39, 0x3e, 0xc1, 0xb7, 0xa2, 0x3d,
  0x0c, 0x4f, 0x37, 0xbe, 0xc0, 0x2e, 0x6a, 0xbc, 0x0e, 0xa4, 0xad, 0x3d,
  0x0f, 0x69, 0x8e, 0x3e, 0xbc, 0x81, 0xda, 0xbe, 0x12, 0x8c, 0x97, 0xbf,
  0x42, 0x55, 0x93, 0xbe, 0x0c, 0x1b, 0xb7, 0x3e, 0xae, 0xfd, 0xbe, 0xbd,
  0xdf, 0x44, 0x25, 0xbe, 0x21, 0x5d, 0x6d, 0xbe, 0x5f, 0xaa, 0x41, 0xbf,
  0xa6, 0x97, 0xb9, 0xbf, 0x02, 0x4d, 0x7a, 0xbf, 0xa8, 0x9e, 0x85, 0x3e,
  0xf6, 0x4a, 0x8d, 0x3e, 0x74, 0x81, 0xec, 0xbd, 0x5f, 0x56, 0xac, 0xbd,
  0x4a, 0xeb, 0x29, 0xbe, 0x9b, 0x59, 0xfb, 0x3d, 0x75, 0xce, 0x96, 0xbd,
  0xb4, 0x19, 0x3e, 0x3d, 0xb4, 0xe7, 0x98, 0xbe, 0x59, 0x91, 0x37, 0xbd,
  0x73, 0x82, 0xf1, 0x3d, 0x00, 0x1c, 0x4e, 0xbe, 0x48, 0xc1, 0xda, 0x3c,
  0xef, 0x4e, 0x44, 0x3e, 0x06, 0x13, 0x97, 0x3e, 0xc9, 0x52, 0x9e, 0xbc,
  0xc2, 0x0a, 0xd4, 0xbd, 0xed, 0xf4, 0x96, 0xbe, 0xae, 0x1f, 0x0b, 0xbe,
  0x98, 0x84, 0x41, 0xbe, 0x35, 0xc9, 0x82, 0x3e, 0x94, 0x9a, 0x9d, 0xbe,
  0x14, 0x0b, 0x2c, 0x3f, 0x74, 0x5d, 0x31, 0x3f, 0xad, 0xcb, 0xd1, 0xbe,
  0x6a, 0xd6, 0x3f, 0x3e, 0x91, 0xe4, 0xa4, 0x3d, 0x5b, 0xe8, 0x21, 0xbe,
  0x69, 0x19, 0xbd, 0x3e, 0x38, 0x78, 0x78, 0x3f, 0xd7, 0xa0, 0x09, 0x3f,
  0x73, 0x64, 0x29, 0x3d, 0x85, 0x89, 0x33, 0xbe, 0x5e, 0x45, 0xb9, 0x3e,
  0x4a, 0x3a, 0x37, 0xbe, 0x1f, 0x11, 0x91, 0xbe, 0xdf, 0x84, 0x34, 0xbe,
  0xce, 0x3d, 0x19, 0xbf, 0x58, 0x1f, 0x89, 0xbf, 0xe8, 0x4a, 0x97, 0x3e,
  0x89, 0x4d, 0x60, 0x3f, 0x10, 0xe1, 0xf7, 0x3e, 0x2e, 0x31, 0x55, 0x3d,
  0x67, 0xe4, 0xf6, 0x3d, 0x94, 0x58, 0xf0, 0xbe, 0x51, 0xa6, 0xce, 0xbe,
  0xc0, 0xe8, 0x75, 0xbe, 0xc1, 0x15, 0xfd, 0x3e, 0x12, 0xa5, 0x8e, 0x3e,
  0x79, 0xcb, 0x12, 0xbe, 0xb9, 0xec, 0x6a, 0xbe, 0xf7, 0x50, 0x53, 0xbe,
  0x81, 0xcb, 0x43, 0xbf, 0xba, 0xe4, 0x47, 0x3d, 0xaf, 0xda, 0xc4, 0x3e,
  0x49, 0x56, 0x7c, 0xbe, 0xf0, 0x53, 0x54, 0x3e, 0x47, 0x91, 0x15, 0xbe,
  0x40, 0x38, 0xbf, 0x3c, 0xfd, 0x19, 0x83, 0x3d, 0x12, 0xa1, 0xe3, 0x3c,
  0xf3, 0x9c, 0x0e, 0xbe, 0x66, 0xd8, 0x80, 0xbf, 0x80, 0x3a, 0x5a, 0x3c,
  0x66, 0x96, 0xe2, 0x3d, 0x6c, 0x07, 0x8e, 0x3e, 0x3d, 0x88, 0x15, 0xbe,
  0x18, 0xbe, 0xa0, 0xbd, 0x74, 0x2a, 0x8b, 0x3d, 0xbc, 0x92, 0xc1, 0xbc,
  0x46, 0xb7, 0xb5, 0xbe, 0xb4, 0x11, 0x69, 0xbf, 0x8e, 0x26, 0x86, 0xbe,
  0x29, 0xfd, 0xa2, 0x3e, 0x5c, 0xac, 0xbd, 0x3d, 0x50, 0x5f, 0x3d, 0x3e,
  0xff, 0x37, 0x9d, 0xbe, 0x9f, 0xc4, 0x5f, 0xbb, 0xbc, 0xff, 0x6a, 0xbe,
  0xd0, 0x12, 0x7c, 0xbd, 0xd5, 0xa8, 0x90, 0xbe, 0xd3, 0x1c, 0x70, 0xbe,
  0x01, 0xdd, 0x52, 0x3e, 0xc4, 0xbd, 0x4e, 0xbd, 0xcd, 0x0b, 0xdb, 0xb9,
  0x00, 0xdc, 0xef, 0xbe, 0x84, 0x65, 0x9d, 0xbe, 0xb4, 0x98, 0x0c, 0xbe,
  0xef, 0x36, 0x74, 0xbf, 0x58, 0x7e, 0x56, 0xbf, 0xbf, 0xfb, 0xa8, 0xbc,
  0x7d, 0x85, 0x4d, 0xbd, 0xc5, 0x37, 0x33, 0xbe, 0x1c, 0x18, 0xc1, 0x3d,
  0x19, 0x60, 0xf2, 0x3c, 0x0a, 0xad, 0x6a, 0xbf, 0x88, 0x43, 0x48, 0xbe,
  0xd9, 0x3d, 0xcb, 0x3d, 0x27, 0xa2, 0x54, 0xbe, 0xc0, 0x97, 0x61, 0xbe,
  0x52, 0x6a, 0xc9, 0xbc, 0x27, 0x2f, 0xfe, 0x3e, 0xc6, 0xbc, 0x99, 0xbd,
  0x2c, 0xa4, 0x50, 0xbf, 0x17, 0x4b, 0xbf, 0x3e, 0xc2, 0xee, 0x50, 0x3e,
  0x96, 0x94, 0xff, 0x3c, 0x8b, 0xd4, 0x00, 0x3e, 0xd2, 0x33, 0xb9, 0x3d,
  0xe3, 0xe1, 0x5d, 0x3d, 0x4a, 0xbd, 0xcb, 0x3e, 0x4a, 0x02, 0xd4, 0x3c,
  0x46, 0x5c, 0x90, 0x3c, 0x7d, 0xf3, 0x78, 0x3e, 0xdd, 0xd1, 0x31, 0x3e,
  0xd2, 0xcc, 0x03, 0x3e, 0x4e, 0xe9, 0x75, 0xbd, 0x50, 0xfa, 0x0e, 0x3e,
  0x87, 0x86, 0x23, 0x3e, 0xbd, 0x06, 0xbc, 0x3d, 0x9e, 0x9f, 0x81, 0xbe,
  0x7b, 0xaa, 0xde, 0x3d, 0x0c, 0x9d, 0xc5, 0xbd, 0x3b, 0x03, 0x75, 0x3d,
  0x63, 0xb6, 0xdb, 0xbc, 0xe2, 0xee, 0x82, 0x3f, 0x6c, 0xe7, 0xd7, 0x3d,
  0x37, 0x26, 0x2a, 0x3e, 0x65, 0xef, 0x18, 0x3f, 0x8f, 0x1d, 0x0d, 0x3f,
  0x7e, 0xe9, 0x13, 0x3d, 0xcd, 0x95, 0x4c, 0xbe, 0x13, 0x2a, 0xb4, 0x39,
  0x48, 0x2f, 0x89, 0x3e, 0x32, 0x5f, 0xcb, 0xbe, 0x64, 0x0c, 0x0c, 0xbf,
  0x6a, 0xd4, 0x1f, 0x3e, 0x1e, 0x1d, 0xa7, 0x3e, 0xdc, 0x6e, 0xeb, 0xbe,
  0x7d, 0x0c, 0x70, 0xbe, 0x29, 0x98, 0x98, 0xbe, 0xf6, 0x4e, 0x36, 0xbf,
  0xfe, 0xb2, 0x7f, 0xbd, 0xe9, 0x87, 0xb6, 0x3e, 0x0f, 0xfa, 0x01, 0xbf,
  0xca, 0x37, 0xdd, 0xbe, 0xac, 0x8c, 0xae, 0xbe, 0x30, 0x1c, 0x1a, 0xbe,
  0x46, 0xc2, 0xc5, 0xbd, 0x67, 0x00, 0x07, 0x3e, 0x0d, 0xfb, 0x3a, 0xbe,
  0xe8, 0x66, 0x23, 0x3e, 0x4c, 0x7c, 0x69, 0xbd, 0x0b, 0xd0, 0x3e, 0x3d,
  0x89, 0xde, 0xaa, 0x38, 0xa2, 0x7e, 0xd6, 0xbd, 0xcc, 0x9f, 0x84, 0x3d,
  0x4c, 0xa2, 0xae, 0xbd, 0xbb, 0x94, 0x9c, 0x3e, 0x34, 0xff, 0xba, 0x3c,
  0xe8, 0xd3, 0x21, 0xbe, 0xc5, 0xde, 0x23, 0xbe, 0xfa, 0x84, 0x17, 0xbe,
  0x7c, 0xba, 0x7d, 0xbd, 0xcf, 0xfe, 0x9a, 0xbe, 0x6c, 0x2a, 0x66, 0xbe,
  0xa8, 0xcf, 0x2b, 0xbe, 0x39, 0xf0, 0x32, 0xbd, 0x18, 0xe6, 0x82, 0x3c,
  0xb3, 0x16, 0x0e, 0x3d, 0xb4, 0xd7, 0x6c, 0x3e, 0x6e, 0xbc, 0x11, 0x3e,
  0xb2, 0xa3, 0xf5, 0x3d, 0x4f, 0x63, 0x82, 0x3d, 0xdc, 0xe2, 0x39, 0xbf,
  0x97, 0xd7, 0x48, 0xbe, 0x33, 0xe1, 0xdb, 0xbc, 0x25, 0xdd, 0xa6, 0x3e,
  0x7c, 0xdd, 0x10, 0x3e, 0xfd, 0xf8, 0x11, 0xbe, 0x07, 0x29, 0x62, 0x3e,
  0x2b, 0x32, 0x5a, 0x3e, 0xdc, 0x46, 0x9c, 0xbe, 0x05, 0x7b, 0x5d, 0x3e,
  0x04, 0xc4, 0xc4, 0x3c, 0xb3, 0x56, 0xad, 0x3e, 0x80, 0x98, 0xb4, 0x3d,
  0x99, 0x9b, 0xf3, 0x3d, 0xd9, 0x82, 0x6c, 0x3e, 0xb8, 0x31, 0x50, 0x3d,
  0x7a, 0xbe, 0xc6, 0x3d, 0x1f, 0x9e, 0xa9, 0x3e, 0x30, 0x17, 0x89, 0x3e,
  0x73, 0x25, 0xfd, 0x3d, 0x4d, 0x0e, 0x77, 0xbe, 0x3b, 0x52, 0x45, 0xbe,
  0xb1, 0x98, 0x61, 0x3e, 0x5e, 0xb5, 0xa9, 0xbd, 0x92, 0x1a, 0x48, 0x3d,
  0x17, 0x69, 0xd3, 0x3c, 0x14, 0xf3, 0xee, 0xbe, 0x40, 0x0f, 0x7d, 0xbe,
  0xab, 0xe9, 0x08, 0xbe, 0xa9, 0xd1, 0x31, 0x3e, 0xc1, 0xb0, 0x5e, 0xbe,
  0x25, 0x7f, 0x81, 0x3d, 0x5a, 0x74, 0xc6, 0xbe, 0xaf, 0x77, 0xe5, 0xbe,
  0xce, 0xf0, 0x02, 0xbf, 0xbd, 0xf9, 0x84, 0xbe, 0xd4, 0x94, 0x62, 0xbe,
  0x00, 0x30, 0xea, 0xb9, 0x51, 0x3e, 0xac, 0x3d, 0x6a, 0x93, 0x83, 0x3d,
  0xa0, 0xd0, 0x3b, 0xbe, 0xf4, 0x68, 0x4e, 0xbe, 0x36, 0xbe, 0x90, 0xbe,
  0x67, 0xee, 0xe6, 0x3e, 0x1b, 0x98, 0x3c, 0x3d, 0x35, 0x55, 0x5d, 0xbe,
  0x0f, 0x1e, 0x26, 0x3e, 0x8e, 0xd1, 0x03, 0x3e, 0xf1, 0xa0, 0x9e, 0x3d,
  0x92, 0x1d, 0x48, 0x3d, 0x25, 0xfd, 0x08, 0xbd, 0x6f, 0x9a, 0x60, 0x3d,
  0x00, 0x67, 0x23, 0x3e, 0x6f, 0xc2, 0x8b, 0x3c, 0x92, 0xe1, 0x4f, 0x3d,
  0xf0, 0x0c, 0x7a, 0x3d, 0xfe, 0xce, 0x62, 0xbe, 0x24, 0xc0, 0xa7, 0xbd,
  0x07, 0xee, 0x62, 0x3e, 0x0b, 0xf7, 0xa3, 0xbe, 0x87, 0x74, 0x4c, 0xbd,
  0x31, 0xf6, 0x63, 0x3d, 0x53, 0x4e, 0x4b, 0x3b, 0x96, 0xf1, 0xca, 0x3e,
  0x1c, 0x6b, 0xde, 0xbe, 0x6a, 0x52, 0x40, 0x3e, 0x6f, 0xc8, 0xe0, 0x3e,
  0x98, 0x98, 0x8c, 0x3e, 0x3a, 0xb3, 0x99, 0x3d, 0x1c, 0x6c, 0xbf, 0xbd,
  0x31, 0x36, 0x28, 0xbe, 0xcf, 0xa9, 0x93, 0x3e, 0x35, 0x9b, 0xb2, 0x3d,
  0xe4, 0xc7, 0xa3, 0x3e, 0x43, 0x3c, 0xa3, 0x3e, 0x99, 0x5a, 0xab, 0x3e,
  0xc8, 0x77, 0x63, 0x3e, 0x50, 0x0b, 0x02, 0x3e, 0x50, 0xf2, 0x41, 0xbd,
  0xcb, 0xde, 0x08, 0xbf, 0xdd, 0xc2, 0x38, 0x3e, 0x5b, 0x7f, 0x23, 0x3e,
  0x7d, 0x32, 0xd4, 0xbe, 0x14, 0xe4, 0xf7, 0xbd, 0x86, 0x63, 0x53, 0xbe,
  0x17, 0x48, 0x5a, 0xbe, 0xf0, 0x43, 0x9f, 0xbd, 0x40, 0xa5, 0x17, 0xbf,
  0x2f, 0x83, 0xaa, 0x3e, 0x45, 0xd3, 0x82, 0xbe, 0x67, 0xfb, 0x2c, 0xbf,
  0xf9, 0xc4, 0x00, 0xbf, 0xfd, 0x4e, 0xd0, 0x3d, 0x57, 0x5b, 0x20, 0x3e,
  0xc3, 0x81, 0xfa, 0x3d, 0xc6, 0x19, 0x35, 0x3d, 0xe9, 0x94, 0xd3, 0xbe,
  0x1f, 0xf0, 0x40, 0xbf, 0x69, 0xa8, 0x0c, 0xbf, 0xe8, 0x3d, 0x8c, 0xbd,
  0xd2, 0x76, 0x17, 0xbd, 0x1e, 0x6e, 0x6f, 0x3e, 0xfd, 0xba, 0x76, 0xbd,
  0x23, 0xdf, 0xfa, 0xbe, 0x0b, 0xbc, 0x2a, 0x3e, 0x75, 0x5a, 0xf8, 0xbe,
  0xba, 0xff, 0x19, 0x3e, 0x45, 0x69, 0x46, 0xbe, 0x57, 0x0e, 0x1a, 0x3e,
  0x94, 0x83, 0xbb, 0x3c, 0x91, 0x5c, 0xb3, 0xbe, 0x19, 0x2f, 0x04, 0xbe,
  0x79, 0xdc, 0x96, 0xbe, 0x3e, 0x70, 0x3f, 0xbe, 0x40, 0x06, 0x80, 0xbd,
  0x89, 0x2f, 0x5f, 0xbe, 0x5b, 0x96, 0x3a, 0x3e, 0x23, 0x85, 0xb8, 0x3d,
  0xf5, 0xf3, 0x85, 0x3d, 0x0b, 0x28, 0xed, 0x3e, 0x8a, 0x94, 0x7c, 0x3f,
  0x33, 0x72, 0x42, 0x3f, 0x13, 0x29, 0x85, 0x3e, 0x2b, 0xc6, 0x00, 0x3f,
  0x5d, 0x65, 0x20, 0xbe, 0x70, 0xb6, 0x1d, 0x3e, 0x14, 0xb1, 0x5e, 0x3e,
  0xb6, 0x2f, 0x59, 0x3d, 0x51, 0xe6, 0x15, 0x3f, 0x90, 0x69, 0x69, 0x3e,
  0xa8, 0x9d, 0xf7, 0x3e, 0xe2, 0x79, 0xf9, 0xbd, 0xb1, 0xe7, 0x28, 0xbe,
  0x08, 0x2d, 0x12, 0x3e, 0xcb, 0x17, 0x8d, 0xbe, 0xea, 0xbc, 0x8a, 0x3e,
  0x0c, 0x42, 0xa4, 0x3e, 0xae, 0x01, 0x96, 0x3e, 0xb5, 0x3d, 0x91, 0x3d,
  0x53, 0x26, 0xe2, 0xbe, 0x7a, 0xc8, 0x49, 0x3e, 0x7d, 0xc9, 0x81, 0x3d,
  0xb5, 0xae, 0x91, 0xbe, 0xb0, 0x7d, 0xf8, 0x3b, 0xdb, 0xbe, 0x97, 0x3e,
  0xd8, 0x9d, 0x0e, 0x3e, 0xb2, 0x22, 0xde, 0xbe, 0x0b, 0x9d, 0xb4, 0xbe,
  0x89, 0x6f, 0x5d, 0xbc, 0x26, 0xbe, 0x34, 0xbe, 0x4e, 0x81, 0x85, 0x3d,
  0xdb, 0x47, 0x11, 0xbe, 0x2c, 0xc3, 0x4d, 0xbe, 0x60, 0x0e, 0x00, 0xbe,
  0x5b, 0x23, 0x92, 0xbd, 0x28, 0x91, 0xca, 0x3d, 0x5a, 0xcf, 0x38, 0x3d,
  0xed, 0x9e, 0xce, 0x3d, 0xf7, 0xbd, 0x77, 0x3d, 0xe1, 0x5f, 0xfb, 0xbe,
  0xc8, 0x1b, 0x53, 0xbe, 0x70, 0xa5, 0x9f, 0xbd, 0xbc, 0x76, 0xba, 0x3d,
  0xed, 0x84, 0x17, 0xbe, 0xd4, 0x37, 0x9a, 0x3e, 0x20, 0x86, 0xd5, 0x3c,
  0x00, 0x09, 0xe8, 0x3d, 0xa6, 0x71, 0xa0, 0x3e, 0x08, 0x7b, 0x65, 0xbe,
  0x13, 0x4f, 0x3a, 0xbd, 0x5a, 0xe0, 0x71, 0x3e, 0x8c, 0x7b, 0xb0, 0x3d,
  0xd4, 0x0d, 0x5a, 0xbe, 0xda, 0x16, 0xfb, 0x3d, 0x69, 0xec, 0x8f, 0x3c,
  0x61, 0xa4, 0x08, 0x3f, 0xb3, 0x34, 0xfd, 0x3c, 0xb3, 0xc7, 0xff, 0x3b,
  0x92, 0x76, 0x56, 0x3e, 0x97, 0xcd, 0xe8, 0x3e, 0x8a, 0xa6, 0xa8, 0x3d,
  0xd5, 0x8b, 0xfb, 0xbd, 0x54, 0x93, 0x3b, 0x3e, 0x5c, 0x53, 0x32, 0x3e,
  0x39, 0x92, 0x24, 0xbe, 0x29, 0x77, 0x86, 0xbe, 0xff, 0xb1, 0xcc, 0xbe,
  0x15, 0x8f, 0x14, 0xbe, 0x32, 0xe9, 0x05, 0xbe, 0x83, 0xc8, 0x09, 0x3d,
  0xcb, 0x7a, 0x87, 0xbd, 0x31, 0xcf, 0xad, 0xbe, 0x38, 0xc3, 0x0e, 0x3f,
  0xef, 0xba, 0x03, 0x3e, 0xe9, 0x44, 0x16, 0xbe, 0xf1, 0xf9, 0x13, 0xbf,
  0x47, 0x83, 0xc3, 0xbd, 0xec, 0x32, 0x83, 0xbd, 0x88, 0xb1, 0xf2, 0xbd,
  0x86, 0x44, 0x99, 0xbd, 0x6a, 0x63, 0xee, 0x3e, 0x69, 0x61, 0x8e, 0xbc,
  0x29, 0x2f, 0xfb, 0xbe, 0x09, 0xb9, 0x9c, 0xbe, 0x7c, 0x71, 0xf1, 0x3d,
  0xab, 0x7b, 0xc4, 0x3d, 0xaf, 0x5e, 0xd9, 0xbe, 0xf0, 0xe0, 0x31, 0xbf,
  0x71, 0x64, 0x53, 0xbe, 0xd6, 0xd9, 0x49, 0x3e, 0x50, 0x04, 0x05, 0x3f,
  0x3d, 0xa9, 0x1a, 0x3e, 0xb4, 0x12, 0x02, 0x3b, 0x5c, 0xeb, 0xcc, 0xbb,
  0x7d, 0x06, 0x01, 0xbe, 0x13, 0xb1, 0x1b, 0x3c, 0xef, 0xc0, 0x0f, 0xbe,
  0x9f, 0x02, 0x3c, 0xbe, 0xd5, 0x29, 0xae, 0x3e, 0x2c, 0xe2, 0x01, 0xbe,
  0x97, 0xa1, 0x43, 0xbe, 0xa0, 0x42, 0x7d, 0xbe, 0x35, 0x8e, 0xad, 0x3e,
  0x45, 0x2d, 0xd3, 0x3e, 0x53, 0xc8, 0x41, 0x3e, 0x6e, 0x72, 0x3f, 0xbd,
  0x19, 0x3f, 0xbd, 0xbe, 0x56, 0x94, 0x80, 0xbe, 0xc6, 0x91, 0x18, 0xbf,
  0xd0, 0x1f, 0xf6, 0xbc, 0x68, 0x22, 0x81, 0xbd, 0x10, 0xb8, 0xfc, 0x3d,
  0x03, 0xea, 0x53, 0x3d, 0xdf, 0x34, 0xfb, 0xbd, 0x47, 0x46, 0x32, 0xbe,
  0x43, 0x11, 0xa3, 0xbe, 0xe6, 0xea, 0x36, 0x3d, 0x14, 0xdc, 0x65, 0xbe,
  0x28, 0xef, 0xb2, 0xbd, 0xe0, 0x3d, 0xcc, 0xbd, 0x15, 0x38, 0x40, 0x3e,
  0x4e, 0x2b, 0x41, 0x3e, 0xdb, 0x8c, 0x49, 0x3e, 0x34, 0x7c, 0x0b, 0x3e,
  0x19, 0x63, 0x39, 0xbe, 0x91, 0xe5, 0x95, 0x3d, 0xf3, 0x12, 0xb4, 0x3d,
  0x50, 0xf7, 0xe0, 0x3d, 0xf1, 0x24, 0x79, 0xbe, 0xc8, 0xbf, 0xca, 0xbd,
  0x32, 0x12, 0x38, 0x3e, 0x02, 0xc4, 0xc2, 0x3e, 0x8e, 0x6e, 0xf6, 0xbd,
  0xa3, 0xff, 0xc6, 0xbc, 0xe7, 0xf3, 0x15, 0xbd, 0x9e, 0x17, 0xaf, 0xbe,
  0x5f, 0xa5, 0x94, 0xbe, 0x64, 0x1d, 0x08, 0xbf, 0x1d, 0x9e, 0xb8, 0xbd,
  0xf9, 0x93, 0x24, 0x3e, 0xf5, 0x3e, 0x79, 0xbe, 0xb0, 0xac, 0x69, 0xbe,
  0x70, 0x63, 0xf9, 0x3d, 0x60, 0x6d, 0xc9, 0x3b, 0x41, 0xe4, 0x1e, 0x3e,
  0xf2, 0xa2, 0x44, 0xbe, 0x0a, 0x9c, 0x1e, 0xbf, 0xc4, 0x1b, 0x96, 0xbe,
  0x90, 0xe0, 0xc6, 0x3d, 0x3b, 0x1e, 0x2b, 0xbe, 0x66, 0x58, 0x46, 0x3e,
  0x4f, 0xa5, 0x9e, 0x3e, 0xe6, 0x1d, 0x09, 0x3f, 0x72, 0x0c, 0xf8, 0xbe,
  0x7d, 0x08, 0xcd, 0xbe, 0x3d, 0x20, 0x47, 0xbe, 0x30, 0xf4, 0x62, 0x3d,
  0xde, 0xcc, 0x22, 0xbe, 0x6c, 0x0f, 0x08, 0x3e, 0x7b, 0xc0, 0x14, 0x3e,
  0x70, 0xd5, 0x3d, 0x3f, 0x77, 0x52, 0xf0, 0x3e, 0x7b, 0x8d, 0x50, 0x3e,
  0x30, 0xad, 0x94, 0x3d, 0xcb, 0xd4, 0xb6, 0xbd, 0xe9, 0x5c, 0xd4, 0x3d,
  0x3d, 0x73, 0x19, 0xbe, 0x3e, 0xea, 0x82, 0xbe, 0xa1, 0x4b, 0x95, 0x3e,
  0xa6, 0x9b, 0xe7, 0x3d, 0xa0, 0x31, 0xa0, 0x3d, 0xcd, 0x45, 0xa9, 0x3e,
  0xb5, 0x5e, 0xa3, 0x3e, 0x70, 0x34, 0x0a, 0x3e, 0x57, 0x70, 0x32, 0x3e,
  0xb8, 0x05, 0xc4, 0xbe, 0xf2, 0xac, 0xaf, 0x3d, 0x79, 0x1e, 0x81, 0xbd,
  0x8c, 0xa9, 0x4d, 0xbe, 0x51, 0x60, 0x59, 0xbe, 0x84, 0xf8, 0x71, 0xbe,
  0x11, 0x5f, 0x99, 0xbd, 0x59, 0xe6, 0x7b, 0x3d, 0x27, 0xeb, 0xae, 0xbd,
  0x38, 0x99, 0xaa, 0x3d, 0x76, 0x21, 0x3a, 0x3a, 0x64, 0x65, 0xa1, 0x3d,
  0xe9, 0x6d, 0x4a, 0x3e, 0xa4, 0xb8, 0x23, 0xbe, 0x2c, 0x6f, 0x0c, 0x3e,
  0x5e, 0x3f, 0xb4, 0xbd, 0xa8, 0xe3, 0xab, 0xbc, 0x0f, 0x2f, 0x13, 0xbd,
  0x38, 0x9f, 0xdf, 0xbc, 0xfe, 0x7c, 0xde, 0x3e, 0x4e, 0x47, 0x67, 0x3d,
  0x46, 0x7a, 0x26, 0x3d, 0x03, 0x01, 0xf2, 0x3d, 0x53, 0xd6, 0x70, 0x3e,
  0x7c, 0x0e, 0x60, 0x3d, 0x64, 0x39, 0x52, 0xbd, 0xea, 0x7d, 0x67, 0xbe,
  0x5f, 0x21, 0xa4, 0x3e, 0xd8, 0x69, 0x83, 0x3e, 0xa3, 0xa9, 0x35, 0x3d,
  0x34, 0x45, 0xf2, 0x3d, 0x24, 0x63, 0xa9, 0x3c, 0x1d, 0xe9, 0x33, 0x3d,
  0xf2, 0x40, 0xfa, 0x3d, 0x14, 0x1d, 0xb0, 0xbe, 0xb8, 0xd5, 0x23, 0x3e,
  0x51, 0x9b, 0x9d, 0x3d, 0x2e, 0x86, 0x87, 0xbd, 0x16, 0x6d, 0x4b, 0x3e,
  0x88, 0xfc, 0x03, 0xbb, 0x2c, 0x8f, 0xd4, 0xbd, 0x38, 0xab, 0xcc, 0xbe,
  0xec, 0x0e, 0x98, 0xbe, 0x39, 0x71, 0xd1, 0x3d, 0xeb, 0xd4, 0x86, 0xbd,
  0x43, 0xb9, 0xe7, 0x3c, 0xb1, 0xfe, 0x39, 0xbe, 0x9a, 0x5c, 0x73, 0x3e,
  0x83, 0x88, 0x6f, 0x3e, 0x7f, 0xb7, 0x47, 0x3d, 0xdb, 0xca, 0x42, 0xbe,
  0x5c, 0xb0, 0x33, 0x3e, 0x3b, 0x5e, 0xeb, 0x3d, 0x17, 0x63, 0x0b, 0x3e,
  0x24, 0x87, 0x3a, 0x3e, 0xb0, 0xf3, 0x12, 0xbe, 0x59, 0x96, 0x3f, 0x3d,
  0x2e, 0x49, 0xc8, 0x3d, 0xa9, 0x41, 0xff, 0x3a, 0x9d, 0x84, 0x91, 0x3b,
  0xc5, 0x4a, 0x72, 0x3e, 0x10, 0xde, 0xaf, 0x3d, 0x38, 0x2d, 0x1a, 0x3d,
  0x60, 0x5b, 0x0f, 0x3e, 0xfc, 0xf0, 0x85, 0xbd, 0xfa, 0x1b, 0xc8, 0x3b,
  0xbe, 0x94, 0x16, 0xbd, 0x26, 0xd0, 0x59, 0x3d, 0xa1, 0x6a, 0x81, 0xbd,
  0x88, 0x4b, 0xec, 0x3d, 0xf7, 0xb6, 0x20, 0xbe, 0x70, 0x40, 0xff, 0x3d,
  0x07, 0xbe, 0x69, 0x3d, 0x4b, 0xa3, 0xc9, 0x3d, 0xc8, 0xbf, 0x15, 0x3e,
  0xae, 0xb5, 0x52, 0x3e, 0x74, 0x6e, 0x18, 0x3e, 0x43, 0x87, 0x64, 0xbe,
  0xf3, 0x53, 0x0a, 0x3e, 0x92, 0x63, 0x7d, 0xbd, 0x92, 0xa5, 0x0f, 0x3e,
  0x3a, 0x69, 0xa4, 0xbd, 0x67, 0x9c, 0x30, 0xbe, 0x82, 0xa8, 0x95, 0x3e,
  0x6e, 0x79, 0x22, 0x3e, 0x64, 0xdc, 0xff, 0x3d, 0x98, 0x05, 0xb9, 0xbd,
  0xdd, 0x7c, 0x88, 0x3d, 0xf3, 0x65, 0xe6, 0xbc, 0x14, 0x0e, 0xb5, 0xbe,
  0xad, 0x14, 0x8f, 0xbe, 0x77, 0x64, 0xc7, 0x3d, 0x4c, 0xb6, 0x0b, 0xbd,
  0x91, 0xd0, 0x49, 0xbe, 0x7c, 0x23, 0x09, 0x3e, 0x25, 0x20, 0xb0, 0xbc,
  0x78, 0x22, 0x2e, 0xbd, 0xe9, 0x3f, 0xbe, 0xbe, 0x9b, 0x5d, 0x40, 0xbe,
  0xd9, 0xb8, 0x3b, 0xbe, 0xb1, 0x88, 0x00, 0x3e, 0x5c, 0x2f, 0x42, 0x3e,
  0xdb, 0x5a, 0x38, 0xbc, 0x5b, 0xbe, 0xce, 0xbd, 0xde, 0xe8, 0xb9, 0x3e,
  0xd0, 0x79, 0xdf, 0xbd, 0x05, 0x45, 0x8d, 0xbd, 0x56, 0x79, 0x0f, 0x3d,
  0x95, 0xba, 0x8e, 0x3d, 0x4a, 0x22, 0xc5, 0x3d, 0xa1, 0x5b, 0x8a, 0x3d,
  0xe3, 0xc9, 0x4f, 0xbd, 0x26, 0xaa, 0xbc, 0x3d, 0xd9, 0xda, 0xf6, 0x3d,
  0x72, 0x97, 0x9d, 0x3a, 0xc2, 0xdb, 0x1e, 0xbe, 0xc9, 0x33, 0x13, 0x3d,
  0xab, 0xd1, 0xee, 0x3d, 0x00, 0xff, 0x30, 0x3e, 0x2c, 0x25, 0xd1, 0xba,
  0x32, 0x7b, 0x95, 0xbe, 0xbc, 0x22, 0x10, 0x3e, 0xa3, 0x5b, 0x29, 0xbc,
  0xf1, 0x2f, 0x8e, 0x3d, 0x4e, 0x97, 0xc6, 0xb9, 0xb0, 0xd1, 0x57, 0x3e,
  0xc0, 0x23, 0x90, 0x3b, 0x97, 0x68, 0x05, 0xbd, 0x75, 0xa9, 0x0e, 0x3e,
  0xd7, 0x68, 0x54, 0x3c, 0xf8, 0xd3, 0x87, 0xbd, 0xa0, 0x3a, 0x2c, 0x3e,
  0xd9, 0x17, 0xa8, 0x3e, 0x37, 0x25, 0x66, 0xbe, 0xbc, 0xdf, 0x97, 0xbd,
  0x08, 0xae, 0x17, 0x3d, 0x36, 0x2c, 0x9d, 0xbe, 0xf7, 0x44, 0xb9, 0xbd,
  0x5f, 0xab, 0x8b, 0xbb, 0x17, 0x74, 0xf6, 0xbd, 0x37, 0x08, 0x8f, 0xbe,
  0xe6, 0x07, 0x3e, 0xbd, 0x2f, 0x17, 0x6f, 0x3d, 0xb3, 0x11, 0xd4, 0xbd,
  0x5f, 0x4c, 0x47, 0xbe, 0x7f, 0xc9, 0x22, 0x3f, 0x9a, 0x60, 0x17, 0xbe,
  0xf3, 0x0c, 0x74, 0xbe, 0xb5, 0x75, 0x37, 0xbe, 0x20, 0xe0, 0x8a, 0x3d,
  0x63, 0x8e, 0xa6, 0x3c, 0x32, 0x6f, 0x66, 0x3e, 0x7c, 0x05, 0xd7, 0x3e,
  0x08, 0x66, 0xee, 0x3e, 0x76, 0x0e, 0xfd, 0x3e, 0xd8, 0x34, 0x94, 0xbd,
  0xf6, 0x33, 0xf3, 0xbc, 0x62, 0x09, 0x3c, 0xbe, 0x30, 0xf0, 0x1b, 0x3c,
  0x6a, 0xa2, 0x50, 0xbb, 0x22, 0xbb, 0xa8, 0x3c, 0x24, 0xfa, 0xa1, 0xbe,
  0x0a, 0x21, 0x96, 0x3e, 0x34, 0x09, 0x97, 0xbd, 0x9e, 0x77, 0xec, 0xbd,
  0x60, 0xa8, 0xb6, 0x3c, 0xfa, 0x0d, 0x49, 0x3e, 0x76, 0x09, 0xf1, 0x3b,
  0x94, 0x3c, 0xf2, 0xbd, 0x83, 0x7b, 0x2c, 0x3e, 0x88, 0x8e, 0xb4, 0x3c,
  0xcb, 0xf4, 0x8e, 0xbc, 0x44, 0x47, 0x19, 0xbe, 0x5b, 0xec, 0x18, 0xbe,
  0x5e, 0xcd, 0x1f, 0x3e, 0x8a, 0xdd, 0x10, 0x3e, 0x72, 0xa8, 0x35, 0xbe,
  0x03, 0xff, 0xae, 0xbd, 0x30, 0xf1, 0xd6, 0x3e, 0x34, 0x9d, 0x3d, 0xbe,
  0xc5, 0x93, 0x12, 0xbf, 0x61, 0x5e, 0x73, 0x3e, 0xe7, 0x4c, 0x5d, 0xbe,
  0xb5, 0x92, 0x9f, 0xbd, 0x58, 0x62, 0xbc, 0x3e, 0x40, 0x99, 0xff, 0x3b,
  0xd3, 0x24, 0x6c, 0xbd, 0x76, 0xf3, 0x67, 0xbe, 0xd6, 0x6e, 0x02, 0xbe,
  0x61, 0x0c, 0x98, 0x3d, 0x30, 0xb1, 0x59, 0xbc, 0x46, 0x18, 0x44, 0x3e,
  0x8b, 0x86, 0xb6, 0xbd, 0x9c, 0x9b, 0xcd, 0xbc, 0xf1, 0x3a, 0x71, 0x3e,
  0xb7, 0x9e, 0xaa, 0x3e, 0x68, 0x17, 0x18, 0x3d, 0xb7, 0xec, 0xaa, 0x3c,
  0xf2, 0x33, 0x7a, 0xbe, 0x47, 0xed, 0x1b, 0x3d, 0x3a, 0x76, 0x93, 0xbd,
  0xfd, 0x7c, 0x03, 0xbe, 0x13, 0x38, 0x18, 0x3f, 0xd6, 0xa9, 0x81, 0x3e,
  0xf5, 0x07, 0xf7, 0x3b, 0x1f, 0x05, 0x2b, 0xbe, 0x3a, 0x00, 0x41, 0xbd,
  0x76, 0x04, 0x95, 0x3c, 0x53, 0xba, 0xb1, 0xbe, 0xca, 0x72, 0xdb, 0xbd,
  0x56, 0x1e, 0x03, 0x3f, 0xa0, 0x31, 0x03, 0xbe, 0xe2, 0x00, 0x16, 0xbe,
  0x1c, 0xac, 0x6d, 0xbe, 0xd2, 0x9d, 0x61, 0x3e, 0x8d, 0x96, 0x9b, 0x3d,
  0x8b, 0xd2, 0xd9, 0xbe, 0x82, 0xfe, 0xd8, 0xbe, 0x3d, 0xd2, 0x58, 0xbd,
  0xa5, 0x69, 0xf6, 0x3d, 0xe5, 0x49, 0xb4, 0xbd, 0xbc, 0x6c, 0x01, 0xbe,
  0x0c, 0x34, 0x9c, 0xbd, 0xd0, 0xec, 0x4b, 0xbe, 0x73, 0x9c, 0x41, 0xbd,
  0xde, 0xde, 0x68, 0xbe, 0x72, 0x60, 0xa7, 0x3e, 0x7a, 0xe7, 0x18, 0xbe,
  0xab, 0x6e, 0x09, 0x3e, 0x82, 0x0f, 0xf3, 0xbd, 0x76, 0x85, 0xb2, 0x3d,
  0x53, 0x3a, 0x14, 0xbe, 0xfc, 0x31, 0x21, 0xbe, 0x63, 0x90, 0x74, 0x3e,
  0x91, 0x5b, 0x3b, 0xbc, 0x92, 0x3b, 0xb5, 0xbe, 0x54, 0x17, 0xc8, 0xbd,
  0x9b, 0x4e, 0x42, 0x3d, 0xc6, 0x48, 0x6d, 0x3d, 0x61, 0x4d, 0x5d, 0xbd,
  0x04, 0xd3, 0xb6, 0xbd, 0x50, 0x1b, 0x16, 0x3e, 0x67, 0x1e, 0x2a, 0x3e,
  0xa9, 0x70, 0x3b, 0x3e, 0x33, 0xf6, 0x69, 0x3b, 0xfe, 0xd1, 0x79, 0xbe,
  0xed, 0x49, 0x36, 0x3e, 0x82, 0x29, 0xca, 0xbd, 0x8d, 0x00, 0x8f, 0x3e,
  0x47, 0x86, 0x25, 0xbe, 0x26, 0xa5, 0xca, 0xbe, 0xe8, 0x42, 0x01, 0x3d,
  0xb5, 0x9a, 0x22, 0x3e, 0x56, 0x87, 0x38, 0xbe, 0x88, 0xd1, 0x2e, 0xbe,
  0x1c, 0xd3, 0x63, 0xbe, 0xde, 0xb4, 0x13, 0xbe, 0xaa, 0x11, 0xea, 0x3d,
  0xdc, 0x46, 0xaf, 0x3e, 0x96, 0x3b, 0xa4, 0x3d, 0xa3, 0x96, 0xd0, 0xbe,
  0x20, 0xf2, 0x8c, 0xbe, 0xa8, 0x8f, 0x8a, 0x3c, 0x34, 0x58, 0x15, 0x3e,
  0x28, 0x1b, 0x50, 0x3e, 0x0b, 0x58, 0x03, 0x3e, 0xb2, 0x46, 0x10, 0xbe,
  0xf1, 0xdf, 0xc6, 0x3e, 0x4a, 0x95, 0xa0, 0xbd, 0xc5, 0x31, 0x16, 0xbc,
  0x3e, 0x51, 0x41, 0xbd, 0xf6, 0xbd, 0x7a, 0x3e, 0x9c, 0x58, 0x5f, 0xbd,
  0xc9, 0x20, 0x9a, 0xbd, 0x35, 0xc6, 0x20, 0x3e, 0x7f, 0x80, 0xe2, 0x3e,
  0x2e, 0x4e, 0x77, 0xbd, 0xbf, 0x59, 0xc5, 0x3d, 0x1d, 0x32, 0x5c, 0x3d,
  0xb9, 0x0d, 0x3c, 0xbd, 0xfc, 0xa8, 0xa3, 0xbd, 0x30, 0x62, 0xf1, 0x3d,
  0xbc, 0x3d, 0x2c, 0xbe, 0x5d, 0x17, 0x00, 0xbe, 0xf9, 0xd1, 0x8b, 0xbd,
  0x83, 0x68, 0x52, 0xbe, 0x60, 0xd4, 0xb8, 0x3d, 0x8a, 0xb5, 0x50, 0xbe,
  0xf0, 0xd6, 0x58, 0xbe, 0x1d, 0x26, 0xa4, 0xbd, 0xe3, 0x16, 0x84, 0xbd,
  0x70, 0x3d, 0xa6, 0xbe, 0x94, 0x27, 0x09, 0x3d, 0x8f, 0xaf, 0x4b, 0xbe,
  0xdd, 0xb3, 0x8a, 0x3d, 0x01, 0xe8, 0xa2, 0x3d, 0x7b, 0x97, 0x84, 0x3e,
  0x4e, 0x65, 0xe0, 0xbe, 0xcb, 0x58, 0xca, 0x3d, 0xed, 0xee, 0x8f, 0x3d,
  0x74, 0xf4, 0x94, 0x3d, 0x63, 0xa4, 0x08, 0x3e, 0x02, 0x4b, 0x52, 0xbe,
  0x0e, 0x44, 0xaa, 0xbd, 0x7e, 0xc4, 0x90, 0x3e, 0xdc, 0x80, 0xb3, 0xbe,
  0x28, 0xb5, 0xa4, 0x3d, 0xc0, 0x52, 0x2a, 0xbe, 0x47, 0xf7, 0x8f, 0xbc,
  0x19, 0xf3, 0x11, 0x3d, 0x87, 0x3f, 0x6c, 0xbe, 0xc3, 0xe4, 0x53, 0xbe,
  0x05, 0x7c, 0x2c, 0xbe, 0xac, 0x8e, 0x47, 0x3e, 0xe7, 0xae, 0x04, 0x3e,
  0x2c, 0x8d, 0xc2, 0xbd, 0x7a, 0xb6, 0x5b, 0xbe, 0x8b, 0x1c, 0x3d, 0xbe,
  0x9c, 0x21, 0x8e, 0x3d, 0x7a, 0xdd, 0x0a, 0x3e, 0x39, 0x6f, 0x31, 0xbe,
  0x43, 0x2c, 0x46, 0xbe, 0xbb, 0xfa, 0x63, 0xbc, 0x5b, 0x95, 0x12, 0x3d,
  0x50, 0x3c, 0x81, 0xbd, 0x3f, 0x57, 0x8e, 0x3e, 0x8d, 0x4d, 0xfc, 0x3d,
  0x3a, 0xff, 0x04, 0xbe, 0xcf, 0x16, 0x19, 0xbe, 0x0d, 0x5f, 0xb5, 0xbb,
  0x17, 0x55, 0xba, 0xbe, 0x47, 0x96, 0x66, 0xbe, 0xa6, 0xa2, 0x9e, 0x3e,
  0xa0, 0x3c, 0x02, 0xbe, 0xea, 0x2a, 0x2e, 0xbe, 0xb0, 0xd7, 0x08, 0xbc,
  0x42, 0x94, 0x2a, 0x3e, 0x9a, 0x0b, 0x6d, 0xbe, 0x42, 0xf6, 0xbe, 0xbe,
  0x3c, 0x3a, 0x2a, 0xbe, 0xcb, 0x84, 0xbc, 0x3d, 0xa0, 0x76, 0x58, 0x3e,
  0x70, 0xc1, 0x95, 0xbd, 0xb1, 0x01, 0xeb, 0xbd, 0xc7, 0xb9, 0x4a, 0x3e,
  0x61, 0x49, 0xa0, 0x3e, 0xec, 0xdd, 0x0b, 0x3e, 0x4b, 0x0c, 0x71, 0x3e,
  0xd9, 0x20, 0xfa, 0xbd, 0x86, 0x8e, 0x92, 0xbd, 0xa4, 0x23, 0x08, 0xbe,
  0x48, 0xfa, 0x04, 0x3e, 0x72, 0xdf, 0x8d, 0x3e, 0x43, 0xbb, 0x51, 0x3e,
  0x38, 0x81, 0x7f, 0xbd, 0x41, 0xe8, 0x15, 0xbd, 0xaf, 0x2b, 0x3e, 0xbd,
  0x76, 0x18, 0xdf, 0xbd, 0xa5, 0xcb, 0x56, 0xbe, 0xf4, 0x93, 0x67, 0x3e,
  0xbf, 0x24, 0xf0, 0x3d, 0x41, 0x93, 0x38, 0x3e, 0x1e, 0xb9, 0x1f, 0x3e,
  0xd1, 0x5f, 0x59, 0xbd, 0x4d, 0xa2, 0xc5, 0x3e, 0xcd, 0x38, 0xe6, 0x3d,
  0x8d, 0x34, 0x9c, 0xbd, 0xc2, 0x16, 0x00, 0xbe, 0x48, 0x05, 0x40, 0x3c,
  0xa0, 0xaf, 0x82, 0xbd, 0xbf, 0x8a, 0x01, 0xbe, 0x7e, 0x5b, 0x13, 0x3d,
  0xf0, 0x70, 0x76, 0x3e, 0xe6, 0x03, 0xf8, 0xbd, 0x0f, 0x89, 0x8a, 0xbc,
  0xc6, 0xb1, 0x1d, 0xbe, 0xec, 0x86, 0xe4, 0xbe, 0x8d, 0xd6, 0x82, 0xbe,
  0x2c, 0x97, 0x07, 0x3e, 0x2f, 0x42, 0x8b, 0x3e, 0xc2, 0x30, 0x15, 0xbe,
  0xf8, 0x61, 0x6a, 0xbe, 0x00, 0xdb, 0xe9, 0xbb, 0x57, 0x18, 0x5f, 0x3d,
  0xd9, 0xff, 0x25, 0x3e, 0x7d, 0x0f, 0x44, 0x3c, 0x95, 0x17, 0x9e, 0xbd,
  0xad, 0x93, 0xdf, 0xbd, 0x35, 0xaa, 0x98, 0x3d, 0x65, 0x51, 0x7d, 0x3d,
  0xf3, 0xde, 0x07, 0x3e, 0x31, 0xcc, 0x92, 0x3e, 0x60, 0x2d, 0x30, 0x3d,
  0x00, 0xe4, 0x0c, 0x3e, 0xc6, 0xb0, 0xbf, 0x3c, 0x13, 0x3b, 0x05, 0x3e,
  0x65, 0xd6, 0x5e, 0x3d, 0xe0, 0xf8, 0x21, 0xbe, 0x1d, 0x07, 0x2f, 0x3e,
  0x01, 0xf3, 0x2e, 0xbe, 0x01, 0x2d, 0xae, 0xbe, 0xc4, 0xf0, 0xe9, 0xbe,
  0xab, 0x33, 0x28, 0x3d, 0xd6, 0xf9, 0x1f, 0x3e, 0x54, 0x72, 0x20, 0x3e,
  0xe6, 0x09, 0xd3, 0x3d, 0xc9, 0x5a, 0xef, 0xbd, 0xee, 0x3f, 0xd4, 0xbe,
  0x8f, 0x88, 0x01, 0xbf, 0x4f, 0x3d, 0x28, 0x3e, 0xba, 0xa7, 0x8f, 0xbd,
  0xa7, 0x9c, 0x86, 0xbe, 0xc9, 0x9e, 0xfd, 0x3d, 0x1e, 0xfa, 0xbf, 0x3c,
  0xb0, 0xb6, 0xe5, 0xbd, 0x65, 0x93, 0x64, 0xbe, 0xac, 0xec, 0xf4, 0x3d,
  0xf5, 0xcf, 0xe2, 0x3e, 0x95, 0x31, 0xea, 0x3c, 0x77, 0xa0, 0xcb, 0xbe,
  0x6b, 0xae, 0xaa, 0xbe, 0x32, 0x9a, 0x52, 0xbe, 0xad, 0x7f, 0xea, 0x3d,
  0xc1, 0x38, 0x5c, 0xbd, 0xce, 0x21, 0x2b, 0x3d, 0x71, 0xac, 0xf7, 0x3c,
  0xe9, 0xf2, 0x18, 0xbe, 0x9d, 0xa9, 0x89, 0xbd, 0x46, 0xd4, 0x01, 0xbe,
  0x07, 0xe4, 0xc7, 0x3d, 0xae, 0xcf, 0x86, 0x3b, 0x21, 0x39, 0x3b, 0x3e,
  0x5a, 0xdf, 0x9e, 0x3e, 0x7e, 0x4a, 0x5a, 0xbe, 0xe0, 0x43, 0x31, 0xbe,
  0x8b, 0xf6, 0x8d, 0xbd, 0xc6, 0xad, 0x35, 0x3e, 0x49, 0x52, 0x4a, 0xbe,
  0x28, 0xf3, 0x9e, 0xbd, 0x07, 0x26, 0x08, 0x3e, 0x09, 0xb5, 0x4e, 0x3e,
  0x76, 0xf1, 0x09, 0x3d, 0xf4, 0xc1, 0xb5, 0xbd, 0x90, 0x6e, 0xd5, 0x3c,
  0x9e, 0xec, 0x48, 0xbd, 0x68, 0xb3, 0x45, 0xbd, 0x24, 0x6a, 0x65, 0x3e,
  0xb2, 0xd4, 0x59, 0xbe, 0x16, 0x66, 0xe1, 0x3d, 0x40, 0x8a, 0x63, 0xbd,
  0x73, 0x81, 0xba, 0x3d, 0x4d, 0x14, 0x96, 0xb9, 0x65, 0xd9, 0x0f, 0x3e,
  0xfb, 0x7d, 0x4a, 0x3d, 0xc0, 0x3f, 0xaf, 0xbd, 0x3a, 0x06, 0xb1, 0xbd,
  0x6b, 0x08, 0xcb, 0x3d, 0xbc, 0xa4, 0x61, 0x3e, 0x1f, 0xb7, 0x37, 0xbe,
  0x9f, 0xfa, 0x8c, 0x3e, 0x25, 0x94, 0xc1, 0x3d, 0x35, 0xb3, 0x5f, 0xbe,
  0xc3, 0xf2, 0xa4, 0xbc, 0x3a, 0x86, 0x2a, 0xbb, 0x83, 0x76, 0x6f, 0x3e,
  0x35, 0x62, 0xa4, 0xbd, 0xde, 0xec, 0x9f, 0xbe, 0xca, 0x80, 0x4b, 0x3d,
  0xfa, 0x1d, 0x19, 0x3e, 0x0e, 0xb2, 0x93, 0xbd, 0xa8, 0xc9, 0x23, 0x3e,
  0xb2, 0xfd, 0x8b, 0xbe, 0x57, 0x00, 0xb7, 0xbe, 0x68, 0x83, 0x94, 0x3e,
  0x2d, 0xc9, 0x04, 0xbd, 0x20, 0x37, 0x33, 0x3e, 0xbe, 0x19, 0x83, 0xbd,
  0x22, 0xc1, 0x44, 0x3d, 0x7c, 0x13, 0x01, 0xbe, 0x67, 0xbb, 0xea, 0xbd,
  0x1b, 0xb6, 0x31, 0x3d, 0x61, 0x7b, 0x0e, 0x3f, 0x09, 0xf4, 0x25, 0xbe,
  0xef, 0x0a, 0xd2, 0xbd, 0xcb, 0x25, 0x6e, 0xbe, 0xa6, 0xeb, 0x6c, 0x3e,
  0xc6, 0x49, 0x2f, 0xbe, 0x73, 0x0d, 0x81, 0xbd, 0x42, 0x33, 0xa5, 0x3e,
  0xd8, 0x43, 0x45, 0xbc, 0x02, 0x65, 0xa8, 0x3d, 0xa2, 0xb4, 0x80, 0x3d,
  0xbd, 0xf2, 0x4a, 0xbd, 0xc4, 0xf7, 0xce, 0xbc, 0xf7, 0x38, 0x6a, 0x3d,
  0x64, 0x75, 0xae, 0xbd, 0xcb, 0x98, 0x8e, 0x3e, 0xc4, 0x74, 0xee, 0xbe,
  0x54, 0x60, 0xdf, 0xbe, 0xa3, 0xfc, 0x81, 0xbe, 0xef, 0x71, 0x95, 0xbd,
  0x9f, 0x9e, 0x50, 0xbd, 0xfe, 0x08, 0x33, 0xbe, 0x8f, 0x5a, 0x81, 0xbd,
  0x75, 0x0e, 0x58, 0xbb, 0x84, 0x4e, 0x17, 0xbd, 0x43, 0x25, 0x22, 0xbd,
  0xe3, 0x29, 0x9c, 0xbe, 0x64, 0x3c, 0xd7, 0x3c, 0xae, 0xfa, 0x96, 0xbb,
  0x2d, 0x48, 0x10, 0xbe, 0x83, 0x6a, 0x27, 0xbd, 0x9f, 0x36, 0x50, 0x3e,
  0x23, 0xfc, 0x4d, 0xbe, 0xed, 0x14, 0xfb, 0x3d, 0x1d, 0x6d, 0xb1, 0x3d,
  0x1e, 0x01, 0x67, 0xbe, 0x4c, 0x3a, 0x80, 0x3e, 0x16, 0x3e, 0x18, 0x3e,
  0x68, 0x48, 0xd8, 0x3d, 0x69, 0x27, 0x61, 0xbe, 0x7e, 0x2a, 0xa7, 0xbe,
  0xe0, 0x5f, 0xba, 0xbc, 0xf4, 0xf1, 0x72, 0xbe, 0x20, 0x3f, 0x4b, 0xbd,
  0x5a, 0x26, 0x0b, 0xbe, 0x56, 0x9f, 0xfa, 0xbc, 0x34, 0x68, 0x65, 0x3d,
  0x40, 0x65, 0x1f, 0x3e, 0x61, 0x14, 0x5f, 0xbe, 0x97, 0xc0, 0x5f, 0xbc,
  0x91, 0xca, 0x3c, 0xbe, 0x56, 0x84, 0x69, 0xbd, 0x59, 0x1c, 0x1f, 0x3e,
  0x4d, 0x2a, 0xde, 0x3d, 0x3b, 0x3c, 0x1f, 0x3e, 0xb2, 0x27, 0x0d, 0xbe,
  0xc9, 0x72, 0x44, 0x3d, 0xd3, 0x25, 0x2a, 0xbd, 0xa0, 0xd0, 0x84, 0xbe,
  0x8a, 0x78, 0x53, 0xbe, 0x3c, 0x16, 0x7a, 0x3e, 0x4f, 0x3f, 0x6f, 0xbe,
  0xb7, 0x42, 0x39, 0x3e, 0xae, 0xc4, 0x54, 0x3e, 0xef, 0xf7, 0x6d, 0xbd,
  0x1e, 0x1e, 0x9c, 0xbe, 0x9b, 0xe1, 0x2b, 0xbe, 0xd3, 0xf4, 0x94, 0x3d,
  0x9c, 0x3e, 0x28, 0xbd, 0x5f, 0x7c, 0x25, 0x3e, 0x5e, 0xca, 0xdb, 0xbd,
  0x83, 0x4a, 0xad, 0xbd, 0xe5, 0x52, 0x28, 0x3e, 0xb5, 0x73, 0x95, 0x3c,
  0x3d, 0xd1, 0x1d, 0xbe, 0x5f, 0x00, 0xa3, 0xbd, 0x66, 0xfc, 0x9e, 0x3d,
  0x89, 0x2e, 0xfb, 0x3d, 0x3d, 0x52, 0x21, 0xbe, 0x98, 0x9d, 0x20, 0xbe,
  0x76, 0x7e, 0xcf, 0xbe, 0xc8, 0x1a, 0x32, 0x3e, 0x57, 0xa6, 0x10, 0xbe,
  0x4a, 0x1d, 0x38, 0xbc, 0xa5, 0x66, 0x4f, 0x3d, 0x45, 0x48, 0x19, 0x3e,
  0xf2, 0x5e, 0xf9, 0x3c, 0xbb, 0x8b, 0xcc, 0x3d, 0x3a, 0xd0, 0xed, 0xbc,
  0x2a, 0x29, 0xac, 0x3a, 0x79, 0x3a, 0x56, 0xbe, 0xe2, 0x4b, 0x33, 0xbe,
  0xc6, 0x0b, 0x2c, 0xbe, 0xeb, 0x8d, 0x36, 0xbe, 0xd0, 0x8b, 0x9f, 0x3d,
  0x54, 0xf6, 0x06, 0x3e, 0xb8, 0x7a, 0x0c, 0x3f, 0xe2, 0x1b, 0x38, 0x3c,
  0x66, 0x69, 0x89, 0xbe, 0x96, 0x89, 0x4e, 0xbe, 0xaf, 0x97, 0x0e, 0xbd,
  0x05, 0xfe, 0x32, 0x3e, 0x26, 0xae, 0xb9, 0x3e, 0xb3, 0x19, 0x0f, 0x3e,
  0xc0, 0xe1, 0x42, 0xbe, 0x3f, 0x0f, 0x61, 0x3d, 0x8b, 0x83, 0xb4, 0x3e,
  0x22, 0xa4, 0xc0, 0x3c, 0x80, 0xf3, 0x47, 0xbe, 0xec, 0xda, 0x36, 0xbe,
  0x7a, 0xd6, 0xde, 0x3c, 0xfa, 0x02, 0xc1, 0x3e, 0x70, 0xdf, 0x9a, 0x3d,
  0xcb, 0x6c, 0x72, 0xbb, 0x35, 0x86, 0xd3, 0x3e, 0x5f, 0x38, 0x23, 0xbd,
  0x3e, 0xe9, 0x90, 0xbd, 0x2e, 0x08, 0x27, 0x3e, 0x7e, 0xdb, 0x71, 0xbe,
  0x2c, 0x29, 0x28, 0xbe, 0xe0, 0x3e, 0x2d, 0x3e, 0xea, 0x9c, 0xcf, 0xbe,
  0xa4, 0xfc, 0x41, 0x3e, 0x2b, 0x46, 0x76, 0x3e, 0x5b, 0xa4, 0x0f, 0xbd,
  0x00, 0x38, 0xce, 0x3c, 0x81, 0xc8, 0x49, 0xbe, 0x1d, 0xad, 0xef, 0xbe,
  0xf6, 0x53, 0xe4, 0xbd, 0xc4, 0xf3, 0x68, 0xbe, 0x8a, 0x41, 0x9f, 0xbe,
  0x15, 0x66, 0x9e, 0x3c, 0x35, 0xa6, 0x43, 0xbe, 0x38, 0x01, 0x15, 0xbe,
  0x0c, 0xb6, 0x41, 0x3e, 0xf6, 0x6e, 0xb8, 0x3d, 0x06, 0x0f, 0x30, 0x3e,
  0x67, 0xfe, 0xd3, 0xbe, 0x6a, 0x61, 0xaf, 0xbe, 0xa7, 0x15, 0x6b, 0xbe,
  0xdf, 0xa4, 0xa9, 0x3d, 0x81, 0x9a, 0x63, 0xbe, 0x30, 0xaf, 0x6c, 0x3e,
  0xa0, 0xf1, 0x8e, 0x3d, 0x87, 0x5a, 0x35, 0x3e, 0xa3, 0x06, 0xbd, 0x3b,
  0x14, 0x4e, 0x7d, 0x3c, 0x1b, 0x79, 0x36, 0xbe, 0x54, 0x05, 0x8a, 0x3d,
  0xe9, 0x12, 0x28, 0x3d, 0x24, 0x5a, 0xbb, 0xbd, 0x42, 0x63, 0x00, 0xbe,
  0x1b, 0xf4, 0x95, 0xbc, 0xd0, 0x93, 0x2d, 0xbe, 0xb3, 0xf9, 0xda, 0x3d,
  0xd0, 0x83, 0xaf, 0x3d, 0x38, 0xfc, 0x41, 0x3d, 0x98, 0xc9, 0xeb, 0x3d,
  0xd7, 0x47, 0x84, 0xbd, 0x7e, 0x77, 0x8a, 0x3e, 0x09, 0x5d, 0x33, 0xbe,
  0xd7, 0x74, 0x26, 0xbe, 0x6c, 0x71, 0x3f, 0xbe, 0x4f, 0xf5, 0xa9, 0x3e,
  0xc4, 0x44, 0x1f, 0x3e, 0xa8, 0x6e, 0x46, 0xbe, 0x21, 0xfe, 0x1e, 0xbd,
  0xd2, 0x03, 0xec, 0xbc, 0x87, 0x32, 0x86, 0xbc, 0x5c, 0x9f, 0x4c, 0xbe,
  0xd7, 0xeb, 0x2b, 0x3e, 0xce, 0x7f, 0x98, 0x3d, 0xd1, 0x26, 0x98, 0xbd,
  0xc4, 0x56, 0xfb, 0x3d, 0x48, 0xd3, 0x49, 0x3e, 0x94, 0x90, 0xcb, 0xba,
  0x2b, 0x37, 0x69, 0xbd, 0xbe, 0xbf, 0xff, 0x3d, 0xe5, 0xf6, 0x81, 0xbe,
  0x0a, 0x2d, 0x84, 0x3d, 0x34, 0xd5, 0x27, 0x3c, 0xe3, 0xb9, 0xb3, 0xbd,
  0x13, 0x47, 0x49, 0x3e, 0xd5, 0x99, 0xf2, 0x3d, 0x3a, 0xad, 0x47, 0x3e,
  0x21, 0x87, 0x53, 0xbd, 0xc6, 0x89, 0x03, 0xbe, 0x1d, 0xbd, 0x3b, 0x3d,
  0xf0, 0x00, 0x32, 0xbd, 0x48, 0x5b, 0x6e, 0xbd, 0x33, 0x67, 0x21, 0x3e,
  0xe6, 0xf6, 0x21, 0xbe, 0x45, 0xec, 0xf6, 0xbc, 0x1f, 0xb2, 0x40, 0x3e,
  0x93, 0x2d, 0xc2, 0x3d, 0x1a, 0xfb, 0x6e, 0x3e, 0x4c, 0xea, 0x70, 0xbe,
  0xdf, 0x54, 0x53, 0xbe, 0x2a, 0x79, 0x2c, 0xbe, 0x9f, 0x1b, 0x72, 0xbe,
  0x49, 0xb7, 0x5d, 0x3d, 0x45, 0x62, 0x43, 0x3e, 0xf1, 0x33, 0x50, 0x3e,
  0x71, 0x56, 0x71, 0x3c, 0x48, 0x17, 0xad, 0xbd, 0x53, 0xe5, 0x46, 0x3c,
  0xbd, 0x05, 0x7f, 0x3c, 0x82, 0x91, 0x2e, 0x3b, 0x92, 0x9e, 0x71, 0x3e,
  0x86, 0xc7, 0x1c, 0xbe, 0xe1, 0x5c, 0x8c, 0xb9, 0xb8, 0xb2, 0x28, 0x3d,
  0x03, 0xa9, 0xea, 0x3d, 0xcc, 0xdf, 0x35, 0xbe, 0xd9, 0x78, 0x53, 0x3e,
  0x66, 0xf5, 0x20, 0xbc, 0xd9, 0x72, 0x82, 0x3e, 0x94, 0xab, 0x33, 0x3e,
  0x03, 0x44, 0x85, 0x3b, 0xf5, 0x89, 0xe3, 0x3d, 0x73, 0xab, 0x0e, 0x3c,
  0x34, 0x5a, 0xc4, 0x3d, 0xd1, 0x63, 0x06, 0x3d, 0x14, 0x3f, 0xf0, 0xbd,
  0x98, 0x4a, 0x3a, 0xbe, 0x1d, 0x5b, 0x8b, 0xbd, 0xd8, 0x4c, 0x2f, 0xbe,
  0x09, 0x03, 0x1a, 0xbe, 0xdf, 0x74, 0x80, 0x3e, 0x25, 0xa1, 0x83, 0x3d,
  0xbe, 0x2b, 0x38, 0xbe, 0x42, 0x83, 0x8b, 0x3d, 0xd5, 0x08, 0x3b, 0xbe,
  0x02, 0x1e, 0x6a, 0x3e, 0xf8, 0x17, 0xfc, 0x3d, 0x90, 0x09, 0x78, 0xbd,
  0x0e, 0xe9, 0x75, 0x3e, 0x18, 0x9d, 0x99, 0x3d, 0x59, 0xaa, 0xca, 0xbd,
  0x4a, 0x03, 0x6f, 0xbc, 0xf1, 0xbf, 0xe2, 0xbc, 0x5e, 0x06, 0x6d, 0x3e,
  0x63, 0x7c, 0xae, 0x3d, 0xdb, 0xc4, 0xe9, 0x3d, 0xeb, 0xba, 0x06, 0xbe,
  0x76, 0xf8, 0xb1, 0x3d, 0x89, 0x13, 0x4e, 0x3e, 0x71, 0x6b, 0xcb, 0xbd,
  0xd2, 0x15, 0xc2, 0x3d, 0x81, 0x78, 0x8f, 0xbe, 0xd9, 0xca, 0xb7, 0xbd,
  0x52, 0xb0, 0xa8, 0xbd, 0xc5, 0xb3, 0x29, 0xbe, 0xa0, 0xe9, 0xb7, 0x3c,
  0x8c, 0xb1, 0x2f, 0x3e, 0x6f, 0x64, 0xc2, 0x3c, 0xd5, 0x23, 0x5c, 0xbe,
  0x22, 0xc0, 0x5f, 0x3d, 0xbe, 0xb9, 0x91, 0x3e, 0x52, 0xe4, 0xef, 0x3d,
  0x92, 0x47, 0x53, 0xbe, 0xce, 0x3d, 0x01, 0x3e, 0x32, 0xfe, 0xfa, 0x3d,
  0x21, 0x4f, 0xf5, 0xbd, 0xe1, 0x8a, 0x47, 0xbe, 0xcb, 0xb6, 0x53, 0xbe,
  0xee, 0x59, 0x1e, 0x3e, 0xa0, 0xc6, 0xab, 0x3d, 0x29, 0x53, 0x10, 0x3e,
  0x44, 0xed, 0xa5, 0xbd, 0xca, 0x06, 0x41, 0x3c, 0x1c, 0x0b, 0x26, 0x3e,
  0xd1, 0xd2, 0x09, 0xbc, 0xf1, 0x33, 0x24, 0x3e, 0x85, 0xd2, 0x5c, 0x3e,
  0x02, 0x3a, 0x55, 0xbe, 0x42, 0x2d, 0x10, 0xbe, 0x68, 0x90, 0x63, 0x3d,
  0xfb, 0x03, 0x11, 0x3d, 0xb9, 0xe8, 0xd2, 0xbd, 0x18, 0x0c, 0x32, 0x3e,
  0xec, 0x46, 0x65, 0x3b, 0x99, 0xb2, 0xd8, 0x3d, 0xe7, 0xec, 0x3a, 0xbd,
  0x55, 0xc1, 0x86, 0xbd, 0xfc, 0x1d, 0xb9, 0x3d, 0xf1, 0xd9, 0x3c, 0x3e,
  0x78, 0x58, 0x33, 0xbe, 0x7d, 0xa5, 0x03, 0xbe, 0xaa, 0x45, 0x5e, 0x3d,
  0x91, 0x2d, 0x74, 0x3e, 0x19, 0xab, 0x6b, 0xbe, 0x5b, 0xec, 0x6c, 0xbe,
  0xe0, 0x4b, 0x8f, 0x3e, 0x14, 0xfe, 0xa4, 0xbd, 0x3a, 0x1b, 0x2a, 0x3e,
  0x10, 0x6b, 0x41, 0xbe, 0x61, 0xd3, 0xae, 0xbd, 0xb3, 0x12, 0x8a, 0x3e,
  0xb7, 0x0f, 0xd0, 0x3d, 0x16, 0xbe, 0x22, 0xbe, 0xbc, 0x93, 0xe7, 0x3d,
  0x33, 0x08, 0xce, 0xbd, 0x02, 0xe9, 0xf2, 0x3d, 0xc8, 0xce, 0x99, 0x3c,
  0xb3, 0xa5, 0x39, 0x3e, 0x5a, 0xad, 0x04, 0x3e, 0xcf, 0x70, 0xdb, 0x3d,
  0x0c, 0xb6, 0xa3, 0xbd, 0x22, 0x26, 0xba, 0xbd, 0x85, 0x59, 0xe9, 0x3d,
  0xe2, 0xc5, 0xfe, 0x3d, 0x93, 0x3e, 0x61, 0xbe, 0xdd, 0x3d, 0x42, 0xbe,
  0x88, 0x0e, 0x3e, 0x3d, 0x34, 0xf1, 0x53, 0xbb, 0x50, 0x8d, 0xbb, 0x3d,
  0xdc, 0x9a, 0x18, 0x3e, 0xde, 0x3e, 0xd0, 0xbd, 0xdd, 0x09, 0x9b, 0xbe,
  0x73, 0x16, 0x2d, 0x3e, 0xc9, 0x64, 0x8f, 0x3d, 0x62, 0x9a, 0x46, 0xbe,
  0x28, 0x03, 0x37, 0xbe, 0x28, 0x82, 0x19, 0xbd, 0xe0, 0x60, 0x6c, 0x3e,
  0x7f, 0x7c, 0x19, 0x3e, 0xb8, 0xa3, 0x89, 0xbd, 0x16, 0x5c, 0xa4, 0x3d,
  0xf2, 0x0a, 0x39, 0xbe, 0xfe, 0x82, 0x32, 0x3c, 0xed, 0x20, 0x09, 0xbe,
  0x4a, 0x13, 0x86, 0x3c, 0xb2, 0x0c, 0xb5, 0x3d, 0x00, 0x04, 0xef, 0xbd,
  0x32, 0xd2, 0x22, 0x3e, 0x24, 0xa7, 0x87, 0x3e, 0x91, 0x4e, 0x8b, 0x3e,
  0x7a, 0xaf, 0xbc, 0x3c, 0x58, 0x7d, 0xea, 0x3c, 0x5c, 0xa2, 0x34, 0x3e,
  0xb2, 0xf6, 0x66, 0x3e, 0xee, 0xe8, 0x01, 0xbd, 0x66, 0x81, 0x1c, 0xbe,
  0x49, 0x4e, 0x9a, 0xbd, 0x42, 0x30, 0x52, 0xbe, 0x07, 0x4e, 0xef, 0x3d,
  0x6e, 0x11, 0x9b, 0x3d, 0x02, 0xe3, 0xde, 0x3a, 0xb4, 0xe9, 0x36, 0x3e,
  0x2d, 0x11, 0x53, 0x3e, 0xf8, 0x31, 0x59, 0x3e, 0x12, 0xf0, 0x03, 0xbe,
  0xb1, 0x05, 0x25, 0x3e, 0x97, 0x9d, 0x78, 0x3e, 0xf9, 0x4d, 0xbb, 0xbc,
  0x92, 0xdb, 0x81, 0x3d, 0x6e, 0x95, 0xa5, 0x3d, 0x43, 0x9f, 0xa1, 0xbd,
  0xb5, 0x9e, 0x86, 0xbe, 0x2a, 0x19, 0x17, 0x3d, 0x0c, 0xe6, 0xfc, 0xbd,
  0x35, 0xeb, 0xa1, 0x3c, 0xaf, 0xa1, 0x23, 0x3e, 0x43, 0xc1, 0x4a, 0xbe,
  0xcd, 0x33, 0x46, 0xbd, 0xec, 0x60, 0x0e, 0x3e, 0x34, 0x10, 0x91, 0xbe,
  0x27, 0xfb, 0x00, 0x3e, 0x9b, 0x6c, 0x7c, 0x3d, 0x26, 0x4c, 0x20, 0x3c,
  0x4c, 0xf2, 0x75, 0xbe, 0xeb, 0xd6, 0x6d, 0xbe, 0x95, 0xbd, 0x23, 0x3e,
  0x95, 0x9b, 0x2f, 0xbc, 0xaa, 0x62, 0x96, 0xbe, 0xf1, 0x14, 0x93, 0x3d,
  0x84, 0xd8, 0xcc, 0x3d, 0xcd, 0xad, 0xf4, 0xbd, 0xc1, 0xb0, 0x0f, 0xbd,
  0xf9, 0xd6, 0x5e, 0x3e, 0xd8, 0xfa, 0xd7, 0xbd, 0x0a, 0x85, 0x85, 0xbe,
  0x52, 0x3f, 0x85, 0xbe, 0xb5, 0x8a, 0xff, 0xbd, 0x57, 0x1f, 0xfd, 0x3c,
  0x99, 0xa6, 0x06, 0xbc, 0x9b, 0x79, 0x61, 0xbe, 0xe2, 0x35, 0x54, 0x3e,
  0xb7, 0x19, 0x17, 0xbe, 0x9f, 0x16, 0x99, 0xbd, 0xbb, 0x0c, 0xda, 0xbe,
  0x5a, 0x19, 0x8e, 0xbe, 0x9b, 0xec, 0x43, 0xbe, 0x22, 0xb1, 0x8d, 0x3e,
  0x7a, 0x2f, 0x45, 0x3e, 0xbd, 0x4c, 0xac, 0x3d, 0x53, 0x56, 0xf2, 0x3b,
  0x0d, 0x07, 0x1d, 0x3e, 0x21, 0x11, 0x8c, 0xbe, 0xfd, 0x7a, 0x28, 0xbe,
  0x48, 0xad, 0x49, 0x3d, 0x94, 0x3f, 0x9a, 0x3d, 0x3d, 0xf2, 0x01, 0x3e,
  0xc4, 0x3c, 0x42, 0x3e, 0x4b, 0x22, 0x6b, 0xbe, 0xe8, 0x45, 0xa6, 0x3d,
  0x31, 0x40, 0x48, 0xbd, 0x88, 0xc0, 0xaa, 0xbc, 0x1f, 0x50, 0x7c, 0x3d,
  0x81, 0xd9, 0x66, 0xbd, 0x6c, 0xa0, 0xaa, 0x3c, 0x3f, 0xc4, 0xc4, 0x3d,
  0x30, 0x18, 0x24, 0x3d, 0x5a, 0xcb, 0x25, 0xbe, 0x46, 0xaa, 0x5d, 0x3e,
  0x9b, 0xdf, 0x37, 0xbe, 0x8c, 0x19, 0x6c, 0xbe, 0x06, 0x29, 0xb4, 0x3d,
  0x64, 0xa0, 0xdd, 0xbd, 0xcc, 0xe3, 0x35, 0xbe, 0x24, 0xa3, 0x8e, 0x3c,
  0x26, 0x7f, 0x17, 0xbb, 0x70, 0x22, 0xb8, 0x3d, 0x47, 0x4e, 0x85, 0x3e,
  0x26, 0x39, 0xd7, 0xbd, 0xf0, 0x9d, 0x56, 0x3d, 0x82, 0xcb, 0x1e, 0xba,
  0x84, 0x93, 0xf2, 0x3d, 0x15, 0xb6, 0x15, 0xbe, 0x11, 0x9b, 0x4f, 0xbe,
  0x31, 0xc8, 0x95, 0xbd, 0x76, 0xd2, 0x34, 0x3e, 0x4d, 0x74, 0x8c, 0xbe,
  0x57, 0x91, 0x8e, 0xbe, 0x97, 0x0d, 0x00, 0xbe, 0x22, 0x92, 0x28, 0xbe,
  0x68, 0x98, 0x1d, 0x3c, 0xff, 0x19, 0x3d, 0x3e, 0x1d, 0xb2, 0x8d, 0x3c,
  0x21, 0xe0, 0xff, 0xbd, 0x5f, 0x01, 0xd3, 0xbd, 0x5f, 0xec, 0x5a, 0xbe,
  0xdc, 0x8a, 0x8b, 0x3d, 0xa6, 0xf4, 0xd5, 0x3d, 0xd2, 0xc3, 0x53, 0xbe,
  0xd5, 0x22, 0x14, 0x3e, 0xda, 0x60, 0xb3, 0x3e, 0x6e, 0x5b, 0x8a, 0x3e,
  0xb8, 0x24, 0x95, 0x3e, 0x9b, 0xa1, 0x81, 0x3d, 0xc9, 0x95, 0x53, 0xbe,
  0x60, 0xb0, 0x82, 0xbc, 0x27, 0x2a, 0x5a, 0xbe, 0x9e, 0x25, 0x63, 0xbe,
  0x18, 0xb7, 0x15, 0x3d, 0xd0, 0x2a, 0x59, 0xbd, 0x4e, 0xbe, 0x1b, 0x3c,
  0xa0, 0x9e, 0x76, 0xbe, 0x76, 0xc7, 0xfb, 0xbd, 0x2f, 0xb6, 0xca, 0xbd,
  0x09, 0x6a, 0x60, 0xbe, 0x04, 0x8a, 0x00, 0xbe, 0x9c, 0x2e, 0x18, 0x3e,
  0x80, 0x7f, 0x91, 0x3e, 0x57, 0xec, 0x32, 0x3e, 0x49, 0x01, 0x4a, 0xbe,
  0x6e, 0x7f, 0xac, 0x3d, 0x0d, 0xf6, 0x49, 0xbe, 0xe3, 0x02, 0xb9, 0xbb,
  0xaf, 0xbb, 0xc2, 0xbd, 0xc8, 0x10, 0x0e, 0xbe, 0x0b, 0x8b, 0x00, 0x3d,
  0xf6, 0x31, 0x2c, 0x3e, 0x66, 0x82, 0xd5, 0x3d, 0xbf, 0x60, 0x99, 0x3c,
  0xa9, 0xac, 0x03, 0x3e, 0xd6, 0x7d, 0x68, 0x3e, 0x9c, 0x80, 0x14, 0x3d,
  0x7b, 0x8d, 0x77, 0xbd, 0x0c, 0x15, 0xa1, 0xbc, 0x30, 0xc5, 0x39, 0x3e,
  0x77, 0x83, 0xc4, 0xbd, 0x6e, 0x5c, 0x1a, 0x3d, 0x2d, 0x51, 0x61, 0x3d,
  0xf4, 0xf5, 0xdb, 0xbd, 0x96, 0x8c, 0x8b, 0xbd, 0xdd, 0xda, 0x87, 0x3e,
  0x79, 0x43, 0x2d, 0x3d, 0x03, 0xca, 0x7e, 0x3c, 0x56, 0xfb, 0x88, 0xbd,
  0x75, 0x9e, 0x2f, 0x3d, 0xdf, 0x08, 0x3e, 0x3d, 0x40, 0x31, 0xb2, 0x3a,
  0x0a, 0x11, 0x19, 0x3e, 0x1c, 0xa8, 0xd0, 0xbc, 0x71, 0x58, 0x2d, 0xbd,
  0x42, 0xb3, 0xe9, 0x3d, 0x16, 0x73, 0x96, 0x3e, 0x9b, 0x23, 0x14, 0xbe,
  0x68, 0xf7, 0x8a, 0xbd, 0x5c, 0x5d, 0xe8, 0x3d, 0x9e, 0xf8, 0xf2, 0xbc,
  0xa5, 0xf8, 0x7c, 0x3d, 0xd5, 0xe3, 0xa5, 0x3e, 0xb4, 0xf7, 0x2f, 0x3d,
  0x97, 0xa2, 0x44, 0x3d, 0x92, 0x9f, 0x03, 0x3e, 0x39, 0x25, 0xd7, 0xbd,
  0xce, 0x28, 0x68, 0xbe, 0xf7, 0xbb, 0x7b, 0xbe, 0x44, 0xa2, 0x99, 0xbe,
  0x36, 0x18, 0xfe, 0xbc, 0x30, 0xbc, 0xe6, 0xbd, 0x22, 0xce, 0x93, 0x3d,
  0xcb, 0x32, 0xec, 0xbd, 0x13, 0xaf, 0x56, 0xbe, 0x0b, 0xbf, 0x8c, 0xbd,
  0x42, 0x2a, 0x28, 0xbd, 0xaa, 0x7b, 0x75, 0xbe, 0xb8, 0xaf, 0x7e, 0xbe,
  0x02, 0xee, 0x1e, 0xbe, 0x15, 0xd4, 0x51, 0xbd, 0xd9, 0xb0, 0x46, 0x3d,
  0xfe, 0x51, 0x40, 0xbe, 0xe3, 0xe9, 0xf7, 0xbc, 0xde, 0x0c, 0x84, 0x3e,
  0xd5, 0xf8, 0x2c, 0x3c, 0xbc, 0x54, 0x38, 0xbe, 0xaf, 0xe4, 0x55, 0xbe,
  0x07, 0x1a, 0x56, 0x3e, 0x4c, 0x05, 0x87, 0x3e, 0xff, 0x21, 0x19, 0x3e,
  0x06, 0x00, 0x78, 0xbc, 0xe9, 0x01, 0x22, 0xbe, 0x65, 0x20, 0x3e, 0x3e,
  0xaa, 0x4d, 0x99, 0xbc, 0x5a, 0x94, 0x5a, 0xbc, 0x55, 0x34, 0x37, 0xbd,
  0xde, 0x29, 0xd7, 0xbd, 0x11, 0xfb, 0xb9, 0xbd, 0xd3, 0x6c, 0xff, 0xbd,
  0x3b, 0x2e, 0xae, 0xbc, 0x88, 0x37, 0x59, 0x3d, 0x56, 0x88, 0xc2, 0x3d,
  0xf5, 0x57, 0x5e, 0x3e, 0x45, 0xf1, 0xfc, 0xbd, 0xb1, 0x96, 0x38, 0x3d,
  0xa2, 0xb8, 0x2b, 0x3e, 0x29, 0x0e, 0x52, 0xbc, 0xa0, 0x1d, 0x7e, 0x3d,
  0x3d, 0xfd, 0x8c, 0x3d, 0xb3, 0x0a, 0x62, 0x3e, 0xfa, 0x7e, 0x4a, 0xbd,
  0x86, 0x7b, 0x32, 0xbe, 0x03, 0x86, 0xd5, 0xba, 0x2e, 0x51, 0xce, 0x3c,
  0xaa, 0x06, 0x50, 0xbe, 0x98, 0x07, 0xd9, 0xbd, 0xd4, 0x46, 0xb7, 0xbd,
  0x1a, 0x3c, 0x1c, 0x3e, 0x83, 0xe4, 0x4d, 0xbe, 0x04, 0x8e, 0x40, 0xbe,
  0x19, 0x07, 0x8e, 0xbe, 0x54, 0xfd, 0x12, 0x3e, 0xd2, 0x94, 0x45, 0x3d,
  0xe3, 0xf5, 0x0e, 0x3e, 0x6b, 0x1f, 0xa7, 0xbd, 0x66, 0x02, 0xa9, 0x3d,
  0xe5, 0x74, 0x1a, 0xbe, 0x78, 0xa2, 0x35, 0xbe, 0xd9, 0x2f, 0xe6, 0xbd,
  0x27, 0x95, 0x15, 0x3d, 0x79, 0x68, 0x5f, 0xbe, 0x96, 0x0f, 0x65, 0x3e,
  0x27, 0x80, 0x61, 0xbe, 0xb8, 0xe9, 0x68, 0xbe, 0x5f, 0x0d, 0x3d, 0x3d,
  0x50, 0x43, 0x7d, 0xbd, 0x37, 0x19, 0x85, 0x3e, 0x96, 0xe6, 0x75, 0x3e,
  0xe0, 0x5c, 0x3f, 0x3e, 0x02, 0x2b, 0x14, 0xbd, 0x45, 0xc3, 0xdb, 0xbd,
  0x17, 0xe8, 0x2d, 0xbe, 0xb5, 0xf3, 0x2b, 0x3e, 0xff, 0xa7, 0x02, 0x3e,
  0x9b, 0x19, 0x7a, 0xba, 0x19, 0xfe, 0x3f, 0xbe, 0xc6, 0xad, 0x2e, 0x3d,
  0x91, 0xa8, 0x67, 0xbd, 0x33, 0xce, 0xd6, 0xbd, 0x6f, 0x31, 0x6e, 0xbe,
  0x63, 0xce, 0xe7, 0xbc, 0xbf, 0xa8, 0xc2, 0x3d, 0xc8, 0xb3, 0x47, 0xbe,
  0x3e, 0xc7, 0x57, 0x3e, 0x84, 0xc0, 0x06, 0x3e, 0x58, 0xe3, 0xeb, 0x3d,
  0x43, 0x6c, 0xbb, 0x3d, 0x4e, 0x79, 0x3c, 0x3e, 0x6e, 0x0b, 0x0b, 0x3e,
  0x14, 0x65, 0x91, 0xbc, 0x50, 0x24, 0x98, 0xbb, 0x10, 0xed, 0xfa, 0x3b,
  0xde, 0x62, 0x8b, 0xbd, 0x72, 0x1d, 0x06, 0xbe, 0x0e, 0x4b, 0x1f, 0xbe,
  0xc8, 0xe0, 0x56, 0xbd, 0x4f, 0x9f, 0x2f, 0x3e, 0x10, 0x07, 0xaa, 0x3c,
  0xc9, 0xa0, 0x4c, 0xbe, 0xa8, 0xdc, 0xde, 0xbd, 0xbf, 0x99, 0xe8, 0x3d,
  0xca, 0x4a, 0x83, 0xbd, 0xad, 0x9a, 0x8e, 0xbd, 0x70, 0x10, 0x13, 0x3e,
  0x4b, 0x47, 0x26, 0xbe, 0x27, 0x44, 0x86, 0xbe, 0xc0, 0x2d, 0x4b, 0x3d,
  0xc4, 0x13, 0x18, 0xbd, 0xa2, 0x8f, 0xe2, 0x3d, 0xb9, 0x1d, 0x7b, 0x3e,
  0x5d, 0xfc, 0xcb, 0xbb, 0x62, 0x10, 0x79, 0x3e, 0x33, 0x8e, 0x12, 0xbe,
  0x28, 0x0f, 0xfb, 0x3d, 0x1a, 0x34, 0x13, 0x3e, 0xef, 0x89, 0x29, 0xbe,
  0x24, 0x34, 0xd1, 0xbb, 0x4e, 0xd0, 0x9c, 0xbd, 0x1a, 0x3e, 0x09, 0xbe,
  0xa5, 0xe9, 0x55, 0xbd, 0xff, 0x6c, 0x23, 0x3b, 0x2f, 0x41, 0x6f, 0xbd,
  0xf3, 0x83, 0x15, 0xbe, 0xf4, 0x97, 0x0b, 0xbe, 0xa1, 0x3e, 0x13, 0xbe,
  0x18, 0xc2, 0x33, 0xbd, 0xc1, 0x7f, 0x2b, 0xbe, 0xe5, 0x77, 0xf9, 0x3d,
  0x37, 0xf5, 0xb4, 0x3d, 0xaf, 0xa2, 0x4b, 0xbe, 0x6e, 0x45, 0x21, 0x3e,
  0x58, 0x4f, 0x4d, 0x3e, 0xe1, 0x43, 0x22, 0xbe, 0xc6, 0xe1, 0x4f, 0x3e,
  0xa3, 0xb0, 0x25, 0x3e, 0x75, 0x90, 0xb5, 0x3d, 0x41, 0xfd, 0xfd, 0xbd,
  0x3a, 0xcc, 0xd6, 0x3d, 0x16, 0xe5, 0xd4, 0x3d, 0x03, 0xb5, 0x4c, 0xbe,
  0x94, 0xea, 0x16, 0xbe, 0x34, 0x8d, 0x51, 0x3d, 0xa3, 0xd8, 0xa8, 0x3c,
  0xa1, 0xec, 0x0d, 0x3e, 0x67, 0x65, 0x4d, 0xbd, 0x11, 0xcb, 0x87, 0x3e,
  0x53, 0xae, 0x24, 0xbe, 0x7f, 0x3e, 0x29, 0x3e, 0xcb, 0x12, 0x33, 0xbd,
  0xcf, 0x54, 0x43, 0x3d, 0xe7, 0x74, 0x74, 0x3d, 0xff, 0x5a, 0x94, 0xbe,
  0x6c, 0xaa, 0xe5, 0xbc, 0x9c, 0xce, 0x0e, 0x3e, 0x85, 0xb5, 0xf6, 0xbb,
  0x65, 0xe9, 0x15, 0xbe, 0xa0, 0x56, 0x84, 0xbc, 0xa8, 0xf6, 0xb2, 0x3d,
  0x5a, 0x54, 0xcb, 0xbd, 0xb7, 0x73, 0x11, 0x3e, 0x6c, 0xd1, 0xd9, 0x3d,
  0x44, 0x19, 0x11, 0x3d, 0x8d, 0x82, 0xff, 0x3b, 0x89, 0xa4, 0x6d, 0xbd,
  0xe7, 0xb6, 0xf0, 0xbd, 0x4d, 0x39, 0x3c, 0x3e, 0x65, 0x0c, 0xf1, 0x3c,
  0x84, 0x9a, 0x48, 0x3e, 0xdd, 0xf2, 0x11, 0x3e, 0x82, 0xc3, 0x77, 0x3e,
  0x53, 0x3c, 0xa3, 0xbd, 0x71, 0xd0, 0x3d, 0xbe, 0x78, 0xf4, 0xb6, 0xbd,
  0x23, 0xf0, 0x79, 0xbe, 0x22, 0xea, 0x25, 0xbe, 0xd6, 0x87, 0xc9, 0x3c,
  0xbb, 0x3a, 0xad, 0x3d, 0xdf, 0x74, 0x76, 0x3e, 0xd8, 0x57, 0x7d, 0x3d,
  0xd6, 0xc4, 0x5d, 0x3d, 0x2c, 0x54, 0x99, 0x3b, 0xe5, 0x88, 0x7e, 0x3e,
  0x38, 0xdc, 0xae, 0x3d, 0xcf, 0xcb, 0xe7, 0xbd, 0xc3, 0xdf, 0x6c, 0xbc,
  0x76, 0x64, 0x44, 0x3e, 0x81, 0x02, 0x91, 0x3d, 0x01, 0xdb, 0xfb, 0xbd,
  0x80, 0x5b, 0xc9, 0x3d, 0x73, 0x03, 0x07, 0x3e, 0xea, 0xfe, 0x80, 0x3e,
  0x8e, 0xd1, 0x0c, 0x3e, 0x21, 0xc0, 0x91, 0xbd, 0x34, 0x00, 0xd7, 0xbd,
  0xcc, 0xaa, 0x0f, 0xbe, 0x24, 0xfd, 0xba, 0xbd, 0xf3, 0xb8, 0xa1, 0x3d,
  0xdb, 0xa1, 0x5a, 0xbd, 0xb7, 0x4c, 0x06, 0x3e, 0x48, 0x19, 0x8f, 0x3e,
  0x38, 0xdf, 0x57, 0x3e, 0xad, 0xbd, 0x72, 0xbd, 0xb0, 0x8d, 0xa5, 0xbd,
  0x86, 0x6b, 0x13, 0xbe, 0x3f, 0x49, 0x5e, 0xbe, 0x44, 0xa7, 0x34, 0xbe,
  0xe9, 0xc1, 0xb5, 0x3c, 0xc6, 0x90, 0xe0, 0x3c, 0x01, 0xf3, 0x31, 0x3e,
  0x61, 0x5c, 0xb7, 0xbe, 0x02, 0x12, 0x0b, 0xbe, 0x79, 0x83, 0x79, 0xbe,
  0x82, 0xa6, 0x64, 0x3e, 0xff, 0xfc, 0x56, 0xbe, 0x8e, 0xf9, 0xb7, 0x3d,
  0x83, 0x77, 0x3f, 0xbd, 0x5e, 0x9d, 0x8e, 0xbe, 0x68, 0xca, 0x47, 0xbe,
  0xdc, 0xd5, 0x29, 0xbe, 0x81, 0x33, 0xde, 0x3d, 0x94, 0x05, 0xf9, 0x3d,
  0x32, 0x79, 0x47, 0x3e, 0x5d, 0x0d, 0xcf, 0x3c, 0x21, 0x21, 0x48, 0x3d,
  0xf7, 0x51, 0x3a, 0x3e, 0x16, 0x32, 0x26, 0xbc, 0xd6, 0xd2, 0x22, 0xbe,
  0x1c, 0x3a, 0x3a, 0xbe, 0x9a, 0xbd, 0x12, 0x3e, 0x21, 0xba, 0x06, 0xbd,
  0x3d, 0x62, 0x83, 0xbd, 0x20, 0x66, 0x71, 0xbe, 0x70, 0xe4, 0xb4, 0xbc,
  0x64, 0x72, 0x6f, 0xba, 0x1a, 0xca, 0xa0, 0x3d, 0x2c, 0x96, 0x32, 0xbd,
  0xcc, 0xcc, 0x99, 0xbd, 0xe9, 0x15, 0x37, 0x3d, 0xbd, 0x4f, 0xda, 0x3c,
  0x2d, 0xc7, 0x9a, 0xbe, 0x39, 0x00, 0xba, 0xbd, 0x15, 0x30, 0xd9, 0xbd,
  0x8b, 0x0a, 0x95, 0x3d, 0x1e, 0xed, 0x2d, 0xbe, 0x2f, 0x28, 0x01, 0xbe,
  0x5e, 0x09, 0xbd, 0x3d, 0x72, 0x05, 0x74, 0x3d, 0x9f, 0xb3, 0x49, 0xbe,
  0xe6, 0x57, 0xd1, 0x3d, 0xbf, 0x18, 0x56, 0xbb, 0x8d, 0x1a, 0xc3, 0x3c,
  0x82, 0x4f, 0x2f, 0x3e, 0x3e, 0xd2, 0x73, 0x3e, 0x47, 0x5a, 0x15, 0xbe,
  0x97, 0x85, 0xe0, 0x3c, 0x4c, 0x33, 0xd3, 0xbd, 0xcc, 0x95, 0x02, 0xbe,
  0xb0, 0x34, 0x5e, 0xbc, 0xed, 0x54, 0xd2, 0xbc, 0x48, 0xfb, 0x1d, 0x3d,
  0xa6, 0x50, 0x90, 0x3d, 0x6f, 0x0f, 0xd4, 0x3c, 0xef, 0x49, 0x8a, 0xbc,
  0xbc, 0xf5, 0x7e, 0x3e, 0x5c, 0xbf, 0x7d, 0xbc, 0x38, 0x96, 0x83, 0xbb,
  0x81, 0xc7, 0xfb, 0x3d, 0x8c, 0xe5, 0xf2, 0x3d, 0x2f, 0xc6, 0xf4, 0x3d,
  0x47, 0x03, 0xb5, 0x3d, 0xdf, 0x44, 0xc2, 0x3d, 0x96, 0x5e, 0x5f, 0xbb,
  0x26, 0x08, 0xef, 0x3c, 0x82, 0xd2, 0x27, 0x3e, 0x25, 0x85, 0x3e, 0xbe,
  0x0c, 0x40, 0x72, 0x3e, 0x90, 0x96, 0x76, 0x3d, 0x0f, 0x85, 0x39, 0xbe,
  0x95, 0x3d, 0x97, 0x3e, 0x8f, 0x47, 0x24, 0xbd, 0x8d, 0xcf, 0x75, 0x3c,
  0x37, 0x1c, 0x21, 0xbe, 0x53, 0x6b, 0xc7, 0xbc, 0x17, 0x2e, 0x12, 0x3e,
  0x06, 0xa1, 0x46, 0x3e, 0x43, 0xa8, 0xf8, 0x3a, 0xff, 0xab, 0x0e, 0x3e,
  0x39, 0x1f, 0x09, 0x3e, 0x6f, 0xda, 0x24, 0x3b, 0x00, 0xbc, 0x87, 0x3d,
  0xcc, 0xb0, 0x59, 0xbd, 0xc2, 0xde, 0xc4, 0xbc, 0x45, 0xc9, 0x06, 0xbe,
  0xf3, 0x48, 0x9a, 0xbd, 0xe1, 0xee, 0x0a, 0xbc, 0xed, 0x6d, 0x1b, 0xbe,
  0xf4, 0xb4, 0xf6, 0x3c, 0x69, 0xa6, 0x1c, 0xbe, 0x7d, 0xed, 0x3d, 0xbe,
  0x8b, 0x84, 0x6a, 0xbe, 0x3a, 0xa5, 0xa3, 0x3d, 0x03, 0x62, 0xa4, 0x3e,
  0x34, 0x10, 0x0f, 0x3e, 0xf1, 0xc7, 0x10, 0xbe, 0x81, 0xc5, 0xf7, 0x3d,
  0xc9, 0x3f, 0xf8, 0x3d, 0x09, 0x1d, 0x09, 0xbd, 0x7d, 0xe6, 0x0c, 0xbe,
  0x7b, 0x58, 0xf2, 0xbd, 0xf2, 0x97, 0x93, 0xbe, 0xee, 0xcb, 0xdb, 0xbd,
  0xd5, 0xe6, 0x12, 0xbe, 0x44, 0xdd, 0x15, 0xbc, 0x6a, 0xf8, 0x73, 0xbe,
  0x43, 0x86, 0x25, 0x3e, 0x98, 0x25, 0xc0, 0xbd, 0xb0, 0x3c, 0x10, 0x3d,
  0x56, 0x4e, 0x88, 0x3d, 0xe2, 0xde, 0x7c, 0xbe, 0xe1, 0xe5, 0x7f, 0xbb,
  0xf8, 0x30, 0x62, 0x3d, 0x87, 0xdc, 0xa5, 0x3d, 0x84, 0xa3, 0x4a, 0xbe,
  0x8a, 0x3a, 0x2d, 0x3e, 0xae, 0xc0, 0xe6, 0xbd, 0x05, 0x30, 0x85, 0x3d,
  0x16, 0xcd, 0x43, 0xbe, 0x27, 0x3c, 0x09, 0x3e, 0xef, 0x6b, 0x97, 0x3d,
  0x8d, 0xf0, 0x23, 0x3e, 0x8d, 0xe8, 0x06, 0x3e, 0xd7, 0x86, 0x36, 0xbd,
  0xe9, 0x97, 0x07, 0xbe, 0xf6, 0x7c, 0x68, 0xbe, 0x6d, 0x8b, 0x92, 0x3d,
  0xfb, 0x32, 0x50, 0x3e, 0xe1, 0x3c, 0x2a, 0x3e, 0xce, 0x5e, 0x83, 0x3e,
  0x2a, 0x70, 0xa4, 0x3e, 0x60, 0xe0, 0x1b, 0xbe, 0x8e, 0x1a, 0x51, 0xbe,
  0xbe, 0xac, 0x65, 0x3e, 0xde, 0x07, 0xd9, 0x3d, 0x8c, 0x04, 0xba, 0xbd,
  0x9d, 0x55, 0x64, 0x3d, 0x2f, 0xc7, 0x4e, 0xbe, 0x7b, 0xba, 0x53, 0xbe,
  0xa1, 0xcd, 0x46, 0x3d, 0xb0, 0x6f, 0xce, 0xbc, 0xf6, 0x22, 0x25, 0x3e,
  0x58, 0xab, 0x41, 0x3e, 0x1c, 0xea, 0xa0, 0x3d, 0x6c, 0x6b, 0x89, 0x3e,
  0x04, 0xb8, 0x7a, 0x3e, 0xc7, 0xfa, 0xe4, 0x3d, 0xf3, 0x09, 0x9c, 0xbc,
  0x8f, 0x95, 0x9d, 0xbd, 0xb4, 0x19, 0xa0, 0xbc, 0xc3, 0xf1, 0x31, 0x3e,
  0xce, 0x24, 0x79, 0x3d, 0xc1, 0x3f, 0xba, 0x3c, 0x71, 0x6c, 0x4b, 0xbd,
  0xf0, 0x6d, 0xfc, 0x3c, 0x15, 0x0f, 0xe7, 0xbd, 0x92, 0x57, 0x44, 0x3c,
  0x8c, 0x08, 0x37, 0xbe, 0x64, 0x33, 0x85, 0x3e, 0x77, 0x17, 0x86, 0x3d,
  0x8e, 0x13, 0x7f, 0xbe, 0x6c, 0x31, 0xf6, 0x3d, 0xc3, 0x17, 0x4a, 0x3c,
  0x6d, 0x94, 0x5e, 0x3d, 0x92, 0x13, 0x13, 0xbe, 0xbf, 0x1e, 0x65, 0x3e,
  0x38, 0x3a, 0x04, 0x3c, 0x07, 0xfc, 0x4e, 0x3e, 0x7c, 0x24, 0x82, 0x3d,
  0x5c, 0xc3, 0x31, 0x3e, 0xf5, 0x77, 0xa2, 0x3b, 0x8a, 0xc3, 0x38, 0xbe,
  0x11, 0x63, 0x66, 0xbe, 0x76, 0x1b, 0x70, 0xbe, 0xbd, 0x42, 0xd3, 0x3c,
  0xb0, 0x97, 0x9c, 0x3c, 0xe6, 0x03, 0xa0, 0xbe, 0x73, 0xcf, 0xf6, 0xbc,
  0x93, 0xf9, 0x0d, 0x3e, 0x00, 0x47, 0x36, 0xba, 0x42, 0xcb, 0x73, 0xbe,
  0xa5, 0x0d, 0xa9, 0xbc, 0xcf, 0x69, 0xff, 0xbd, 0x1f, 0xae, 0xe0, 0xbd,
  0x41, 0x99, 0x2e, 0xbe, 0x13, 0x11, 0x4d, 0xbe, 0x45, 0x28, 0x1e, 0xbe,
  0x99, 0x8c, 0x30, 0x3c, 0x77, 0x0b, 0x3e, 0xbe, 0x08, 0x52, 0x7e, 0x3e,
  0xa8, 0xfe, 0x23, 0xbd, 0x07, 0x65, 0x79, 0xbd, 0xbc, 0xce, 0xf6, 0x3d,
  0xad, 0x3a, 0x84, 0xbc, 0x9e, 0x56, 0x12, 0xbe, 0x34, 0x69, 0x6f, 0xbd,
  0x87, 0x18, 0x88, 0x3c, 0x04, 0xf2, 0x86, 0x3d, 0x7c, 0x26, 0x6e, 0xbe,
  0x4c, 0x86, 0xfb, 0xbc, 0x54, 0x1d, 0xc5, 0xbd, 0x80, 0x28, 0x61, 0xbe,
  0x84, 0x2a, 0xb6, 0xbd, 0x2b, 0xa6, 0x0f, 0xbd, 0x98, 0x95, 0x1b, 0xbe,
  0x1c, 0x02, 0xda, 0xbb, 0x64, 0x59, 0x79, 0x3d, 0x14, 0x09, 0x25, 0x3b,
  0x04, 0x7f, 0x7c, 0x3d, 0x99, 0x30, 0x14, 0x3e, 0x01, 0x4a, 0xec, 0xbc,
  0xa5, 0x10, 0x03, 0x3e, 0xeb, 0x1f, 0x37, 0xbd, 0x9f, 0x4b, 0xf9, 0x3c,
  0x01, 0xb9, 0x9f, 0x3d, 0x29, 0xe1, 0x87, 0x3e, 0x91, 0xdc, 0x13, 0xbe,
  0x10, 0x9d, 0x9a, 0xbd, 0xa7, 0xcd, 0xa7, 0xbc, 0xfc, 0x5b, 0xb9, 0xbd,
  0x6c, 0xe3, 0xf8, 0x3d, 0xa9, 0xd6, 0x4d, 0xbd, 0x7e, 0x35, 0x3d, 0x3e,
  0x12, 0xd3, 0x29, 0x3e, 0x47, 0x0a, 0xa0, 0xbe, 0xaf, 0x5e, 0xb8, 0xbe,
  0xe5, 0x44, 0x73, 0xbe, 0xa6, 0xc5, 0x1a, 0xbd, 0x79, 0x88, 0x24, 0xbe,
  0x3e, 0x3c, 0x24, 0xbe, 0x9e, 0x30, 0xb1, 0xbb, 0xfe, 0xf3, 0x13, 0x3d,
  0x69, 0x9e, 0xfc, 0xbc, 0xe9, 0xce, 0x10, 0x3e, 0xea, 0x27, 0xd7, 0xbd,
  0x82, 0x0e, 0x54, 0xbd, 0x10, 0x79, 0x2e, 0x3d, 0x45, 0x61, 0x51, 0x3e,
  0xa1, 0x0c, 0xbc, 0xbd, 0x66, 0xfe, 0x4a, 0x3d, 0x57, 0x89, 0x76, 0x3e,
  0x27, 0x44, 0x31, 0x3e, 0x21, 0x8b, 0x73, 0x3b, 0x17, 0x18, 0x2a, 0xbe,
  0x0f, 0x96, 0x18, 0x3d, 0xbd, 0xf1, 0x53, 0xbe, 0x39, 0x09, 0x2b, 0xbe,
  0x86, 0xa6, 0x0c, 0xbe, 0x61, 0x7e, 0x25, 0xbd, 0x13, 0x74, 0xc2, 0x3e,
  0xaa, 0x94, 0xe4, 0x3d, 0x05, 0x40, 0x57, 0x3e, 0x69, 0xf5, 0xd3, 0xbd,
  0xda, 0x62, 0x4b, 0xbe, 0x02, 0xdd, 0x92, 0x3d, 0xdb, 0x50, 0x4c, 0x3e,
  0x2c, 0x90, 0x35, 0xbe, 0xb2, 0x1b, 0x45, 0x3e, 0x08, 0x8e, 0xc2, 0xbc,
  0xa5, 0x83, 0x76, 0xbe, 0x5d, 0x2a, 0xd6, 0x3d, 0x4d, 0x2c, 0x4d, 0x3e,
  0x5e, 0x0b, 0xee, 0x3d, 0x68, 0x95, 0x07, 0x3d, 0xa7, 0x9e, 0xb8, 0xbd,
  0xe6, 0x31, 0x18, 0xbe, 0xd1, 0x3a, 0xc0, 0x3b, 0x80, 0xeb, 0x0d, 0xbe,
  0xd8, 0xe3, 0xc1, 0xbc, 0xfe, 0x48, 0x57, 0xbd, 0x55, 0xfc, 0x0c, 0xbe,
  0x3d, 0x12, 0xef, 0xbd, 0xc0, 0xfe, 0xa2, 0x3e, 0xba, 0x47, 0x49, 0x3d,
  0x6d, 0x01, 0x47, 0xbe, 0xa3, 0xea, 0xff, 0x3d, 0xc8, 0xe7, 0x20, 0x3d,
  0xe3, 0x7e, 0xb9, 0xbd, 0xe7, 0x9b, 0x22, 0x3e, 0x6b, 0x9b, 0x11, 0xbd,
  0x24, 0xa6, 0xf1, 0xbd, 0x9e, 0xb4, 0x6c, 0x3e, 0xdb, 0x35, 0xad, 0x3d,
  0xc5, 0x72, 0x8e, 0x3c, 0x6c, 0x12, 0x32, 0x3d, 0xa0, 0xc4, 0x99, 0x3e,
  0x25, 0x6b, 0x9b, 0x3e, 0x1b, 0x81, 0x28, 0x3e, 0xb0, 0xb6, 0x0c, 0x3d,
  0xba, 0xfc, 0x85, 0x3e, 0x87, 0xf6, 0x4a, 0x3e, 0xaf, 0x0a, 0xa0, 0x3d,
  0x92, 0x48, 0x1f, 0xbe, 0x9f, 0x69, 0x5b, 0xbe, 0x97, 0xf3, 0x97, 0x3c,
  0x5d, 0x58, 0xf9, 0x3e, 0x0c, 0x46, 0x42, 0xbd, 0x3d, 0xc1, 0x83, 0x3e,
  0x25, 0x32, 0x80, 0xbe, 0xcf, 0xa6, 0x38, 0xbe, 0x9e, 0xa8, 0xfa, 0xbd,
  0xa2, 0xf7, 0x86, 0xbd, 0x85, 0x1e, 0x83, 0xbc, 0xcf, 0x50, 0xaa, 0x3e,
  0x23, 0x8c, 0xbb, 0x3c, 0x0b, 0x5d, 0x59, 0xbe, 0xdd, 0x3f, 0xf7, 0xbd,
  0xcc, 0x72, 0x4f, 0xbd, 0x38, 0x3a, 0xdd, 0x3d, 0x6f, 0x02, 0xe9, 0x3c,
  0xab, 0x04, 0x93, 0xbc, 0x92, 0x15, 0x92, 0xbd, 0x5b, 0xd9, 0xf4, 0x3d,
  0x46, 0x2f, 0x85, 0x3d, 0xcb, 0x65, 0x24, 0xbd, 0xfb, 0xf6, 0x9e, 0x3d,
  0x56, 0xa2, 0xef, 0xbd, 0xb6, 0x71, 0xb1, 0xbd, 0x8c, 0x10, 0x69, 0x3e,
  0x3b, 0x7f, 0x15, 0xbe, 0x57, 0xcd, 0x8d, 0x3c, 0xfc, 0xf7, 0x3a, 0x3e,
  0xdb, 0x98, 0xac, 0x3d, 0x95, 0x0a, 0x2c, 0x3e, 0x16, 0xbe, 0x67, 0xbe,
  0x04, 0xcb, 0x46, 0x3e, 0xe5, 0xa2, 0x2c, 0xbd, 0xb7, 0x27, 0xd8, 0x3d,
  0x0c, 0xab, 0x86, 0x3d, 0xb5, 0x2c, 0x41, 0x3b, 0x7a, 0x90, 0x90, 0xbe,
  0x3f, 0x33, 0x3a, 0xbe, 0xb1, 0x7e, 0x5c, 0xbe, 0x66, 0x2c, 0x42, 0xbd,
  0xe5, 0x35, 0xd5, 0x3d, 0x45, 0xf1, 0x1c, 0xbe, 0x16, 0xbe, 0xbc, 0x3c,
  0xdf, 0x15, 0x92, 0x3e, 0x1b, 0xa1, 0xf9, 0x3d, 0x34, 0xf9, 0xb0, 0xbd,
  0x2c, 0xb5, 0x01, 0x3c, 0x0f, 0x09, 0xbb, 0xbd, 0xc9, 0x82, 0x0b, 0xbe,
  0xcd, 0x09, 0x25, 0x3e, 0xe2, 0x45, 0x92, 0xbc, 0x19, 0x62, 0x9e, 0x3e,
  0x11, 0xd1, 0xb0, 0x3d, 0xcc, 0x55, 0xfd, 0x3d, 0xe2, 0xea, 0xfa, 0xbd,
  0x64, 0x2e, 0x59, 0xbe, 0xc2, 0x05, 0xb5, 0xbd, 0x1b, 0x2f, 0x8b, 0xbe,
  0xde, 0xf9, 0x59, 0xbe, 0xf5, 0x66, 0xe2, 0xbd, 0xbb, 0x79, 0x10, 0xbc,
  0xbb, 0x08, 0xba, 0x3c, 0xfe, 0x6d, 0xe5, 0xbc, 0x3d, 0x4a, 0x02, 0xbe,
  0x8e, 0x58, 0x0e, 0xbe, 0x24, 0x25, 0x9e, 0xbe, 0x9e, 0xd8, 0x1d, 0x3e,
  0x84, 0x81, 0x24, 0xbe, 0xd4, 0x63, 0x9a, 0xbc, 0xfa, 0x08, 0xb0, 0xbd,
  0x40, 0x0c, 0x9a, 0x3b, 0x26, 0xd0, 0xd9, 0xbc, 0xf7, 0x34, 0x53, 0xbe,
  0xbd, 0xdf, 0x54, 0x3e, 0x72, 0x51, 0x08, 0xbe, 0x0c, 0x21, 0xfd, 0xbd,
  0x3f, 0xdf, 0x4b, 0x3e, 0x80, 0x25, 0xda, 0x3d, 0x14, 0x2b, 0x34, 0xbd,
  0xa2, 0x34, 0xd5, 0x3d, 0xd9, 0x7f, 0xc3, 0xbd, 0x76, 0xd4, 0xad, 0xbd,
  0xd2, 0x5c, 0x21, 0x3e, 0x33, 0x39, 0x7c, 0x3d, 0x5b, 0xb9, 0x5e, 0xbe,
  0xf2, 0x48, 0x16, 0x3e, 0xa9, 0x27, 0x97, 0xbd, 0x16, 0xa2, 0x23, 0x3d,
  0x1b, 0xa5, 0x3c, 0xbb, 0x40, 0x54, 0x84, 0x3c, 0xd1, 0x25, 0x4d, 0xbe,
  0xe6, 0x99, 0x99, 0xbd, 0xb1, 0xff, 0x0c, 0xbe, 0x76, 0x80, 0x0d, 0x3d,
  0x67, 0x6d, 0xfa, 0x3c, 0x5d, 0xbf, 0x43, 0xbe, 0xa8, 0x49, 0x94, 0x3d,
  0xd4, 0x90, 0x93, 0xbd, 0x1d, 0xf4, 0x1f, 0x3d, 0x8c, 0x9f, 0x76, 0x3d,
  0x99, 0xd4, 0x8e, 0xbd, 0xf6, 0xba, 0x17, 0x3e, 0xd8, 0x3c, 0x11, 0x3e,
  0xe4, 0xf3, 0x32, 0x3c, 0x6b, 0xcf, 0x7c, 0x3e, 0xd9, 0x3d, 0x38, 0xbe,
  0x0a, 0x49, 0xfb, 0xbd, 0xe9, 0x20, 0x4c, 0x3e, 0x35, 0x07, 0x2e, 0xbe,
  0xe3, 0xba, 0x0d, 0x3d, 0x22, 0x82, 0x5a, 0xbe, 0x2a, 0x32, 0xad, 0xbd,
  0x55, 0x23, 0xfd, 0x3d, 0xfc, 0xcc, 0x8b, 0xbc, 0x58, 0xac, 0x05, 0xbe,
  0xea, 0x11, 0xe3, 0xbd, 0x3e, 0xcf, 0xf0, 0x3d, 0xca, 0x01, 0x51, 0xbe,
  0x07, 0x84, 0x53, 0xbe, 0xf7, 0xea, 0xad, 0xbc, 0x3c, 0x3a, 0x00, 0x3d,
  0xcb, 0x25, 0x60, 0xbe, 0xbf, 0x02, 0xcc, 0xbd, 0xb6, 0xd0, 0x82, 0xbd,
  0x96, 0x64, 0xcd, 0x3d, 0x5c, 0xc6, 0xdb, 0xbd, 0x18, 0x38, 0x49, 0xbe,
  0x6a, 0xe3, 0x61, 0xbc, 0x6f, 0xff, 0x6f, 0xbe, 0x75, 0x5c, 0x90, 0x3d,
  0xe1, 0x30, 0x2f, 0x3e, 0x33, 0xa9, 0x33, 0xbe, 0xcc, 0xc4, 0x11, 0xbe,
  0x2e, 0x15, 0x07, 0xbe, 0x64, 0x81, 0xa6, 0x3d, 0x6d, 0x8c, 0x10, 0xbb,
  0xb8, 0x42, 0xa0, 0xbd, 0x2f, 0xce, 0x0c, 0xbe, 0x8a, 0x2f, 0x33, 0xbe,
  0x7d, 0x48, 0x82, 0x3c, 0xb2, 0x24, 0x1a, 0xbe, 0x56, 0x34, 0x42, 0x3e,
  0x85, 0xf1, 0x45, 0x3d, 0x75, 0x7c, 0x58, 0xbe, 0xf9, 0x2b, 0x3b, 0xbe,
  0x23, 0xd7, 0xcd, 0x3c, 0xe1, 0xc9, 0x2f, 0xbe, 0x7e, 0x84, 0x9d, 0x3c,
  0xb9, 0x46, 0xa5, 0xbd, 0x08, 0xd9, 0x2d, 0xbe, 0x4d, 0x5f, 0xcd, 0xbb,
  0x35, 0x96, 0xb3, 0xbd, 0x4b, 0x04, 0x32, 0x3e, 0x7e, 0x28, 0x71, 0x3e,
  0xf1, 0x70, 0x08, 0x3e, 0x9b, 0x77, 0x62, 0x3e, 0x1f, 0x56, 0x87, 0x3e,
  0xcc, 0xec, 0xe9, 0xbd, 0x5c, 0xbd, 0xf1, 0x3d, 0x06, 0xeb, 0x1f, 0xbe,
  0x4a, 0x2c, 0x6a, 0x3e, 0xe7, 0xba, 0x35, 0x3e, 0x42, 0x27, 0xf8, 0x3d,
  0xc6, 0x88, 0xbb, 0xbd, 0x53, 0x83, 0x82, 0x3e, 0x9d, 0xed, 0x9e, 0x3e,
  0x78, 0x21, 0x52, 0x3e, 0xbd, 0x33, 0x52, 0xbe, 0x1e, 0xdb, 0xb4, 0xbd,
  0xa3, 0xbe, 0x96, 0xbe, 0x69, 0x43, 0x28, 0x3d, 0xc3, 0x29, 0x52, 0x3e,
  0x1a, 0xfd, 0x97, 0x3d, 0xc0, 0x5d, 0xcd, 0xbd, 0x57, 0xa2, 0x02, 0xbe,
  0x23, 0x9b, 0x7d, 0xbd, 0xd1, 0xa7, 0x08, 0x3e, 0x72, 0xd7, 0x72, 0x3d,
  0xf7, 0xac, 0xa4, 0xbe, 0x07, 0x51, 0x14, 0xbe, 0xab, 0x33, 0xcd, 0xba,
  0x1f, 0x18, 0x79, 0x3e, 0x50, 0x3c, 0x50, 0xbe, 0xea, 0xcf, 0x01, 0x3d,
  0x19, 0x1c, 0x30, 0x3d, 0x04, 0x16, 0x82, 0x3e, 0xbb, 0xf9, 0x3a, 0x3e,
  0x14, 0x83, 0xd5, 0xbd, 0x21, 0x5c, 0x56, 0xbe, 0x2e, 0x34, 0x38, 0xbe,
  0x2b, 0x62, 0xf3, 0x3c, 0x0a, 0xb9, 0x3c, 0x3e, 0xee, 0x25, 0x34, 0xbe,
  0xff, 0xfd, 0x72, 0x3e, 0x79, 0x9f, 0xde, 0xbc, 0x85, 0xf4, 0x2f, 0x3c,
  0x42, 0xdf, 0xe6, 0x3d, 0xfe, 0xf0, 0x87, 0x3b, 0xf4, 0xe9, 0x3a, 0xbd,
  0xd8, 0x87, 0x24, 0xbe, 0xbb, 0x3a, 0x01, 0x3e, 0xc0, 0xf3, 0xb2, 0x3e,
  0xa5, 0x9c, 0xea, 0xbd, 0x8e, 0xea, 0x71, 0x3e, 0x30, 0xbb, 0xc6, 0x3d,
  0xe6, 0x47, 0xc7, 0xbd, 0x38, 0xc0, 0x13, 0xbe, 0x06, 0x0e, 0x67, 0x3e,
  0xb7, 0x40, 0x7a, 0xbe, 0x1b, 0x5b, 0xd6, 0x3c, 0x5a, 0xe1, 0xd7, 0xbd,
  0x39, 0x4d, 0xbe, 0x3d, 0x8f, 0xd9, 0x16, 0x3e, 0xd4, 0xf0, 0x35, 0x3e,
  0xe8, 0xcf, 0x0b, 0xbc, 0xbd, 0x07, 0x9f, 0x3a, 0x80, 0x7d, 0x05, 0xbe,
  0x2c, 0x0a, 0x53, 0xbd, 0x5d, 0x69, 0xb5, 0x3d, 0x89, 0x0d, 0x9e, 0x3c,
  0xce, 0x78, 0x8a, 0x3d, 0x12, 0xe8, 0x39, 0x3e, 0x64, 0x29, 0xdd, 0x3c,
  0x5c, 0x5e, 0xd4, 0xbd, 0x89, 0xc8, 0x60, 0xbe, 0x33, 0x7d, 0x1e, 0x3e,
  0x43, 0x48, 0xd0, 0x3d, 0xaa, 0x65, 0x36, 0x3d, 0x36, 0x70, 0x17, 0xbe,
  0x9d, 0x17, 0x84, 0xbe, 0xce, 0x46, 0x44, 0x3e, 0xa3, 0x3c, 0x91, 0xbd,
  0xd8, 0x16, 0x8a, 0xbe, 0x95, 0x2a, 0xcd, 0xbd, 0xe2, 0x78, 0x90, 0xbd,
  0x3f, 0xdb, 0x9a, 0xbb, 0xcd, 0xaa, 0x03, 0x3d, 0xeb, 0x25, 0x02, 0x3e,
  0x33, 0x6a, 0x31, 0xbe, 0xd2, 0xf0, 0x17, 0xbe, 0x3c, 0xa6, 0x83, 0x3d,
  0x37, 0x77, 0x44, 0xbe, 0xcf, 0xb3, 0xa0, 0x3e, 0xf8, 0x55, 0xa5, 0x3d,
  0x2c, 0x84, 0x80, 0x3d, 0x71, 0x33, 0x17, 0xbe, 0xff, 0xd9, 0xbd, 0x3d,
  0x55, 0xc5, 0x23, 0x3e, 0xf0, 0x44, 0x5a, 0xbc, 0x26, 0xa1, 0x89, 0x3e,
  0x69, 0xff, 0x84, 0x3e, 0xf3, 0x49, 0x03, 0xbd, 0x39, 0x6f, 0x42, 0x3d,
  0xac, 0x4d, 0x51, 0x3e, 0x66, 0xfa, 0xd7, 0xbd, 0x88, 0x77, 0x82, 0xbc,
  0xbb, 0x29, 0x31, 0xbe, 0x13, 0x0d, 0x2a, 0xbe, 0x89, 0xf0, 0x3f, 0x3d,
  0x77, 0x65, 0x19, 0x3e, 0x28, 0x47, 0x94, 0xbd, 0x75, 0x76, 0x3b, 0xbe,
  0xe8, 0xd5, 0x55, 0xbd, 0xdd, 0xa7, 0x31, 0xbe, 0xe8, 0xa6, 0x11, 0xbe,
  0xab, 0xab, 0x08, 0x3e, 0xa3, 0xb4, 0x1b, 0x3e, 0x0d, 0xd6, 0x23, 0xbe,
  0x48, 0x47, 0xef, 0x3d, 0x48, 0x00, 0xc4, 0x3d, 0x57, 0xb0, 0x5d, 0xbe,
  0x79, 0x4d, 0xad, 0x3d, 0xa5, 0x83, 0x09, 0xbe, 0x12, 0xd6, 0x2e, 0x3e,
  0xb8, 0xd1, 0x44, 0xbd, 0xe5, 0xa6, 0xfb, 0x3c, 0x9a, 0x3f, 0x2f, 0xbd,
  0xf8, 0x3c, 0x56, 0x3e, 0xfb, 0xad, 0x6a, 0xbe, 0x99, 0x8c, 0xbb, 0x3d,
  0x76, 0xee, 0x05, 0x3e, 0xe4, 0x95, 0x72, 0xbd, 0x9f, 0x89, 0x16, 0x3e,
  0x97, 0xda, 0x49, 0x3e, 0x81, 0x47, 0xb4, 0xbd, 0x31, 0xf4, 0x4e, 0x3e,
  0x6f, 0x18, 0x3c, 0xbd, 0x05, 0x2a, 0x55, 0xbe, 0xe0, 0x75, 0xc8, 0x3d,
  0x32, 0x84, 0x48, 0xbe, 0x91, 0x3a, 0x4e, 0x3d, 0x90, 0x80, 0x14, 0x3e,
  0x1f, 0xf9, 0x06, 0x3e, 0xf8, 0x24, 0x4d, 0xbd, 0x54, 0x54, 0xeb, 0x3d,
  0x71, 0x7d, 0xd9, 0x3d, 0x45, 0x08, 0x8a, 0xbd, 0xbf, 0x4e, 0x15, 0x3d,
  0xf0, 0xd1, 0x9b, 0xbd, 0xc6, 0x99, 0x3f, 0xbe, 0x5b, 0x6a, 0xe3, 0xbd,
  0x9a, 0x18, 0x6d, 0x3e, 0x3c, 0x99, 0x36, 0x3e, 0xd7, 0xaf, 0x23, 0xbe,
  0xa4, 0x99, 0x30, 0x3e, 0xc1, 0x2c, 0x73, 0x3d, 0xbd, 0x18, 0xef, 0x3d,
  0xb0, 0x44, 0x11, 0xbe, 0xab, 0xe6, 0xcc, 0xbd, 0xaf, 0xba, 0xcc, 0xbc,
  0x02, 0x54, 0x51, 0xbe, 0x75, 0x2c, 0xa6, 0x3d, 0x6e, 0x03, 0x72, 0xbe,
  0xa1, 0xa2, 0x31, 0x3e, 0x5a, 0x1b, 0xcd, 0x3d, 0x85, 0x35, 0xb2, 0x3d,
  0xfa, 0x07, 0x87, 0xbd, 0x09, 0x9f, 0x1b, 0x3e, 0xbc, 0x94, 0x6f, 0xbe,
  0xb3, 0x5d, 0x40, 0xbe, 0xd0, 0x22, 0xea, 0x3d, 0xd6, 0x5d, 0x49, 0xbe,
  0x92, 0xd2, 0xc9, 0xbd, 0x9e, 0x9d, 0xba, 0xbd, 0x52, 0xb2, 0x3d, 0xbe,
  0x74, 0x47, 0xfe, 0xbd, 0x39, 0x64, 0x69, 0xbe, 0x37, 0x47, 0x28, 0x3e,
  0x13, 0xb8, 0x06, 0x3e, 0x00, 0x1e, 0x23, 0xbe, 0xdc, 0x95, 0x2f, 0xbd,
  0x5b, 0x95, 0x25, 0x3e, 0xdc, 0xbf, 0x47, 0xbe, 0xaa, 0x15, 0x74, 0xbe,
  0x86, 0x86, 0xa7, 0x3b, 0x19, 0x45, 0xa5, 0x3d, 0xd3, 0x5d, 0x24, 0xbe,
  0xff, 0x80, 0xec, 0xbd, 0xcf, 0xfe, 0xee, 0xbd, 0x80, 0x7b, 0x37, 0xbe,
  0xb1, 0xfb, 0xed, 0xbd, 0x6f, 0x3d, 0x26, 0x3e, 0xab, 0x30, 0xc0, 0xbd,
  0x2d, 0xc8, 0x1f, 0xbd, 0xfd, 0xa2, 0x4d, 0xbe, 0xf3, 0xe5, 0x06, 0xbe,
  0x23, 0xb5, 0x0f, 0xbe, 0x4d, 0xa0, 0x8a, 0xbe, 0xee, 0xf6, 0xdc, 0x3d,
  0xea, 0x90, 0x21, 0xbe, 0x76, 0x73, 0x31, 0x3e, 0x24, 0xeb, 0x30, 0x3e,
  0x12, 0x8e, 0x8a, 0x3d, 0xea, 0xd8, 0xd0, 0x3d, 0x08, 0x89, 0xdb, 0x3d,
  0xa4, 0x4f, 0x90, 0x3d, 0x79, 0x9c, 0x9e, 0x3e, 0x5f, 0x41, 0x4a, 0x3c,
  0x9c, 0xab, 0x2d, 0x3e, 0x21, 0xcd, 0xf1, 0xbc, 0x09, 0x4c, 0x1d, 0x3e,
  0x65, 0x22, 0x5a, 0xbe, 0x65, 0x42, 0x74, 0xbe, 0x79, 0xe1, 0x0d, 0xbe,
  0x8f, 0x73, 0x29, 0x3c, 0xad, 0x80, 0xc5, 0xbd, 0x0e, 0x8c, 0x96, 0xbd,
  0x07, 0x37, 0x21, 0xbe, 0x16, 0xdb, 0x3a, 0x3e, 0x89, 0xab, 0xd8, 0xbd,
  0x1c, 0x4d, 0x42, 0xbe, 0x7a, 0xf7, 0x3f, 0x3e, 0x8b, 0x39, 0xf5, 0x3d,
  0x09, 0xe4, 0x69, 0xbe, 0x91, 0x82, 0x5b, 0xbd, 0x9c, 0x44, 0xad, 0x3d,
  0x2a, 0xf8, 0x4b, 0x3e, 0x90, 0xbb, 0xd3, 0xbd, 0x5f, 0xb3, 0x26, 0xbe,
  0x2d, 0x6e, 0x2b, 0x3e, 0x81, 0x1a, 0x87, 0x3b, 0x63, 0x5f, 0xc9, 0xbb,
  0x48, 0xa5, 0x8c, 0xbd, 0xb8, 0x64, 0x31, 0x3c, 0xe6, 0x39, 0x9d, 0xbd,
  0xf0, 0x1d, 0xc1, 0x3d, 0x2c, 0xe6, 0xfe, 0x3d, 0x26, 0x06, 0x00, 0xbe,
  0x00, 0x71, 0xd1, 0xbd, 0x1e, 0xc3, 0x94, 0xbd, 0xc4, 0x4a, 0x38, 0x3e,
  0xb1, 0xe4, 0x26, 0x3c, 0xf7, 0xad, 0x1c, 0x3d, 0x62, 0x6d, 0x84, 0x3c,
  0x7f, 0x7a, 0x1d, 0xbe, 0xb2, 0x29, 0x9e, 0xbc, 0x71, 0x29, 0x30, 0x3e,
  0x18, 0x0d, 0xa5, 0x3d, 0x25, 0x17, 0xf2, 0x3d, 0x3d, 0x67, 0xf5, 0x3d,
  0x92, 0x6c, 0xed, 0x3d, 0x3b, 0xbe, 0xe0, 0xbd, 0xd9, 0x08, 0xee, 0x3d,
  0x9c, 0x56, 0x49, 0x3e, 0xa3, 0xd2, 0x9a, 0xbd, 0xa3, 0x03, 0xc2, 0xbc,
  0xae, 0x8a, 0x2e, 0xbe, 0x37, 0x3b, 0x2c, 0xbe, 0xc0, 0xd1, 0x09, 0xbe,
  0xf6, 0x85, 0x49, 0x3d, 0x14, 0x05, 0x29, 0xbd, 0xc1, 0x95, 0xa4, 0xbe,
  0xe4, 0x90, 0x90, 0xbe, 0xdd, 0xc5, 0x1c, 0x3e, 0x53, 0x48, 0x8a, 0x3d,
  0xcf, 0xb2, 0x6c, 0x3d, 0xcc, 0xa2, 0x71, 0x3e, 0x79, 0x1e, 0x26, 0x3c,
  0x3a, 0xe2, 0x8b, 0xbd, 0xa8, 0x55, 0x59, 0x3b, 0x6c, 0xa6, 0x0a, 0xbd,
  0x8c, 0x41, 0x2b, 0xbe, 0x8e, 0xfe, 0xff, 0xff, 0x04, 0x00, 0x00, 0x00,
  0xa0, 0x00, 0x00, 0x00, 0x4e, 0xbc, 0x18, 0x3f, 0x23, 0x2d, 0x53, 0x3f,
  0x8a, 0xb9, 0xb6, 0x3e, 0x5c, 0x36, 0x97, 0x3f, 0x92, 0xb4, 0x7b, 0x3f,
  0xa6, 0x99, 0x91, 0xbd, 0x01, 0x64, 0x35, 0xbe, 0x72, 0xcc, 0x1e, 0x3f,
  0x47, 0x33, 0xc6, 0x3e, 0xb3, 0xb0, 0x2b, 0x3e, 0x7a, 0xe9, 0x59, 0x3e,
  0xdf, 0x79, 0x12, 0xbe, 0x41, 0xd3, 0xa9, 0x3d, 0x97, 0x60, 0xbf, 0x3d,
  0x7f, 0x6d, 0x1a, 0x3e, 0xeb, 0x2e, 0x90, 0x3e, 0xd9, 0x7e, 0x29, 0xbd,
  0x4e, 0x65, 0x84, 0x3e, 0x0a, 0x6a, 0xcd, 0xbd, 0xb3, 0x8e, 0x95, 0x3e,
  0xfe, 0x2a, 0xaa, 0xbd, 0x71, 0x8e, 0x53, 0x3e, 0xc0, 0x5e, 0x04, 0xbd,
  0x57, 0xb0, 0x06, 0xbe, 0x8b, 0x62, 0x97, 0xbd, 0x8a, 0x86, 0xca, 0x3d,
  0x7c, 0xab, 0x8a, 0xbd, 0x4e, 0xf7, 0x81, 0x3d, 0xa8, 0x93, 0xfa, 0xbd,
  0x3d, 0xd7, 0xa2, 0x3d, 0x97, 0x2b, 0x02, 0xbd, 0xe3, 0x11, 0x4c, 0x3e,
  0x58, 0xe2, 0x71, 0x3e, 0x44, 0x8f, 0xfd, 0xbd, 0x51, 0x3c, 0xae, 0x3d,
  0x35, 0xf6, 0x25, 0x3d, 0xed, 0x1b, 0x14, 0x3e, 0xb7, 0x30, 0x62, 0xbe,
  0xfd, 0xab, 0x7a, 0xbe, 0x59, 0x63, 0xd4, 0xbd, 0x3a, 0xff, 0xff, 0xff,
  0x04, 0x00, 0x00, 0x00, 0x28, 0x00, 0x00, 0x00, 0xe6, 0x78, 0x48, 0xbf,
  0xe0, 0x44, 0xee, 0x3f, 0x4b, 0xb9, 0x0c, 0xc0, 0x86, 0x91, 0xa5, 0xbf,
  0x7e, 0x4c, 0x7b, 0xbf, 0x5e, 0x01, 0x2a, 0x3f, 0xcd, 0x26, 0xc6, 0xbf,
  0xf2, 0x8f, 0xa2, 0x3f, 0x80, 0xeb, 0xbd, 0x3f, 0x1b, 0x30, 0x9a, 0x3f,
  0xc8, 0xfb, 0xff, 0xff, 0xcc, 0xfb, 0xff, 0xff, 0x0f, 0x00, 0x00, 0x00,
  0x4d, 0x4c, 0x49, 0x52, 0x20, 0x43, 0x6f, 0x6e, 0x76, 0x65, 0x72, 0x74,
  0x65, 0x64, 0x2e, 0x00, 0x01, 0x00, 0x00, 0x00, 0x14, 0x00, 0x00, 0x00,
  0x00, 0x00, 0x0e, 0x00, 0x18, 0x00, 0x14, 0x00, 0x10, 0x00, 0x0c, 0x00,
  0x08, 0x00, 0x04, 0x00, 0x0e, 0x00, 0x00, 0x00, 0x14, 0x00, 0x00, 0x00,
  0x1c, 0x00, 0x00, 0x00, 0xec, 0x00, 0x00, 0x00, 0xf0, 0x00, 0x00, 0x00,
  0xf4, 0x00, 0x00, 0x00, 0x04, 0x00, 0x00, 0x00, 0x6d, 0x61, 0x69, 0x6e,
  0x00, 0x00, 0x00, 0x00, 0x03, 0x00, 0x00, 0x00, 0x94, 0x00, 0x00, 0x00,
  0x50, 0x00, 0x00, 0x00, 0x14, 0x00, 0x00, 0x00, 0x00, 0x00, 0x0e, 0x00,
  0x1a, 0x00, 0x14, 0x00, 0x10, 0x00, 0x0c, 0x00, 0x0b, 0x00, 0x04, 0x00,
  0x0e, 0x00, 0x00, 0x00, 0x1c, 0x00, 0x00, 0x00, 0x00, 0x00, 0x00, 0x09,
  0x1c, 0x00, 0x00, 0x00, 0x20, 0x00, 0x00, 0x00, 0x01, 0x00, 0x00, 0x00,
  0x00, 0x00, 0x06, 0x00, 0x08, 0x00, 0x04, 0x00, 0x06, 0x00, 0x00, 0x00,
  0x00, 0x00, 0x80, 0x3f, 0x01, 0x00, 0x00, 0x00, 0x07, 0x00, 0x00, 0x00,
  0x01, 0x00, 0x00, 0x00, 0x06, 0x00, 0x00, 0x00, 0xce, 0xff, 0xff, 0xff,
  0x10, 0x00, 0x00, 0x00, 0x00, 0x00, 0x00, 0x08, 0x0c, 0x00, 0x00, 0x00,
  0x10, 0x00, 0x00, 0x00, 0x8c, 0xfc, 0xff, 0xff, 0x01, 0x00, 0x00, 0x00,
  0x06, 0x00, 0x00, 0x00, 0x03, 0x00, 0x00, 0x00, 0x05, 0x00, 0x00, 0x00,
  0x04, 0x00, 0x00, 0x00, 0x01, 0x00, 0x00, 0x00, 0x00, 0x00, 0x0e, 0x00,
  0x16, 0x00, 0x00, 0x00, 0x10, 0x00, 0x0c, 0x00, 0x0b, 0x00, 0x04, 0x00,
  0x0e, 0x00, 0x00, 0x00, 0x18, 0x00, 0x00, 0x00, 0x00, 0x00, 0x00, 0x08,
  0x18, 0x00, 0x00, 0x00, 0x1c, 0x00, 0x00, 0x00, 0x00, 0x00, 0x06, 0x00,
  0x08, 0x00, 0x07, 0x00, 0x06, 0x00, 0x00, 0x00, 0x00, 0x00, 0x00, 0x01,
  0x01, 0x00, 0x00, 0x00, 0x05, 0x00, 0x00, 0x00, 0x03, 0x00, 0x00, 0x00,
  0x00, 0x00, 0x00, 0x00, 0x03, 0x00, 0x00, 0x00, 0x02, 0x00, 0x00, 0x00,
  0x01, 0x00, 0x00, 0x00, 0x07, 0x00, 0x00, 0x00, 0x01, 0x00, 0x00, 0x00,
  0x00, 0x00, 0x00, 0x00, 0x08, 0x00, 0x00, 0x00, 0xd0, 0x02, 0x00, 0x00,
  0x60, 0x02, 0x00, 0x00, 0xf4, 0x01, 0x00, 0x00, 0xac, 0x01, 0x00, 0x00,
  0x60, 0x01, 0x00, 0x00, 0xd8, 0x00, 0x00, 0x00, 0x60, 0x00, 0x00, 0x00,
  0x04, 0x00, 0x00, 0x00, 0x66, 0xfd, 0xff, 0xff, 0x00, 0x00, 0x00, 0x01,
  0x14, 0x00, 0x00, 0x00, 0x1c, 0x00, 0x00, 0x00, 0x1c, 0x00, 0x00, 0x00,
  0x08, 0x00, 0x00, 0x00, 0x34, 0x00, 0x00, 0x00, 0x02, 0x00, 0x00, 0x00,
  0xff, 0xff, 0xff, 0xff, 0x0a, 0x00, 0x00, 0x00, 0x50, 0xfd, 0xff, 0xff,
  0x19, 0x00, 0x00, 0x00, 0x53, 0x74, 0x61, 0x74, 0x65, 0x66, 0x75, 0x6c,
  0x50, 0x61, 0x72, 0x74, 0x69, 0x74, 0x69, 0x6f, 0x6e, 0x65, 0x64, 0x43,
  0x61, 0x6c, 0x6c, 0x3a, 0x30, 0x00, 0x00, 0x00, 0x02, 0x00, 0x00, 0x00,
  0x01, 0x00, 0x00, 0x00, 0x0a, 0x00, 0x00, 0x00, 0xbe, 0xfd, 0xff, 0xff,
  0x00, 0x00, 0x00, 0x01, 0x14, 0x00, 0x00, 0x00, 0x1c, 0x00, 0x00, 0x00,
  0x1c, 0x00, 0x00, 0x00, 0x07, 0x00, 0x00, 0x00, 0x50, 0x00, 0x00, 0x00,
  0x02, 0x00, 0x00, 0x00, 0xff, 0xff, 0xff, 0xff, 0x0a, 0x00, 0x00, 0x00,
  0xa8, 0xfd, 0xff, 0xff, 0x34, 0x00, 0x00, 0x00, 0x73, 0x65, 0x71, 0x75,
  0x65, 0x6e, 0x74, 0x69, 0x61, 0x6c, 0x2f, 0x64, 0x65, 0x6e, 0x73, 0x65,
  0x5f, 0x31, 0x2f, 0x4d, 0x61, 0x74, 0x4d, 0x75, 0x6c, 0x3b, 0x73, 0x65,
  0x71, 0x75, 0x65, 0x6e, 0x74, 0x69, 0x61, 0x6c, 0x2f, 0x64, 0x65, 0x6e,
  0x73, 0x65, 0x5f, 0x31, 0x2f, 0x42, 0x69, 0x61, 0x73, 0x41, 0x64, 0x64,
  0x00, 0x00, 0x00, 0x00, 0x02, 0x00, 0x00, 0x00, 0x01, 0x00, 0x00, 0x00,
  0x0a, 0x00, 0x00, 0x00, 0x32, 0xfe, 0xff, 0xff, 0x00, 0x00, 0x00, 0x01,
  0x14, 0x00, 0x00, 0x00, 0x1c, 0x00, 0x00, 0x00, 0x1c, 0x00, 0x00, 0x00,
  0x06, 0x00, 0x00, 0x00, 0x60, 0x00, 0x00, 0x00, 0x02, 0x00, 0x00, 0x00,
  0xff, 0xff, 0xff, 0xff, 0x28, 0x00, 0x00, 0x00, 0x1c, 0xfe, 0xff, 0xff,
  0x46, 0x00, 0x00, 0x00, 0x73, 0x65, 0x71, 0x75, 0x65, 0x6e, 0x74, 0x69,
  0x61, 0x6c, 0x2f, 0x64, 0x65, 0x6e, 0x73, 0x65, 0x2f, 0x4d, 0x61, 0x74,
  0x4d, 0x75, 0x6c, 0x3b, 0x73, 0x65, 0x71, 0x75, 0x65, 0x6e, 0x74, 0x69,
  0x61, 0x6c, 0x2f, 0x64, 0x65, 0x6e, 0x73, 0x65, 0x2f, 0x52, 0x65, 0x6c,
  0x75, 0x3b, 0x73, 0x65, 0x71, 0x75, 0x65, 0x6e, 0x74, 0x69, 0x61, 0x6c,
  0x2f, 0x64, 0x65, 0x6e, 0x73, 0x65, 0x2f, 0x42, 0x69, 0x61, 0x73, 0x41,
  0x64, 0x64, 0x00, 0x00, 0x02, 0x00, 0x00, 0x00, 0x01, 0x00, 0x00, 0x00,
  0x28, 0x00, 0x00, 0x00, 0x22, 0xff, 0xff, 0xff, 0x00, 0x00, 0x00, 0x01,
  0x10, 0x00, 0x00, 0x00, 0x10, 0x00, 0x00, 0x00, 0x05, 0x00, 0x00, 0x00,
  0x28, 0x00, 0x00, 0x00, 0x90, 0xfe, 0xff, 0xff, 0x19, 0x00, 0x00, 0x00,
  0x73, 0x65, 0x71, 0x75, 0x65, 0x6e, 0x74, 0x69, 0x61, 0x6c, 0x2f, 0x64,
  0x65, 0x6e, 0x73, 0x65, 0x5f, 0x31, 0x2f, 0x4d, 0x61, 0x74, 0x4d, 0x75,
  0x6c, 0x00, 0x00, 0x00, 0x02, 0x00, 0x00, 0x00, 0x0a, 0x00, 0x00, 0x00,
  0x28, 0x00, 0x00, 0x00, 0x6a, 0xff, 0xff, 0xff, 0x00, 0x00, 0x00, 0x01,
  0x10, 0x00, 0x00, 0x00, 0x10, 0x00, 0x00, 0x00, 0x04, 0x00, 0x00, 0x00,
  0x24, 0x00, 0x00, 0x00, 0xd8, 0xfe, 0xff, 0xff, 0x17, 0x00, 0x00, 0x00,
  0x73, 0x65, 0x71, 0x75, 0x65, 0x6e, 0x74, 0x69, 0x61, 0x6c, 0x2f, 0x64,
  0x65, 0x6e, 0x73, 0x65, 0x2f, 0x4d, 0x61, 0x74, 0x4d, 0x75, 0x6c, 0x00,
  0x02, 0x00, 0x00, 0x00, 0x28, 0x00, 0x00, 0x00, 0x40, 0x00, 0x00, 0x00,
  0xae, 0xff, 0xff, 0xff, 0x00, 0x00, 0x00, 0x01, 0x10, 0x00, 0x00, 0x00,
  0x10, 0x00, 0x00, 0x00, 0x03, 0x00, 0x00, 0x00, 0x34, 0x00, 0x00, 0x00,
  0x1c, 0xff, 0xff, 0xff, 0x27, 0x00, 0x00, 0x00, 0x73, 0x65, 0x71, 0x75,
  0x65, 0x6e, 0x74, 0x69, 0x61, 0x6c, 0x2f, 0x64, 0x65, 0x6e, 0x73, 0x65,
  0x2f, 0x42, 0x69, 0x61, 0x73, 0x41, 0x64, 0x64, 0x2f, 0x52, 0x65, 0x61,
  0x64, 0x56, 0x61, 0x72, 0x69, 0x61, 0x62, 0x6c, 0x65, 0x4f, 0x70, 0x00,
  0x01, 0x00, 0x00, 0x00, 0x28, 0x00, 0x00, 0x00, 0x00, 0x00, 0x16, 0x00,
  0x18, 0x00, 0x14, 0x00, 0x00, 0x00, 0x10, 0x00, 0x0c, 0x00, 0x08, 0x00,
  0x00, 0x00, 0x00, 0x00, 0x00, 0x00, 0x07, 0x00, 0x16, 0x00, 0x00, 0x00,
  0x00, 0x00, 0x00, 0x01, 0x10, 0x00, 0x00, 0x00, 0x10, 0x00, 0x00, 0x00,
  0x02, 0x00, 0x00, 0x00, 0x38, 0x00, 0x00, 0x00, 0x84, 0xff, 0xff, 0xff,
  0x29, 0x00, 0x00, 0x00, 0x73, 0x65, 0x71, 0x75, 0x65, 0x6e, 0x74, 0x69,
  0x61, 0x6c, 0x2f, 0x64, 0x65, 0x6e, 0x73, 0x65, 0x5f, 0x31, 0x2f, 0x42,
  0x69, 0x61, 0x73, 0x41, 0x64, 0x64, 0x2f, 0x52, 0x65, 0x61, 0x64, 0x56,
  0x61, 0x72, 0x69, 0x61, 0x62, 0x6c, 0x65, 0x4f, 0x70, 0x00, 0x00, 0x00,
  0x01, 0x00, 0x00, 0x00, 0x0a, 0x00, 0x00, 0x00, 0x00, 0x00, 0x16, 0x00,
  0x1c, 0x00, 0x18, 0x00, 0x00, 0x00, 0x14, 0x00, 0x10, 0x00, 0x0c, 0x00,
  0x00, 0x00, 0x00, 0x00, 0x08, 0x00, 0x07, 0x00, 0x16, 0x00, 0x00, 0x00,
  0x00, 0x00, 0x00, 0x01, 0x14, 0x00, 0x00, 0x00, 0x20, 0x00, 0x00, 0x00,
  0x20, 0x00, 0x00, 0x00, 0x01, 0x00, 0x00, 0x00, 0x3c, 0x00, 0x00, 0x00,
  0x02, 0x00, 0x00, 0x00, 0xff, 0xff, 0xff, 0xff, 0x40, 0x00, 0x00, 0x00,
  0x04, 0x00, 0x04, 0x00, 0x04, 0x00, 0x00, 0x00, 0x1d, 0x00, 0x00, 0x00,
  0x73, 0x65, 0x72, 0x76, 0x69, 0x6e, 0x67, 0x5f, 0x64, 0x65, 0x66, 0x61,
  0x75, 0x6c, 0x74, 0x5f, 0x64, 0x65, 0x6e, 0x73, 0x65, 0x5f, 0x69, 0x6e,
  0x70, 0x75, 0x74, 0x3a, 0x30, 0x00, 0x00, 0x00, 0x02, 0x00, 0x00, 0x00,
  0x01, 0x00, 0x00, 0x00, 0x40, 0x00, 0x00, 0x00, 0x02, 0x00, 0x00, 0x00,
  0x20, 0x00, 0x00, 0x00, 0x04, 0x00, 0x00, 0x00, 0xf4, 0xff, 0xff, 0xff,
  0x19, 0x00, 0x00, 0x00, 0x00, 0x00, 0x00, 0x19, 0x0c, 0x00, 0x0c, 0x00,
  0x0b, 0x00, 0x00, 0x00, 0x00, 0x00, 0x04, 0x00, 0x0c, 0x00, 0x00, 0x00,
  0x09, 0x00, 0x00, 0x00, 0x00, 0x00, 0x00, 0x09
};
unsigned int first_model_activations_400_tflite_len = 13736;
