unsigned char third_model_activations_400_tflite[] = {
  0x1c, 0x00, 0x00, 0x00, 0x54, 0x46, 0x4c, 0x33, 0x14, 0x00, 0x20, 0x00,
  0x1c, 0x00, 0x18, 0x00, 0x14, 0x00, 0x10, 0x00, 0x0c, 0x00, 0x00, 0x00,
  0x08, 0x00, 0x04, 0x00, 0x14, 0x00, 0x00, 0x00, 0x1c, 0x00, 0x00, 0x00,
  0x98, 0x00, 0x00, 0x00, 0xf0, 0x00, 0x00, 0x00, 0xac, 0x52, 0x00, 0x00,
  0xbc, 0x52, 0x00, 0x00, 0xb8, 0x58, 0x00, 0x00, 0x03, 0x00, 0x00, 0x00,
  0x01, 0x00, 0x00, 0x00, 0x10, 0x00, 0x00, 0x00, 0x00, 0x00, 0x0a, 0x00,
  0x10, 0x00, 0x0c, 0x00, 0x08, 0x00, 0x04, 0x00, 0x0a, 0x00, 0x00, 0x00,
  0x0c, 0x00, 0x00, 0x00, 0x1c, 0x00, 0x00, 0x00, 0x3c, 0x00, 0x00, 0x00,
  0x0f, 0x00, 0x00, 0x00, 0x73, 0x65, 0x72, 0x76, 0x69, 0x6e, 0x67, 0x5f,
  0x64, 0x65, 0x66, 0x61, 0x75, 0x6c, 0x74, 0x00, 0x01, 0x00, 0x00, 0x00,
  0x04, 0x00, 0x00, 0x00, 0x90, 0xff, 0xff, 0xff, 0x0a, 0x00, 0x00, 0x00,
  0x04, 0x00, 0x00, 0x00, 0x08, 0x00, 0x00, 0x00, 0x64, 0x65, 0x6e, 0x73,
  0x65, 0x5f, 0x31, 0x35, 0x00, 0x00, 0x00, 0x00, 0x01, 0x00, 0x00, 0x00,
  0x04, 0x00, 0x00, 0x00, 0x3a, 0xad, 0xff, 0xff, 0x04, 0x00, 0x00, 0x00,
  0x0e, 0x00, 0x00, 0x00, 0x64, 0x65, 0x6e, 0x73, 0x65, 0x5f, 0x31, 0x33,
  0x5f, 0x69, 0x6e, 0x70, 0x75, 0x74, 0x00, 0x00, 0x02, 0x00, 0x00, 0x00,
  0x34, 0x00, 0x00, 0x00, 0x04, 0x00, 0x00, 0x00, 0xdc, 0xff, 0xff, 0xff,
  0x0d, 0x00, 0x00, 0x00, 0x04, 0x00, 0x00, 0x00, 0x13, 0x00, 0x00, 0x00,
  0x43, 0x4f, 0x4e, 0x56, 0x45, 0x52, 0x53, 0x49, 0x4f, 0x4e, 0x5f, 0x4d,
  0x45, 0x54, 0x41, 0x44, 0x41, 0x54, 0x41, 0x00, 0x08, 0x00, 0x0c, 0x00,
  0x08, 0x00, 0x04, 0x00, 0x08, 0x00, 0x00, 0x00, 0x0c, 0x00, 0x00, 0x00,
  0x04, 0x00, 0x00, 0x00, 0x13, 0x00, 0x00, 0x00, 0x6d, 0x69, 0x6e, 0x5f,
  0x72, 0x75, 0x6e, 0x74, 0x69, 0x6d, 0x65, 0x5f, 0x76, 0x65, 0x72, 0x73,
  0x69, 0x6f, 0x6e, 0x00, 0x0e, 0x00, 0x00, 0x00, 0xb8, 0x51, 0x00, 0x00,
  0xb0, 0x51, 0x00, 0x00, 0x78, 0x51, 0x00, 0x00, 0xa0, 0x50, 0x00, 0x00,
  0xf0, 0x4f, 0x00, 0x00, 0xe0, 0x27, 0x00, 0x00, 0x90, 0x08, 0x00, 0x00,
  0xb0, 0x00, 0x00, 0x00, 0xa8, 0x00, 0x00, 0x00, 0xa0, 0x00, 0x00, 0x00,
  0x98, 0x00, 0x00, 0x00, 0x90, 0x00, 0x00, 0x00, 0x70, 0x00, 0x00, 0x00,
  0x04, 0x00, 0x00, 0x00, 0xee, 0xad, 0xff, 0xff, 0x04, 0x00, 0x00, 0x00,
  0x5c, 0x00, 0x00, 0x00, 0x0c, 0x00, 0x00, 0x00, 0x08, 0x00, 0x0e, 0x00,
  0x08, 0x00, 0x04, 0x00, 0x08, 0x00, 0x00, 0x00, 0x14, 0x00, 0x00, 0x00,
  0x2c, 0x00, 0x00, 0x00, 0x00, 0x00, 0x0a, 0x00, 0x0c, 0x00, 0x08, 0x00,
  0x00, 0x00, 0x07, 0x00, 0x0a, 0x00, 0x00, 0x00, 0x00, 0x00, 0x00, 0x01,
  0x04, 0x00, 0x00, 0x00, 0x00, 0x00, 0x00, 0x00, 0x00, 0x00, 0x0a, 0x00,
  0x10, 0x00, 0x0c, 0x00, 0x08, 0x00, 0x04, 0x00, 0x0a, 0x00, 0x00, 0x00,
  0x01, 0x00, 0x00, 0x00, 0x02, 0x00, 0x00, 0x00, 0x04, 0x00, 0x00, 0x00,
  0x06, 0x00, 0x00, 0x00, 0x32, 0x2e, 0x31, 0x31, 0x2e, 0x30, 0x00, 0x00,
  0x56, 0xae, 0xff, 0xff, 0x04, 0x00, 0x00, 0x00, 0x10, 0x00, 0x00, 0x00,
  0x31, 0x2e, 0x35, 0x2e, 0x30, 0x00, 0x00, 0x00, 0x00, 0x00, 0x00, 0x00,
  0x00, 0x00, 0x00, 0x00, 0x28, 0xa9, 0xff, 0xff, 0x2c, 0xa9, 0xff, 0xff,
  0x30, 0xa9, 0xff, 0xff, 0x34, 0xa9, 0xff, 0xff, 0x82, 0xae, 0xff, 0xff,
  0x04, 0x00, 0x00, 0x00, 0xd0, 0x07, 0x00, 0x00, 0xf2, 0x87, 0x27, 0x3e,
  0xb4, 0x9e, 0x09, 0x3d, 0x3a, 0xf6, 0x42, 0xbe, 0xcf, 0x02, 0x81, 0x3f,
  0x8d, 0x4e, 0x5a, 0x3d, 0xee, 0xdf, 0x8a, 0xbe, 0x65, 0xc1, 0x13, 0x3f,
  0x89, 0x19, 0xfe, 0xbe, 0xcc, 0x1f, 0x84, 0x3e, 0x23, 0x82, 0x19, 0xbf,
  0x5d, 0xe0, 0xe6, 0xbd, 0x17, 0xe8, 0xb4, 0xbe, 0xca, 0xe4, 0x82, 0x3e,
  0x4d, 0x17, 0xd8, 0xbd, 0xed, 0x69, 0xac, 0x3d, 0x44, 0x2a, 0xbe, 0xbc,
  0x0b, 0x13, 0x6e, 0x3e, 0x80, 0xea, 0xf8, 0xbe, 0x44, 0xa5, 0x39, 0xbf,
  0xac, 0xb9, 0x89, 0xbe, 0x90, 0x1b, 0x71, 0x3e, 0x75, 0xc0, 0x87, 0xbe,
  0x55, 0x1c, 0x1d, 0xbe, 0xbc, 0xd8, 0x40, 0xbe, 0xf9, 0x67, 0x18, 0x3f,
  0xdb, 0xe9, 0x71, 0x3d, 0xce, 0xd3, 0x01, 0xbd, 0x3c, 0x22, 0x1f, 0xbe,
  0x2a, 0x42, 0x3f, 0x3f, 0xb1, 0x36, 0x91, 0xbe, 0x3d, 0x2a, 0xee, 0xbc,
  0xd8, 0x26, 0xfd, 0xbd, 0xd1, 0x8e, 0x38, 0xbe, 0x1e, 0x7e, 0x8d, 0xbd,
  0xb3, 0xca, 0x49, 0xbf, 0x63, 0x24, 0x61, 0xbd, 0x15, 0x96, 0x83, 0xbd,
  0x36, 0x89, 0xe3, 0xbe, 0x13, 0xfa, 0x2a, 0x3e, 0xff, 0x1f, 0xdd, 0xbe,
  0x1e, 0x17, 0x22, 0xbe, 0x5a, 0xba, 0x7f, 0xbe, 0x09, 0x3e, 0x0d, 0x3f,
  0xb4, 0x57, 0x1c, 0x3e, 0x79, 0xb9, 0x99, 0xbb, 0x03, 0x15, 0x0c, 0xbe,
  0x6f, 0x9d, 0x39, 0x3f, 0xbc, 0x90, 0x4c, 0x3f, 0xf2, 0x63, 0x07, 0xbe,
  0x40, 0x28, 0xfb, 0xbd, 0x6f, 0x36, 0xc8, 0xbe, 0x48, 0x34, 0xe3, 0xbe,
  0xe8, 0xa2, 0x7a, 0xbd, 0x82, 0x1c, 0x9e, 0xbe, 0x7a, 0x3e, 0xfa, 0xbe,
  0x53, 0x11, 0x88, 0xbe, 0xd9, 0xeb, 0x27, 0x3f, 0xb8, 0x75, 0x24, 0x3f,
  0xab, 0x4a, 0x8e, 0x3e, 0x85, 0x66, 0xde, 0xbe, 0x76, 0x1a, 0xe5, 0xbe,
  0x64, 0x80, 0xac, 0xbe, 0x5e, 0x11, 0x66, 0xbe, 0x10, 0xdc, 0xae, 0x3d,
  0xe7, 0x90, 0x32, 0x3e, 0x50, 0xfa, 0x80, 0x3e, 0x80, 0xe7, 0xe0, 0xbe,
  0x2b, 0xf9, 0x1c, 0x3f, 0xfd, 0xf9, 0x57, 0x3e, 0xf5, 0xc8, 0xa7, 0xbe,
  0xfb, 0x8a, 0x58, 0xbd, 0x82, 0x12, 0x86, 0x3f, 0x7c, 0x48, 0x1c, 0xbf,
  0x76, 0xd3, 0xcb, 0xbe, 0x6b, 0x34, 0xf9, 0x3d, 0xf5, 0x9c, 0x54, 0xbe,
  0xe4, 0xeb, 0xb9, 0x3c, 0xec, 0x93, 0x3d, 0xbe, 0x6a, 0x57, 0xcd, 0xbd,
  0x76, 0x94, 0x7f, 0xbf, 0x66, 0x7b, 0xa0, 0xbe, 0x4f, 0x25, 0xb5, 0xbd,
  0x20, 0x61, 0x9b, 0xbe, 0xa7, 0x90, 0xa7, 0x3c, 0x26, 0xd4, 0x02, 0x3e,
  0xef, 0x6b, 0x92, 0xbb, 0x4e, 0xcf, 0x71, 0xbe, 0x8c, 0x37, 0x95, 0x3e,
  0x10, 0xd3, 0x01, 0x3f, 0x16, 0xa9, 0xac, 0x3f, 0xe2, 0x91, 0xa6, 0x3e,
  0x98, 0xb5, 0xe0, 0x3e, 0xb6, 0x65, 0xa2, 0xbe, 0x0f, 0x35, 0xd0, 0x3d,
  0x86, 0xeb, 0xce, 0xbe, 0xfc, 0x09, 0x4a, 0xbe, 0x3e, 0x71, 0x28, 0xbf,
  0x62, 0x65, 0xd5, 0x3e, 0x73, 0x8c, 0x57, 0xbe, 0x29, 0x36, 0x2d, 0x3e,
  0x4e, 0x5d, 0x71, 0x3e, 0xed, 0x6a, 0xa0, 0xbe, 0x2a, 0xb8, 0x85, 0x3f,
  0x1c, 0x15, 0xd7, 0x3e, 0xb8, 0x12, 0xb3, 0x3d, 0xde, 0x57, 0x50, 0xbd,
  0xcc, 0x28, 0x98, 0xbe, 0xde, 0x7a, 0x32, 0xbe, 0x47, 0x5a, 0x2d, 0xbe,
  0x43, 0xd3, 0x03, 0xbf, 0x89, 0x5e, 0x54, 0xbe, 0x64, 0x4a, 0xc0, 0x3e,
  0xea, 0x25, 0x01, 0x3b, 0x02, 0x49, 0x1c, 0xbe, 0x63, 0x3c, 0x35, 0x3e,
  0xfd, 0x1f, 0x3a, 0x3f, 0x6a, 0xed, 0xc9, 0xbe, 0x75, 0xbf, 0x1f, 0x3d,
  0xec, 0x04, 0xda, 0xbe, 0xe6, 0xd8, 0x0c, 0x3e, 0x8c, 0x61, 0xf1, 0x3d,
  0x21, 0xfa, 0x82, 0xbe, 0x8f, 0x92, 0x10, 0x3c, 0x97, 0x9e, 0x3e, 0x3e,
  0x9e, 0xf9, 0x36, 0xbd, 0x13, 0x16, 0x60, 0xbe, 0xe8, 0x68, 0x4b, 0xbf,
  0x15, 0x6d, 0xec, 0xbd, 0x3c, 0x2e, 0xa2, 0xbe, 0x52, 0xca, 0x60, 0xbc,
  0x40, 0xd8, 0xd6, 0x3e, 0x36, 0x76, 0x54, 0xbf, 0x62, 0xf7, 0x74, 0x3e,
  0xfd, 0x37, 0x90, 0x3e, 0x70, 0xe8, 0x8d, 0x3e, 0x42, 0x46, 0x21, 0x3d,
  0xe7, 0x7d, 0xce, 0x3d, 0x69, 0x99, 0x3a, 0xbd, 0xbb, 0xf7, 0xb5, 0x3e,
  0xd0, 0xe0, 0x55, 0x3f, 0xab, 0x10, 0x75, 0x3e, 0xb1, 0xd6, 0x32, 0xbe,
  0xab, 0x31, 0x9a, 0x3e, 0x53, 0x3a, 0x08, 0xbe, 0xf2, 0x67, 0xa3, 0x3e,
  0xa3, 0x7d, 0xcd, 0x3d, 0xc5, 0xde, 0x67, 0xbe, 0x62, 0xc4, 0xa4, 0xbd,
  0x6f, 0x03, 0x7a, 0x3d, 0xc9, 0x97, 0x25, 0xbe, 0x26, 0x7f, 0x0f, 0xbf,
  0xf3, 0x91, 0x34, 0xbc, 0xb8, 0x50, 0x85, 0x3e, 0x16, 0x0f, 0xde, 0xbc,
  0x07, 0x9e, 0x51, 0x3d, 0x42, 0x18, 0x56, 0x3e, 0x85, 0xb6, 0x0d, 0xbf,
  0xdb, 0x32, 0x59, 0xbf, 0x8c, 0xd3, 0x70, 0x3e, 0x9f, 0x0e, 0xba, 0x3e,
  0xd2, 0xc7, 0x25, 0xbf, 0x4a, 0xdf, 0x13, 0xbe, 0x28, 0x17, 0x26, 0xbe,
  0x0e, 0x47, 0xdd, 0xbe, 0xf4, 0x09, 0x24, 0xbe, 0xf0, 0x57, 0x88, 0x3e,
  0x80, 0x3f, 0x09, 0x3f, 0x82, 0x21, 0x21, 0x3f, 0x4c, 0xf7, 0x1c, 0xbe,
  0xeb, 0x97, 0x12, 0xbe, 0x5a, 0xb4, 0xff, 0x3d, 0x96, 0x64, 0x11, 0xbf,
  0x11, 0x74, 0x9e, 0x3f, 0xc4, 0x38, 0xb4, 0xbe, 0x59, 0x6b, 0xdc, 0x3e,
  0x72, 0x67, 0x47, 0x3e, 0xf0, 0xcf, 0x90, 0xbd, 0x48, 0x5b, 0x8c, 0xbe,
  0x5c, 0xc6, 0xa5, 0xbe, 0xe1, 0x73, 0x8e, 0xbd, 0x1a, 0x30, 0x44, 0x3e,
  0x00, 0x7e, 0xfe, 0x3d, 0x0d, 0x81, 0x80, 0xbe, 0x16, 0x0d, 0xe1, 0xbe,
  0x7b, 0xfd, 0xac, 0x3d, 0x1a, 0x6c, 0x6f, 0xbe, 0xab, 0x31, 0x11, 0x3d,
  0xd5, 0x7d, 0xc4, 0xbe, 0xe0, 0x55, 0x41, 0x3e, 0x4b, 0x04, 0x7a, 0x3e,
  0x4e, 0xf1, 0x8c, 0x3e, 0x06, 0xdd, 0x7c, 0xbe, 0x88, 0x67, 0x37, 0xbf,
  0xc1, 0x2f, 0x28, 0xbd, 0x4f, 0xbb, 0xc5, 0x3e, 0x07, 0x2d, 0x9f, 0x3e,
  0xee, 0x0b, 0xf1, 0xbe, 0x66, 0x8b, 0x4b, 0xbf, 0x35, 0x6d, 0xdc, 0xbd,
  0x42, 0xe6, 0x88, 0xbe, 0xd0, 0xd9, 0xd7, 0x3e, 0x6e, 0x6d, 0xcc, 0x3e,
  0xb0, 0x82, 0x22, 0xbd, 0xcf, 0x01, 0xc6, 0xbe, 0x1f, 0x33, 0xc2, 0x3c,
  0xd8, 0x04, 0xae, 0xbd, 0x69, 0x31, 0x13, 0x3e, 0x61, 0x0d, 0x77, 0x3f,
  0xa8, 0x51, 0x67, 0x3e, 0x71, 0x7e, 0x2b, 0xbf, 0x16, 0x78, 0x31, 0x3f,
  0x82, 0x7a, 0x91, 0xbe, 0x46, 0x81, 0x07, 0xbf, 0x91, 0xdc, 0x75, 0x3f,
  0xed, 0x8e, 0x87, 0xbd, 0xd3, 0x1e, 0x0d, 0xbf, 0x97, 0xa6, 0x01, 0xbe,
  0x8a, 0x3e, 0x72, 0x3e, 0x1d, 0x6e, 0xa3, 0x3d, 0x6f, 0xf2, 0x39, 0xbe,
  0x6d, 0x8b, 0x0b, 0x3f, 0x01, 0x13, 0x01, 0xbc, 0xbb, 0x3f, 0x31, 0xbf,
  0x20, 0x35, 0xbd, 0xbd, 0x8b, 0x7a, 0xa5, 0x3c, 0xba, 0x13, 0x24, 0x3c,
  0x79, 0x7d, 0x41, 0xbe, 0x57, 0x3d, 0x99, 0xbe, 0x74, 0x9b, 0xb1, 0xbd,
  0x4b, 0xa0, 0x63, 0x3c, 0x40, 0x54, 0x77, 0x3e, 0xc7, 0x04, 0xcb, 0xbe,
  0x23, 0xb5, 0x6d, 0x3e, 0x66, 0xec, 0x35, 0xbe, 0x0e, 0xf4, 0x18, 0xbf,
  0x4f, 0x28, 0xc3, 0x3d, 0xcb, 0x56, 0x11, 0xbe, 0xa4, 0x5f, 0x4f, 0xbd,
  0xac, 0x5a, 0x33, 0xbe, 0x37, 0x5d, 0x7e, 0x3e, 0x66, 0xee, 0xa5, 0xbe,
  0x6e, 0x86, 0xd8, 0xbd, 0xbd, 0xc8, 0x22, 0x3f, 0x94, 0xdd, 0x0c, 0x3f,
  0xfc, 0xe1, 0x9f, 0xbe, 0xb1, 0xfe, 0x02, 0xbd, 0x0a, 0xad, 0xd4, 0xbe,
  0x40, 0x80, 0x74, 0x3f, 0x39, 0x2e, 0x14, 0x3c, 0xd0, 0x26, 0xc4, 0xbd,
  0x1e, 0x48, 0x27, 0xbe, 0xae, 0x39, 0xa4, 0x3e, 0xa4, 0x6d, 0xd2, 0x3d,
  0x7c, 0xd7, 0x99, 0x3e, 0x73, 0xfd, 0xc9, 0x3e, 0x2e, 0xa0, 0x1f, 0xbe,
  0xb9, 0xd5, 0xd2, 0x3e, 0xd3, 0x3c, 0x28, 0x3d, 0x1f, 0xf1, 0xaa, 0xbc,
  0xfb, 0x6c, 0xd2, 0x3e, 0x56, 0xf7, 0xb7, 0x3c, 0xe1, 0x2f, 0xbd, 0xbe,
  0x23, 0x02, 0x16, 0x3f, 0x97, 0x46, 0x88, 0x3d, 0x9a, 0x55, 0x81, 0xbd,
  0xbd, 0xe6, 0xc3, 0x3e, 0x55, 0xb9, 0x26, 0x3c, 0xca, 0x8a, 0xd0, 0x3e,
  0xb2, 0x3a, 0xfe, 0xbd, 0xcf, 0x7d, 0xa9, 0x3e, 0xfc, 0xd6, 0x8e, 0xbd,
  0xe6, 0x66, 0x20, 0xbf, 0x6d, 0x28, 0xd3, 0x3e, 0x0c, 0x2a, 0x3b, 0xbd,
  0xd7, 0x3d, 0x19, 0x3f, 0xe0, 0x0f, 0x7e, 0xbd, 0x65, 0x1c, 0x53, 0x3f,
  0x33, 0x7b, 0x33, 0x3e, 0x77, 0x7a, 0x36, 0xbe, 0xaf, 0xa5, 0xa0, 0x3e,
  0xbd, 0xea, 0x9c, 0xbe, 0xea, 0xeb, 0x53, 0x3e, 0xa6, 0xbc, 0x53, 0x3d,
  0xe1, 0x61, 0xbb, 0x3e, 0xf1, 0xfa, 0xfd, 0xbd, 0x1c, 0x3d, 0x1e, 0x3e,
  0x96, 0x6e, 0xa5, 0xbe, 0xff, 0xf8, 0xb0, 0xbe, 0x9c, 0x14, 0x76, 0xbe,
  0x16, 0xae, 0x3c, 0xbf, 0xa8, 0xb7, 0x39, 0xbf, 0xf9, 0xc9, 0x96, 0x3e,
  0xa8, 0x63, 0x2e, 0xbf, 0x7b, 0xd0, 0x84, 0x3c, 0x43, 0xa5, 0x8d, 0x3e,
  0x94, 0x4c, 0xa7, 0x3a, 0x6f, 0x07, 0xcc, 0xbc, 0xb1, 0x12, 0x15, 0xbe,
  0xc3, 0xbb, 0x9f, 0x3e, 0x34, 0xae, 0x93, 0x3e, 0x2f, 0xb4, 0x0b, 0x3d,
  0x8c, 0xa1, 0x07, 0xbe, 0xf4, 0x45, 0xdf, 0xbd, 0x07, 0x6b, 0x98, 0x3e,
  0xf9, 0x32, 0xcd, 0xbe, 0x8c, 0xb7, 0x8e, 0xbb, 0x36, 0xae, 0x1a, 0xbf,
  0x53, 0x81, 0xb4, 0xbe, 0x4f, 0xb0, 0xd6, 0x3d, 0x36, 0x75, 0xda, 0xbc,
  0x88, 0xc5, 0x24, 0x3d, 0xb2, 0xd0, 0x5c, 0xbd, 0x0d, 0x26, 0x0c, 0x3f,
  0x79, 0x7f, 0x18, 0x3f, 0x8a, 0x37, 0x39, 0xbe, 0xab, 0x83, 0x08, 0xbf,
  0xdb, 0x59, 0xdf, 0xbe, 0xb6, 0xc6, 0x8e, 0x3e, 0x0f, 0x3b, 0x1f, 0xbf,
  0xc3, 0x4f, 0x20, 0x3e, 0x02, 0xce, 0xd9, 0xbd, 0xec, 0x3f, 0x7f, 0x3e,
  0x4b, 0x7d, 0x19, 0xbf, 0x63, 0x3e, 0x15, 0x3f, 0x22, 0xff, 0x01, 0xbf,
  0x96, 0x32, 0xba, 0x3d, 0xeb, 0x69, 0xce, 0xbe, 0x6b, 0xd7, 0xa9, 0x3b,
  0x79, 0x56, 0x38, 0xbe, 0x37, 0x3f, 0x13, 0xbd, 0x7e, 0x8d, 0x15, 0xbe,
  0xb4, 0x61, 0xa7, 0x3b, 0xab, 0x61, 0xa0, 0x3e, 0x85, 0x41, 0x7d, 0x3e,
  0x7c, 0xfd, 0xee, 0x3e, 0xda, 0x22, 0xf7, 0x3e, 0xa6, 0x09, 0x9c, 0x3e,
  0xfa, 0x95, 0x0a, 0x3f, 0xa7, 0xdf, 0x24, 0x3c, 0xe7, 0x5b, 0x68, 0xbf,
  0x52, 0x9e, 0x8e, 0x3d, 0x94, 0x1e, 0x1c, 0x3e, 0x9c, 0xca, 0x0e, 0x3f,
  0x28, 0x22, 0x50, 0x3f, 0xe8, 0x46, 0xf3, 0x3d, 0x15, 0x89, 0x97, 0xbd,
  0x74, 0x5c, 0xbc, 0xbd, 0xb8, 0x98, 0x64, 0x3f, 0x68, 0xa7, 0x70, 0x3e,
  0x3d, 0x3c, 0xed, 0x3d, 0xc6, 0x9e, 0xe5, 0x3c, 0xe5, 0x66, 0x85, 0xbe,
  0xb1, 0x72, 0x69, 0x3e, 0x5e, 0x6e, 0xc3, 0xbd, 0x08, 0x35, 0xe2, 0xbe,
  0x78, 0x65, 0x9c, 0x3e, 0xbe, 0xce, 0x97, 0xbe, 0x02, 0x1b, 0x8f, 0x3e,
  0xff, 0x94, 0x3a, 0x3e, 0xdf, 0x60, 0x65, 0x3f, 0x5e, 0x95, 0x73, 0x3f,
  0x42, 0xe5, 0x1b, 0x3e, 0xc2, 0x35, 0x25, 0xbc, 0xc9, 0x14, 0x0b, 0xbf,
  0x55, 0x62, 0x8b, 0xbe, 0x01, 0xa2, 0x25, 0xbe, 0xa4, 0xb1, 0xb7, 0xbe,
  0x8f, 0x5e, 0x47, 0xbe, 0x56, 0x9f, 0xe2, 0x3e, 0x98, 0x57, 0x81, 0x3d,
  0xe8, 0x3c, 0x59, 0x3e, 0xda, 0xcc, 0x05, 0xbf, 0x04, 0xea, 0x83, 0x3d,
  0x97, 0x3b, 0x04, 0xbe, 0x0a, 0xea, 0x84, 0xbc, 0xae, 0xe0, 0x42, 0x3e,
  0xfe, 0x51, 0x5b, 0x3e, 0xa4, 0x98, 0x05, 0x3e, 0xc1, 0x29, 0x94, 0xbe,
  0x0d, 0xd1, 0x06, 0xbf, 0xd9, 0xca, 0xf7, 0x3e, 0x31, 0x65, 0x4a, 0x3e,
  0xc1, 0xff, 0x90, 0xbe, 0xdd, 0x05, 0x39, 0xbf, 0x1f, 0xb7, 0xbc, 0x3b,
  0xde, 0x1b, 0xb5, 0xbc, 0xa8, 0x48, 0x2e, 0x3f, 0x8e, 0x1e, 0xcc, 0xbe,
  0x97, 0xf8, 0x39, 0x3e, 0x39, 0x90, 0xa8, 0xbd, 0x4b, 0x3a, 0x2b, 0x3e,
  0x60, 0x15, 0x75, 0xbe, 0xaf, 0xfb, 0x1a, 0xbf, 0xb4, 0xb3, 0x85, 0xbe,
  0xd0, 0x65, 0x1f, 0x3f, 0x2a, 0x8f, 0x23, 0xbe, 0xd3, 0x78, 0xde, 0xbd,
  0x17, 0x2e, 0x07, 0xbf, 0x8f, 0x42, 0x1f, 0xbd, 0x4b, 0x41, 0x52, 0xbe,
  0x04, 0x69, 0xe2, 0xbe, 0x55, 0x9e, 0x52, 0xbe, 0x71, 0x59, 0xa3, 0xbe,
  0x9c, 0x46, 0x91, 0xbe, 0xc2, 0x39, 0x21, 0x3f, 0x45, 0x50, 0x8c, 0x3b,
  0x86, 0x75, 0x81, 0xbe, 0xcd, 0x2c, 0x93, 0x3e, 0x53, 0x30, 0x4d, 0x3e,
  0x0a, 0xc0, 0xbc, 0x3e, 0x8c, 0x65, 0xfa, 0xbe, 0x0f, 0xf3, 0xf8, 0x3d,
  0x64, 0x8f, 0x00, 0xbe, 0x0c, 0xdd, 0xb1, 0xba, 0xbc, 0x17, 0x8c, 0x3d,
  0xcf, 0x1b, 0xe6, 0xbe, 0x1a, 0xaf, 0x0e, 0xbf, 0xdd, 0xbe, 0x43, 0x3d,
  0x2a, 0xdb, 0x1c, 0x3f, 0xa1, 0x32, 0x9f, 0xbe, 0xbe, 0xd4, 0x8f, 0x3d,
  0x60, 0x35, 0x16, 0xbd, 0x85, 0x0e, 0xce, 0x3e, 0x94, 0x5e, 0xb6, 0x3e,
  0xd5, 0x54, 0x66, 0xbd, 0x53, 0xf8, 0xd1, 0xbb, 0x97, 0x51, 0xad, 0xbd,
  0x56, 0x44, 0xe4, 0xbd, 0x68, 0x8c, 0x1f, 0x3e, 0x5e, 0x4b, 0x6e, 0x3f,
  0xea, 0x75, 0x2d, 0xbe, 0x9d, 0x44, 0xcc, 0x3b, 0x37, 0x29, 0x9c, 0xbe,
  0x72, 0x41, 0x31, 0x3f, 0x49, 0x46, 0x87, 0x3e, 0x9b, 0xcd, 0x81, 0x3e,
  0x30, 0x99, 0x5d, 0xbe, 0x3e, 0xa3, 0x3d, 0x3f, 0xa3, 0x2f, 0xd2, 0x3e,
  0xfc, 0x39, 0x1b, 0xbe, 0xe3, 0x7d, 0xaf, 0x3e, 0x14, 0xcd, 0xc1, 0xbc,
  0x3d, 0x76, 0xfd, 0x3e, 0x1c, 0x24, 0xdc, 0xbe, 0xdb, 0x20, 0xa6, 0xbe,
  0x38, 0x18, 0xcf, 0xbd, 0xe0, 0xa7, 0x83, 0x3e, 0x69, 0x88, 0x41, 0xbf,
  0xa6, 0x76, 0x91, 0x3e, 0xc9, 0x16, 0x0d, 0xbe, 0xbe, 0x15, 0xd6, 0x3c,
  0x81, 0x1f, 0xf1, 0xbe, 0xf6, 0x41, 0x05, 0xbf, 0x45, 0xda, 0x16, 0xbf,
  0xa2, 0xe3, 0x15, 0xbe, 0x08, 0xe5, 0x24, 0xbd, 0xf9, 0xfc, 0x1c, 0x3e,
  0xb6, 0x74, 0x2e, 0x3e, 0xc4, 0xfd, 0xfb, 0x3c, 0x5c, 0x1d, 0x8a, 0x3e,
  0xa3, 0x49, 0x32, 0xbe, 0x2d, 0xc0, 0x0f, 0x3f, 0x53, 0x4c, 0x16, 0xbf,
  0x00, 0xc0, 0x99, 0xbd, 0x5b, 0x16, 0x9f, 0xbe, 0x54, 0xa6, 0xb0, 0x3e,
  0xcc, 0x7b, 0xb5, 0x3e, 0x98, 0xf1, 0x53, 0xbe, 0x72, 0x49, 0x61, 0x3e,
  0x7d, 0x54, 0xad, 0xbe, 0x55, 0x7f, 0x99, 0xbe, 0xe2, 0x09, 0x06, 0x3e,
  0x3b, 0x46, 0xd1, 0x3e, 0xdd, 0x25, 0xf7, 0xbd, 0x32, 0x22, 0xe9, 0x3e,
  0x97, 0x78, 0xbd, 0xbd, 0xf5, 0xf4, 0xbb, 0x3e, 0x43, 0xae, 0xf3, 0x3c,
  0x70, 0xa4, 0xff, 0x3e, 0xd2, 0x8b, 0x97, 0xbd, 0x57, 0xab, 0xba, 0x3e,
  0x29, 0x29, 0x2d, 0x3f, 0x72, 0x7b, 0xa1, 0x3d, 0x45, 0xc4, 0x84, 0x3e,
  0xf3, 0xba, 0x46, 0xbf, 0x2a, 0x55, 0x70, 0x3d, 0x39, 0x92, 0x25, 0xbf,
  0x95, 0x40, 0x4c, 0xbf, 0xea, 0xe9, 0xd6, 0xbe, 0xe7, 0x59, 0xaa, 0x3e,
  0x49, 0xd1, 0xb3, 0x3e, 0xc3, 0x7f, 0x88, 0xbe, 0xf9, 0x93, 0xe4, 0xbe,
  0x7b, 0x5e, 0x13, 0xbf, 0x71, 0xf2, 0xe5, 0xbe, 0x1c, 0xee, 0x65, 0xbd,
  0x0a, 0xd3, 0x80, 0x3d, 0xae, 0x25, 0x29, 0xbf, 0xa7, 0xb2, 0x4c, 0x3d,
  0x40, 0x7b, 0x29, 0x3e, 0x5e, 0xb6, 0xff, 0xff, 0x04, 0x00, 0x00, 0x00,
  0x40, 0x1f, 0x00, 0x00, 0x2c, 0x6d, 0x74, 0xbb, 0xda, 0x43, 0x30, 0xbc,
  0xd5, 0xfc, 0x05, 0x3f, 0x79, 0xf3, 0x8a, 0xbc, 0x76, 0x23, 0x6d, 0xbd,
  0xb9, 0x68, 0xbd, 0xbd, 0x41, 0x46, 0x51, 0xbe, 0x60, 0xb2, 0x82, 0x3e,
  0xca, 0x67, 0xeb, 0x3e, 0x6d, 0xb0, 0x3f, 0x3e, 0x70, 0xa1, 0x36, 0x3e,
  0x79, 0x52, 0x53, 0xbe, 0x17, 0x11, 0xf6, 0xbc, 0x74, 0x7b, 0x62, 0x3d,
  0x00, 0x30, 0xa2, 0x3b, 0x84, 0xa2, 0x21, 0xbe, 0xe3, 0xfa, 0xa9, 0x3e,
  0x1e, 0x5c, 0x0d, 0xbe, 0x54, 0xbb, 0x49, 0xbe, 0x5b, 0x7f, 0x18, 0x3e,
  0x4b, 0xe6, 0x04, 0x3e, 0x73, 0xea, 0x63, 0xbe, 0x74, 0xc1, 0x8d, 0x3e,
  0x57, 0x63, 0x42, 0xbe, 0xc7, 0x8d, 0xfc, 0xbd, 0x01, 0x0b, 0xde, 0xbc,
  0x20, 0x7f, 0x9b, 0xbd, 0x1f, 0x3d, 0x50, 0x3e, 0x5e, 0x66, 0x95, 0xbb,
  0x30, 0x07, 0x4d, 0x3e, 0xe6, 0xca, 0x85, 0x3e, 0x26, 0xb1, 0xee, 0xbd,
  0x73, 0xa1, 0xbf, 0x3d, 0x08, 0x54, 0x3f, 0x3d, 0x6e, 0xd6, 0x15, 0xbd,
  0x1f, 0xb6, 0xa2, 0x3d, 0x4b, 0xdf, 0x55, 0xbe, 0x47, 0xe1, 0x84, 0x3e,
  0x40, 0x10, 0x1e, 0xbe, 0xe8, 0x36, 0x07, 0x3d, 0xe3, 0x70, 0x66, 0x3e,
  0xc8, 0x02, 0xdb, 0xbe, 0x29, 0xb4, 0x9c, 0x3d, 0xf0, 0x95, 0x52, 0xbe,
  0x17, 0x0c, 0xab, 0x3e, 0xeb, 0x89, 0xae, 0x3b, 0x9d, 0xb2, 0x86, 0x3e,
  0x97, 0xbb, 0x79, 0xbe, 0x07, 0x0c, 0x6c, 0xbe, 0xc3, 0x80, 0x13, 0xbe,
  0x5d, 0x75, 0x83, 0xbe, 0x3b, 0x26, 0x4f, 0x3e, 0x4f, 0xe1, 0xb5, 0x3d,
  0x41, 0xd6, 0x03, 0x3e, 0xd9, 0x15, 0x88, 0x3d, 0x9d, 0x57, 0x7d, 0x3c,
  0xb7, 0x4c, 0x85, 0x3e, 0xcf, 0xd6, 0x63, 0x3e, 0xfd, 0x0c, 0x3b, 0xbe,
  0xbf, 0xfb, 0x35, 0xbd, 0x6b, 0xc5, 0x61, 0x3e, 0x6f, 0x8d, 0x5d, 0x3e,
  0xd7, 0x12, 0x59, 0xbe, 0x06, 0x77, 0xd3, 0xbc, 0xfc, 0x10, 0x73, 0xbe,
  0x21, 0x56, 0x6c, 0x3e, 0xcd, 0x1c, 0xad, 0xbd, 0xee, 0xf9, 0x48, 0x3e,
  0x34, 0xe2, 0xb5, 0xbd, 0x74, 0x57, 0x35, 0x3e, 0x62, 0xa6, 0xe7, 0x3d,
  0x8e, 0x26, 0x2b, 0xbe, 0xfa, 0x7c, 0x11, 0x3e, 0x04, 0x13, 0x2f, 0xbe,
  0xa7, 0xfe, 0x85, 0xbd, 0x39, 0x6f, 0xa0, 0xbd, 0x92, 0x74, 0x14, 0xbd,
  0x11, 0x10, 0xe8, 0xbd, 0x08, 0xdd, 0x11, 0xbe, 0xa0, 0xa5, 0x1a, 0x3d,
  0x44, 0xaa, 0xf3, 0xbe, 0xe4, 0xde, 0x2a, 0x3f, 0x46, 0x2f, 0x3a, 0x3f,
  0x1b, 0x2c, 0x9a, 0xbe, 0xf6, 0x48, 0x32, 0x3e, 0x6f, 0xd1, 0x8b, 0x3e,
  0xda, 0xfe, 0xea, 0xbd, 0xf3, 0x8c, 0xe4, 0xbd, 0xba, 0xd3, 0x13, 0xbb,
  0xcd, 0xe3, 0x9a, 0xbe, 0x08, 0xcd, 0x7d, 0x3e, 0x2a, 0x06, 0x56, 0x3e,
  0x31, 0x85, 0x57, 0xbd, 0x43, 0xd5, 0x48, 0xbe, 0x4a, 0xa5, 0x06, 0xbe,
  0xf3, 0xae, 0x0f, 0x3e, 0x32, 0x0f, 0x41, 0xbe, 0x76, 0x88, 0xc4, 0x3c,
  0x59, 0x19, 0x3a, 0x3e, 0x7a, 0xbd, 0x19, 0xbd, 0x2a, 0x97, 0x98, 0xbd,
  0x8a, 0x88, 0x81, 0xbc, 0x1c, 0x7e, 0x18, 0xbe, 0xe0, 0x82, 0x39, 0xbc,
  0x12, 0xd1, 0x43, 0xbe, 0xbc, 0x12, 0x46, 0xbd, 0xc6, 0x06, 0xcb, 0xbd,
  0x34, 0xe8, 0xf6, 0xbd, 0x7f, 0x10, 0x8b, 0xbd, 0x19, 0x2f, 0x17, 0x3e,
  0x7c, 0x67, 0x8d, 0x3e, 0x3a, 0x07, 0x0c, 0x3e, 0x1d, 0x42, 0x83, 0xbe,
  0x33, 0x31, 0x20, 0x3e, 0xd3, 0x87, 0x82, 0xbe, 0x62, 0xd8, 0x52, 0x3e,
  0x5b, 0xc4, 0x30, 0x3e, 0xb2, 0x66, 0x33, 0x3c, 0x7d, 0x2c, 0x47, 0x3c,
  0xe5, 0xc2, 0x46, 0xba, 0xc6, 0x11, 0x30, 0x3f, 0xfe, 0xa7, 0xee, 0xbd,
  0xa2, 0xda, 0x6b, 0x3f, 0x8e, 0xdf, 0xdd, 0xbe, 0xd8, 0xd2, 0xa1, 0x3e,
  0xd4, 0x52, 0x9c, 0x3e, 0x34, 0x1d, 0x23, 0x3e, 0x23, 0xa9, 0x1b, 0x3d,
  0x5f, 0x9c, 0xd3, 0x3e, 0x7a, 0x91, 0x2f, 0xbe, 0xb7, 0x4b, 0x39, 0xbe,
  0x35, 0x00, 0x13, 0xbe, 0x46, 0x26, 0x51, 0xbd, 0x5c, 0x40, 0x62, 0xbe,
  0x6e, 0x11, 0x89, 0x3e, 0xe0, 0x02, 0xcd, 0x3e, 0xea, 0xad, 0x01, 0xbc,
  0x49, 0x04, 0x81, 0xbd, 0x4a, 0x4c, 0x90, 0x3e, 0x2b, 0x29, 0x04, 0xbe,
  0x6d, 0xf7, 0xd6, 0xbd, 0x98, 0x6c, 0x2b, 0x3e, 0x59, 0x4d, 0xa2, 0x3d,
  0x20, 0x07, 0x2a, 0x3e, 0xf1, 0x97, 0xa9, 0x3d, 0x16, 0xb5, 0x25, 0xbd,
  0xf1, 0x6f, 0xd7, 0x3d, 0xc4, 0xb7, 0x1b, 0x3e, 0xc9, 0x20, 0x0d, 0x3d,
  0x68, 0xe8, 0x00, 0xbe, 0x7f, 0x04, 0x85, 0x3d, 0xda, 0x85, 0x75, 0xbe,
  0x50, 0x3e, 0xbe, 0x3d, 0x07, 0x1d, 0x6c, 0xbe, 0x73, 0x97, 0x43, 0xbe,
  0xaa, 0x56, 0x2c, 0x3e, 0x1a, 0xcf, 0x09, 0x3e, 0xa9, 0x01, 0xb8, 0x3d,
  0x33, 0x86, 0x63, 0xbe, 0x1c, 0x0d, 0x90, 0x3d, 0x5e, 0xea, 0x9e, 0x3d,
  0xdb, 0x6a, 0xac, 0xbe, 0x13, 0xbd, 0x70, 0xbc, 0x43, 0xe1, 0x33, 0x3f,
  0x03, 0xe6, 0x76, 0x3e, 0xad, 0x76, 0x79, 0x3e, 0x3e, 0x64, 0x71, 0x3e,
  0xf0, 0x6a, 0x9c, 0xbe, 0xc6, 0x8b, 0x75, 0x3e, 0x30, 0x9e, 0x81, 0x3d,
  0xa8, 0x1e, 0x39, 0x3e, 0xc8, 0xb4, 0x67, 0xbe, 0x24, 0xe7, 0x99, 0x3e,
  0xd1, 0xe5, 0x44, 0xbe, 0x24, 0x96, 0x1e, 0x3e, 0x82, 0xdd, 0xfb, 0x3d,
  0xc5, 0xd8, 0x50, 0x3e, 0xf4, 0xd7, 0xa6, 0xbc, 0x97, 0x3f, 0x94, 0x3e,
  0xc4, 0xf5, 0x1a, 0x3c, 0xf7, 0xc3, 0x0a, 0xbe, 0xbc, 0xc2, 0xa2, 0x3c,
  0x67, 0xbc, 0x34, 0xbd, 0x5e, 0xb6, 0x7d, 0xbe, 0x3e, 0x50, 0x6c, 0x3e,
  0x06, 0x74, 0xfa, 0x3b, 0x58, 0x2d, 0x55, 0xbe, 0xf8, 0x9f, 0x72, 0x3e,
  0xb5, 0x30, 0x4a, 0xbe, 0x98, 0xdb, 0xbc, 0xbd, 0xd5, 0xbd, 0x8e, 0x3d,
  0x04, 0x03, 0xc8, 0xbd, 0x4d, 0x35, 0xb5, 0xbd, 0x7c, 0x91, 0x28, 0x3e,
  0x6a, 0xaf, 0x10, 0x3c, 0xaa, 0x7e, 0x8a, 0xbd, 0xa4, 0xaa, 0x78, 0x3c,
  0x36, 0x10, 0x37, 0xbe, 0xc5, 0x17, 0x55, 0xbe, 0xc8, 0xde, 0x97, 0x3d,
  0x25, 0x0b, 0x17, 0xbe, 0xf1, 0x91, 0x0d, 0xbe, 0xc5, 0x72, 0x7c, 0xbe,
  0xbe, 0x18, 0x1c, 0xbd, 0x06, 0x6a, 0xc3, 0x3d, 0xa9, 0x3d, 0xcf, 0xbd,
  0xa7, 0xd1, 0xcd, 0xbd, 0xad, 0x18, 0x40, 0xbe, 0x09, 0x6c, 0x54, 0xbd,
  0x94, 0xc9, 0x94, 0x3e, 0x97, 0x90, 0x22, 0x3e, 0x83, 0x4a, 0xa2, 0x3d,
  0x72, 0xcf, 0x2a, 0xbe, 0xac, 0x21, 0x42, 0x3e, 0xe8, 0xf2, 0xb9, 0x3d,
  0xaf, 0x08, 0x36, 0xbe, 0x40, 0x35, 0x06, 0xbe, 0xd5, 0xbf, 0x37, 0xbe,
  0x5e, 0xa9, 0xba, 0xbd, 0x34, 0xd0, 0x30, 0x3e, 0xa9, 0x98, 0x7f, 0xbc,
  0x96, 0x48, 0x2f, 0xbe, 0x7f, 0xce, 0x14, 0x3e, 0xa6, 0x4c, 0x59, 0x3d,
  0x11, 0xac, 0x59, 0x3e, 0x1e, 0x6c, 0xea, 0xbd, 0x9c, 0x00, 0x69, 0x3e,
  0x16, 0xd6, 0x19, 0x3e, 0xfa, 0x05, 0x20, 0xbd, 0xa1, 0xef, 0x2f, 0x3e,
  0xf6, 0x13, 0x29, 0xbd, 0xcd, 0x88, 0x12, 0xbc, 0x73, 0x46, 0x0e, 0x3e,
  0x2f, 0xfd, 0x0f, 0x3e, 0xc2, 0x1c, 0xd1, 0x3d, 0x9a, 0x70, 0x49, 0xbe,
  0x7d, 0x41, 0x8e, 0xbe, 0x34, 0xf7, 0x71, 0x3c, 0x94, 0xbf, 0x7d, 0x3e,
  0x5b, 0x16, 0x7e, 0x3e, 0x99, 0x13, 0x10, 0x3f, 0x06, 0xe9, 0xd6, 0xbe,
  0xab, 0x99, 0x9e, 0x3e, 0x23, 0xed, 0x1f, 0x3d, 0x11, 0x83, 0xeb, 0xbc,
  0x9f, 0x4b, 0xa2, 0x3e, 0xe6, 0x19, 0xcc, 0x3e, 0x62, 0x59, 0xbb, 0x3e,
  0xe1, 0x13, 0x9f, 0x3e, 0x68, 0xc1, 0xb4, 0xbe, 0xe1, 0x81, 0x56, 0xbd,
  0xba, 0x0e, 0x6a, 0x3e, 0x7d, 0x7c, 0x91, 0x3e, 0x58, 0x03, 0xa4, 0x3e,
  0xc8, 0xa7, 0x6c, 0x3e, 0xae, 0xd2, 0xac, 0xbe, 0x7a, 0x78, 0xf5, 0x3e,
  0xd5, 0x7a, 0x8e, 0x3e, 0x31, 0x70, 0x64, 0xbe, 0x6d, 0x43, 0xfc, 0x3b,
  0x27, 0x47, 0x43, 0xbe, 0xdf, 0x5f, 0x85, 0x3d, 0xf1, 0x03, 0x15, 0xbe,
  0x32, 0x9b, 0x0e, 0x3e, 0x5f, 0x75, 0xe3, 0x3d, 0xc9, 0x47, 0x70, 0xbe,
  0x70, 0x63, 0x59, 0x3e, 0x30, 0x19, 0x47, 0xbe, 0xc1, 0x16, 0x27, 0x3e,
  0x9e, 0xb8, 0x2b, 0xbe, 0x60, 0x2b, 0xf3, 0xbd, 0x9c, 0x1a, 0x40, 0x3d,
  0xd2, 0x0b, 0xef, 0xbc, 0x3b, 0xc8, 0x1f, 0x3e, 0x0c, 0xf7, 0x81, 0x3d,
  0x29, 0x52, 0x8b, 0xbc, 0x0a, 0xc0, 0x1b, 0xbd, 0x8f, 0xe2, 0x5b, 0xbc,
  0x28, 0xfa, 0x70, 0x3e, 0xfc, 0x91, 0x0e, 0xbc, 0x39, 0x0e, 0x59, 0xbe,
  0x4e, 0xeb, 0x25, 0x3e, 0x62, 0xb5, 0x36, 0xbf, 0x6a, 0x73, 0x08, 0x3f,
  0x32, 0xa4, 0x51, 0xbe, 0x56, 0x3a, 0x50, 0xbe, 0x6e, 0x0f, 0xfd, 0x3c,
  0x4d, 0x3d, 0x39, 0x3f, 0xba, 0x4c, 0x63, 0x3e, 0xb1, 0x09, 0x86, 0xbd,
  0x21, 0xeb, 0x92, 0x3e, 0x3f, 0x44, 0xfa, 0x3a, 0x67, 0xac, 0x07, 0x3e,
  0x45, 0xf0, 0xd1, 0xbd, 0x82, 0xca, 0x7d, 0x3e, 0x4a, 0x04, 0xb7, 0xbe,
  0xc2, 0x3a, 0xb1, 0x3e, 0x5f, 0x26, 0xbe, 0xbe, 0x6f, 0x4e, 0xfb, 0xbb,
  0x77, 0x55, 0x60, 0x3e, 0x84, 0x04, 0x1e, 0x3e, 0xc6, 0x39, 0x02, 0xbe,
  0x87, 0xca, 0x14, 0x3e, 0xe4, 0x73, 0x22, 0x3e, 0xf3, 0xaf, 0xb6, 0xbd,
  0xde, 0x54, 0x71, 0xbd, 0x54, 0x64, 0x1c, 0x3d, 0xcb, 0x1d, 0x11, 0xbd,
  0xfd, 0x98, 0x9b, 0x3d, 0xd3, 0x37, 0x76, 0x3e, 0xc0, 0x4f, 0x49, 0x3e,
  0x56, 0xfb, 0x31, 0x3e, 0xa2, 0xe9, 0xf1, 0x3d, 0xfc, 0x86, 0x9f, 0x3b,
  0x7b, 0xf6, 0x47, 0x3d, 0xb3, 0x41, 0x00, 0xbc, 0x12, 0xf7, 0x58, 0x3e,
  0x48, 0x6c, 0x98, 0xbd, 0x72, 0x69, 0x8e, 0x3d, 0x1c, 0xdf, 0xc9, 0x3d,
  0xe8, 0xb0, 0x5a, 0xbd, 0x9b, 0xdc, 0x32, 0xbe, 0x46, 0xa0, 0x0f, 0x3e,
  0x94, 0xbb, 0x83, 0xbe, 0x9c, 0x4b, 0x42, 0xbd, 0xc0, 0xf4, 0x09, 0x3e,
  0xb7, 0x24, 0xa2, 0xbd, 0xe1, 0x80, 0x19, 0xbe, 0x80, 0xe5, 0x04, 0x3e,
  0x79, 0xcb, 0x38, 0xbe, 0x41, 0x4c, 0x5e, 0x3d, 0x9b, 0xe2, 0x30, 0xbe,
  0x0a, 0x6f, 0xe9, 0xbd, 0x07, 0x38, 0x3d, 0xbd, 0xe1, 0x8f, 0x00, 0x3e,
  0xbc, 0x3a, 0x77, 0x3e, 0x29, 0xfd, 0xe3, 0xbd, 0x8b, 0x9d, 0x19, 0xbe,
  0x01, 0x6d, 0x33, 0xbe, 0x50, 0x98, 0x78, 0xbe, 0x77, 0x24, 0xe0, 0xbd,
  0x53, 0xdd, 0x0f, 0xbe, 0x50, 0x21, 0x25, 0x3e, 0xd1, 0x5a, 0x88, 0xbc,
  0x6c, 0x35, 0x6c, 0xbe, 0x5c, 0x2c, 0x82, 0xbe, 0xff, 0xa5, 0xc7, 0x3d,
  0xa6, 0x5e, 0x83, 0xbe, 0x86, 0x34, 0x56, 0x3e, 0x6c, 0x4d, 0xc0, 0xbd,
  0xb8, 0x75, 0x37, 0x3e, 0x11, 0x9d, 0xd6, 0x3d, 0xdd, 0xa3, 0x0e, 0xbe,
  0x59, 0xf3, 0x45, 0x3c, 0xce, 0x48, 0xed, 0xbd, 0xc3, 0x5c, 0x3c, 0x3e,
  0x76, 0x20, 0x01, 0xbe, 0xd0, 0xf4, 0x41, 0x3e, 0x6d, 0xd5, 0x25, 0x3d,
  0x6c, 0xf9, 0x7e, 0xbe, 0xc2, 0xac, 0x3a, 0x3f, 0xf3, 0x26, 0x66, 0x3f,
  0xe0, 0x68, 0xe5, 0xbe, 0x7a, 0x35, 0xff, 0x3d, 0x99, 0xc1, 0x4e, 0x3f,
  0xfb, 0xbb, 0x76, 0xbe, 0x90, 0x7c, 0xf3, 0x3d, 0xd2, 0x87, 0x82, 0x3d,
  0xdd, 0xec, 0x31, 0x3e, 0x83, 0x33, 0xae, 0x3e, 0xd8, 0x56, 0x79, 0xbd,
  0x73, 0x12, 0x96, 0xbd, 0xbe, 0xe0, 0xb9, 0x3e, 0xef, 0x1d, 0x3c, 0x3e,
  0xe7, 0xd6, 0xb8, 0xbe, 0x26, 0xa5, 0x2b, 0x3e, 0x53, 0xb6, 0xda, 0xbd,
  0xb0, 0x7c, 0x60, 0x3e, 0x4d, 0xa3, 0x39, 0xbe, 0xd9, 0xf3, 0x77, 0x3d,
  0x66, 0x97, 0xb8, 0x3d, 0x94, 0x4b, 0x52, 0x3e, 0x2e, 0x52, 0x0d, 0xbe,
  0x04, 0x46, 0xf3, 0xbd, 0x43, 0x1e, 0x6e, 0xbe, 0xed, 0xcc, 0x5b, 0x3b,
  0x4b, 0x31, 0x29, 0xbe, 0x5f, 0x07, 0x77, 0xbe, 0x68, 0xbd, 0xdd, 0x3d,
  0xe2, 0x89, 0x9e, 0x3d, 0x66, 0x1a, 0x6b, 0xbe, 0x2d, 0xd1, 0xe0, 0xbd,
  0xcc, 0xc2, 0xe8, 0x3d, 0x6e, 0x6d, 0x6b, 0xbd, 0x6c, 0xef, 0x4c, 0x3e,
  0xbc, 0x7b, 0x11, 0xbd, 0xf6, 0xea, 0xa3, 0x3d, 0x96, 0x11, 0x63, 0xbd,
  0x1a, 0x78, 0xa0, 0x3d, 0x4e, 0x59, 0xef, 0x3c, 0xe3, 0xd7, 0xa0, 0xbe,
  0x66, 0x9e, 0x6a, 0x3e, 0x8e, 0x98, 0xf3, 0xbe, 0x94, 0xa3, 0x3f, 0xbe,
  0x00, 0xbe, 0x1c, 0x3f, 0x2d, 0x42, 0x90, 0xbe, 0xc2, 0x0d, 0x8a, 0xbd,
  0x7b, 0x1f, 0x29, 0x3f, 0xe0, 0x55, 0x05, 0x3f, 0xc2, 0x94, 0xca, 0x3e,
  0x41, 0x70, 0xad, 0x3e, 0xf7, 0x2f, 0x7f, 0xbe, 0xb8, 0x2e, 0x7c, 0xbe,
  0x59, 0x0c, 0x9b, 0xbd, 0x4a, 0x1a, 0xaf, 0x3e, 0x8a, 0x3b, 0x20, 0xbc,
  0x8e, 0x4f, 0xa0, 0x3e, 0xc2, 0xe1, 0xe5, 0xbd, 0xf0, 0x7b, 0x3f, 0xbe,
  0x0c, 0xb2, 0xa1, 0x3e, 0x7c, 0x64, 0x70, 0x3e, 0xc7, 0x54, 0xe8, 0x3d,
  0x3c, 0xe4, 0x80, 0xbe, 0xbc, 0xb4, 0x96, 0xbc, 0x9e, 0x25, 0x00, 0xbe,
  0x10, 0xe6, 0x71, 0xbe, 0xca, 0x10, 0x05, 0x3d, 0x27, 0xc1, 0x9b, 0xbd,
  0x68, 0xa7, 0x8b, 0x3e, 0x24, 0x56, 0xa9, 0x3d, 0xb8, 0x80, 0xe4, 0x3d,
  0xcb, 0x3e, 0xa7, 0x3d, 0x85, 0xfa, 0x35, 0xbd, 0x46, 0x18, 0x02, 0x3e,
  0x64, 0x20, 0x7c, 0x3d, 0xf5, 0x0a, 0xca, 0xbd, 0x5e, 0x49, 0xf0, 0x3c,
  0x9b, 0xed, 0x4a, 0x3d, 0xf6, 0xf2, 0xb1, 0x3e, 0xa6, 0x18, 0x91, 0x3e,
  0x6c, 0xd8, 0x14, 0x3e, 0x32, 0xb4, 0x1a, 0x3f, 0x12, 0xe0, 0x5b, 0x3e,
  0xc2, 0xf4, 0x04, 0x3e, 0x5d, 0xce, 0x3e, 0xbe, 0xbd, 0xbd, 0x21, 0x3e,
  0x29, 0xd7, 0xa0, 0xbe, 0xc6, 0xfd, 0x17, 0x3e, 0x63, 0x91, 0xc6, 0x3c,
  0x65, 0x0f, 0x94, 0x3e, 0x06, 0x7e, 0x8a, 0xbe, 0xe9, 0x64, 0xbc, 0x3b,
  0xe1, 0x27, 0x01, 0x3e, 0x5a, 0x5f, 0x0c, 0x3e, 0x93, 0x4e, 0x35, 0xbe,
  0xa0, 0x5b, 0x41, 0xbe, 0xa3, 0x60, 0x67, 0x3e, 0xf7, 0x9d, 0x1b, 0x3e,
  0xc3, 0xc6, 0x4f, 0x3d, 0xfb, 0x18, 0xfa, 0xbc, 0xc5, 0xdd, 0xf9, 0x3c,
  0x82, 0xc9, 0x56, 0x3e, 0x34, 0x67, 0x8b, 0xbe, 0x44, 0x7b, 0xde, 0xbd,
  0x56, 0x80, 0xf8, 0xbd, 0x2d, 0xe4, 0xf6, 0xbd, 0x0d, 0x5e, 0xd8, 0x3d,
  0x91, 0x90, 0xd8, 0x3d, 0x73, 0xce, 0xdd, 0xbc, 0xf2, 0xd1, 0x80, 0x3c,
  0x54, 0xcb, 0x3c, 0x3c, 0x78, 0xaa, 0xb1, 0xbd, 0x25, 0xfb, 0x25, 0x3e,
  0x05, 0x01, 0xf0, 0xbc, 0x23, 0x77, 0x5a, 0x3e, 0xdd, 0xe4, 0x63, 0x3e,
  0x4f, 0x47, 0xa4, 0x3d, 0x71, 0xaa, 0x86, 0x3d, 0x62, 0xee, 0x35, 0x3d,
  0x51, 0x92, 0x62, 0x3b, 0xbe, 0xae, 0x21, 0x3f, 0x07, 0x86, 0x2f, 0xbe,
  0x78, 0x6d, 0xcb, 0x3c, 0x3d, 0x97, 0xe4, 0xbe, 0x12, 0xd4, 0x07, 0x3f,
  0x38, 0xe7, 0xa7, 0x3e, 0x7a, 0x82, 0x89, 0x3d, 0x53, 0x98, 0x63, 0xbc,
  0xc7, 0xbb, 0x42, 0x3d, 0x98, 0xdc, 0x33, 0x3d, 0x7e, 0x2e, 0x3f, 0xbd,
  0x71, 0xd5, 0x1a, 0x3d, 0x46, 0xe5, 0x86, 0x3d, 0x89, 0xd6, 0x7d, 0xbe,
  0x94, 0xeb, 0xfd, 0x3d, 0x75, 0x5e, 0xfd, 0xbc, 0xda, 0xf9, 0xec, 0x3d,
  0xdc, 0x63, 0xbf, 0x3e, 0x93, 0x24, 0x14, 0x3d, 0x5e, 0x21, 0xe0, 0x3e,
  0xfd, 0x14, 0x50, 0x3e, 0x31, 0x79, 0x26, 0xbe, 0x27, 0x50, 0x10, 0x3e,
  0x26, 0xf1, 0x44, 0x3e, 0xce, 0x3e, 0x07, 0xbe, 0x55, 0x7e, 0x3f, 0xbc,
  0x63, 0xfd, 0x52, 0xbe, 0xa0, 0x2d, 0x31, 0x3e, 0xff, 0xb4, 0x20, 0xbe,
  0xd3, 0xcc, 0x1f, 0xbe, 0xc4, 0x85, 0x75, 0x3e, 0xeb, 0x7a, 0x0e, 0x3e,
  0xcd, 0xc6, 0x47, 0x3e, 0x6b, 0x7f, 0x2f, 0x3e, 0xc3, 0xfa, 0x94, 0x3d,
  0x9a, 0x37, 0x20, 0x3e, 0xad, 0x9a, 0x48, 0xbd, 0x88, 0x3c, 0xd4, 0xbd,
  0xdf, 0x1d, 0x0a, 0xbe, 0xa9, 0x6b, 0x30, 0xbe, 0x0a, 0x67, 0xcb, 0xbe,
  0xb5, 0xf1, 0x81, 0xbd, 0xda, 0x96, 0x9f, 0xbc, 0x27, 0x32, 0x11, 0xbe,
  0xf4, 0x24, 0xbc, 0xbd, 0x28, 0x17, 0x48, 0x3e, 0x81, 0xcb, 0x47, 0xbe,
  0x02, 0x84, 0xb3, 0x3e, 0x9f, 0x3f, 0x1d, 0x3e, 0xb2, 0x88, 0x2f, 0x3e,
  0x83, 0x16, 0x62, 0x3d, 0x7e, 0xca, 0x91, 0xbc, 0x9e, 0xd3, 0x29, 0xbe,
  0xfd, 0xaf, 0xf0, 0xbc, 0x62, 0x18, 0xda, 0x3d, 0xd3, 0x81, 0x05, 0x3d,
  0xb5, 0x99, 0xcd, 0xbd, 0x6a, 0x62, 0x6d, 0xbe, 0x87, 0xa3, 0x6d, 0xbe,
  0xe5, 0x44, 0xba, 0xbb, 0x3a, 0xe2, 0x27, 0xbe, 0x73, 0x5e, 0x86, 0xbe,
  0x80, 0x61, 0xa9, 0x3b, 0x9b, 0xcb, 0x03, 0x3e, 0x5e, 0x93, 0x30, 0x3c,
  0x0a, 0x70, 0x1e, 0xbe, 0xba, 0xd4, 0x33, 0xbe, 0xd4, 0x6c, 0x45, 0xbd,
  0xd7, 0x61, 0x54, 0xbe, 0xb1, 0x43, 0xce, 0x3c, 0x7b, 0x5b, 0xd4, 0xbc,
  0xa4, 0xc4, 0x5c, 0x3e, 0xc6, 0x48, 0x50, 0xbe, 0xb3, 0x20, 0x89, 0xbe,
  0x8d, 0xd8, 0x80, 0xbe, 0xe3, 0x70, 0x1f, 0x3d, 0xe1, 0x98, 0x85, 0x3e,
  0xb9, 0x71, 0x91, 0xbd, 0x1e, 0x41, 0xfc, 0xbc, 0xb0, 0x14, 0x9c, 0x3d,
  0xf7, 0xf8, 0x89, 0xbe, 0x70, 0xe2, 0xd1, 0xbd, 0xbb, 0x05, 0x12, 0xbe,
  0x98, 0x43, 0xb1, 0x3e, 0x88, 0x7b, 0x08, 0xbe, 0xc0, 0xa8, 0x84, 0xbe,
  0xa7, 0xed, 0xbf, 0xbd, 0xb0, 0x50, 0x87, 0xbe, 0x2e, 0x19, 0x19, 0x3e,
  0x5b, 0xf4, 0x73, 0xbe, 0xf7, 0xef, 0xc8, 0xbd, 0x13, 0x9d, 0x14, 0xbe,
  0x6e, 0x8a, 0x04, 0x3d, 0x96, 0x02, 0x01, 0xbd, 0x8e, 0x23, 0x39, 0x3c,
  0xa7, 0x65, 0x04, 0xbe, 0x85, 0xb8, 0x0e, 0x3e, 0x72, 0xce, 0x79, 0xbe,
  0x9e, 0x8f, 0x45, 0xbd, 0xa9, 0x0d, 0x45, 0x3e, 0xf2, 0x0b, 0x87, 0x3d,
  0xcc, 0x06, 0x2e, 0x3e, 0xe3, 0xc0, 0x85, 0xbe, 0xfd, 0xfe, 0x4b, 0x3e,
  0x62, 0x97, 0xaf, 0xbd, 0x23, 0x4a, 0x51, 0x3e, 0x95, 0x2e, 0x33, 0x3e,
  0x9d, 0xfe, 0x5e, 0xbe, 0xea, 0x31, 0xc7, 0x3b, 0x34, 0x55, 0x49, 0xbe,
  0x2f, 0x8c, 0x74, 0xbe, 0x64, 0xe0, 0x12, 0xbe, 0xe1, 0xe9, 0x4b, 0x3e,
  0xaa, 0x13, 0xe7, 0x3d, 0xd8, 0xbc, 0x22, 0x3e, 0xb7, 0x2f, 0x89, 0xbd,
  0x72, 0xd9, 0x00, 0x3e, 0x85, 0x90, 0xae, 0x3d, 0x7d, 0xdd, 0xcc, 0x3d,
  0x63, 0xb0, 0xde, 0xbc, 0xc9, 0x60, 0xe5, 0x3e, 0x85, 0xdb, 0x17, 0x3f,
  0x89, 0x65, 0x1b, 0x3f, 0x5e, 0x74, 0x54, 0x3e, 0x7d, 0xa6, 0x36, 0xbe,
  0x1c, 0x09, 0xb1, 0x3e, 0x36, 0x8e, 0x2d, 0x3e, 0x22, 0xd1, 0x1e, 0x3e,
  0x45, 0x58, 0x74, 0x3d, 0x59, 0xad, 0xfe, 0xbe, 0xa1, 0x62, 0x13, 0x3c,
  0xfa, 0xc7, 0x13, 0x3e, 0xf5, 0xcf, 0xca, 0x3e, 0x4a, 0x57, 0x10, 0xbe,
  0x84, 0x4c, 0x53, 0x3e, 0x3b, 0x0d, 0xa5, 0xbd, 0x08, 0x87, 0x9d, 0xbd,
  0xe2, 0xa8, 0x2d, 0xbe, 0x3c, 0x46, 0xea, 0x3d, 0x53, 0xf9, 0x01, 0x3e,
  0x4a, 0xf4, 0xda, 0x3d, 0x06, 0x17, 0xe6, 0xbd, 0xf8, 0x87, 0x46, 0x3e,
  0x8d, 0x40, 0x65, 0x3d, 0xfb, 0xd1, 0x03, 0x3e, 0x58, 0x17, 0x18, 0xbe,
  0x62, 0xd4, 0x64, 0xbe, 0xb6, 0xde, 0x3c, 0xbd, 0xe4, 0xac, 0x0c, 0x3e,
  0xf0, 0x66, 0x9c, 0x3d, 0x77, 0xda, 0xcd, 0x3d, 0x03, 0x5b, 0x8b, 0xbd,
  0x80, 0xfa, 0x6a, 0x3e, 0x3e, 0x19, 0x58, 0x3e, 0x22, 0x51, 0x44, 0xbe,
  0xc7, 0xbf, 0xc9, 0xbd, 0xa0, 0xcc, 0x8f, 0xbe, 0x57, 0x08, 0x8d, 0xbe,
  0xe6, 0x6c, 0x83, 0x3e, 0x74, 0x2b, 0x11, 0x3e, 0x40, 0x2c, 0x2c, 0x3f,
  0x75, 0xed, 0x36, 0x3e, 0x06, 0x40, 0x08, 0x3f, 0x7f, 0xfe, 0x5f, 0x3e,
  0xb6, 0xbe, 0x7e, 0xbe, 0x64, 0xc5, 0x88, 0xbe, 0xf4, 0x67, 0xd7, 0x3e,
  0x95, 0xca, 0x16, 0x3e, 0x01, 0x19, 0x8e, 0x3d, 0x48, 0x0d, 0x1f, 0x3e,
  0xb3, 0xf8, 0x80, 0xbe, 0x18, 0x01, 0x25, 0xbd, 0x05, 0x6f, 0x8a, 0xbd,
  0xd2, 0xbe, 0x2f, 0x3d, 0x6d, 0x97, 0x9e, 0x3d, 0xd9, 0xe1, 0x1c, 0x3e,
  0x28, 0x19, 0xb1, 0x3c, 0x49, 0xf7, 0xac, 0x3e, 0xef, 0x88, 0x36, 0xbe,
  0xbe, 0xf6, 0x9a, 0xbd, 0xd8, 0x19, 0x28, 0x3e, 0x95, 0x4d, 0x49, 0x3d,
  0xbb, 0x92, 0xa0, 0x3d, 0x64, 0x78, 0x30, 0xbe, 0xcd, 0x72, 0x3b, 0xbe,
  0xf1, 0x51, 0x89, 0xbc, 0x67, 0xc2, 0x62, 0x3e, 0x67, 0x0f, 0x24, 0xbd,
  0x3a, 0x3a, 0x85, 0xbe, 0xaf, 0xcc, 0x5d, 0xbe, 0xd6, 0x96, 0xf4, 0xbd,
  0x03, 0x17, 0xd3, 0xbc, 0x44, 0xa7, 0x4a, 0x3d, 0x22, 0x4e, 0x56, 0xbe,
  0x9b, 0xc3, 0x38, 0xbe, 0xaa, 0xf5, 0x83, 0xbe, 0xaa, 0xdd, 0xaf, 0xbd,
  0x91, 0xfe, 0x64, 0xbe, 0x13, 0xe9, 0x0b, 0xbd, 0x66, 0x08, 0x16, 0x3d,
  0x1f, 0x0f, 0x8b, 0xbe, 0xb9, 0x86, 0x3c, 0xbe, 0x89, 0x9f, 0xae, 0x3d,
  0x54, 0xb2, 0xce, 0x3e, 0xa3, 0xd5, 0x03, 0x3f, 0x51, 0x8b, 0x20, 0x3e,
  0xae, 0x5e, 0x1e, 0x3f, 0xed, 0xd5, 0x3a, 0xbd, 0x1d, 0xc9, 0x72, 0xbe,
  0x95, 0x65, 0x9b, 0xbe, 0x00, 0x10, 0xd7, 0x3d, 0xfb, 0x4a, 0x25, 0x3e,
  0x20, 0x52, 0x95, 0x3d, 0xe8, 0xa9, 0x7a, 0xbd, 0x9c, 0xf5, 0x4f, 0x3e,
  0xbd, 0x43, 0x4b, 0xbe, 0xc0, 0x0c, 0x58, 0xbd, 0x49, 0xac, 0x12, 0xbe,
  0xc2, 0x94, 0x5e, 0x3c, 0x58, 0x18, 0xd8, 0xbd, 0xfc, 0xd7, 0x08, 0xbe,
  0xe4, 0xe4, 0x3f, 0x3e, 0xa2, 0xe0, 0x54, 0x3e, 0x58, 0x0f, 0x08, 0xbd,
  0x9b, 0x3f, 0x0c, 0x3e, 0x5f, 0x09, 0xda, 0x3d, 0x18, 0x06, 0xee, 0xbd,
  0x55, 0x43, 0x63, 0x3e, 0x7a, 0x2c, 0xd7, 0xbd, 0xea, 0x87, 0x64, 0x3e,
  0x5f, 0x9a, 0x36, 0xbe, 0x7c, 0x28, 0x35, 0x3e, 0x09, 0xbc, 0x1e, 0x3e,
  0x84, 0x07, 0x52, 0x3e, 0x97, 0xa6, 0xbe, 0x3d, 0xc5, 0x86, 0x32, 0x3e,
  0x45, 0x7a, 0x2f, 0x3d, 0x60, 0x02, 0xd5, 0xbc, 0xdc, 0x93, 0x11, 0xbe,
  0x2c, 0x78, 0x7d, 0x3e, 0x68, 0xa5, 0x0a, 0xbc, 0x94, 0xb4, 0x42, 0x3f,
  0x9a, 0x2d, 0xf2, 0xbe, 0xcc, 0x71, 0x48, 0x3f, 0xb4, 0x37, 0x25, 0x3e,
  0xc9, 0x28, 0x46, 0xbc, 0xc7, 0xd6, 0x43, 0xbd, 0x70, 0xe6, 0x0f, 0x3e,
  0xfe, 0x73, 0x48, 0x3e, 0x41, 0xe0, 0x52, 0xbd, 0x2c, 0xd9, 0xd3, 0xbc,
  0x87, 0x2e, 0x7a, 0x3e, 0x5c, 0xde, 0x88, 0x3e, 0x81, 0x6f, 0xb1, 0x3e,
  0x6a, 0xc9, 0x1b, 0x3d, 0x90, 0xd9, 0x1a, 0xbe, 0x07, 0xdd, 0xc2, 0x3e,
  0xd2, 0xb1, 0x90, 0xbd, 0x21, 0x0e, 0x80, 0xbe, 0x39, 0xec, 0x3a, 0xbe,
  0xed, 0x74, 0xee, 0xbd, 0x6a, 0x7f, 0x34, 0xbe, 0x6a, 0x7c, 0x89, 0x3e,
  0x3c, 0xec, 0x72, 0x3c, 0x3e, 0x3c, 0x45, 0xbe, 0xc3, 0xc4, 0x3d, 0xbe,
  0x97, 0xd7, 0x53, 0x3e, 0xa6, 0xbf, 0x3d, 0xbd, 0xa3, 0x2e, 0x0d, 0xbd,
  0x83, 0xa9, 0xfd, 0x3d, 0x8b, 0x53, 0x40, 0x3d, 0xdd, 0x23, 0xba, 0x3d,
  0xf5, 0x28, 0x85, 0x3d, 0xd1, 0x67, 0x80, 0xbe, 0xb6, 0x80, 0x36, 0x3e,
  0x81, 0xaa, 0xe3, 0xbd, 0x25, 0xb8, 0x81, 0xbc, 0x20, 0xc1, 0x9a, 0xbd,
  0xb8, 0x0c, 0x9f, 0x3d, 0x12, 0x3a, 0x4d, 0x3e, 0x87, 0xd7, 0xdf, 0x3d,
  0x53, 0xf1, 0x8f, 0xbb, 0x6f, 0x57, 0x0a, 0xbe, 0xc7, 0xd3, 0x0c, 0xbe,
  0x8a, 0x5a, 0x43, 0xbe, 0x37, 0xf4, 0x74, 0xbc, 0xe6, 0xd9, 0x81, 0xbd,
  0x72, 0x9f, 0x7e, 0xbe, 0xb7, 0x4d, 0x00, 0xbd, 0xe0, 0x53, 0x78, 0xbe,
  0xbb, 0xf2, 0x81, 0xbe, 0x77, 0x1e, 0x95, 0xbd, 0xb3, 0x87, 0x78, 0xbe,
  0xf7, 0x1d, 0x67, 0xbe, 0x3f, 0x1b, 0x26, 0x3e, 0xd9, 0x0c, 0x8b, 0x3b,
  0x3d, 0xd4, 0x6a, 0xbe, 0x31, 0xf2, 0xb2, 0x3c, 0x07, 0x72, 0xc4, 0x3b,
  0x79, 0x89, 0x16, 0x3e, 0xa4, 0x92, 0x56, 0xbe, 0xb0, 0xa6, 0x1e, 0x3e,
  0xb7, 0x5d, 0x3e, 0xbe, 0x90, 0xaf, 0x73, 0x3e, 0xfd, 0xf6, 0xe3, 0xbd,
  0x1b, 0xce, 0x93, 0xbc, 0x84, 0xb0, 0xa6, 0x3d, 0x5b, 0xd9, 0x12, 0x3e,
  0xb1, 0xcd, 0xfd, 0xbd, 0x62, 0xc5, 0xa9, 0xbc, 0x06, 0x2d, 0x82, 0xbe,
  0x4a, 0x5d, 0xd2, 0x3d, 0xd0, 0xa4, 0x15, 0xbe, 0x1b, 0xf3, 0x2c, 0x3e,
  0x07, 0x6e, 0xac, 0x3d, 0xe3, 0xc7, 0x6a, 0x3e, 0xd4, 0x30, 0x34, 0xbd,
  0xae, 0xff, 0xa6, 0x3d, 0x79, 0x98, 0x3f, 0xbe, 0x5a, 0x70, 0x53, 0x3d,
  0x8e, 0xc8, 0x6f, 0xbe, 0x50, 0x53, 0x29, 0xbe, 0xad, 0xa3, 0x36, 0xbe,
  0x93, 0x5a, 0x52, 0x3e, 0xf2, 0x1e, 0x27, 0xbe, 0xd6, 0x98, 0x5a, 0xbe,
  0x1f, 0x25, 0x89, 0xbe, 0x87, 0xbb, 0xaf, 0x3e, 0xca, 0x1b, 0x27, 0xbd,
  0x21, 0x0c, 0x49, 0xbd, 0x83, 0xe4, 0x46, 0xbe, 0xf4, 0xc6, 0x8f, 0x3d,
  0xd7, 0x49, 0x14, 0xbe, 0x9b, 0x49, 0x0b, 0x3e, 0x93, 0x19, 0x4a, 0x3e,
  0xc8, 0x10, 0xa5, 0xbd, 0xec, 0x71, 0x0f, 0xbe, 0xd0, 0xfa, 0x42, 0x3d,
  0xc6, 0xe0, 0x10, 0xbe, 0xb2, 0x43, 0xf0, 0x3d, 0xfc, 0x0c, 0x25, 0x3e,
  0x11, 0x67, 0xb8, 0xbd, 0xc0, 0xc4, 0x3e, 0xbe, 0x1e, 0x75, 0x66, 0x3e,
  0x29, 0x7e, 0x38, 0xbd, 0xc6, 0x26, 0x44, 0x3e, 0x61, 0xeb, 0x15, 0xbe,
  0x3e, 0x25, 0x6a, 0xbe, 0x41, 0xb5, 0x53, 0x3e, 0x5b, 0xee, 0x79, 0xbe,
  0xfc, 0x0c, 0x2e, 0xbd, 0xbd, 0x3d, 0x2b, 0xbe, 0xd6, 0x77, 0x43, 0xbe,
  0x39, 0x30, 0x42, 0xbe, 0x04, 0xab, 0x37, 0xbe, 0xa2, 0x4b, 0x4b, 0xbe,
  0x89, 0x9a, 0xb9, 0xbd, 0x2a, 0x68, 0x7a, 0xbe, 0x60, 0xaf, 0xa7, 0xbd,
  0xaa, 0xff, 0x64, 0x3e, 0xe1, 0x5e, 0x3d, 0xbe, 0x4b, 0x4b, 0x0e, 0x3e,
  0x97, 0x91, 0xaa, 0xbc, 0x3e, 0xbf, 0xf8, 0x3e, 0x79, 0xff, 0xca, 0xbe,
  0x5e, 0xf4, 0xa0, 0x3e, 0x87, 0x7c, 0xe9, 0x3e, 0x1c, 0x89, 0x59, 0x3e,
  0x72, 0xf7, 0x18, 0xbe, 0x1d, 0x97, 0x67, 0xbe, 0x86, 0xc7, 0x4e, 0xbe,
  0xb4, 0x9e, 0x82, 0x3e, 0xe4, 0xea, 0x7c, 0xbe, 0x51, 0xe6, 0x50, 0xbd,
  0xeb, 0x86, 0x72, 0xbe, 0xaf, 0x0d, 0x4f, 0xbe, 0x92, 0x22, 0xc9, 0xbd,
  0x25, 0x6f, 0xe5, 0x3d, 0xfe, 0xd9, 0xb5, 0xbe, 0x24, 0xf3, 0xc8, 0x3e,
  0x7b, 0xd7, 0x50, 0xbe, 0xb0, 0xe0, 0x3c, 0xbe, 0xeb, 0x99, 0x9c, 0xbe,
  0x64, 0xa9, 0x5b, 0xbe, 0xb9, 0x94, 0xa5, 0x3e, 0x5e, 0x47, 0x5e, 0x3e,
  0x8c, 0x13, 0x91, 0x3a, 0x09, 0x59, 0x85, 0x3d, 0xdc, 0xf3, 0x62, 0x3e,
  0x2e, 0xfa, 0x26, 0xbe, 0x1a, 0x9c, 0x2a, 0xbc, 0x46, 0x02, 0x19, 0xbe,
  0xd2, 0x40, 0x34, 0xbe, 0x19, 0xf4, 0x0a, 0x3e, 0x02, 0x24, 0xde, 0x3d,
  0x7d, 0x25, 0x31, 0xbd, 0xcd, 0x2b, 0xeb, 0x3c, 0x78, 0x67, 0x1b, 0xbe,
  0x25, 0xa5, 0xc0, 0xbb, 0x91, 0xd5, 0x47, 0xbe, 0x9a, 0xd4, 0x53, 0x3f,
  0x44, 0xc5, 0x4e, 0x3f, 0xaf, 0xee, 0xb7, 0x3e, 0x98, 0x1b, 0xf0, 0x3e,
  0xcd, 0xd5, 0x80, 0x3e, 0x27, 0x3b, 0x2f, 0x3e, 0x4c, 0xf9, 0x06, 0x3f,
  0xa4, 0x17, 0x5c, 0xbe, 0x72, 0x29, 0x92, 0xbe, 0xca, 0xa6, 0x61, 0x3d,
  0x19, 0xb1, 0x4e, 0xbe, 0x74, 0x22, 0x90, 0x3e, 0x5e, 0x37, 0x0c, 0x3e,
  0x8f, 0x9a, 0xf2, 0xbd, 0xab, 0xec, 0x10, 0x3d, 0x29, 0xb1, 0x54, 0x3e,
  0xcf, 0x52, 0x07, 0xbe, 0x99, 0x5e, 0xf7, 0x3e, 0xd9, 0x98, 0xd9, 0xbd,
  0x42, 0xdb, 0x29, 0xbe, 0x79, 0x51, 0x9c, 0x3e, 0x5a, 0xd1, 0x48, 0x3e,
  0x5f, 0x97, 0xb7, 0x3e, 0xb1, 0xe4, 0x16, 0x3e, 0x33, 0x29, 0x78, 0x3e,
  0x99, 0x16, 0xad, 0x3e, 0x83, 0xd9, 0xd5, 0x3e, 0x5f, 0xac, 0xa9, 0x3e,
  0x4b, 0xcd, 0x3a, 0xbe, 0xb6, 0x76, 0x31, 0x3e, 0xb5, 0xcb, 0x6e, 0xbd,
  0x24, 0xdc, 0x89, 0x3d, 0x56, 0xe6, 0x1f, 0xbd, 0x11, 0xf0, 0xb7, 0xbd,
  0xc6, 0x82, 0xa1, 0xbd, 0x32, 0x92, 0x0c, 0xbd, 0x11, 0xef, 0xdf, 0x3c,
  0x87, 0x05, 0xad, 0x3d, 0x09, 0x5f, 0x74, 0x3e, 0x83, 0xbe, 0x00, 0xbe,
  0x87, 0x0d, 0x8b, 0xbd, 0x94, 0x55, 0x14, 0x3e, 0xe7, 0xe1, 0x77, 0xbe,
  0x93, 0xa5, 0xf6, 0xbe, 0xb5, 0xe2, 0x89, 0x3e, 0x00, 0xcf, 0x74, 0x3d,
  0x49, 0x60, 0xdf, 0xbc, 0xa8, 0x77, 0x1e, 0xbe, 0x17, 0xaf, 0xf2, 0x3d,
  0x11, 0xb4, 0xa9, 0x3e, 0x08, 0x56, 0x12, 0x3d, 0x6c, 0xea, 0x27, 0x3e,
  0xd8, 0xcd, 0xfa, 0xbd, 0xfd, 0xdd, 0xe7, 0xbd, 0xd3, 0x47, 0x58, 0xbe,
  0x94, 0x1e, 0x8a, 0x3d, 0xab, 0x83, 0x36, 0xbe, 0x96, 0x9e, 0x95, 0x3d,
  0x9c, 0x8f, 0x4f, 0x3e, 0x16, 0xeb, 0x7b, 0x3e, 0x5b, 0x65, 0xa1, 0xbd,
  0x2c, 0x93, 0xfa, 0xbd, 0xe8, 0x6f, 0xc9, 0xbb, 0x04, 0xd1, 0x73, 0x3e,
  0x9c, 0x16, 0x6c, 0xbe, 0x40, 0x58, 0x83, 0x3e, 0x46, 0x44, 0x51, 0xbe,
  0x10, 0x99, 0x65, 0x3e, 0x36, 0x7a, 0x39, 0xbe, 0x63, 0xd9, 0x2f, 0xbe,
  0x13, 0x1f, 0x51, 0x3d, 0x19, 0xeb, 0xff, 0xbb, 0x21, 0x54, 0x20, 0x3e,
  0x7d, 0x63, 0x3c, 0xbd, 0x72, 0xba, 0x30, 0xbd, 0x8c, 0x8f, 0xc0, 0x3d,
  0x7c, 0xd9, 0x3c, 0x3d, 0x49, 0x12, 0x36, 0x3e, 0x95, 0x7a, 0x7a, 0x3e,
  0xaa, 0xfb, 0x91, 0xbd, 0x74, 0xd1, 0x3d, 0x3f, 0x07, 0x81, 0xf4, 0x3d,
  0x18, 0xc0, 0xe0, 0x3e, 0x97, 0xba, 0x54, 0x3e, 0x92, 0x69, 0xed, 0xbd,
  0x44, 0x66, 0x8b, 0xbe, 0x4a, 0x7f, 0xcc, 0x3e, 0xf7, 0x74, 0x8c, 0xbe,
  0x82, 0xed, 0x80, 0x3e, 0x06, 0x7c, 0x09, 0xbe, 0x64, 0xd9, 0x97, 0x3d,
  0xec, 0xdb, 0x0f, 0xbe, 0x6b, 0x69, 0xcd, 0xbc, 0x1a, 0x8b, 0x68, 0x3e,
  0x1f, 0x67, 0x2c, 0xbe, 0xa8, 0xec, 0x4b, 0xbe, 0x7e, 0xf0, 0x41, 0x3e,
  0xbd, 0x34, 0x81, 0xbd, 0x86, 0xb8, 0x13, 0xbe, 0xa2, 0xd2, 0x8f, 0x3d,
  0x55, 0x99, 0x7c, 0xbd, 0x7f, 0x82, 0x2e, 0xbc, 0x53, 0x42, 0x97, 0x3e,
  0x4f, 0x1e, 0x81, 0xbd, 0xa8, 0x1f, 0xcd, 0xbc, 0xf7, 0x8b, 0xaf, 0xbd,
  0x0f, 0xac, 0x38, 0xbe, 0x79, 0xa6, 0xd9, 0xbd, 0x3b, 0x59, 0xf4, 0xbb,
  0x67, 0x34, 0x7d, 0xbd, 0xa5, 0xf4, 0x36, 0x3e, 0xf9, 0x52, 0xec, 0x3c,
  0xb2, 0x44, 0x3c, 0x3e, 0xe9, 0x30, 0x75, 0x3d, 0x2f, 0xd7, 0x6a, 0x3e,
  0xa0, 0xe4, 0x1a, 0x3d, 0x83, 0x30, 0x3f, 0xbe, 0xe7, 0x3e, 0x31, 0xbe,
  0xf4, 0x6d, 0xb8, 0xbd, 0x03, 0x56, 0x32, 0x3e, 0xc9, 0x92, 0x9c, 0x3d,
  0xae, 0x12, 0x6a, 0xbe, 0x80, 0x8b, 0x6a, 0xbe, 0x29, 0xa3, 0x4e, 0xbe,
  0x01, 0x2a, 0x99, 0x3d, 0x23, 0xf6, 0x5b, 0xbe, 0x41, 0x71, 0x41, 0x3e,
  0x93, 0x7c, 0x46, 0xbe, 0x54, 0x1c, 0xc7, 0x3d, 0x0e, 0x05, 0x44, 0xbe,
  0xe7, 0x4c, 0x5a, 0x3e, 0x48, 0x26, 0x69, 0xbd, 0x9e, 0x51, 0x32, 0xbe,
  0x7c, 0xfd, 0x3e, 0xbe, 0xd6, 0x65, 0x1b, 0xbe, 0x3e, 0xc6, 0x5b, 0x3c,
  0x3e, 0x58, 0x5a, 0x3e, 0xba, 0x74, 0x97, 0x3d, 0x1a, 0xed, 0xf4, 0x3d,
  0x21, 0xda, 0xb3, 0x3c, 0x8f, 0x09, 0x74, 0xbe, 0x88, 0x5f, 0xb9, 0x3d,
  0xa0, 0xc5, 0x4f, 0x3e, 0x7f, 0xd1, 0x4b, 0xbe, 0x28, 0xd6, 0x1b, 0x3d,
  0x8c, 0x63, 0xce, 0x3d, 0x7b, 0x87, 0x33, 0x3e, 0x5f, 0xe5, 0xd6, 0xbb,
  0xca, 0x12, 0x53, 0xbe, 0x5a, 0xd8, 0xca, 0xbd, 0xaf, 0xd9, 0x17, 0xbe,
  0x75, 0xcf, 0x9b, 0x3d, 0x5d, 0xe7, 0x83, 0xbe, 0xeb, 0x88, 0x69, 0x3e,
  0x64, 0xdc, 0xd5, 0xbd, 0xcc, 0xd4, 0x07, 0xbe, 0x9d, 0x42, 0x17, 0xbe,
  0xe5, 0xa5, 0xfd, 0x3d, 0xa6, 0xbc, 0xbd, 0x3c, 0x77, 0x04, 0xb6, 0x3c,
  0x24, 0x08, 0x53, 0x3f, 0x08, 0x78, 0xbf, 0x3c, 0x55, 0x84, 0xcf, 0xbe,
  0xb0, 0xbf, 0x09, 0x3f, 0x13, 0xbf, 0xaa, 0x3e, 0x0b, 0x0a, 0x05, 0x3e,
  0x88, 0x26, 0xf4, 0x3d, 0x56, 0xcd, 0xaf, 0x3e, 0xd1, 0x19, 0x1c, 0x3e,
  0xb7, 0x76, 0x93, 0xbe, 0x65, 0xf7, 0x74, 0xbe, 0x90, 0xfb, 0xaf, 0x3d,
  0x7c, 0xbd, 0xa1, 0x3e, 0x44, 0x4a, 0x3b, 0xbd, 0x1d, 0x5c, 0x2f, 0x3d,
  0x2a, 0x05, 0x9b, 0xbe, 0x3b, 0xd0, 0x3e, 0x3e, 0x2c, 0x8b, 0x46, 0x3e,
  0x0c, 0x87, 0x10, 0xbe, 0xa2, 0xe5, 0x8b, 0x3e, 0x83, 0xff, 0x36, 0xbe,
  0xf9, 0x20, 0x60, 0xbe, 0x47, 0x13, 0xe7, 0xbd, 0xf7, 0x36, 0x1c, 0xbe,
  0x61, 0xa1, 0xcd, 0xbd, 0x40, 0xab, 0xf0, 0xbd, 0xe9, 0x48, 0xac, 0x3d,
  0xfc, 0xce, 0x3c, 0x3e, 0x48, 0xd2, 0x5d, 0x3e, 0xc1, 0x96, 0xf8, 0x3d,
  0x79, 0xed, 0x8d, 0x3e, 0x2e, 0xce, 0x07, 0xbe, 0x0d, 0x4c, 0x38, 0x3c,
  0x8e, 0x8c, 0x02, 0x3d, 0x76, 0x5d, 0x11, 0x3e, 0x73, 0x85, 0x8a, 0xbd,
  0xa4, 0x6b, 0x5c, 0x3e, 0xd6, 0x6e, 0x50, 0x3e, 0x19, 0xf9, 0x60, 0xbe,
  0x39, 0x83, 0x09, 0x3e, 0x4a, 0x4e, 0x11, 0xbe, 0x96, 0x9f, 0x0a, 0xbe,
  0x68, 0x50, 0x73, 0xbd, 0x82, 0x19, 0xb2, 0x3d, 0xa9, 0x9e, 0x7d, 0xbe,
  0x22, 0x7c, 0x6a, 0xbd, 0x33, 0xcb, 0x9c, 0xbd, 0x32, 0xac, 0x1d, 0xbe,
  0xc9, 0x1f, 0x5a, 0xbe, 0xf4, 0x06, 0x3a, 0xbe, 0x70, 0xeb, 0x35, 0xbe,
  0xbc, 0xae, 0x17, 0xbe, 0x89, 0xbb, 0x0e, 0xbe, 0x2f, 0x54, 0xd2, 0xbd,
  0xa9, 0xca, 0x78, 0x3e, 0x34, 0x58, 0xc4, 0xbd, 0x48, 0x61, 0x9b, 0xbd,
  0xee, 0x8a, 0x24, 0xbc, 0x84, 0xc4, 0xb3, 0xbd, 0x74, 0x02, 0x5d, 0x3e,
  0x43, 0x50, 0x7d, 0xbe, 0x24, 0xee, 0x05, 0xbc, 0xf9, 0xcb, 0x81, 0xbe,
  0x0d, 0x1e, 0x3e, 0x3e, 0xf6, 0x05, 0x7e, 0xbe, 0x57, 0xc7, 0xcd, 0x3d,
  0xc4, 0x15, 0x97, 0x3c, 0xff, 0x5f, 0x38, 0x3e, 0x74, 0x48, 0x12, 0xbe,
  0xea, 0x1a, 0x21, 0xbe, 0x60, 0xa6, 0x55, 0xbe, 0x61, 0x33, 0xdf, 0x3d,
  0xaa, 0xee, 0x6f, 0xbe, 0xef, 0xad, 0x94, 0x3d, 0x3d, 0x5c, 0x7f, 0x3b,
  0x7d, 0x99, 0xe8, 0x3d, 0x81, 0x63, 0x14, 0x3e, 0x5d, 0xa9, 0x22, 0xbd,
  0x23, 0xd7, 0x37, 0x3d, 0x1a, 0x98, 0xad, 0xbd, 0x20, 0xa2, 0x02, 0x3f,
  0x52, 0x9e, 0x60, 0xbd, 0xfd, 0x3a, 0x62, 0x3d, 0xef, 0xdf, 0x81, 0x3e,
  0xb9, 0x55, 0xcd, 0xbe, 0x87, 0x19, 0x75, 0xbd, 0x92, 0xb6, 0x8f, 0x3d,
  0x46, 0xaf, 0xb7, 0xbd, 0xe5, 0xfa, 0x0f, 0x3f, 0xa0, 0x13, 0x6d, 0xbd,
  0x0a, 0xa1, 0xdd, 0x3d, 0x7e, 0x19, 0xed, 0x3d, 0xf9, 0x00, 0x06, 0x3e,
  0x86, 0xc9, 0x86, 0xbe, 0xc9, 0xa4, 0xbd, 0x3d, 0xa9, 0xd4, 0x4f, 0x3e,
  0x25, 0x36, 0x91, 0x3e, 0xc3, 0xec, 0xb3, 0x3e, 0x4e, 0xdd, 0x6c, 0x3e,
  0xee, 0x9f, 0x85, 0xbe, 0x4b, 0x1c, 0x28, 0xbe, 0x5a, 0x79, 0x59, 0x3e,
  0x9b, 0xa7, 0x98, 0xbd, 0x95, 0x65, 0x40, 0x3e, 0xab, 0xae, 0xb3, 0xbd,
  0x96, 0x53, 0x75, 0xbe, 0x4e, 0xeb, 0x4a, 0xbe, 0x0c, 0x77, 0x73, 0x3e,
  0x41, 0xb0, 0xd2, 0xbd, 0xf5, 0x5a, 0xbd, 0x3d, 0xe1, 0x1a, 0x29, 0x3e,
  0xda, 0x80, 0x10, 0xbe, 0x86, 0x39, 0xf2, 0xbd, 0xe4, 0xac, 0x87, 0xbe,
  0x84, 0x80, 0x91, 0x3e, 0xee, 0xb1, 0xaa, 0xbd, 0x2c, 0x36, 0xc2, 0xba,
  0xe5, 0x72, 0x6b, 0x3e, 0x28, 0x44, 0xd1, 0x3d, 0x53, 0xac, 0x82, 0x3e,
  0x35, 0x99, 0x04, 0x3e, 0x68, 0x53, 0xe2, 0xbe, 0xf0, 0xa8, 0x6c, 0xbc,
  0x14, 0xef, 0x71, 0x3f, 0xdf, 0x9b, 0xcc, 0x3e, 0xb4, 0x44, 0x00, 0x3d,
  0x4b, 0x48, 0x7d, 0xbd, 0xd2, 0xfc, 0x6d, 0xbd, 0x9d, 0x4c, 0x87, 0x3e,
  0x56, 0x77, 0x99, 0x3e, 0x5b, 0xf7, 0x67, 0xbd, 0x31, 0x2c, 0x9b, 0xbd,
  0x59, 0x66, 0x7d, 0x3e, 0x7d, 0x40, 0xae, 0x3d, 0x91, 0x92, 0x92, 0xbe,
  0x60, 0x76, 0x78, 0x3d, 0x8e, 0x03, 0xd8, 0xbd, 0x72, 0xfa, 0x91, 0x3e,
  0xf4, 0x14, 0x02, 0x3e, 0x20, 0x32, 0x63, 0xbe, 0x19, 0xc3, 0x94, 0x3e,
  0x23, 0x17, 0x28, 0xbe, 0x3e, 0xf6, 0x42, 0x3d, 0x61, 0xda, 0x53, 0xbd,
  0xc9, 0xc5, 0x83, 0x3e, 0xb8, 0x04, 0x05, 0xbc, 0x29, 0x66, 0xff, 0x3d,
  0x20, 0x35, 0x53, 0xbd, 0xfa, 0xdf, 0x0b, 0x3e, 0xe9, 0x30, 0xd7, 0x3d,
  0xfd, 0x6f, 0x22, 0x3e, 0x9f, 0x1f, 0xa3, 0xbd, 0xb9, 0x0d, 0x8e, 0xbd,
  0xc5, 0xea, 0x7d, 0x3c, 0xf4, 0xe8, 0xc9, 0x3d, 0xb8, 0x56, 0xb0, 0xbb,
  0x78, 0xc6, 0x88, 0x3d, 0x17, 0x32, 0x32, 0x3e, 0x48, 0x8a, 0xad, 0x3d,
  0x20, 0x04, 0x5e, 0xbe, 0xd6, 0xf9, 0x97, 0xbd, 0x3e, 0x22, 0x06, 0x3f,
  0x4c, 0x96, 0xaf, 0x3e, 0x6d, 0xfa, 0xe6, 0x3d, 0xda, 0x2b, 0xd4, 0xbb,
  0x11, 0x31, 0x61, 0xbd, 0x6e, 0x04, 0x70, 0xbd, 0xba, 0xb2, 0xbe, 0x3e,
  0x6f, 0xd0, 0x22, 0x3e, 0x05, 0x26, 0x33, 0x3e, 0xdb, 0x40, 0x3f, 0x3e,
  0x97, 0x5a, 0x3a, 0xbe, 0x37, 0x39, 0x63, 0x3d, 0x0d, 0x69, 0x88, 0x3d,
  0x14, 0x95, 0xd3, 0xbd, 0x95, 0x52, 0x58, 0x3e, 0x39, 0xcb, 0x0a, 0x3e,
  0x95, 0x9b, 0xc3, 0x3d, 0x5f, 0x9a, 0x80, 0x3d, 0x45, 0x44, 0x50, 0x3d,
  0xdf, 0x3a, 0x54, 0xbe, 0xde, 0x2e, 0x4a, 0x3e, 0xd3, 0xc8, 0x8c, 0xbd,
  0x2d, 0x81, 0x95, 0x3d, 0x00, 0xd8, 0x45, 0xbe, 0x94, 0x2c, 0x3f, 0xbc,
  0x96, 0x0f, 0xca, 0xbc, 0x88, 0x2c, 0x07, 0xbe, 0x4c, 0x8a, 0x46, 0x3e,
  0xa0, 0xe5, 0xaf, 0x3c, 0x8a, 0xaf, 0x1a, 0xbe, 0x8b, 0xcd, 0x1c, 0xbe,
  0xc2, 0x26, 0xbb, 0xbc, 0x0a, 0x72, 0x15, 0xbe, 0x59, 0x47, 0x41, 0xbe,
  0xd2, 0xd7, 0xf1, 0xbc, 0x07, 0x84, 0x3b, 0x3e, 0x33, 0x77, 0x55, 0xbd,
  0x8b, 0x02, 0x25, 0x3e, 0x2c, 0xb7, 0x8e, 0xbc, 0xce, 0x60, 0x25, 0x3f,
  0x98, 0x54, 0xce, 0x3e, 0x66, 0x6f, 0xb6, 0xbe, 0x75, 0x81, 0xf0, 0x3e,
  0xd9, 0xf2, 0x9d, 0xbd, 0x6f, 0xf2, 0x9c, 0xbe, 0x67, 0xab, 0xbd, 0x3e,
  0x27, 0xa1, 0x29, 0x3e, 0xe3, 0x74, 0x4a, 0x3e, 0x75, 0x2a, 0x89, 0x3e,
  0x85, 0x29, 0xd6, 0xbd, 0x8c, 0xa4, 0x03, 0x3d, 0xa2, 0xec, 0xaa, 0xbd,
  0x7c, 0x18, 0x09, 0x3d, 0xe5, 0x6e, 0x93, 0xbe, 0x36, 0x2b, 0x55, 0x3e,
  0xde, 0x5a, 0x4e, 0xbd, 0xcc, 0xd4, 0x50, 0x3e, 0xbb, 0x37, 0x5a, 0xbe,
  0x10, 0xa7, 0x8a, 0x3d, 0x53, 0xd9, 0x10, 0x3e, 0xce, 0x0d, 0x59, 0x3b,
  0x45, 0x30, 0xe8, 0xbd, 0x55, 0x52, 0x3b, 0xbe, 0xd8, 0x4a, 0x80, 0xbc,
  0x08, 0x53, 0xc0, 0x3d, 0xe2, 0x69, 0x9e, 0x3d, 0x6a, 0xb1, 0x42, 0x3e,
  0x18, 0xed, 0xab, 0xbd, 0xd8, 0xd4, 0x12, 0xbe, 0xe1, 0x9e, 0x50, 0xbd,
  0x9f, 0xa4, 0x88, 0xbe, 0xd3, 0xc9, 0xf0, 0x3b, 0x83, 0x7b, 0x54, 0xbb,
  0x4c, 0xdf, 0x1a, 0xbd, 0xa4, 0x1b, 0xe0, 0x3b, 0x31, 0x0f, 0x0f, 0xbd,
  0x88, 0xc2, 0xca, 0xbc, 0x9c, 0x9b, 0x5b, 0x3e, 0xe5, 0xb1, 0xa1, 0x3e,
  0xfb, 0x1d, 0x53, 0xbe, 0xbc, 0xb6, 0x4a, 0xbc, 0x32, 0xd1, 0x65, 0xbe,
  0xef, 0x3d, 0xc7, 0xbd, 0x52, 0x6e, 0xeb, 0x3c, 0xb9, 0x83, 0xdd, 0xbd,
  0xf5, 0x2a, 0x82, 0xbe, 0x3f, 0x44, 0x2e, 0xbe, 0x4a, 0xe6, 0xb7, 0xbc,
  0xab, 0x91, 0x82, 0x3e, 0x68, 0x77, 0x10, 0x3e, 0x75, 0xae, 0x52, 0xbe,
  0x27, 0xa3, 0x16, 0xbe, 0x62, 0x07, 0x26, 0x3e, 0x08, 0xa2, 0x23, 0xbe,
  0xac, 0xee, 0x72, 0x3d, 0x7c, 0xd0, 0x81, 0x3d, 0x87, 0xfe, 0x46, 0xbd,
  0x69, 0xfb, 0x8a, 0xbc, 0x3c, 0x70, 0xb1, 0xbd, 0x9e, 0x6b, 0x62, 0xbe,
  0x25, 0x88, 0x61, 0xbe, 0xfb, 0xad, 0xaf, 0xbd, 0x0b, 0x5b, 0x55, 0x3e,
  0x43, 0x17, 0x7f, 0x3e, 0xf2, 0x1c, 0xfe, 0x3c, 0x51, 0x82, 0x1a, 0x3e,
  0x9e, 0x84, 0x3b, 0x3e, 0x90, 0x0e, 0x6e, 0xbe, 0x91, 0x07, 0x70, 0xbe,
  0x2c, 0x05, 0x35, 0xbe, 0xb8, 0x2d, 0x10, 0xbd, 0x4d, 0x78, 0x51, 0xbd,
  0xf7, 0x59, 0xe1, 0x3c, 0x73, 0xa9, 0x64, 0xbd, 0xe8, 0x78, 0x40, 0xbc,
  0xcd, 0x98, 0x58, 0xbd, 0x17, 0x2e, 0xc5, 0xbd, 0x8f, 0x7e, 0x59, 0xbe,
  0x50, 0x45, 0x32, 0x3d, 0x41, 0x5e, 0xc7, 0x3e, 0xf9, 0x65, 0xa8, 0xbe,
  0x0a, 0x4a, 0x26, 0x3e, 0x9a, 0xe3, 0x38, 0x3f, 0x96, 0xab, 0x1f, 0x3e,
  0x1c, 0x9f, 0x23, 0x3f, 0xa8, 0x92, 0x24, 0xbe, 0xe5, 0x47, 0x89, 0x3d,
  0x9a, 0x27, 0x6a, 0xbe, 0x3e, 0x48, 0x26, 0x3e, 0xf9, 0xe5, 0xd6, 0xbd,
  0xa3, 0x9e, 0x0e, 0x3e, 0x7b, 0xb8, 0xbf, 0x3d, 0x15, 0x74, 0x01, 0xbe,
  0x75, 0xe9, 0x19, 0x3e, 0x31, 0x33, 0x71, 0x3e, 0x74, 0x2d, 0x21, 0x3e,
  0x7b, 0x17, 0xc7, 0x3d, 0xdb, 0xc5, 0x37, 0x3a, 0x36, 0x0e, 0x92, 0x3e,
  0x77, 0x88, 0x8a, 0x3e, 0x7d, 0xb0, 0xc1, 0xbd, 0x79, 0xd8, 0x49, 0x3c,
  0x8a, 0xb3, 0x08, 0xbe, 0x55, 0x14, 0x59, 0x3e, 0x1e, 0xa2, 0x17, 0x3e,
  0x38, 0xee, 0x60, 0x3d, 0x88, 0xae, 0x45, 0xbd, 0x78, 0x42, 0x91, 0x3c,
  0xb4, 0x2e, 0x09, 0x3d, 0xd8, 0xb1, 0x6e, 0x3e, 0xa4, 0xb5, 0x48, 0x3c,
  0xaf, 0xb1, 0x23, 0x3e, 0x61, 0x01, 0x49, 0xbe, 0x17, 0xf9, 0x97, 0xbd,
  0x6f, 0x1d, 0x9e, 0x3e, 0xd4, 0xaf, 0x0c, 0x3e, 0x59, 0xd0, 0x19, 0xbc,
  0x1b, 0xba, 0x1f, 0x3d, 0xb6, 0xcd, 0x49, 0x3c, 0xb5, 0xc0, 0xb2, 0xbe,
  0x60, 0xba, 0x07, 0x3f, 0xfb, 0xa9, 0x85, 0x3d, 0x37, 0xd1, 0x00, 0xbe,
  0xb9, 0x41, 0x47, 0x3f, 0x0c, 0xb3, 0x07, 0x3f, 0xf5, 0xca, 0xac, 0x3e,
  0xa6, 0xa2, 0xb1, 0xbc, 0x1d, 0x5e, 0xe9, 0xbe, 0x31, 0xbd, 0xb1, 0x3e,
  0x78, 0x76, 0x9d, 0x3d, 0xd4, 0xda, 0x33, 0x3e, 0x94, 0xd1, 0x08, 0x3e,
  0x09, 0xde, 0x2a, 0xbd, 0xc2, 0x2d, 0x27, 0xbd, 0x78, 0x90, 0x9a, 0x3d,
  0xc7, 0x88, 0x85, 0xbe, 0xfd, 0x23, 0x20, 0xbe, 0x72, 0x04, 0x85, 0x3e,
  0x21, 0x82, 0x34, 0x3e, 0x0f, 0x7d, 0x3c, 0x3e, 0x97, 0x30, 0x85, 0xbd,
  0x7e, 0xa5, 0x0c, 0x3e, 0x3b, 0xc8, 0x47, 0xbd, 0x8e, 0xec, 0x48, 0x3e,
  0x24, 0x09, 0x82, 0xbd, 0x03, 0xe8, 0x80, 0xbe, 0x7e, 0x72, 0xbf, 0x3d,
  0x02, 0x3f, 0x80, 0x3c, 0x04, 0xbd, 0x3f, 0xbd, 0xb1, 0xc1, 0xfd, 0xbd,
  0xcb, 0x49, 0x67, 0x3e, 0x11, 0x11, 0x53, 0xbe, 0xa8, 0x9d, 0x80, 0x3e,
  0x5f, 0x4c, 0x4f, 0x3d, 0x17, 0x0f, 0x03, 0x3e, 0xf4, 0xf3, 0x9a, 0xbd,
  0x1d, 0x5e, 0x1a, 0xbe, 0x7e, 0x08, 0x24, 0xbd, 0x21, 0xba, 0x6d, 0xbe,
  0x32, 0x13, 0x8c, 0xbd, 0x2d, 0x11, 0xae, 0x3c, 0x55, 0xea, 0x69, 0xbe,
  0xfa, 0x56, 0x45, 0xbe, 0xed, 0xcf, 0xad, 0x3e, 0x11, 0x2f, 0x32, 0x3e,
  0xb4, 0x28, 0x06, 0xbe, 0x10, 0x8b, 0x7d, 0xbe, 0x3c, 0x6a, 0xe8, 0xbd,
  0xd1, 0x79, 0x75, 0x3e, 0x6c, 0x8c, 0x2f, 0xbe, 0xfa, 0xb8, 0x0e, 0xbe,
  0x45, 0x58, 0x55, 0xbe, 0x77, 0xf8, 0x82, 0xbd, 0x7c, 0x30, 0x07, 0x3e,
  0x2d, 0xc3, 0xb9, 0x3b, 0x81, 0x72, 0x5c, 0xbe, 0x24, 0xaf, 0x5e, 0xbe,
  0x81, 0x12, 0x63, 0x3d, 0x45, 0x1e, 0x00, 0x3e, 0x40, 0x1a, 0x61, 0x3e,
  0xce, 0x05, 0x02, 0x3e, 0x99, 0x61, 0x43, 0x3e, 0x4a, 0x4d, 0xf6, 0x3d,
  0xa7, 0x18, 0x8e, 0x3e, 0xd3, 0x10, 0xb2, 0xbd, 0xfd, 0xee, 0x2d, 0xbe,
  0xe3, 0x5c, 0x73, 0x3e, 0xfd, 0xda, 0x65, 0xbe, 0x12, 0x36, 0x1f, 0x3e,
  0x79, 0xe9, 0x1c, 0xbe, 0x2a, 0xa4, 0x8e, 0xbc, 0x9a, 0x5c, 0x10, 0x3e,
  0xf9, 0x94, 0x23, 0xbe, 0xc0, 0x1f, 0x73, 0xbe, 0xca, 0x6e, 0x50, 0x3e,
  0x6d, 0xa0, 0x9c, 0xbc, 0x56, 0xf5, 0x07, 0xbe, 0x82, 0x58, 0xf3, 0x3d,
  0x1b, 0xdd, 0x78, 0x3e, 0x23, 0x8c, 0x5b, 0xbe, 0x90, 0xdf, 0x1f, 0x3f,
  0x3e, 0xe5, 0x44, 0xbc, 0xa1, 0x39, 0xe2, 0xbe, 0x1f, 0xad, 0x0f, 0x3f,
  0x03, 0x70, 0x89, 0x3d, 0xdc, 0xd1, 0x55, 0x3d, 0xc5, 0x44, 0x9e, 0x3e,
  0x62, 0x30, 0x8c, 0xbd, 0xe3, 0xa0, 0x10, 0x3e, 0x2b, 0x6b, 0x61, 0xbe,
  0x54, 0x51, 0x0c, 0xbe, 0x39, 0x20, 0x95, 0x3d, 0x7f, 0x1b, 0x7f, 0x3d,
  0x79, 0xcf, 0xe6, 0xbd, 0x9e, 0xbf, 0x44, 0xbd, 0xbb, 0xf6, 0x9c, 0xbd,
  0xf3, 0x4f, 0x66, 0x3e, 0xca, 0xc2, 0xd3, 0xbc, 0x6e, 0x2d, 0x91, 0x3e,
  0xd7, 0xb4, 0x5c, 0x3e, 0xf0, 0x68, 0x80, 0xbd, 0x57, 0x57, 0xe3, 0x3d,
  0x50, 0xcf, 0x60, 0x3d, 0x98, 0x2f, 0x12, 0xbe, 0x45, 0x25, 0x0a, 0x3e,
  0xfb, 0xa0, 0x80, 0xbe, 0xfc, 0x0f, 0xe8, 0xbb, 0x2e, 0xf2, 0x14, 0x3e,
  0xea, 0x0c, 0x35, 0xbe, 0x5a, 0x3e, 0xdc, 0x3d, 0xe2, 0x55, 0xc6, 0xbd,
  0xea, 0x1e, 0x21, 0x3d, 0x24, 0x00, 0xc1, 0x3d, 0x0a, 0x51, 0x5c, 0x3e,
  0x67, 0x07, 0x9c, 0x3d, 0x20, 0x97, 0x6d, 0x3e, 0x52, 0x88, 0x1d, 0x3e,
  0x0a, 0x75, 0x61, 0xbe, 0x03, 0x36, 0x5a, 0xbd, 0xe2, 0x71, 0x92, 0xbe,
  0x4b, 0x33, 0x5c, 0x3e, 0x68, 0x59, 0xbf, 0xbd, 0x49, 0xa3, 0x2c, 0x3d,
  0x75, 0x16, 0x4e, 0x3e, 0xba, 0x42, 0xc7, 0x3e, 0xb9, 0x3f, 0x85, 0xbe,
  0xab, 0x96, 0x9d, 0xbe, 0xa8, 0x04, 0xa7, 0xbe, 0xe3, 0x75, 0x99, 0x3e,
  0xe3, 0x5c, 0xd4, 0xbd, 0x84, 0x6e, 0x74, 0x3d, 0x64, 0xcd, 0x7c, 0xbe,
  0xc8, 0xc2, 0x31, 0x3e, 0xef, 0xf5, 0x97, 0xbe, 0x48, 0x5c, 0xc8, 0x3e,
  0x33, 0xd5, 0x3c, 0x3e, 0x9f, 0xee, 0xb0, 0x3d, 0x9a, 0xbf, 0x90, 0xbd,
  0xee, 0xdc, 0xe8, 0x3d, 0x27, 0x45, 0x75, 0x3e, 0xca, 0xbe, 0xa6, 0x3d,
  0xeb, 0x5c, 0xfa, 0x3d, 0x11, 0x5e, 0xe9, 0xbd, 0x7b, 0xbf, 0x29, 0xbe,
  0x0f, 0x20, 0xbe, 0xbd, 0xed, 0x51, 0xd4, 0xbd, 0xf9, 0x07, 0x63, 0x3e,
  0xfb, 0xae, 0x3d, 0x3e, 0x79, 0x94, 0xa0, 0xbc, 0xce, 0xa3, 0x5e, 0xbe,
  0x1d, 0xf7, 0x3c, 0x3e, 0x9a, 0x52, 0x6b, 0xbe, 0x12, 0xb2, 0xc4, 0xbd,
  0x47, 0x2b, 0x54, 0xbd, 0x90, 0xd1, 0x56, 0x3e, 0x5a, 0xbf, 0x4a, 0x3e,
  0xfa, 0x4e, 0xec, 0xbd, 0x34, 0x4a, 0x03, 0xbe, 0x02, 0x5d, 0xde, 0xbd,
  0xc9, 0x85, 0x8a, 0xbe, 0x29, 0xbb, 0xe3, 0x3e, 0x15, 0x31, 0x3e, 0xbd,
  0xcf, 0x6e, 0xca, 0x3e, 0x9b, 0x6a, 0x59, 0x3d, 0x1e, 0xdb, 0xd3, 0x3e,
  0x96, 0xa6, 0x27, 0xbe, 0x16, 0xfa, 0x8c, 0xbc, 0x6c, 0x9b, 0x3b, 0xbe,
  0x72, 0x3a, 0x80, 0xbe, 0xac, 0xce, 0x73, 0xbe, 0xf1, 0x20, 0xf4, 0x3c,
  0x99, 0x6e, 0x00, 0xbe, 0x88, 0x7f, 0x0e, 0x3d, 0x65, 0x54, 0x84, 0x3e,
  0xbe, 0x4e, 0x3b, 0x3e, 0xd5, 0xb2, 0x9d, 0x3c, 0x55, 0xa2, 0x45, 0x3e,
  0xa4, 0x5b, 0xf0, 0x3d, 0x6b, 0xa2, 0x33, 0x3e, 0xba, 0xcf, 0x55, 0x3e,
  0x8a, 0xdb, 0xe9, 0x3d, 0xba, 0xe2, 0x38, 0x3a, 0x97, 0xc2, 0x78, 0xbd,
  0x29, 0xe6, 0x52, 0xbe, 0x84, 0x55, 0x9e, 0x3c, 0x55, 0xe8, 0x60, 0xbe,
  0x69, 0x7b, 0x80, 0xbd, 0x26, 0xe9, 0x66, 0xbd, 0x37, 0xac, 0x53, 0xbe,
  0x9d, 0xc8, 0x7b, 0xbe, 0x06, 0x4c, 0xf6, 0x3d, 0xd7, 0xb4, 0x9b, 0x3d,
  0xe5, 0xd9, 0xd3, 0x3d, 0x6b, 0x74, 0xdc, 0x3d, 0x69, 0x5d, 0xef, 0x3d,
  0xe5, 0x03, 0x63, 0xbd, 0x66, 0x6f, 0x85, 0xbe, 0x8a, 0x2a, 0x36, 0xbe,
  0xb7, 0x85, 0xcb, 0xbd, 0x4b, 0xca, 0x09, 0xbf, 0xa4, 0x0c, 0x9a, 0x3f,
  0x3f, 0x0f, 0x01, 0x3f, 0xe4, 0x42, 0x11, 0x3f, 0x3f, 0x29, 0x31, 0xbf,
  0x08, 0x0e, 0xe4, 0x3d, 0x6e, 0x9a, 0x05, 0x3f, 0x67, 0x33, 0x0f, 0x3f,
  0xa0, 0x64, 0xc3, 0xbb, 0x45, 0x96, 0xf9, 0xbe, 0x4c, 0x42, 0x69, 0x3e,
  0x66, 0x42, 0x12, 0x3e, 0x58, 0x5a, 0x95, 0x3e, 0x3c, 0x2a, 0x27, 0x3e,
  0x72, 0xb3, 0x88, 0x3e, 0xd3, 0xdb, 0x7e, 0xbe, 0x18, 0xbf, 0x00, 0x3e,
  0xbc, 0xb7, 0x9c, 0xbe, 0xde, 0x57, 0x0c, 0xbe, 0x41, 0x70, 0xf2, 0xbd,
  0xd4, 0xde, 0x36, 0xbe, 0x83, 0x38, 0xab, 0x3d, 0x5e, 0x83, 0x5e, 0x3e,
  0xd6, 0xa1, 0xfc, 0x3c, 0xbe, 0x1e, 0xbd, 0x3d, 0xf5, 0xa8, 0xd3, 0x3d,
  0x46, 0x75, 0xe2, 0xbd, 0x13, 0x21, 0xf3, 0x3d, 0x3f, 0xd5, 0xcd, 0x3d,
  0x62, 0x0e, 0x21, 0xbe, 0xb4, 0x81, 0x5f, 0xbe, 0xb9, 0x2c, 0x12, 0x3e,
  0xfe, 0x6b, 0x17, 0x3c, 0x15, 0x10, 0x79, 0x3e, 0x72, 0x1a, 0x09, 0xbd,
  0x0d, 0x4a, 0x8c, 0x3e, 0xf5, 0x1f, 0x51, 0x3d, 0x05, 0x3f, 0x09, 0xbe,
  0xa8, 0xf8, 0xcd, 0xbd, 0xe6, 0x13, 0xf3, 0xbd, 0x1c, 0xa3, 0x80, 0xbe,
  0x69, 0xd1, 0x49, 0x3f, 0x92, 0x87, 0x2d, 0x3b, 0x4b, 0x53, 0xd4, 0x3e,
  0x2c, 0xef, 0x06, 0xbe, 0x64, 0x57, 0x07, 0x3e, 0x7b, 0x0c, 0x17, 0x3d,
  0x61, 0x1f, 0x2a, 0x3d, 0x30, 0x84, 0x5f, 0x3c, 0xa9, 0x5e, 0x8d, 0x3e,
  0x13, 0x27, 0x27, 0x3e, 0x43, 0xb4, 0x28, 0x3e, 0x10, 0x88, 0xa3, 0x3d,
  0xc4, 0xf2, 0x2c, 0xbd, 0x5d, 0x3d, 0x42, 0xbe, 0xda, 0xb4, 0x40, 0x3e,
  0x17, 0x9c, 0xbc, 0x3b, 0x6c, 0xd1, 0x3f, 0x3e, 0x9b, 0x4d, 0x00, 0x3d,
  0xac, 0xf3, 0xa2, 0x3d, 0x1a, 0x10, 0x4b, 0x3e, 0x88, 0xd1, 0x8b, 0x3e,
  0xa8, 0xda, 0x57, 0x3d, 0xf8, 0x06, 0xe6, 0x3d, 0x0f, 0xa3, 0x1c, 0xbe,
  0x0e, 0xf9, 0x2c, 0xbe, 0x86, 0x56, 0xab, 0xbd, 0x56, 0x0e, 0x8b, 0x3d,
  0x63, 0x1e, 0x2f, 0xbe, 0x63, 0x86, 0x55, 0xbe, 0xc9, 0x5c, 0xc8, 0xba,
  0xd1, 0x48, 0x22, 0x3e, 0xb7, 0xad, 0xdf, 0x3d, 0x66, 0x06, 0x0d, 0x3d,
  0x00, 0x55, 0x4e, 0x3e, 0xd7, 0xa1, 0xc7, 0xbc, 0xde, 0xae, 0x57, 0xbe,
  0xd9, 0xbd, 0x60, 0xbe, 0x6a, 0xc7, 0x6c, 0xbc, 0xd1, 0xcc, 0xfa, 0x3d,
  0xb7, 0x08, 0x1d, 0x3e, 0x2a, 0xca, 0x08, 0xbe, 0xa8, 0xcc, 0x2d, 0xbe,
  0xc8, 0xd6, 0xf1, 0x3c, 0x1e, 0x3a, 0xbe, 0x3e, 0x58, 0x4b, 0x57, 0x3e,
  0x5a, 0x08, 0x32, 0xbe, 0x6c, 0xad, 0x3f, 0xbe, 0x42, 0xac, 0x39, 0xbe,
  0x96, 0x77, 0x04, 0x3e, 0x88, 0x30, 0x91, 0x3e, 0xa3, 0xef, 0xaa, 0x3e,
  0x67, 0x2f, 0x6b, 0xbe, 0x82, 0xc4, 0x50, 0x3e, 0x87, 0x2e, 0x1d, 0xbe,
  0x24, 0xd5, 0xb5, 0xbd, 0xe7, 0xe5, 0x46, 0x3e, 0x57, 0x3a, 0x10, 0xbd,
  0xe7, 0x66, 0x17, 0xbe, 0xb5, 0x50, 0x4a, 0x3e, 0x22, 0x6e, 0x7c, 0xbd,
  0xe2, 0xb6, 0x03, 0xbd, 0x43, 0x7d, 0x88, 0x3e, 0x1d, 0x2e, 0x6a, 0xbd,
  0x7a, 0xc5, 0xa8, 0x3b, 0x0d, 0xb5, 0x96, 0xbd, 0x61, 0x91, 0x97, 0x3d,
  0xf0, 0x26, 0x0b, 0x3e, 0x84, 0x24, 0x84, 0x3e, 0x68, 0x13, 0x37, 0x3d,
  0x84, 0xcc, 0x94, 0xbb, 0x66, 0x9f, 0xb1, 0xbd, 0xa7, 0x0e, 0x5c, 0x3e,
  0x62, 0xbe, 0x46, 0x3e, 0xb2, 0xb2, 0xe7, 0xbd, 0x15, 0x35, 0x2f, 0xbe,
  0x74, 0xf6, 0x5b, 0xbe, 0x10, 0x44, 0x47, 0x3e, 0x41, 0x73, 0x1c, 0xbe,
  0xb2, 0x8c, 0xad, 0x3d, 0xdd, 0x83, 0x7e, 0x3b, 0x4f, 0xdb, 0x33, 0xbe,
  0x48, 0xe9, 0x61, 0x3e, 0xde, 0x2a, 0xf1, 0xbd, 0xea, 0x85, 0xee, 0x3c,
  0xea, 0x1b, 0x67, 0xbc, 0xb1, 0x5b, 0xf9, 0xbe, 0xd7, 0x2a, 0xcb, 0x3d,
  0x38, 0x39, 0xbc, 0x3e, 0x1a, 0x5e, 0x3b, 0x3e, 0xce, 0x14, 0x37, 0x3e,
  0x3f, 0x9c, 0xfd, 0x3c, 0x1d, 0x60, 0x24, 0xbe, 0x89, 0x1b, 0xef, 0xbd,
  0xd3, 0xd8, 0x16, 0x3c, 0x54, 0x92, 0x07, 0x3f, 0x10, 0xe1, 0x8d, 0xbe,
  0x09, 0xa9, 0x33, 0x3e, 0x6c, 0xa6, 0xfd, 0xbb, 0x7e, 0x7e, 0xb4, 0x3d,
  0x37, 0xb2, 0x82, 0x3e, 0x07, 0xc8, 0x18, 0xbe, 0xe6, 0xf1, 0x70, 0x3c,
  0x1b, 0x1b, 0x7b, 0x3e, 0x4f, 0x3e, 0xb8, 0xbd, 0xd3, 0x6d, 0x08, 0x3d,
  0x74, 0x25, 0x88, 0x3e, 0xaa, 0x83, 0x89, 0x3e, 0x75, 0x6d, 0x14, 0x3e,
  0x42, 0x76, 0xf4, 0xbd, 0xf5, 0xc3, 0x39, 0xbe, 0x29, 0x02, 0xa3, 0x3e,
  0x7d, 0x37, 0x06, 0xbe, 0x0a, 0x53, 0x15, 0xbe, 0xd9, 0x01, 0xed, 0xba,
  0xa7, 0x34, 0xbf, 0xbd, 0x47, 0x74, 0x43, 0xbd, 0x17, 0x3e, 0x19, 0x3e,
  0x11, 0xeb, 0x47, 0xbc, 0xff, 0xf8, 0x1a, 0xbe, 0xe5, 0xc8, 0xfe, 0x3d,
  0x21, 0x86, 0x04, 0xbf, 0x7c, 0x32, 0x80, 0xbd, 0xc9, 0xf0, 0x4b, 0x3d,
  0xdd, 0x35, 0xe8, 0x3e, 0x12, 0xe7, 0x16, 0x3e, 0x6c, 0xbe, 0xa8, 0x3e,
  0xb1, 0x87, 0x86, 0xbd, 0xb3, 0x7b, 0xac, 0x3d, 0x45, 0x0c, 0x72, 0x3d,
  0xba, 0x5c, 0x0d, 0xbe, 0x5d, 0x75, 0x17, 0x3d, 0xb9, 0x6e, 0x04, 0x3e,
  0x26, 0xa3, 0x4c, 0xbe, 0x8e, 0x11, 0x32, 0x3d, 0x60, 0x3c, 0x3a, 0xbe,
  0x6e, 0x39, 0x9e, 0xbe, 0x08, 0x67, 0x4d, 0x3d, 0x29, 0x75, 0x00, 0xbd,
  0x57, 0x14, 0x4e, 0x3e, 0x49, 0x6c, 0x49, 0x3e, 0xb7, 0x80, 0xad, 0xbc,
  0x63, 0x55, 0x2b, 0x3e, 0x65, 0xe7, 0x32, 0x3e, 0x44, 0x18, 0x7b, 0x3d,
  0xb6, 0xe0, 0x26, 0x3e, 0xc6, 0xf4, 0x88, 0xbd, 0x0f, 0x14, 0x11, 0x3d,
  0x20, 0x8a, 0x70, 0x3c, 0x88, 0xdf, 0x6c, 0xbe, 0x47, 0x50, 0x11, 0x3e,
  0xb5, 0xc1, 0xeb, 0x3d, 0x34, 0xfe, 0xe1, 0x3c, 0xad, 0x48, 0x06, 0x3c,
  0xb9, 0xdc, 0x01, 0x3c, 0x4e, 0xab, 0xbe, 0x3b, 0x41, 0x70, 0x1b, 0xbe,
  0xb0, 0xc7, 0x3f, 0x3e, 0x64, 0x5a, 0xcb, 0xbd, 0xa5, 0xf7, 0x5b, 0x3d,
  0x69, 0x1b, 0x5a, 0xbe, 0xdd, 0xf4, 0xfb, 0x3e, 0xe0, 0xdf, 0x63, 0x3e,
  0x51, 0x34, 0xb7, 0xbe, 0xd2, 0xa5, 0x4c, 0x3f, 0xe9, 0xf2, 0x5c, 0x3e,
  0xd6, 0xf9, 0x95, 0x3d, 0x25, 0x61, 0x6f, 0x3d, 0x0a, 0x86, 0xa3, 0x3d,
  0x43, 0x06, 0x28, 0x3e, 0xa6, 0xa0, 0xc3, 0xbc, 0x73, 0x0d, 0x58, 0x3d,
  0x10, 0x68, 0x3c, 0x3e, 0xfe, 0x4b, 0xef, 0xbd, 0xb3, 0x90, 0x43, 0xbe,
  0x6f, 0xb2, 0x67, 0xbd, 0xcb, 0x92, 0x70, 0xbe, 0xee, 0x91, 0x3c, 0x3e,
  0x2e, 0x24, 0x3f, 0x3e, 0x73, 0xe4, 0x03, 0xbe, 0x22, 0xf9, 0x5d, 0xbe,
  0x67, 0x4f, 0x1b, 0xbe, 0xff, 0x24, 0x0b, 0x3e, 0x7f, 0x0c, 0x93, 0x3d,
  0xcd, 0x82, 0x84, 0xbe, 0xa4, 0x5e, 0xa7, 0x3d, 0xb8, 0x77, 0x0a, 0xbe,
  0x93, 0xe3, 0x5f, 0x3e, 0x34, 0xc9, 0x92, 0xbb, 0x0c, 0x4d, 0x22, 0xbe,
  0x2a, 0xde, 0x85, 0x3e, 0xa9, 0x15, 0x95, 0x3d, 0x66, 0x01, 0xc8, 0xbd,
  0x26, 0xc7, 0xdb, 0xbb, 0x23, 0xfc, 0xbf, 0x3d, 0x58, 0x1e, 0x8f, 0xbc,
  0x2f, 0x8d, 0x43, 0x3e, 0x66, 0x86, 0x40, 0x3e, 0xfb, 0x48, 0x24, 0x3e,
  0xf8, 0xab, 0xf6, 0x3d, 0xfd, 0xb9, 0x9d, 0xbd, 0x0f, 0xda, 0x80, 0xbe,
  0x4f, 0x52, 0x18, 0xbe, 0x99, 0x09, 0xf3, 0xbc, 0xc4, 0x79, 0x9f, 0x3d,
  0x92, 0x88, 0xba, 0xbd, 0x19, 0x93, 0x3d, 0xbe, 0xf8, 0x0c, 0x0a, 0xbe,
  0xe4, 0x2a, 0x8d, 0x3d, 0xcd, 0xc0, 0x6e, 0xbe, 0x08, 0xaa, 0x0b, 0xbe,
  0x14, 0x5f, 0x86, 0xbd, 0x82, 0xd3, 0x09, 0xbe, 0x4f, 0x8c, 0x78, 0xbe,
  0xad, 0x08, 0x00, 0x3e, 0x15, 0x1f, 0xd3, 0x3d, 0x8d, 0x55, 0xe0, 0xbd,
  0x67, 0x69, 0x8b, 0x3d, 0xfe, 0x85, 0x5f, 0xbe, 0x8f, 0xf8, 0x5b, 0xbe,
  0x35, 0x15, 0x24, 0x3e, 0xe2, 0x55, 0x36, 0x3d, 0x3d, 0x73, 0x76, 0xbc,
  0x3f, 0x88, 0xdf, 0xbd, 0xa3, 0x6d, 0x82, 0xbe, 0xd6, 0x4d, 0xb8, 0xbd,
  0x41, 0xa5, 0xe2, 0xbd, 0xc3, 0x8b, 0x31, 0xbe, 0xcb, 0x97, 0x29, 0x3d,
  0x1c, 0x25, 0xeb, 0xbd, 0x7a, 0x77, 0x35, 0x3e, 0xf8, 0x4b, 0xe3, 0xbd,
  0xb8, 0xef, 0xe3, 0x3d, 0x9e, 0x43, 0x31, 0x3e, 0x43, 0x2d, 0x48, 0x3e,
  0x73, 0x63, 0xd2, 0xbd, 0xed, 0x0a, 0xdd, 0xbd, 0x7f, 0x18, 0x2f, 0xbd,
  0x99, 0x79, 0x74, 0xbe, 0x0a, 0x19, 0x61, 0xbe, 0x55, 0xc5, 0x5e, 0x3f,
  0x5c, 0xb4, 0x15, 0xbd, 0xd9, 0xa0, 0xb8, 0x3d, 0x22, 0xbf, 0x88, 0xbe,
  0x94, 0x9c, 0xdc, 0xbd, 0x5a, 0xed, 0x01, 0xbe, 0x14, 0x28, 0x34, 0xbe,
  0x0e, 0x06, 0x17, 0xbe, 0xa2, 0xc0, 0x19, 0x3f, 0x2e, 0x2e, 0xb0, 0xbd,
  0x1a, 0x05, 0xac, 0xbd, 0x47, 0x3f, 0x64, 0x3c, 0x50, 0x5c, 0xb7, 0x3c,
  0x43, 0x3e, 0x81, 0x3e, 0xf5, 0xcf, 0x73, 0xbe, 0xd4, 0x52, 0xb8, 0x3e,
  0x1d, 0x95, 0x04, 0x3e, 0x0f, 0x45, 0x1e, 0x3d, 0x3e, 0x64, 0x3e, 0xbb,
  0xf2, 0x73, 0x07, 0xbd, 0x68, 0xc9, 0xf1, 0xbc, 0x2a, 0xcb, 0xac, 0xbd,
  0xd3, 0xb6, 0x49, 0xbe, 0x37, 0x6a, 0x42, 0x3e, 0xfc, 0x8b, 0x57, 0xbd,
  0xdb, 0x12, 0xce, 0x3d, 0x3c, 0xb8, 0x50, 0x3e, 0x22, 0x55, 0xc6, 0x3d,
  0x57, 0x09, 0x7c, 0xbe, 0xa3, 0x8a, 0x23, 0x3e, 0x82, 0xd9, 0x62, 0x3d,
  0x09, 0x2b, 0x57, 0x3e, 0x00, 0x19, 0x80, 0xbe, 0x91, 0xae, 0xb5, 0xbd,
  0x5b, 0x69, 0x06, 0x3d, 0xac, 0x4f, 0xb4, 0xbc, 0x02, 0x67, 0xa3, 0xbd,
  0xe3, 0x5a, 0x11, 0x3d, 0x14, 0xaa, 0x80, 0xbe, 0xbe, 0x39, 0x60, 0x3e,
  0x90, 0xbd, 0x5a, 0x3e, 0xf3, 0xb1, 0x63, 0xbf, 0xcd, 0x39, 0xa4, 0x3e,
  0x20, 0x06, 0xa1, 0x3d, 0x25, 0xb8, 0x80, 0xbb, 0x2d, 0x70, 0xe6, 0x3e,
  0x16, 0x41, 0xc8, 0x3d, 0x17, 0xbc, 0xcf, 0x3e, 0x10, 0x3e, 0x95, 0x3c,
  0x96, 0x65, 0x41, 0xbe, 0x6f, 0xb4, 0x33, 0xbd, 0x3f, 0x8d, 0x3b, 0xbe,
  0xd2, 0x41, 0x5b, 0xbe, 0x93, 0x47, 0x8a, 0x3d, 0xd2, 0x3b, 0x2f, 0x3e,
  0x87, 0xb5, 0x9d, 0x3c, 0x03, 0xf0, 0x7d, 0x3e, 0x87, 0x83, 0xd5, 0x3d,
  0xa3, 0xcf, 0xa8, 0xbe, 0x9e, 0xb8, 0x1b, 0x3f, 0xf5, 0x2c, 0x19, 0x3e,
  0xcd, 0xdb, 0x07, 0x3d, 0x52, 0x37, 0x27, 0x3e, 0x68, 0x20, 0x2a, 0x3e,
  0x01, 0xb6, 0x06, 0x3e, 0x8f, 0x9d, 0x28, 0x3e, 0xa0, 0x65, 0x8e, 0xbe,
  0x59, 0x35, 0x8e, 0xbe, 0x38, 0x79, 0xce, 0xbd, 0x6f, 0x72, 0x58, 0xbe,
  0xd1, 0xbb, 0x0e, 0xbe, 0x78, 0xbc, 0x49, 0xbd, 0x55, 0x80, 0x9b, 0xbd,
  0xb7, 0x22, 0xe7, 0xbd, 0x90, 0xf6, 0x85, 0x3e, 0x3c, 0x90, 0x5c, 0x3e,
  0x30, 0x58, 0xa7, 0x3d, 0x38, 0xe2, 0x42, 0x3e, 0xdd, 0xb0, 0xc2, 0x3c,
  0xd7, 0x1e, 0xc5, 0x3d, 0x83, 0x74, 0xbf, 0xbd, 0x69, 0x47, 0x05, 0x3e,
  0xf5, 0x62, 0xba, 0x3d, 0x62, 0xf7, 0x88, 0xbe, 0x08, 0x55, 0x1c, 0x3e,
  0xcf, 0x6e, 0x06, 0x3d, 0x15, 0x89, 0x42, 0xbd, 0x76, 0xa8, 0x57, 0x3e,
  0x4c, 0xa7, 0x79, 0xbe, 0x23, 0x44, 0xbf, 0x3e, 0x28, 0x14, 0xcf, 0xbd,
  0x0f, 0xc7, 0xa4, 0xbd, 0xc5, 0x53, 0x1e, 0xbe, 0x4b, 0xb9, 0x3c, 0xbe,
  0xd5, 0x68, 0x52, 0xbe, 0xbb, 0xc0, 0xa6, 0x3d, 0x9c, 0x60, 0xba, 0x3c,
  0x9c, 0x57, 0xbd, 0xbd, 0xde, 0x25, 0x1e, 0xbe, 0xb7, 0x11, 0x13, 0x3e,
  0xfc, 0xf9, 0x83, 0x3d, 0x37, 0x9b, 0x52, 0xbe, 0x53, 0x96, 0xa9, 0x3d,
  0xd5, 0xd4, 0x99, 0xbd, 0x34, 0x02, 0xa3, 0x3c, 0x96, 0x25, 0x72, 0x3d,
  0xda, 0x54, 0xcb, 0x3d, 0x2d, 0xcf, 0xcd, 0x3d, 0x6b, 0xb4, 0x6d, 0xbe,
  0xc8, 0xe5, 0xa2, 0x3d, 0x29, 0xdd, 0x96, 0xbd, 0x8e, 0xa8, 0xd2, 0x3d,
  0x4a, 0x52, 0x69, 0xbe, 0x25, 0x8b, 0x19, 0x3d, 0x05, 0x6a, 0x03, 0x3e,
  0xdc, 0x46, 0x2e, 0xbe, 0xd7, 0x6a, 0x9f, 0xbd, 0x55, 0xb3, 0x2a, 0xbd,
  0x5f, 0xab, 0x08, 0xbe, 0x8f, 0x7d, 0x59, 0x3e, 0xcd, 0x4f, 0x75, 0x3d,
  0xd4, 0x45, 0x8e, 0xbc, 0x3d, 0x5e, 0xd7, 0x3d, 0x56, 0x5e, 0x95, 0xbc,
  0x69, 0xa8, 0xbb, 0xbd, 0xdf, 0x70, 0x24, 0xbc, 0xba, 0xca, 0x1f, 0xbe,
  0x7f, 0xaa, 0x74, 0xbe, 0x21, 0xd0, 0xf9, 0x3d, 0xed, 0xd0, 0x3f, 0xbe,
  0x06, 0x94, 0xa1, 0x3d, 0x92, 0x8f, 0xe0, 0x3d, 0x74, 0x93, 0xfd, 0x3d,
  0x62, 0x2b, 0xb6, 0x3d, 0xef, 0xdc, 0xac, 0x3c, 0x09, 0x0e, 0x32, 0xbe,
  0xc3, 0xb8, 0x73, 0xbe, 0xe6, 0x47, 0x67, 0xbd, 0x47, 0x52, 0x51, 0xbe,
  0xdc, 0x74, 0x36, 0x3e, 0xc8, 0x56, 0xd7, 0xbc, 0x6c, 0x06, 0x18, 0xbd,
  0xd2, 0x2d, 0xcf, 0x3d, 0x15, 0x0d, 0x0e, 0xbe, 0x0a, 0x4f, 0x02, 0xbe,
  0x49, 0xd7, 0x1a, 0x3e, 0x4d, 0xc7, 0x1e, 0x3e, 0x8c, 0x87, 0x27, 0xbe,
  0xfe, 0x38, 0x95, 0x3d, 0xe7, 0x60, 0x58, 0xbd, 0xcd, 0x83, 0x23, 0xbe,
  0x8a, 0xf5, 0x6a, 0xbe, 0xb0, 0xa6, 0x3e, 0x3e, 0x0b, 0x1e, 0x67, 0x3e,
  0xea, 0xe7, 0x5f, 0xbe, 0x5c, 0x7a, 0x7c, 0xbe, 0x24, 0x48, 0x4a, 0xbe,
  0xb3, 0x48, 0x62, 0xbe, 0x8a, 0x2d, 0x71, 0xbe, 0xcd, 0x67, 0xfb, 0x3d,
  0xaa, 0xd5, 0xff, 0xff, 0x04, 0x00, 0x00, 0x00, 0x00, 0x28, 0x00, 0x00,
  0xae, 0x4c, 0x1c, 0x3e, 0x2a, 0xc9, 0xfb, 0xbc, 0xfc, 0x04, 0x76, 0x3e,
  0x4e, 0xf8, 0xea, 0x3e, 0x41, 0xd6, 0xc6, 0x3e, 0xa1, 0x23, 0x39, 0x3e,
  0xac, 0xa1, 0xc1, 0x3e, 0x88, 0x2b, 0xab, 0xbd, 0x39, 0x7f, 0x1c, 0x3d,
  0xbd, 0x86, 0xd6, 0x3d, 0x1a, 0x4b, 0x03, 0x3e, 0x85, 0x9a, 0x9f, 0x3e,
  0x3e, 0x77, 0x36, 0x3e, 0x1c, 0x3a, 0xac, 0xbe, 0x47, 0xf6, 0x48, 0x3e,
  0x28, 0xb0, 0x1a, 0xbe, 0x6d, 0xfb, 0x09, 0xbe, 0x16, 0x9e, 0x5e, 0x3e,
  0x87, 0x1d, 0xc8, 0x3c, 0x93, 0x91, 0xed, 0xbd, 0x05, 0x63, 0xea, 0xbe,
  0x51, 0x58, 0x0c, 0x3f, 0x3e, 0x42, 0xc0, 0xbe, 0xa7, 0xbd, 0xc6, 0xbd,
  0x81, 0x2c, 0xa6, 0xbb, 0x5e, 0x35, 0xbe, 0xbd, 0xcc, 0x6c, 0xf9, 0x3e,
  0x1e, 0x6c, 0x53, 0x3e, 0x77, 0xaf, 0x4d, 0x3e, 0xb9, 0x82, 0x18, 0xbe,
  0x5a, 0x38, 0x37, 0xbe, 0x99, 0x44, 0xb0, 0xbd, 0x7e, 0xbc, 0xe6, 0xbd,
  0x2a, 0x34, 0x8b, 0xbb, 0x5c, 0x47, 0x12, 0x3e, 0xdb, 0x9c, 0xdf, 0xbd,
  0x30, 0x2b, 0x21, 0xbf, 0x63, 0x31, 0x84, 0xbe, 0x65, 0x5c, 0x0c, 0x3e,
  0xa0, 0x50, 0x2c, 0x3e, 0x02, 0x2d, 0x25, 0xbe, 0x40, 0xf6, 0xbd, 0xbd,
  0x25, 0xff, 0x81, 0xbf, 0x0a, 0xd6, 0xb0, 0xbf, 0x30, 0x34, 0x19, 0xbf,
  0x9e, 0x81, 0x4a, 0x3f, 0x47, 0x5f, 0x94, 0x3e, 0x4c, 0x85, 0xb1, 0xbd,
  0xe0, 0x6b, 0xaf, 0xbc, 0xfa, 0xf0, 0x9b, 0xbd, 0x3a, 0x2a, 0x36, 0x3d,
  0x29, 0x9d, 0x2a, 0x3d, 0x89, 0x00, 0xad, 0x3d, 0x34, 0x99, 0x30, 0xbf,
  0x53, 0xce, 0xe8, 0xbd, 0xe7, 0xf2, 0x68, 0x3e, 0x88, 0x45, 0x54, 0x3d,
  0xeb, 0xb2, 0x7e, 0x3e, 0x42, 0x38, 0x53, 0x3e, 0xbc, 0x5f, 0x8d, 0x3e,
  0xf1, 0x5b, 0x18, 0xbe, 0x3a, 0x57, 0xa5, 0xbd, 0x58, 0xca, 0xc3, 0xbe,
  0x68, 0x3e, 0xe6, 0xbe, 0x98, 0xd5, 0x42, 0x3d, 0x68, 0x0a, 0xcd, 0x3d,
  0xcf, 0x54, 0xe2, 0xbd, 0x3c, 0x41, 0x0d, 0x3f, 0xb1, 0xbf, 0x97, 0x3e,
  0x32, 0x7d, 0x07, 0x3f, 0x20, 0xa1, 0x31, 0x3d, 0x89, 0x07, 0x98, 0x3d,
  0xee, 0xab, 0x7c, 0xbd, 0x78, 0x61, 0x38, 0x3e, 0xfe, 0x52, 0x15, 0x3f,
  0x03, 0x5e, 0xb5, 0x3e, 0x66, 0xd3, 0x55, 0x3e, 0x11, 0xe4, 0x23, 0xbe,
  0xb9, 0x8b, 0x32, 0x3e, 0x65, 0x2b, 0xa9, 0xbd, 0x6f, 0xaa, 0xfe, 0xbc,
  0xa9, 0xec, 0x10, 0xbc, 0x0c, 0xa8, 0x5c, 0xbf, 0x6b, 0x18, 0xf3, 0xbe,
  0x12, 0xce, 0x1c, 0x3f, 0x2e, 0x14, 0x78, 0x3e, 0x24, 0x18, 0x7a, 0x3e,
  0x44, 0x4b, 0xdb, 0xbd, 0x25, 0xf8, 0x66, 0xbe, 0xac, 0x23, 0xa6, 0xbe,
  0x29, 0xdb, 0xca, 0xbd, 0x68, 0x78, 0x8d, 0xbe, 0x62, 0xdf, 0xe1, 0x3e,
  0x06, 0xe2, 0x05, 0x3e, 0x7b, 0xeb, 0xf3, 0xbc, 0xdb, 0xdb, 0x1e, 0xbe,
  0x20, 0xae, 0x08, 0xbe, 0xa5, 0xca, 0x42, 0xbf, 0xbd, 0x12, 0x9f, 0x3d,
  0x59, 0x2c, 0x6c, 0xbc, 0x7e, 0x66, 0x3f, 0x3e, 0x7e, 0xaa, 0x7f, 0x3e,
  0x2c, 0x1c, 0x48, 0xbb, 0xa4, 0x5f, 0x18, 0xbe, 0x98, 0x5c, 0x08, 0xbe,
  0xfb, 0xb0, 0x4f, 0xbd, 0x80, 0x6c, 0x93, 0xbe, 0x35, 0x06, 0x8b, 0xbe,
  0x4b, 0xc5, 0x6b, 0xbe, 0x85, 0x9d, 0xb1, 0xbe, 0x77, 0xb5, 0xf6, 0xbe,
  0x52, 0xdc, 0x34, 0xbe, 0x1f, 0x50, 0x7e, 0xbe, 0x93, 0xfa, 0x3c, 0x3d,
  0xae, 0x59, 0x8c, 0xbe, 0xd7, 0x49, 0x12, 0xbe, 0x44, 0x2a, 0x84, 0xbd,
  0x2e, 0x09, 0x06, 0x3c, 0xdb, 0x7f, 0x85, 0x3e, 0x87, 0xf3, 0xf0, 0x3d,
  0x7f, 0x14, 0x2f, 0x3e, 0xb6, 0x24, 0xb8, 0xbd, 0x73, 0x65, 0x56, 0x3e,
  0x33, 0x07, 0xfa, 0xbd, 0xdf, 0x45, 0x18, 0xbe, 0x70, 0x39, 0x2f, 0x3e,
  0x89, 0xd6, 0x06, 0xbd, 0x0b, 0x6a, 0xa9, 0x3d, 0x50, 0x12, 0xe2, 0x3c,
  0xa9, 0x84, 0xc3, 0x3d, 0xd2, 0x90, 0x76, 0x3e, 0xe6, 0x0b, 0x9e, 0x3d,
  0x87, 0x7e, 0x8e, 0x3e, 0xae, 0x8f, 0x70, 0x3d, 0x28, 0xb9, 0x5b, 0xbe,
  0x4b, 0x12, 0x1b, 0x3e, 0x15, 0xe5, 0x7d, 0xbd, 0x5c, 0x85, 0xc0, 0x3e,
  0x97, 0x09, 0xc2, 0x3e, 0x89, 0x27, 0x44, 0x3d, 0xc1, 0x7b, 0xa9, 0x3e,
  0x97, 0xf5, 0xe3, 0x3d, 0x2a, 0xa2, 0xf1, 0xbd, 0xdd, 0xf0, 0x39, 0x3d,
  0x71, 0x04, 0x3c, 0xbe, 0xe5, 0xd2, 0xac, 0x3d, 0xdc, 0xfc, 0xca, 0xbd,
  0x1c, 0x72, 0xa1, 0xbe, 0x49, 0x2c, 0xc8, 0xbd, 0x9c, 0x3d, 0x2c, 0xbe,
  0x6a, 0x45, 0x7f, 0x3e, 0xad, 0x10, 0xd2, 0xbd, 0xbc, 0xb1, 0xa3, 0xbd,
  0x6f, 0x75, 0xb6, 0xbd, 0x06, 0x3a, 0x3a, 0xbf, 0xdf, 0x66, 0x2d, 0xbf,
  0xe1, 0xd7, 0x8f, 0xbe, 0x72, 0xee, 0xfd, 0xbe, 0x3b, 0x1b, 0xdd, 0x3d,
  0xf4, 0x05, 0x5e, 0xbe, 0x70, 0xaf, 0x30, 0xbe, 0x3c, 0xa8, 0x80, 0xbe,
  0xd7, 0x36, 0x2b, 0xbf, 0xf4, 0x2b, 0xa3, 0xbe, 0x13, 0x88, 0xa6, 0xbe,
  0x0e, 0x44, 0x08, 0xbf, 0x63, 0x44, 0x05, 0xbe, 0x03, 0xb6, 0x55, 0xbe,
  0xb3, 0x6a, 0x47, 0x3d, 0x78, 0x7c, 0x83, 0x3e, 0x8f, 0xcb, 0x16, 0xbe,
  0x31, 0xbc, 0x64, 0xbe, 0xe2, 0x1d, 0x1b, 0xbf, 0x93, 0x6b, 0xb5, 0x3d,
  0x2e, 0xac, 0x98, 0xbe, 0x35, 0xcd, 0xdf, 0xbc, 0x33, 0x05, 0x69, 0x3d,
  0xb5, 0x62, 0x2b, 0x3d, 0x4e, 0x4d, 0x04, 0x3e, 0x0d, 0x0b, 0x71, 0x3e,
  0x51, 0x9b, 0xba, 0x3e, 0xfe, 0x9b, 0x20, 0x3f, 0x45, 0x7a, 0xb7, 0x3d,
  0x4a, 0x55, 0xfc, 0xbc, 0xdb, 0x30, 0x9b, 0x3c, 0xcf, 0xe0, 0x24, 0x3d,
  0x64, 0xc5, 0xbd, 0x3e, 0x91, 0xb0, 0xc1, 0x3e, 0x65, 0x28, 0x92, 0x3e,
  0x21, 0x01, 0x80, 0x3e, 0x11, 0x50, 0xcc, 0x3e, 0x8c, 0xc3, 0x88, 0xbe,
  0xd0, 0xb9, 0x55, 0xbd, 0x55, 0xb2, 0x7d, 0xbc, 0x8c, 0x06, 0x4e, 0x3e,
  0x19, 0xbe, 0x9a, 0x3e, 0xff, 0x5b, 0xf4, 0x3d, 0x49, 0xef, 0x5e, 0x3d,
  0xa3, 0x4d, 0xc1, 0xbe, 0x4f, 0xa9, 0xa5, 0xbe, 0x5d, 0x50, 0x00, 0x3d,
  0x56, 0x2f, 0x36, 0xbb, 0x56, 0xbd, 0x10, 0x3e, 0x08, 0x45, 0x31, 0x3e,
  0xf0, 0xf5, 0x2b, 0xbe, 0x7e, 0xd8, 0xd2, 0x3d, 0xc0, 0x99, 0x08, 0x3f,
  0x34, 0x02, 0xa6, 0xbd, 0xa9, 0xbe, 0x8d, 0xbe, 0xce, 0xba, 0xa1, 0x3e,
  0x9a, 0xba, 0x20, 0x3e, 0xc8, 0x35, 0x35, 0x3d, 0x0d, 0x80, 0xc5, 0x3e,
  0xfa, 0x4f, 0xc7, 0x3e, 0xfd, 0xb6, 0x81, 0x3e, 0x8f, 0x5c, 0x98, 0xbe,
  0x35, 0x21, 0x0d, 0xbd, 0x63, 0x5e, 0x31, 0xbe, 0xec, 0xa3, 0xf4, 0xbe,
  0xb2, 0x8d, 0x1e, 0x3f, 0x77, 0xa5, 0xba, 0x3e, 0x38, 0xa7, 0xb4, 0x3e,
  0x73, 0xce, 0xea, 0xbe, 0x66, 0xe7, 0x55, 0xbd, 0x30, 0xb9, 0xae, 0xbc,
  0x93, 0x93, 0x02, 0xbe, 0x22, 0x84, 0x49, 0xbe, 0xd4, 0xdb, 0x1d, 0x3f,
  0x56, 0x4e, 0x0d, 0xbe, 0x72, 0xa8, 0x27, 0xbf, 0xee, 0x3f, 0x06, 0xbf,
  0xa1, 0xff, 0x5a, 0xbe, 0x03, 0xcc, 0x70, 0xbc, 0xf8, 0x92, 0x18, 0xbe,
  0x6a, 0x84, 0xcc, 0xbd, 0xa0, 0xe3, 0x02, 0xbf, 0x1b, 0x25, 0x86, 0xbd,
  0x2c, 0xfa, 0xaa, 0x3d, 0xcb, 0x2b, 0x8a, 0xbd, 0xb8, 0xc6, 0x13, 0xbe,
  0xc0, 0x73, 0xd9, 0xbd, 0xab, 0xff, 0x11, 0x3e, 0x83, 0x56, 0x28, 0x3e,
  0x28, 0xea, 0x39, 0xbf, 0x08, 0x52, 0x7f, 0xbe, 0x22, 0x3d, 0x3a, 0x3e,
  0xf6, 0x0b, 0x99, 0x3e, 0x5e, 0x7b, 0x9d, 0xbd, 0x39, 0xdc, 0xbb, 0x3b,
  0xfe, 0x3c, 0x6d, 0xbe, 0xcb, 0xf1, 0x8b, 0xbe, 0x08, 0x0f, 0x0b, 0x3e,
  0xdb, 0x6d, 0xc7, 0x3e, 0xd8, 0xd2, 0xf9, 0xbd, 0x4c, 0xfc, 0x5e, 0xbc,
  0x13, 0xb9, 0x5d, 0xbc, 0x42, 0x34, 0x04, 0xbe, 0x3f, 0x49, 0x24, 0x3e,
  0x41, 0x4f, 0xbb, 0x3e, 0x55, 0x71, 0x4c, 0xbe, 0x35, 0xea, 0xbf, 0x3c,
  0x81, 0x82, 0xd1, 0x3e, 0x9e, 0xb1, 0xad, 0x3e, 0x76, 0xa6, 0xad, 0xbd,
  0x84, 0x20, 0x80, 0xbc, 0xd6, 0xd3, 0x93, 0x3e, 0x04, 0x62, 0xec, 0x3e,
  0x9d, 0x7e, 0xdb, 0x3e, 0xe7, 0x0e, 0x62, 0xbc, 0xf7, 0x64, 0xd0, 0x3e,
  0x55, 0x5a, 0x23, 0x3e, 0xfb, 0xcc, 0xd7, 0x3d, 0xeb, 0x6e, 0x1c, 0xbe,
  0xce, 0xa2, 0x46, 0xbe, 0x74, 0x40, 0x85, 0xbe, 0x58, 0x88, 0xd2, 0xbe,
  0xd8, 0x19, 0x3e, 0xbf, 0xfb, 0x3f, 0x56, 0xbf, 0x44, 0xc0, 0xdd, 0xbe,
  0x86, 0x01, 0x08, 0xbc, 0xbb, 0xfd, 0x3d, 0xbd, 0xba, 0x06, 0x01, 0xbf,
  0x7e, 0x33, 0xf1, 0xbe, 0x4f, 0x06, 0xa8, 0x3c, 0xe8, 0xe9, 0x29, 0xbd,
  0x23, 0xd4, 0xb7, 0xbe, 0x45, 0x50, 0x92, 0xbe, 0x83, 0x12, 0x81, 0xbe,
  0xa0, 0x2c, 0x4a, 0xbe, 0xc6, 0x80, 0xe6, 0x3d, 0xa2, 0x07, 0x07, 0x3e,
  0x18, 0x62, 0x03, 0xbd, 0xa0, 0xcb, 0x3e, 0x3e, 0x88, 0x72, 0x82, 0x3d,
  0x5d, 0x4c, 0x13, 0xbe, 0x50, 0xdf, 0x47, 0xbe, 0x8e, 0x38, 0xc1, 0x3c,
  0xbe, 0xa5, 0x8b, 0xbe, 0x10, 0x1e, 0xc2, 0xbd, 0x28, 0xc3, 0x49, 0xbe,
  0xa0, 0x7d, 0x94, 0x3e, 0x2b, 0x5a, 0x94, 0x3e, 0x83, 0xa2, 0xa5, 0x3e,
  0x73, 0xd9, 0x0b, 0xbe, 0xbb, 0x48, 0x03, 0xbe, 0x3e, 0xc3, 0x9e, 0xbe,
  0xc7, 0x75, 0x81, 0x3e, 0x84, 0x6e, 0x6e, 0x3d, 0xa3, 0xdd, 0xf9, 0xbe,
  0xeb, 0x5b, 0xae, 0xbd, 0x3f, 0x31, 0x14, 0x3e, 0xc3, 0x33, 0x0c, 0xbe,
  0x08, 0xbd, 0x90, 0x3d, 0x96, 0x8f, 0x31, 0x3e, 0xb4, 0x3e, 0x36, 0x3d,
  0x8a, 0x0b, 0xec, 0x3d, 0xfc, 0xa1, 0x1d, 0x3d, 0xc4, 0xa1, 0xd7, 0xbc,
  0xa6, 0x17, 0x92, 0xbe, 0x2e, 0x0e, 0x80, 0xbe, 0x35, 0xdd, 0x66, 0xbe,
  0x03, 0x5b, 0x10, 0x3e, 0xc0, 0x65, 0xfd, 0xbd, 0x87, 0xc3, 0x1d, 0xbe,
  0xfb, 0xb8, 0x0e, 0x3e, 0x64, 0x3a, 0x0e, 0x3d, 0xe2, 0x34, 0x41, 0x3e,
  0x93, 0xb4, 0x65, 0xbc, 0xe7, 0x57, 0x75, 0xbe, 0xbf, 0x90, 0x90, 0xbd,
  0x67, 0x00, 0x30, 0xbe, 0x4a, 0x8d, 0xcd, 0x3d, 0xef, 0x51, 0x23, 0x3e,
  0x15, 0xf4, 0x23, 0xbd, 0x3a, 0xe4, 0xea, 0xbd, 0x9d, 0x6f, 0xc8, 0xbd,
  0xd0, 0x05, 0x48, 0x3e, 0x36, 0x0a, 0x96, 0xbe, 0xc6, 0x0c, 0x95, 0xbd,
  0x43, 0xd7, 0x29, 0xbb, 0xdf, 0xa5, 0x48, 0x3d, 0xee, 0x83, 0x6c, 0xbe,
  0x64, 0x8f, 0x1d, 0x3e, 0xdb, 0x73, 0xc7, 0x3d, 0x43, 0x98, 0x5e, 0x3d,
  0xea, 0xb0, 0x02, 0xbd, 0x48, 0x04, 0x7b, 0x3e, 0x4d, 0xa5, 0x1f, 0xbe,
  0xa5, 0x5a, 0xc5, 0x3c, 0xb3, 0xb3, 0xa6, 0xbe, 0x3f, 0xa2, 0xb7, 0xbe,
  0x16, 0x92, 0x1f, 0x3e, 0xbc, 0x25, 0x28, 0xbe, 0x5b, 0x60, 0x13, 0x3e,
  0xe6, 0xe9, 0xef, 0xbd, 0x17, 0xcf, 0x52, 0x3d, 0x1e, 0xba, 0xcc, 0x3e,
  0x3c, 0x4e, 0x7f, 0xbd, 0xab, 0x12, 0xd5, 0xbd, 0x86, 0xa4, 0x66, 0x3e,
  0xfc, 0xb3, 0x33, 0xbe, 0x39, 0xe3, 0xad, 0xbe, 0x79, 0x46, 0x11, 0x3e,
  0xec, 0x99, 0xe3, 0x3e, 0xec, 0x57, 0x3b, 0x3d, 0xc9, 0x80, 0x0f, 0xbf,
  0x89, 0x36, 0x3f, 0xbe, 0x09, 0x3a, 0x79, 0x3b, 0xbd, 0x49, 0x30, 0x3e,
  0xf1, 0x5c, 0x67, 0xbd, 0x3d, 0xa8, 0x2e, 0xbc, 0xf4, 0xfc, 0x49, 0x3f,
  0x62, 0xb6, 0x8d, 0x3e, 0xfa, 0xcf, 0xa6, 0x3e, 0x44, 0x28, 0x39, 0x3e,
  0xd3, 0x65, 0x13, 0x3e, 0x2d, 0x29, 0x4b, 0x3e, 0x46, 0xdf, 0xc3, 0xbd,
  0x96, 0x2d, 0x2d, 0x3e, 0xdf, 0x4c, 0x4c, 0xbd, 0xfa, 0x11, 0x8b, 0x3e,
  0xf4, 0x4d, 0xf8, 0x3e, 0xee, 0x7e, 0xa6, 0x3e, 0xf7, 0xce, 0x4c, 0x3e,
  0x20, 0xa5, 0x18, 0xbc, 0x09, 0x8b, 0x9b, 0x3d, 0xb6, 0xb6, 0x59, 0xbc,
  0x43, 0x6c, 0x42, 0x3e, 0x06, 0x5e, 0xd0, 0xbb, 0xba, 0xc4, 0xb0, 0x3e,
  0x74, 0x17, 0xa8, 0x3e, 0x2d, 0x60, 0x8a, 0x3d, 0xfe, 0xf5, 0xe3, 0xbd,
  0x8f, 0xd0, 0xb7, 0x3d, 0x4d, 0x26, 0xa5, 0xbd, 0x46, 0x98, 0x33, 0x3d,
  0x12, 0xc7, 0xac, 0x3d, 0x92, 0x17, 0x57, 0x3e, 0xd2, 0x15, 0xa4, 0xbd,
  0x92, 0x84, 0x34, 0xbe, 0xad, 0x51, 0x27, 0x3c, 0x8b, 0x76, 0x8d, 0x3d,
  0x1b, 0xe2, 0xff, 0xbe, 0x66, 0xf4, 0xb6, 0xbe, 0x76, 0x69, 0x9b, 0x3e,
  0x32, 0x31, 0x91, 0xbe, 0x10, 0x76, 0xcc, 0x3d, 0x0f, 0x50, 0x64, 0x3e,
  0x43, 0x58, 0x30, 0xbe, 0x86, 0x28, 0x2a, 0x3e, 0x45, 0x5f, 0x2c, 0xbe,
  0xd3, 0x78, 0x25, 0xbe, 0xf8, 0x0d, 0xe7, 0x3e, 0x51, 0x37, 0x5c, 0xbe,
  0x07, 0x3b, 0x5c, 0xbe, 0x2a, 0xd5, 0xe9, 0xbc, 0xd2, 0xd6, 0x03, 0xbe,
  0xff, 0x76, 0x04, 0x3e, 0x4f, 0xcf, 0x87, 0xbe, 0x0d, 0xda, 0xa1, 0xbe,
  0xd8, 0x13, 0xf8, 0x3d, 0x97, 0x37, 0x93, 0x3e, 0x2e, 0x27, 0x8b, 0x3e,
  0x18, 0x89, 0x1a, 0x3d, 0x00, 0xa0, 0x98, 0x3d, 0x7f, 0x88, 0x8c, 0xbe,
  0xf7, 0xc5, 0xf3, 0xbe, 0x98, 0x17, 0x00, 0xbf, 0x02, 0x46, 0x17, 0x3c,
  0xbb, 0x4a, 0xda, 0x3e, 0x4f, 0xf3, 0x49, 0xbd, 0x8d, 0xe0, 0xf4, 0xbd,
  0x20, 0x05, 0xd9, 0x3d, 0xbe, 0xa9, 0xcf, 0xbc, 0xfb, 0xfa, 0x98, 0xbe,
  0x4d, 0x0e, 0xa6, 0xbe, 0x3b, 0x3a, 0x13, 0x3e, 0x47, 0x45, 0x97, 0x3d,
  0x54, 0x8c, 0xd3, 0x3d, 0xe7, 0xea, 0xac, 0x3c, 0x40, 0xd4, 0x98, 0xb9,
  0xe9, 0x44, 0x18, 0x3e, 0x10, 0x39, 0x05, 0x3e, 0xbf, 0x12, 0xb6, 0xbd,
  0x91, 0x54, 0xa0, 0xbe, 0xdf, 0xe8, 0xbb, 0x3d, 0x75, 0x5b, 0x87, 0x3e,
  0xaa, 0x41, 0x08, 0xbe, 0x70, 0x0a, 0x6f, 0x3e, 0x8e, 0xb0, 0x63, 0xbe,
  0xc7, 0xd9, 0x62, 0xbe, 0xc3, 0xbf, 0x45, 0x3a, 0x05, 0x5a, 0xfd, 0xbb,
  0x76, 0xb6, 0x14, 0xbe, 0x3f, 0x3d, 0x3c, 0x3e, 0xe0, 0x2f, 0x4c, 0x3e,
  0x1c, 0xee, 0xb6, 0xbc, 0x5a, 0xd7, 0xb4, 0x3d, 0x56, 0x7a, 0x27, 0xbe,
  0x07, 0xc7, 0xcf, 0xbd, 0xde, 0xbb, 0x8a, 0x3e, 0xae, 0x3f, 0x50, 0xbe,
  0x16, 0xf1, 0xac, 0xbd, 0xca, 0xc2, 0x06, 0xbe, 0x80, 0x03, 0x40, 0xbd,
  0xe4, 0x29, 0x29, 0x3d, 0x42, 0x1a, 0x42, 0xbe, 0x1b, 0x4e, 0x79, 0x3e,
  0x89, 0x96, 0xd4, 0x3e, 0x61, 0x01, 0x3a, 0x3e, 0x91, 0x05, 0x53, 0xbe,
  0x43, 0xc3, 0x0b, 0x3e, 0x25, 0x6b, 0x1f, 0x3e, 0x62, 0xd8, 0x4c, 0x3e,
  0x1c, 0x23, 0xcf, 0x3e, 0xd7, 0xf4, 0x03, 0xbe, 0xf6, 0xad, 0x09, 0x3e,
  0x6c, 0x5b, 0xb8, 0x3b, 0xd6, 0x99, 0x35, 0x3e, 0xdc, 0x55, 0x87, 0x3d,
  0x8c, 0x55, 0xca, 0x3d, 0x09, 0xa8, 0x5b, 0x3d, 0x08, 0xe6, 0x86, 0xbc,
  0x6b, 0xf8, 0x77, 0xbe, 0x56, 0x0f, 0x8e, 0x3e, 0x55, 0x6c, 0x0c, 0x3f,
  0xe0, 0x16, 0x9c, 0x3e, 0x40, 0x82, 0x69, 0x3d, 0x88, 0x6a, 0xd9, 0x3c,
  0x0d, 0xe0, 0x36, 0x3e, 0xdd, 0xc8, 0x95, 0xbe, 0x49, 0xd2, 0xc2, 0x3d,
  0xdd, 0xdf, 0x97, 0x3e, 0xfc, 0xb4, 0xce, 0xbe, 0xa4, 0xa1, 0xe8, 0x3d,
  0xc9, 0x9e, 0x5e, 0xbe, 0xd2, 0x76, 0x5d, 0x3e, 0xa6, 0xa4, 0xf7, 0x3d,
  0x0b, 0xa8, 0xeb, 0xbe, 0x74, 0xe7, 0x1c, 0xbd, 0xab, 0xb6, 0x33, 0xbe,
  0x55, 0x11, 0x21, 0xbf, 0xab, 0xab, 0x20, 0xbe, 0x57, 0x4e, 0x7a, 0x3b,
  0x06, 0x6c, 0x68, 0xbe, 0xc3, 0x88, 0xd2, 0x3d, 0x3b, 0xe5, 0xc9, 0xbd,
  0x30, 0x16, 0x99, 0xbe, 0x8f, 0x4c, 0x59, 0xbe, 0x2c, 0x9d, 0x81, 0xbe,
  0xa4, 0x25, 0x4e, 0xbd, 0x61, 0x2f, 0xb0, 0xbd, 0x33, 0x74, 0x4d, 0xbe,
  0xdb, 0x2b, 0x35, 0xbe, 0x1e, 0xfa, 0xeb, 0xbd, 0x80, 0x90, 0x82, 0x3d,
  0xa0, 0x9f, 0x48, 0x3d, 0x0e, 0xb1, 0x04, 0xbf, 0x69, 0xdd, 0x6e, 0xbd,
  0x94, 0x4e, 0x7a, 0x3e, 0x9d, 0xe0, 0x1f, 0xbd, 0x7b, 0x0a, 0xa7, 0x3d,
  0x3b, 0x9c, 0xfd, 0xbc, 0x90, 0xcb, 0x9d, 0xbd, 0x65, 0xef, 0x1e, 0x3b,
  0xd4, 0x10, 0xc8, 0x3e, 0xed, 0xcd, 0xc9, 0xbd, 0x60, 0x34, 0xc0, 0x3d,
  0xe1, 0xad, 0x93, 0x3c, 0x32, 0x7e, 0x35, 0x3e, 0x7c, 0xca, 0x08, 0x3e,
  0x1d, 0x6b, 0x9a, 0xbd, 0x24, 0x1f, 0xe0, 0xbd, 0x93, 0xcf, 0x23, 0x3f,
  0x25, 0x39, 0x5b, 0x3d, 0x0a, 0x33, 0x52, 0x3d, 0x9b, 0x9f, 0xc5, 0xbd,
  0x63, 0x2c, 0xd3, 0x3d, 0xd2, 0x20, 0x01, 0x3d, 0xb3, 0xda, 0x77, 0xbe,
  0xea, 0xcd, 0x70, 0xbe, 0x54, 0x7c, 0xd8, 0x3e, 0xe2, 0x8a, 0xf5, 0x3e,
  0x5f, 0x5e, 0x58, 0x3e, 0x10, 0x13, 0x65, 0x3d, 0xb8, 0xba, 0x83, 0x3d,
  0x5b, 0x5a, 0x24, 0x3e, 0x54, 0xc1, 0xe2, 0x3b, 0x78, 0x7c, 0xb5, 0xbe,
  0x34, 0xb1, 0xd5, 0xbc, 0x5c, 0x8b, 0x1a, 0x3e, 0xf8, 0x19, 0x68, 0xbd,
  0x8d, 0xef, 0x6f, 0x3e, 0x80, 0x8f, 0x38, 0xbe, 0x4f, 0x18, 0x75, 0xbe,
  0x07, 0xad, 0x7c, 0x3c, 0x55, 0x32, 0xa5, 0xbe, 0x7c, 0xc2, 0x7b, 0xbd,
  0x20, 0xd8, 0x8d, 0x3d, 0x74, 0xf8, 0x54, 0xbe, 0x30, 0xd7, 0x32, 0x3e,
  0x56, 0xd2, 0x63, 0x3e, 0xc0, 0xad, 0x57, 0xbd, 0x3d, 0x05, 0xc7, 0x3d,
  0xbe, 0x5c, 0x19, 0xbe, 0xbc, 0x91, 0x1c, 0xbc, 0xde, 0x40, 0x4e, 0xbe,
  0xb4, 0xe5, 0xaa, 0xbd, 0x9e, 0x69, 0x5b, 0x3d, 0x97, 0xe2, 0x7d, 0xbd,
  0xa0, 0xd5, 0x0a, 0x3e, 0x93, 0xea, 0xfc, 0xbd, 0x4a, 0x2f, 0xa1, 0xbe,
  0x9e, 0xfc, 0x99, 0xbe, 0xef, 0xac, 0x58, 0xbe, 0x10, 0xa6, 0x5f, 0xbe,
  0xca, 0x2e, 0x1d, 0x3e, 0xee, 0xd5, 0x1d, 0xbe, 0xae, 0xf6, 0x6d, 0xbe,
  0xa0, 0x6c, 0x85, 0xbe, 0x6c, 0xc0, 0x8e, 0x3d, 0x3a, 0x5d, 0x33, 0xbe,
  0xae, 0xf2, 0xb6, 0xbc, 0x9d, 0x0c, 0x44, 0xbd, 0x2b, 0x33, 0x21, 0xbd,
  0x2d, 0x5d, 0x77, 0x3d, 0x7d, 0x93, 0x81, 0x3e, 0xe7, 0x7b, 0x8c, 0x3e,
  0xa9, 0xea, 0x81, 0xbe, 0xf9, 0xe4, 0x47, 0xbe, 0xf9, 0x60, 0x1e, 0xbe,
  0x0f, 0x26, 0xa0, 0xbd, 0x9f, 0x44, 0x3a, 0xbe, 0xbd, 0xeb, 0x46, 0xbd,
  0xd2, 0x10, 0xf4, 0xbd, 0x3f, 0x5c, 0xbd, 0xbe, 0x7c, 0xb2, 0xeb, 0xbe,
  0xed, 0xac, 0x56, 0x3d, 0xc2, 0xc1, 0x04, 0x3d, 0x04, 0x86, 0x99, 0x3d,
  0xb9, 0x4e, 0xb4, 0x3d, 0xa0, 0xa7, 0xca, 0xbd, 0x76, 0xf9, 0xd4, 0x3e,
  0x6f, 0x15, 0x7a, 0x3d, 0x9d, 0xbc, 0xed, 0x3d, 0x48, 0x76, 0xce, 0x3d,
  0x46, 0x1e, 0x3c, 0x3d, 0xf1, 0x76, 0x29, 0xbe, 0x6c, 0x69, 0x5c, 0xbd,
  0x7f, 0x4b, 0x43, 0xbd, 0x4d, 0x04, 0x87, 0xbd, 0x65, 0x43, 0x63, 0x3e,
  0x9f, 0x30, 0xaf, 0x3e, 0xe4, 0xdb, 0xd2, 0x3d, 0x6d, 0xcd, 0x0b, 0xbd,
  0xf8, 0x9d, 0xe7, 0xbc, 0x7b, 0xe1, 0x53, 0xbe, 0x0c, 0x71, 0x51, 0xbe,
  0x8e, 0x84, 0x87, 0x3d, 0xfc, 0xf0, 0x65, 0x3e, 0xa3, 0xfc, 0x27, 0x3e,
  0x72, 0x93, 0x81, 0x3e, 0x73, 0x3f, 0x9b, 0x3e, 0x4d, 0x56, 0xe3, 0xbd,
  0xc0, 0xb1, 0x48, 0x3c, 0x1e, 0xa7, 0x8b, 0xbe, 0xd3, 0xb4, 0x3f, 0xbe,
  0xe4, 0x9d, 0x95, 0x3e, 0xe8, 0x11, 0x08, 0xbf, 0x33, 0x19, 0x66, 0xbd,
  0xef, 0x31, 0x50, 0x3e, 0xb0, 0xbb, 0x1c, 0xbd, 0x5b, 0x83, 0xd4, 0xb9,
  0x3a, 0x41, 0xf0, 0xbd, 0xa8, 0x8a, 0xd4, 0x3c, 0xc4, 0x8d, 0x00, 0xbf,
  0xb4, 0x69, 0x39, 0x3c, 0xc2, 0x35, 0x08, 0xbd, 0xcf, 0x71, 0x09, 0xbc,
  0xd1, 0xc8, 0x57, 0xbe, 0xfa, 0xd7, 0x0e, 0xbe, 0x4b, 0xa5, 0xcc, 0xbd,
  0x72, 0x09, 0x98, 0xbd, 0x08, 0x04, 0x03, 0xbe, 0x5f, 0x88, 0xc6, 0xbd,
  0x7d, 0xa0, 0x37, 0xbe, 0x61, 0x99, 0xcc, 0x3d, 0xea, 0x74, 0x0e, 0xbe,
  0x41, 0x7d, 0xc7, 0x3d, 0xd6, 0xcd, 0x6a, 0xbd, 0x6b, 0x05, 0x32, 0xbe,
  0xe0, 0x22, 0x42, 0xbe, 0x1e, 0x39, 0x23, 0xbe, 0xa0, 0x86, 0xaf, 0x3d,
  0x33, 0xc3, 0x0d, 0xbd, 0x06, 0x06, 0x3f, 0x3a, 0x5f, 0x48, 0xbe, 0x3d,
  0xd1, 0xc3, 0x7e, 0x3d, 0x9b, 0xe3, 0x51, 0xbe, 0x3e, 0x07, 0xc2, 0xbd,
  0x0b, 0x75, 0x93, 0x3e, 0xa6, 0x26, 0x61, 0x3d, 0x9f, 0x37, 0x46, 0xbe,
  0x0c, 0x90, 0x2f, 0xbe, 0xc1, 0xf3, 0x46, 0xbd, 0x28, 0xab, 0x84, 0x3d,
  0xca, 0x3d, 0xaf, 0x3d, 0xf2, 0x41, 0x2b, 0xbb, 0x35, 0x94, 0x44, 0x3e,
  0xa2, 0x7c, 0xaf, 0xbd, 0x2b, 0xa0, 0xff, 0xbd, 0x00, 0x5b, 0xae, 0x3d,
  0xe4, 0x02, 0x47, 0xbe, 0x3d, 0xae, 0xc7, 0xbd, 0x1f, 0x3e, 0x33, 0x3e,
  0x64, 0xed, 0x3d, 0xbc, 0xec, 0x5d, 0x9b, 0x3d, 0x9b, 0x4a, 0xa4, 0xbd,
  0x45, 0xd3, 0x12, 0x3e, 0xe6, 0x1d, 0xbd, 0xbd, 0x86, 0xd2, 0xa6, 0x3d,
  0xf2, 0xab, 0x8d, 0x3e, 0x20, 0xa6, 0xd6, 0xbd, 0x48, 0xf9, 0xab, 0x3e,
  0x8a, 0xbd, 0x28, 0xbe, 0xbb, 0xd1, 0xae, 0xbc, 0x94, 0x53, 0xd6, 0xbd,
  0xdf, 0x20, 0xb0, 0xbd, 0xb0, 0xe1, 0x46, 0xbe, 0xef, 0x61, 0x32, 0x3e,
  0x49, 0x55, 0x11, 0x3e, 0xed, 0x29, 0x4d, 0x3e, 0xfb, 0x85, 0xb3, 0x3d,
  0x3e, 0x78, 0x4e, 0xbe, 0xca, 0xb7, 0x07, 0xbe, 0x12, 0x60, 0x81, 0xbb,
  0xea, 0xea, 0xb1, 0xbd, 0xe2, 0x56, 0xdb, 0x3b, 0x78, 0x97, 0x1a, 0x3e,
  0x75, 0xc0, 0x42, 0xbe, 0xfd, 0xd5, 0x10, 0x3d, 0x6f, 0xe9, 0x28, 0xbe,
  0xb3, 0xda, 0x33, 0x3e, 0xde, 0x33, 0xfc, 0xbc, 0x30, 0xdd, 0xf6, 0xbd,
  0x2c, 0x6b, 0x09, 0xbe, 0xbd, 0x14, 0xa0, 0xbe, 0x39, 0x63, 0x1e, 0x3e,
  0xa7, 0xcb, 0x3f, 0x3b, 0x09, 0x4e, 0x36, 0x3e, 0x4e, 0xd9, 0x11, 0xbe,
  0x1a, 0x1e, 0xac, 0x3d, 0x8d, 0xfe, 0x3d, 0x3e, 0x9e, 0x0a, 0x1b, 0xbe,
  0xc9, 0x1e, 0xb3, 0x3d, 0x0b, 0x5f, 0xf0, 0x3d, 0x73, 0xd3, 0xa0, 0x3e,
  0x31, 0x42, 0x73, 0x3e, 0x06, 0x86, 0xe3, 0x3d, 0x01, 0x7b, 0xe0, 0xbd,
  0xa7, 0xf9, 0xeb, 0x3d, 0x2a, 0x43, 0xdd, 0x3d, 0x21, 0x8d, 0xe6, 0x3b,
  0x28, 0xfd, 0x1b, 0xba, 0x47, 0x16, 0x88, 0x3e, 0x8d, 0x80, 0x0c, 0x3e,
  0xe3, 0x5e, 0x26, 0x3d, 0x1b, 0x70, 0x09, 0x3d, 0xfb, 0x21, 0x40, 0xbe,
  0x5c, 0xc4, 0xe8, 0x3d, 0x5c, 0x69, 0xd1, 0x3d, 0x92, 0xca, 0x4e, 0x3e,
  0xce, 0xd1, 0x5d, 0x3e, 0x07, 0x29, 0x54, 0x3c, 0xef, 0xc1, 0xda, 0xbd,
  0x31, 0xd3, 0xea, 0xbd, 0xa0, 0xf8, 0x0a, 0x3d, 0x68, 0x67, 0x13, 0x3e,
  0xcd, 0x3a, 0x9f, 0x3d, 0xb2, 0xb9, 0x53, 0x3e, 0xe3, 0x8f, 0x47, 0x3e,
  0x42, 0x31, 0x20, 0xbd, 0xd7, 0xbd, 0x3b, 0xbe, 0xc0, 0xf5, 0x08, 0x3d,
  0x91, 0x66, 0x47, 0x3e, 0xbf, 0x84, 0x16, 0xbe, 0x9d, 0xc7, 0x81, 0xbd,
  0xa4, 0xe0, 0x1e, 0x3d, 0xb0, 0xc6, 0xdf, 0xbd, 0x09, 0xe9, 0x38, 0x3d,
  0x02, 0x0e, 0x50, 0xbe, 0x30, 0xd6, 0xe5, 0x3d, 0x2a, 0x72, 0x6e, 0xbe,
  0xa6, 0x1a, 0x01, 0x3e, 0x47, 0xb6, 0x83, 0x3c, 0xb3, 0xa8, 0x21, 0x3d,
  0x5a, 0x8e, 0x88, 0xbe, 0x00, 0x62, 0x18, 0x3d, 0xad, 0x37, 0x8a, 0xbb,
  0xcc, 0x37, 0xe4, 0xbd, 0x02, 0x10, 0xbe, 0xbd, 0x75, 0x56, 0x69, 0xbe,
  0xbe, 0x88, 0x5a, 0xbe, 0xa0, 0x34, 0x20, 0xbe, 0x28, 0x3a, 0xa8, 0x3e,
  0x71, 0xba, 0x27, 0x3e, 0xf5, 0x92, 0xd4, 0x3c, 0x56, 0x66, 0x84, 0x3d,
  0x08, 0x66, 0xb5, 0xbc, 0x06, 0xd0, 0x11, 0x3e, 0xde, 0xe7, 0x37, 0xbe,
  0xb0, 0x14, 0x0f, 0x3c, 0x0a, 0xf8, 0x5c, 0xbd, 0xc1, 0xbe, 0x85, 0x3e,
  0xeb, 0xef, 0xbc, 0x3e, 0xb5, 0xdf, 0x9c, 0xbd, 0x29, 0xb2, 0x77, 0xbe,
  0x3a, 0xf0, 0x13, 0xbc, 0x48, 0x0e, 0x5b, 0x3c, 0xb9, 0x28, 0xe6, 0x3d,
  0xe8, 0xe3, 0x12, 0xbe, 0x44, 0x3a, 0x5f, 0x3e, 0x7c, 0xb8, 0xc8, 0xbd,
  0xaf, 0xfe, 0x15, 0xbe, 0x36, 0x01, 0x5e, 0xbe, 0x6a, 0x8c, 0x83, 0x3e,
  0x69, 0xe5, 0x81, 0xbe, 0x14, 0xb1, 0x12, 0xbc, 0x4e, 0x68, 0x3c, 0xbe,
  0xed, 0xd7, 0xd5, 0x3d, 0x06, 0x27, 0xde, 0xbd, 0x2a, 0xa6, 0x30, 0x3e,
  0xe4, 0x76, 0xb5, 0x3d, 0x9e, 0xd2, 0x3f, 0x3e, 0xbc, 0x0b, 0x2f, 0xbe,
  0x61, 0x76, 0x4d, 0x3e, 0x3b, 0xb9, 0xcb, 0xbd, 0xca, 0xb6, 0x4b, 0x3e,
  0xa2, 0x83, 0x0e, 0xbb, 0x36, 0xd0, 0x23, 0x3e, 0x00, 0x14, 0x17, 0x3d,
  0x7f, 0xbf, 0x85, 0xbe, 0x93, 0xf8, 0x91, 0xbe, 0xf7, 0x15, 0x35, 0x3d,
  0x5d, 0xbe, 0x19, 0xbe, 0x31, 0xcb, 0x00, 0xbe, 0xd3, 0x9d, 0xa5, 0xbe,
  0xe0, 0xe1, 0x61, 0x3e, 0xfd, 0x5f, 0x58, 0xbc, 0x96, 0xcb, 0xa0, 0x3c,
  0xbf, 0xfc, 0x91, 0xbe, 0xe1, 0x77, 0x4e, 0xbe, 0xf9, 0x9a, 0xcf, 0xbd,
  0x40, 0xdf, 0x7d, 0xbe, 0x2e, 0x50, 0x05, 0xbe, 0x91, 0x11, 0x57, 0xbe,
  0x8d, 0x6a, 0x22, 0x3e, 0x23, 0xc5, 0x3f, 0x3e, 0x24, 0x47, 0x9e, 0xbd,
  0xd3, 0x89, 0x68, 0xbc, 0x5a, 0xbd, 0xa7, 0xbd, 0xd5, 0x33, 0x83, 0x3e,
  0x12, 0x30, 0x09, 0xbd, 0x34, 0x6d, 0x99, 0x3e, 0xa2, 0x0e, 0x53, 0xbe,
  0x57, 0x92, 0x79, 0x3e, 0x9e, 0x05, 0xde, 0x3d, 0xdd, 0xe9, 0x0a, 0xbe,
  0x58, 0xce, 0x52, 0x3e, 0xba, 0x28, 0x5c, 0x3e, 0x82, 0x5d, 0x0c, 0x3e,
  0x6e, 0xcf, 0x86, 0x3e, 0x6a, 0x01, 0xcc, 0xbd, 0x5a, 0xeb, 0x64, 0xbe,
  0xcb, 0xdf, 0x4e, 0xbe, 0x8f, 0xa8, 0xc9, 0x3d, 0xee, 0xc6, 0xec, 0x3d,
  0x6b, 0x71, 0xe2, 0x3d, 0x2b, 0x72, 0x8e, 0xbe, 0x89, 0x3f, 0x3f, 0x3e,
  0x5e, 0xad, 0x66, 0xbe, 0xd0, 0xef, 0xab, 0x3d, 0x6f, 0x4e, 0x91, 0xbe,
  0xc5, 0xd3, 0x04, 0x3e, 0x7a, 0xaf, 0x20, 0xbd, 0x7b, 0xff, 0xab, 0x3d,
  0x18, 0x46, 0x38, 0xbe, 0x6a, 0xe8, 0x0e, 0x3e, 0xb3, 0xf5, 0xb9, 0xbc,
  0x8b, 0x53, 0xab, 0xbd, 0xe1, 0xb8, 0xf0, 0xbd, 0x3f, 0xee, 0x48, 0x3e,
  0xc7, 0xb4, 0x83, 0xbd, 0xda, 0x53, 0x44, 0x3d, 0x35, 0xab, 0x27, 0xbe,
  0x0d, 0x81, 0x44, 0x3e, 0x86, 0xb1, 0x55, 0x3e, 0xa1, 0x8e, 0x83, 0xbe,
  0x80, 0x6a, 0x1d, 0xbe, 0xee, 0x48, 0x3c, 0x3e, 0x44, 0xd5, 0x47, 0x3e,
  0x2d, 0x9e, 0x86, 0x3e, 0x05, 0x03, 0x0a, 0x3d, 0x2f, 0xc6, 0x2e, 0x3b,
  0x96, 0x0b, 0x07, 0x3e, 0xb7, 0x6a, 0xc4, 0x3d, 0x63, 0x44, 0x7a, 0xbc,
  0x7e, 0x1c, 0x81, 0x3d, 0x1b, 0xe6, 0x1a, 0x3c, 0x76, 0x22, 0x35, 0xbd,
  0xd6, 0xdf, 0x1d, 0xbe, 0xac, 0xbf, 0x1c, 0x3e, 0x12, 0xad, 0x43, 0x3e,
  0x59, 0x0c, 0x41, 0x3e, 0x25, 0x48, 0x53, 0x3e, 0xe0, 0x60, 0x26, 0x3e,
  0xc9, 0xf2, 0x9a, 0xbb, 0x38, 0x5c, 0xb8, 0xbc, 0x7a, 0xda, 0x52, 0xbe,
  0xe5, 0xc5, 0xf3, 0xbd, 0xb0, 0x63, 0x4a, 0xbe, 0x7e, 0x52, 0xd8, 0x3d,
  0x7e, 0xc0, 0xa5, 0x3e, 0xf1, 0xbb, 0x8c, 0xbe, 0x54, 0xf5, 0xfe, 0x3d,
  0xa4, 0x41, 0xb7, 0xbc, 0x30, 0x17, 0x78, 0xbe, 0xb0, 0xd0, 0x71, 0x3e,
  0xd8, 0xa2, 0x41, 0xbe, 0xe6, 0x17, 0xca, 0x3d, 0x6c, 0xeb, 0xbc, 0x3c,
  0xbd, 0x05, 0xee, 0x3d, 0x21, 0xed, 0xb7, 0xbd, 0x17, 0x7a, 0x80, 0xbe,
  0x2b, 0x9f, 0x84, 0x3d, 0x58, 0x28, 0x09, 0xbe, 0x1c, 0x68, 0x57, 0xbd,
  0x54, 0x62, 0x9a, 0x3d, 0xee, 0xb8, 0x1d, 0x3e, 0x52, 0x38, 0x3c, 0xbe,
  0xc5, 0x68, 0x8b, 0x3c, 0x8f, 0x3d, 0x8c, 0xbe, 0x49, 0x7c, 0xfd, 0x3d,
  0x3d, 0xdf, 0xd9, 0xbd, 0x0a, 0x03, 0xfd, 0x3c, 0x4e, 0x9f, 0x3c, 0xbd,
  0xd7, 0x1a, 0x18, 0xbe, 0xae, 0xa4, 0x48, 0xbd, 0xcc, 0x1f, 0xb0, 0x3c,
  0xeb, 0x7c, 0x85, 0xbc, 0x71, 0xb6, 0x80, 0xbe, 0x4c, 0x32, 0x09, 0xbd,
  0xb7, 0x6c, 0xfc, 0x3c, 0x1a, 0xa0, 0x98, 0xbd, 0x45, 0xaf, 0x68, 0xbd,
  0xd6, 0x3d, 0xa6, 0x3d, 0xe8, 0x02, 0x68, 0x3e, 0x30, 0xbc, 0x55, 0x3e,
  0x39, 0x7e, 0x72, 0x3e, 0x24, 0xc9, 0xc6, 0xbd, 0x79, 0x4c, 0x76, 0xbe,
  0x65, 0xb9, 0xa9, 0x3e, 0x65, 0x07, 0x89, 0xbd, 0xcc, 0x69, 0xa2, 0xbe,
  0x6f, 0x2b, 0x56, 0xbe, 0x71, 0xb4, 0x46, 0xbe, 0x90, 0x29, 0xb3, 0x3d,
  0x00, 0x59, 0x84, 0x3e, 0xdc, 0x7d, 0xbd, 0x3d, 0x85, 0x12, 0xa5, 0x3e,
  0x5d, 0xb1, 0x79, 0xbe, 0x1b, 0xe7, 0x45, 0xbe, 0x74, 0xae, 0xdf, 0xbc,
  0xb1, 0x07, 0x3b, 0x3e, 0xc6, 0x34, 0x4c, 0x3e, 0x2e, 0xbd, 0x18, 0x3e,
  0xb4, 0x77, 0x1b, 0xbe, 0x95, 0x4e, 0x51, 0x3d, 0xd2, 0x83, 0xdb, 0x3d,
  0xde, 0x51, 0x00, 0x3e, 0x31, 0xfd, 0xc4, 0x3d, 0x24, 0xf6, 0xb5, 0x3d,
  0x7a, 0x59, 0x2b, 0x3b, 0xc3, 0xf3, 0xfc, 0xbd, 0xc1, 0xae, 0x15, 0x3e,
  0x78, 0xd5, 0x57, 0x3d, 0x0c, 0xb2, 0x84, 0xbe, 0xeb, 0xfc, 0x3d, 0xbe,
  0x86, 0x8c, 0xab, 0x3d, 0x86, 0xc5, 0x00, 0x3e, 0x11, 0x0a, 0x9b, 0xbe,
  0xca, 0xbe, 0x82, 0xbd, 0x70, 0x3c, 0x4c, 0x3e, 0x16, 0xb5, 0x3f, 0xbe,
  0xd8, 0x45, 0x36, 0xbe, 0x54, 0x80, 0x74, 0xba, 0x4d, 0xd4, 0x2c, 0xbe,
  0x62, 0x65, 0x82, 0x3d, 0xbd, 0xb5, 0x00, 0x3e, 0x51, 0xdc, 0x89, 0xbd,
  0x7a, 0x00, 0x1e, 0xbe, 0x1f, 0x1c, 0xca, 0xbd, 0x5f, 0x58, 0xb6, 0x3d,
  0xfe, 0x4f, 0xed, 0xbc, 0x1d, 0x66, 0x25, 0x3c, 0x9b, 0x39, 0x73, 0xbe,
  0x3f, 0x41, 0x73, 0xbe, 0x1f, 0xe7, 0xa6, 0x3d, 0x56, 0x26, 0xaf, 0x3d,
  0x39, 0xd0, 0x59, 0x3d, 0x8b, 0x5f, 0x28, 0xbe, 0x4e, 0x4a, 0x72, 0x3d,
  0xff, 0x72, 0x9a, 0xbe, 0xaa, 0x2e, 0xd3, 0x3d, 0x1d, 0x78, 0xcf, 0x3d,
  0x8b, 0x1e, 0x8b, 0xbd, 0x46, 0x28, 0x0c, 0x3e, 0x41, 0x16, 0xaf, 0x3d,
  0x39, 0xdb, 0x70, 0x3e, 0x7a, 0x4a, 0xd7, 0xbd, 0x94, 0xb0, 0x60, 0xbc,
  0xf7, 0xe6, 0x66, 0x3e, 0xe1, 0x96, 0x41, 0xbb, 0xd3, 0xca, 0x83, 0xbe,
  0x56, 0xdc, 0x31, 0xbe, 0x5e, 0xec, 0x3c, 0xbe, 0x18, 0x03, 0x38, 0xbe,
  0xbf, 0x53, 0x27, 0x3d, 0x1b, 0x05, 0x8a, 0xbe, 0x34, 0x72, 0xb9, 0xbd,
  0xe6, 0x7d, 0x2e, 0xbe, 0xf9, 0x97, 0x24, 0x3d, 0x9e, 0x15, 0x25, 0x3e,
  0x19, 0x4c, 0x22, 0x3d, 0x9d, 0xca, 0xce, 0xbd, 0x59, 0xb3, 0xc6, 0x3c,
  0x04, 0x96, 0x07, 0xbe, 0xc2, 0xbc, 0xe7, 0xbe, 0xe4, 0xa6, 0x8f, 0xbe,
  0xee, 0x45, 0x46, 0x3e, 0x86, 0x4d, 0xdf, 0xbd, 0x34, 0xc9, 0x4a, 0x3e,
  0x91, 0x85, 0x86, 0x3e, 0x06, 0x1a, 0x3c, 0x3e, 0x4a, 0x83, 0x68, 0xbe,
  0x6c, 0xc7, 0xa9, 0x3d, 0xd8, 0x2a, 0x99, 0xbd, 0x2f, 0x87, 0x80, 0xbe,
  0xac, 0xc9, 0x04, 0xbe, 0x6e, 0xa6, 0x64, 0x3d, 0x90, 0x93, 0xb3, 0x3e,
  0xc9, 0xbb, 0x30, 0xbe, 0xa0, 0x5b, 0xcd, 0x3b, 0xc4, 0xfa, 0xa5, 0x3e,
  0xfc, 0x93, 0x31, 0x3e, 0x6e, 0x06, 0x7d, 0xbe, 0x0c, 0xb3, 0x00, 0x3e,
  0x30, 0x4f, 0x47, 0x3e, 0x33, 0xea, 0xe6, 0xbe, 0x33, 0x83, 0x33, 0x3e,
  0x65, 0x53, 0x65, 0xbd, 0x4b, 0x3d, 0xbe, 0x3d, 0xd8, 0xef, 0xca, 0x3c,
  0x87, 0x03, 0x80, 0xbe, 0x00, 0xea, 0x7c, 0xbc, 0xbb, 0x16, 0x27, 0x3e,
  0x23, 0x2d, 0x20, 0x3e, 0x00, 0xf9, 0xc4, 0x3d, 0x67, 0x63, 0x0c, 0x3e,
  0xab, 0x1b, 0x9d, 0xbe, 0xbe, 0xa0, 0xc0, 0xbd, 0x4c, 0xa4, 0x02, 0xbe,
  0x66, 0x3f, 0xbf, 0x3d, 0x04, 0x55, 0x0c, 0xbd, 0xbc, 0x52, 0x68, 0xbd,
  0xbb, 0xa3, 0x1e, 0xbe, 0x16, 0x66, 0x2b, 0x3b, 0x96, 0x1b, 0xaa, 0xbd,
  0xcc, 0xe1, 0x1d, 0x3d, 0xf6, 0x47, 0x7c, 0xbd, 0x34, 0x14, 0x32, 0x3e,
  0x63, 0xcf, 0x0c, 0x3e, 0x13, 0x64, 0x48, 0x3e, 0x22, 0x05, 0x69, 0xbd,
  0xd7, 0xef, 0x6f, 0x3e, 0x20, 0xeb, 0xe7, 0x3e, 0x4a, 0xe7, 0x1a, 0x3e,
  0x61, 0x9c, 0x35, 0x3e, 0xb6, 0xf9, 0xbd, 0x3d, 0xa5, 0x1e, 0x4c, 0x3e,
  0xe8, 0x2b, 0xc0, 0x3e, 0xc5, 0x09, 0xdd, 0x3e, 0x91, 0x23, 0xae, 0x3d,
  0xc8, 0xa5, 0x87, 0x3d, 0x1c, 0xb6, 0xd1, 0x3c, 0x6f, 0xf7, 0x66, 0x3d,
  0xd8, 0x38, 0xf2, 0x3d, 0x41, 0x50, 0x94, 0xbe, 0xf0, 0x9e, 0x22, 0x3d,
  0x7e, 0xe0, 0x79, 0x3e, 0x83, 0x98, 0x3a, 0xbd, 0x2a, 0x0a, 0x7f, 0x3e,
  0xa0, 0x48, 0x90, 0xbb, 0x28, 0xf5, 0xb2, 0x3d, 0x57, 0x6f, 0xb5, 0xbd,
  0x29, 0x94, 0x20, 0x3e, 0xeb, 0x24, 0xce, 0x3d, 0xa1, 0x96, 0x17, 0x3e,
  0x8f, 0x3e, 0xef, 0xbc, 0x73, 0x70, 0xd6, 0x3b, 0x05, 0x03, 0xe2, 0xba,
  0x9a, 0x27, 0x89, 0xbd, 0x8d, 0xdd, 0x5b, 0xbe, 0x66, 0xca, 0xe4, 0x3c,
  0x2b, 0xa9, 0xb8, 0xbd, 0x4e, 0x8f, 0xf3, 0x3d, 0x13, 0xdf, 0x83, 0xbd,
  0x44, 0x97, 0x85, 0xbe, 0x33, 0x6b, 0x99, 0xbe, 0x29, 0x65, 0x3a, 0xbd,
  0x43, 0xef, 0xcf, 0xbd, 0x58, 0x05, 0x5e, 0xbe, 0x57, 0x42, 0x90, 0xbe,
  0x02, 0x87, 0x34, 0x3e, 0xc7, 0xa1, 0x24, 0x3d, 0x2b, 0xf9, 0x28, 0x3e,
  0x79, 0xf8, 0x32, 0xbe, 0x35, 0x9f, 0xd7, 0xbd, 0xb0, 0x03, 0x40, 0x3e,
  0x12, 0x1a, 0x3e, 0xbe, 0xfc, 0x6b, 0xc9, 0x3c, 0x02, 0x84, 0x62, 0x3e,
  0xcf, 0xe6, 0x6b, 0xbe, 0x9c, 0x3f, 0xbe, 0xbe, 0x2e, 0x14, 0xe7, 0xbd,
  0xf0, 0x14, 0x26, 0xbe, 0x3b, 0xa6, 0x9d, 0x3c, 0x14, 0x29, 0x87, 0xbe,
  0x79, 0x87, 0x3f, 0xbe, 0x28, 0x94, 0xbb, 0x3d, 0x71, 0xf6, 0x03, 0x3e,
  0x82, 0x0a, 0xa6, 0x3d, 0x34, 0x09, 0x06, 0xbd, 0xeb, 0x8e, 0x17, 0xbd,
  0x89, 0x2c, 0xd9, 0xbd, 0xb5, 0x2d, 0x75, 0x3d, 0xe7, 0xfd, 0x3d, 0xbe,
  0x14, 0x43, 0x56, 0xbd, 0xc8, 0x4f, 0x7e, 0xbc, 0x64, 0x79, 0x8e, 0x3e,
  0x74, 0x8d, 0x8c, 0xbd, 0x64, 0x76, 0x0a, 0xbe, 0x2e, 0x69, 0x1a, 0xbc,
  0x8b, 0xb0, 0x82, 0x3d, 0xc7, 0x38, 0x25, 0x3e, 0x9e, 0xee, 0xb8, 0xbc,
  0xf0, 0x54, 0x59, 0xbe, 0x06, 0xc4, 0xff, 0xbd, 0xc1, 0x86, 0x37, 0xbd,
  0x3d, 0xf9, 0x9a, 0x3d, 0xf6, 0xd9, 0xdb, 0xbd, 0xf9, 0xb9, 0xf1, 0xbd,
  0xf7, 0x96, 0xac, 0xbd, 0xe5, 0x13, 0xdf, 0x3d, 0xdd, 0xcf, 0xcf, 0x3d,
  0xf5, 0x43, 0xa3, 0x3d, 0x5c, 0xea, 0x0a, 0x3e, 0x94, 0xba, 0x9a, 0xbd,
  0xde, 0xa3, 0x27, 0xbd, 0x8c, 0xe4, 0x4b, 0xbe, 0x86, 0x13, 0xc3, 0x3d,
  0xa1, 0x8f, 0x88, 0xbc, 0x20, 0x38, 0x86, 0xbc, 0x0c, 0xfa, 0x7a, 0x3e,
  0x82, 0x6a, 0x64, 0x3e, 0x33, 0x6a, 0x50, 0xbe, 0x8b, 0x0c, 0x27, 0xbc,
  0xb2, 0xdc, 0x66, 0x3d, 0xf3, 0x7c, 0xb9, 0xbd, 0x54, 0x88, 0x35, 0xbd,
  0xf6, 0x55, 0x5e, 0xbe, 0xea, 0xd9, 0x98, 0x3e, 0xbe, 0x39, 0x40, 0x3d,
  0x5d, 0x5f, 0x70, 0xbe, 0x08, 0xc3, 0x6f, 0x3c, 0x8f, 0x2a, 0x15, 0xbe,
  0x96, 0xc4, 0x97, 0x3d, 0x30, 0xd9, 0xa0, 0x3d, 0xcf, 0x6d, 0xad, 0x3e,
  0xe3, 0xf3, 0x65, 0x3c, 0xb1, 0xbd, 0xc5, 0x3b, 0x0b, 0x14, 0x48, 0xbe,
  0x20, 0xde, 0xd2, 0x3c, 0xcd, 0xc1, 0x8b, 0x3d, 0x01, 0x99, 0xdf, 0xbb,
  0xd6, 0x43, 0x98, 0xbd, 0xc0, 0x46, 0xa1, 0x3d, 0x98, 0x6e, 0x6a, 0x3d,
  0x2b, 0x1a, 0x6d, 0xbd, 0xa2, 0x7d, 0x01, 0x3e, 0xf3, 0xe7, 0x18, 0x3e,
  0x88, 0x52, 0xa4, 0x3d, 0x9c, 0x84, 0x8f, 0xbd, 0x47, 0xcc, 0x35, 0xbe,
  0x2e, 0x29, 0x51, 0xbd, 0x76, 0x31, 0xd1, 0x3c, 0x26, 0x06, 0xcf, 0xbd,
  0xce, 0x0e, 0x65, 0xbe, 0xb4, 0xe1, 0xa5, 0x3d, 0x86, 0xf4, 0x3e, 0x3e,
  0xac, 0xeb, 0x97, 0x3d, 0x4f, 0xe1, 0xac, 0x3d, 0xee, 0xaf, 0xcc, 0xbd,
  0x9b, 0xc4, 0x20, 0x3e, 0x3e, 0x8f, 0x55, 0x3e, 0x52, 0x87, 0xde, 0x3c,
  0xb2, 0x15, 0x8e, 0x3c, 0xf6, 0x6c, 0xd4, 0xbd, 0xd2, 0x85, 0xd1, 0xbe,
  0x8b, 0xbf, 0x79, 0xbd, 0xc0, 0xee, 0x0a, 0xbe, 0xf3, 0x2c, 0xe7, 0x3d,
  0x7b, 0x2c, 0x2e, 0x3e, 0x0a, 0x32, 0x78, 0x3d, 0xf0, 0x37, 0x09, 0x3e,
  0x48, 0xfd, 0xef, 0xbd, 0x73, 0x75, 0x87, 0xbe, 0x8f, 0x6c, 0x5e, 0xbd,
  0x32, 0x4d, 0xee, 0xbd, 0xd2, 0x58, 0x9e, 0xbe, 0x59, 0xc2, 0xb0, 0xbe,
  0xd6, 0x30, 0xf5, 0xbd, 0xc7, 0x21, 0x81, 0xba, 0x1f, 0x28, 0x51, 0x3e,
  0xa9, 0x24, 0xa1, 0x3e, 0x90, 0x26, 0x63, 0x3e, 0xb6, 0xa4, 0xda, 0xbd,
  0x24, 0x2a, 0x93, 0xbe, 0xbc, 0x84, 0x43, 0xbe, 0x1b, 0xa7, 0xa4, 0x3c,
  0xff, 0x3e, 0x7e, 0x3b, 0x91, 0xaa, 0xaf, 0xbc, 0xd2, 0xb8, 0x5f, 0x3e,
  0x2a, 0x67, 0x7b, 0x3d, 0xf4, 0x77, 0x27, 0x3e, 0x24, 0x2f, 0x88, 0xbd,
  0xb0, 0x18, 0x2f, 0x3e, 0x44, 0xc4, 0x8e, 0xbc, 0x82, 0xc9, 0x61, 0x3e,
  0x33, 0x8a, 0xea, 0xbd, 0x41, 0x99, 0x0c, 0xbe, 0xc7, 0x8e, 0x7b, 0x3d,
  0xd3, 0xa4, 0x98, 0xbd, 0xcf, 0x3a, 0x1e, 0x3d, 0xbf, 0x6a, 0x04, 0x3e,
  0x7c, 0x81, 0xab, 0x3c, 0x90, 0x10, 0x5b, 0x3e, 0x46, 0xc9, 0xf9, 0x3d,
  0xda, 0xb8, 0x4f, 0xbe, 0x55, 0x33, 0x86, 0xbb, 0xd3, 0x3e, 0x22, 0xbe,
  0xea, 0x9c, 0xe1, 0xbd, 0xdc, 0xbe, 0xc9, 0xbc, 0x90, 0xd3, 0x17, 0x3e,
  0x6e, 0xad, 0x3f, 0xbe, 0x91, 0x9a, 0x07, 0x3e, 0x64, 0x2c, 0x34, 0xbc,
  0x2d, 0xda, 0x44, 0x3e, 0xf2, 0xe7, 0xe0, 0xbe, 0x57, 0x3e, 0xd3, 0xbe,
  0x70, 0x0f, 0x10, 0xbc, 0xad, 0xa7, 0x59, 0x3b, 0x48, 0xd9, 0x2e, 0xbd,
  0xc1, 0x57, 0x4e, 0xbe, 0xb0, 0xde, 0xfa, 0xbd, 0x8e, 0xcb, 0x09, 0x3e,
  0x8c, 0x45, 0xa2, 0xbe, 0x35, 0x61, 0xe0, 0xbe, 0x30, 0x68, 0x69, 0xbe,
  0x44, 0xb0, 0x37, 0xbe, 0x3c, 0x8f, 0x03, 0x3e, 0xdf, 0xfe, 0xdb, 0xbd,
  0xfa, 0x84, 0x93, 0x3d, 0xd1, 0xeb, 0x27, 0xbd, 0x9a, 0x2e, 0x77, 0xbe,
  0x0e, 0x7f, 0x1c, 0xbe, 0xf5, 0xdb, 0x54, 0xbc, 0x51, 0x1c, 0x11, 0xbe,
  0xb6, 0x21, 0x2e, 0x3e, 0xa3, 0x2c, 0x06, 0x3e, 0x81, 0xd1, 0x8f, 0x3e,
  0xf2, 0x1f, 0x19, 0x3e, 0xc2, 0x5d, 0x2f, 0xbc, 0xc5, 0xc3, 0xf6, 0x3d,
  0xfb, 0x38, 0xf4, 0x3d, 0xd0, 0xec, 0x94, 0xbd, 0x6c, 0x78, 0x4f, 0x3d,
  0x34, 0x12, 0x05, 0xbe, 0x11, 0x69, 0x9b, 0x3d, 0x9b, 0x8d, 0x7d, 0x3e,
  0xa9, 0x20, 0x4b, 0x3d, 0x89, 0x8b, 0xef, 0xbd, 0xcb, 0xef, 0xf8, 0x3d,
  0x9f, 0x32, 0x11, 0x3e, 0x84, 0x20, 0x06, 0xbe, 0xc7, 0x80, 0xf2, 0x3d,
  0x0e, 0xe3, 0x05, 0x3e, 0x42, 0xdc, 0x98, 0x3d, 0xe4, 0x12, 0x41, 0x3e,
  0x94, 0xd2, 0x28, 0x3e, 0xd3, 0x61, 0xc1, 0x3d, 0x54, 0x63, 0xa7, 0xbd,
  0x5f, 0x1e, 0x8c, 0xbc, 0x32, 0x7f, 0x45, 0x3e, 0xf0, 0x83, 0x27, 0xbe,
  0x31, 0xba, 0x73, 0xbc, 0xc0, 0x08, 0x06, 0x3e, 0x25, 0x74, 0x0b, 0x3d,
  0x27, 0x1d, 0xbb, 0x3e, 0x0f, 0x50, 0x3c, 0x3e, 0x54, 0x29, 0x0b, 0x3e,
  0x67, 0x17, 0xe1, 0x3d, 0x1e, 0x28, 0x2f, 0x3e, 0x6c, 0xe9, 0x4d, 0xbe,
  0x2c, 0xb8, 0x2e, 0x3e, 0x43, 0x41, 0x83, 0x3b, 0xbc, 0x1b, 0x69, 0xbd,
  0x44, 0xcf, 0x9e, 0xbd, 0x7b, 0xfb, 0x76, 0xbe, 0x32, 0x0b, 0x11, 0x3e,
  0xaf, 0xc4, 0x4c, 0xbe, 0xdf, 0x8a, 0x39, 0x3e, 0xc3, 0x5b, 0x53, 0xbe,
  0xb1, 0x82, 0xdd, 0xbd, 0x94, 0x64, 0x2a, 0xbe, 0xca, 0x07, 0xce, 0x3d,
  0x21, 0xe1, 0x12, 0xbe, 0x02, 0x8b, 0x89, 0x3d, 0xf4, 0x9a, 0x24, 0x3c,
  0x97, 0xe3, 0xca, 0xbd, 0xef, 0xa5, 0x47, 0x3e, 0x31, 0x22, 0x99, 0xbe,
  0x6a, 0x41, 0x56, 0xbb, 0x32, 0x6d, 0x87, 0x3d, 0x84, 0x46, 0xf4, 0x3b,
  0xb0, 0x0d, 0xa1, 0xbd, 0xd6, 0x90, 0xd1, 0xbd, 0x6f, 0x27, 0x6d, 0x3e,
  0xf6, 0xb6, 0x2e, 0xbe, 0xfc, 0xf3, 0x37, 0xbe, 0x46, 0xa2, 0x69, 0xbe,
  0x99, 0x91, 0xa3, 0xbc, 0x30, 0xba, 0x9c, 0xbd, 0x88, 0x73, 0x18, 0x3d,
  0x2f, 0x96, 0xb9, 0x3c, 0xa5, 0xc2, 0x87, 0x3e, 0xe6, 0x8b, 0x50, 0xbe,
  0xf8, 0x07, 0xb0, 0x3c, 0xed, 0x54, 0x24, 0x3e, 0x42, 0xb6, 0x08, 0xbe,
  0x91, 0x49, 0x85, 0x3d, 0xa2, 0x49, 0xc4, 0x3d, 0x61, 0x7c, 0xd5, 0x3d,
  0xd3, 0x57, 0xe7, 0x3b, 0xf1, 0x04, 0x47, 0xbe, 0x6e, 0xb2, 0x80, 0x3e,
  0xb4, 0xa4, 0x5f, 0x3d, 0xed, 0x56, 0x41, 0xbe, 0x61, 0x2e, 0x26, 0x3e,
  0x86, 0x11, 0x2f, 0xbd, 0xd5, 0x60, 0x61, 0xbd, 0x75, 0x69, 0x1e, 0xbe,
  0xa8, 0x2b, 0x6d, 0xbd, 0x51, 0x05, 0x00, 0xbe, 0x1f, 0xc5, 0x1d, 0x3d,
  0xfd, 0x04, 0xf6, 0xbd, 0xe9, 0x7e, 0x35, 0x3e, 0x49, 0x48, 0xd6, 0xbd,
  0xcb, 0xcd, 0x56, 0x3e, 0x71, 0x4a, 0x56, 0xbe, 0x0b, 0xad, 0x9a, 0x3c,
  0x6e, 0x7a, 0x0a, 0xbd, 0x42, 0xd1, 0x30, 0x3e, 0xe0, 0x5f, 0x88, 0xbe,
  0x0c, 0x7a, 0x24, 0x3e, 0x75, 0x98, 0x8c, 0x3d, 0xcf, 0xdb, 0x44, 0xbe,
  0x6a, 0x98, 0xd2, 0xbc, 0x22, 0xa2, 0x68, 0xbd, 0x1e, 0x33, 0xeb, 0x3d,
  0xe5, 0xc8, 0xf0, 0xbd, 0x46, 0x16, 0x87, 0x3d, 0xfe, 0x14, 0xca, 0xbd,
  0x13, 0xdf, 0xdf, 0x3d, 0x8d, 0xd2, 0x9f, 0x3d, 0x01, 0x77, 0x3d, 0x3e,
  0x6a, 0xc1, 0x70, 0x3e, 0xdd, 0xe2, 0xba, 0x3d, 0xe7, 0xf2, 0x21, 0x3e,
  0x52, 0xc7, 0x3c, 0xbe, 0xab, 0x8a, 0xbf, 0xbd, 0x11, 0xb5, 0x57, 0xbd,
  0x0a, 0x86, 0xe7, 0xbd, 0x44, 0x1e, 0x80, 0xbe, 0x85, 0xaa, 0xea, 0x3d,
  0x9c, 0x27, 0xc8, 0xbc, 0xb7, 0x0d, 0xf3, 0xbd, 0x0a, 0xf5, 0x29, 0x3e,
  0xcc, 0x50, 0xf5, 0xbd, 0x26, 0x8b, 0x3e, 0x3e, 0x00, 0xe6, 0xef, 0xbd,
  0x50, 0x5b, 0x45, 0x3d, 0x23, 0x1d, 0xf2, 0xbb, 0x5f, 0x3c, 0xad, 0x3d,
  0x50, 0x2e, 0x45, 0xbc, 0xf5, 0x16, 0x02, 0xbe, 0xb8, 0xf4, 0x68, 0x3d,
  0xa3, 0xcb, 0x0d, 0x3e, 0xfa, 0x6e, 0x67, 0xbd, 0xf9, 0x05, 0x25, 0xbe,
  0xc2, 0xad, 0x37, 0x3e, 0xd1, 0xe3, 0xcd, 0xbd, 0xb7, 0x8c, 0x23, 0x3d,
  0xfc, 0xcc, 0x40, 0xbd, 0xa6, 0x54, 0x5a, 0x3d, 0xb7, 0xab, 0x80, 0xbe,
  0xe7, 0x51, 0x80, 0xbe, 0x66, 0xdc, 0x5c, 0x3b, 0x14, 0xf5, 0x0f, 0xbd,
  0x99, 0x00, 0x8f, 0x3d, 0x41, 0x22, 0x25, 0xbe, 0xa3, 0x20, 0x5b, 0x3d,
  0x00, 0xe6, 0x54, 0x3d, 0x51, 0x97, 0x2e, 0x3e, 0xd0, 0x87, 0x10, 0xbe,
  0x09, 0x4d, 0x30, 0xbe, 0x86, 0x64, 0xcc, 0xbd, 0xd0, 0xf0, 0x1f, 0xbd,
  0x97, 0x2c, 0x69, 0x3e, 0x30, 0xbf, 0xb8, 0x3d, 0xa7, 0xfb, 0x5c, 0x3e,
  0x2f, 0x08, 0x4d, 0xbe, 0x79, 0x35, 0x8b, 0xbd, 0xea, 0xd1, 0xec, 0x3c,
  0x46, 0x72, 0x00, 0xbe, 0xfe, 0xc5, 0x62, 0x3e, 0x29, 0xd1, 0x45, 0xbe,
  0x7e, 0x78, 0xeb, 0x3d, 0xd6, 0xdc, 0x4d, 0x3e, 0xac, 0x49, 0x37, 0x3e,
  0xca, 0x9b, 0x44, 0x3e, 0xd2, 0x8e, 0x2d, 0x3d, 0x90, 0xdc, 0x01, 0x3e,
  0x36, 0x01, 0x05, 0xbe, 0x6a, 0x40, 0x9c, 0xbc, 0x9a, 0x46, 0x26, 0xbe,
  0x12, 0xef, 0xa1, 0x3d, 0x4e, 0x96, 0x15, 0x3e, 0x2b, 0x49, 0x1a, 0x3e,
