#include "model.h"

unsigned char second_model_NO_activations_tflite[] = {
  0x1c, 0x00, 0x00, 0x00, 0x54, 0x46, 0x4c, 0x33, 0x14, 0x00, 0x20, 0x00,
  0x1c, 0x00, 0x18, 0x00, 0x14, 0x00, 0x10, 0x00, 0x0c, 0x00, 0x00, 0x00,
  0x08, 0x00, 0x04, 0x00, 0x14, 0x00, 0x00, 0x00, 0x1c, 0x00, 0x00, 0x00,
  0x98, 0x00, 0x00, 0x00, 0xf0, 0x00, 0x00, 0x00, 0x8c, 0x1d, 0x00, 0x00,
  0x9c, 0x1d, 0x00, 0x00, 0xb4, 0x2c, 0x00, 0x00, 0x03, 0x00, 0x00, 0x00,
  0x01, 0x00, 0x00, 0x00, 0x10, 0x00, 0x00, 0x00, 0x00, 0x00, 0x0a, 0x00,
  0x10, 0x00, 0x0c, 0x00, 0x08, 0x00, 0x04, 0x00, 0x0a, 0x00, 0x00, 0x00,
  0x0c, 0x00, 0x00, 0x00, 0x1c, 0x00, 0x00, 0x00, 0x3c, 0x00, 0x00, 0x00,
  0x0f, 0x00, 0x00, 0x00, 0x73, 0x65, 0x72, 0x76, 0x69, 0x6e, 0x67, 0x5f,
  0x64, 0x65, 0x66, 0x61, 0x75, 0x6c, 0x74, 0x00, 0x01, 0x00, 0x00, 0x00,
  0x04, 0x00, 0x00, 0x00, 0x90, 0xff, 0xff, 0xff, 0x1d, 0x00, 0x00, 0x00,
  0x04, 0x00, 0x00, 0x00, 0x08, 0x00, 0x00, 0x00, 0x64, 0x65, 0x6e, 0x73,
  0x65, 0x5f, 0x32, 0x35, 0x00, 0x00, 0x00, 0x00, 0x01, 0x00, 0x00, 0x00,
  0x04, 0x00, 0x00, 0x00, 0x3a, 0xe2, 0xff, 0xff, 0x04, 0x00, 0x00, 0x00,
  0x0e, 0x00, 0x00, 0x00, 0x64, 0x65, 0x6e, 0x73, 0x65, 0x5f, 0x31, 0x35,
  0x5f, 0x69, 0x6e, 0x70, 0x75, 0x74, 0x00, 0x00, 0x02, 0x00, 0x00, 0x00,
  0x34, 0x00, 0x00, 0x00, 0x04, 0x00, 0x00, 0x00, 0xdc, 0xff, 0xff, 0xff,
  0x20, 0x00, 0x00, 0x00, 0x04, 0x00, 0x00, 0x00, 0x13, 0x00, 0x00, 0x00,
  0x43, 0x4f, 0x4e, 0x56, 0x45, 0x52, 0x53, 0x49, 0x4f, 0x4e, 0x5f, 0x4d,
  0x45, 0x54, 0x41, 0x44, 0x41, 0x54, 0x41, 0x00, 0x08, 0x00, 0x0c, 0x00,
  0x08, 0x00, 0x04, 0x00, 0x08, 0x00, 0x00, 0x00, 0x1f, 0x00, 0x00, 0x00,
  0x04, 0x00, 0x00, 0x00, 0x13, 0x00, 0x00, 0x00, 0x6d, 0x69, 0x6e, 0x5f,
  0x72, 0x75, 0x6e, 0x74, 0x69, 0x6d, 0x65, 0x5f, 0x76, 0x65, 0x72, 0x73,
  0x69, 0x6f, 0x6e, 0x00, 0x21, 0x00, 0x00, 0x00, 0x98, 0x1c, 0x00, 0x00,
  0x90, 0x1c, 0x00, 0x00, 0x58, 0x1c, 0x00, 0x00, 0x20, 0x1c, 0x00, 0x00,
  0xe8, 0x1b, 0x00, 0x00, 0xb0, 0x1b, 0x00, 0x00, 0x78, 0x1b, 0x00, 0x00,
  0x40, 0x1b, 0x00, 0x00, 0x30, 0x11, 0x00, 0x00, 0x90, 0x0f, 0x00, 0x00,
  0xf0, 0x0d, 0x00, 0x00, 0x50, 0x0c, 0x00, 0x00, 0xb0, 0x0a, 0x00, 0x00,
  0x10, 0x09, 0x00, 0x00, 0x70, 0x07, 0x00, 0x00, 0xd0, 0x05, 0x00, 0x00,
  0x30, 0x04, 0x00, 0x00, 0x90, 0x02, 0x00, 0x00, 0xf0, 0x00, 0x00, 0x00,
  0xe8, 0x00, 0x00, 0x00, 0xe0, 0x00, 0x00, 0x00, 0xd8, 0x00, 0x00, 0x00,
  0xd0, 0x00, 0x00, 0x00, 0xc8, 0x00, 0x00, 0x00, 0xc0, 0x00, 0x00, 0x00,
  0xb8, 0x00, 0x00, 0x00, 0xb0, 0x00, 0x00, 0x00, 0xa8, 0x00, 0x00, 0x00,
  0xa0, 0x00, 0x00, 0x00, 0x98, 0x00, 0x00, 0x00, 0x90, 0x00, 0x00, 0x00,
  0x70, 0x00, 0x00, 0x00, 0x04, 0x00, 0x00, 0x00, 0x3a, 0xe3, 0xff, 0xff,
  0x04, 0x00, 0x00, 0x00, 0x5c, 0x00, 0x00, 0x00, 0x0c, 0x00, 0x00, 0x00,
  0x08, 0x00, 0x0e, 0x00, 0x08, 0x00, 0x04, 0x00, 0x08, 0x00, 0x00, 0x00,
  0x14, 0x00, 0x00, 0x00, 0x2c, 0x00, 0x00, 0x00, 0x00, 0x00, 0x0a, 0x00,
  0x0c, 0x00, 0x08, 0x00, 0x00, 0x00, 0x07, 0x00, 0x0a, 0x00, 0x00, 0x00,
  0x00, 0x00, 0x00, 0x01, 0x04, 0x00, 0x00, 0x00, 0x00, 0x00, 0x00, 0x00,
  0x00, 0x00, 0x0a, 0x00, 0x10, 0x00, 0x0c, 0x00, 0x08, 0x00, 0x04, 0x00,
  0x0a, 0x00, 0x00, 0x00, 0x01, 0x00, 0x00, 0x00, 0x02, 0x00, 0x00, 0x00,
  0x04, 0x00, 0x00, 0x00, 0x06, 0x00, 0x00, 0x00, 0x32, 0x2e, 0x31, 0x31,
  0x2e, 0x30, 0x00, 0x00, 0xa2, 0xe3, 0xff, 0xff, 0x04, 0x00, 0x00, 0x00,
  0x10, 0x00, 0x00, 0x00, 0x31, 0x2e, 0x35, 0x2e, 0x30, 0x00, 0x00, 0x00,
  0x00, 0x00, 0x00, 0x00, 0x00, 0x00, 0x00, 0x00, 0x78, 0xd5, 0xff, 0xff,
  0x7c, 0xd5, 0xff, 0xff, 0x80, 0xd5, 0xff, 0xff, 0x84, 0xd5, 0xff, 0xff,
  0x88, 0xd5, 0xff, 0xff, 0x8c, 0xd5, 0xff, 0xff, 0x90, 0xd5, 0xff, 0xff,
  0x94, 0xd5, 0xff, 0xff, 0x98, 0xd5, 0xff, 0xff, 0x9c, 0xd5, 0xff, 0xff,
  0xa0, 0xd5, 0xff, 0xff, 0xa4, 0xd5, 0xff, 0xff, 0xee, 0xe3, 0xff, 0xff,
  0x04, 0x00, 0x00, 0x00, 0x90, 0x01, 0x00, 0x00, 0x87, 0xee, 0x0e, 0x3f,
  0xb0, 0x97, 0x20, 0x3f, 0x31, 0xef, 0xfb, 0xbe, 0xfa, 0x51, 0xb3, 0x3e,
  0xe5, 0x6f, 0xb2, 0x3f, 0x6a, 0xc3, 0x8c, 0xbf, 0x4e, 0xa6, 0x5b, 0xbf,
  0x66, 0xf5, 0x7d, 0x3e, 0x7c, 0x33, 0x8f, 0xbf, 0x72, 0x8f, 0x11, 0xbf,
  0x32, 0xa0, 0x3d, 0xbf, 0x25, 0x82, 0x96, 0xbf, 0xe2, 0x86, 0xe5, 0xbe,
  0x38, 0x2d, 0xb9, 0x3e, 0x12, 0xd9, 0x7b, 0x3f, 0xe7, 0xab, 0x7d, 0xbe,
  0xe3, 0x69, 0xb3, 0xbe, 0x4f, 0xd5, 0xcd, 0x3e, 0xb5, 0xab, 0x11, 0xc0,
  0x7a, 0x94, 0x2b, 0x3f, 0xcd, 0xef, 0x65, 0x3d, 0xb8, 0x80, 0x0e, 0x3e,
  0xfa, 0x21, 0xe6, 0xbe, 0x7f, 0x5f, 0x40, 0x3e, 0x19, 0x30, 0x82, 0xbe,
  0x12, 0x1e, 0x98, 0xbe, 0x9f, 0xe5, 0x4b, 0xbc, 0x82, 0x7d, 0xcd, 0x3e,
  0xb0, 0x18, 0x87, 0x3f, 0x03, 0x13, 0x02, 0xbf, 0xae, 0x92, 0xb0, 0xbc,
  0xc7, 0xdb, 0x8d, 0xbe, 0x56, 0x70, 0xb0, 0x3d, 0x33, 0x9f, 0x45, 0xbe,
  0x5d, 0xb3, 0x3b, 0xbf, 0x1f, 0x7c, 0xd6, 0xbe, 0x31, 0xad, 0xb3, 0xbe,
  0xb9, 0xba, 0x23, 0xbf, 0x25, 0x36, 0xcf, 0x3f, 0x4c, 0x39, 0x77, 0xbf,
  0xc4, 0x86, 0xe7, 0x3c, 0xba, 0x07, 0xbb, 0x3f, 0x4d, 0xfe, 0x00, 0x3e,
  0x87, 0x19, 0xa8, 0x3e, 0x98, 0x51, 0x15, 0x3f, 0x1f, 0xe7, 0xd4, 0x3c,
  0x3c, 0xe5, 0x82, 0x3f, 0x05, 0x45, 0xd2, 0xbe, 0x1b, 0xe0, 0xce, 0x3d,
  0x4c, 0xbf, 0x80, 0xbd, 0x45, 0x04, 0x0c, 0x3f, 0x79, 0x75, 0x9a, 0xbe,
  0x23, 0x91, 0x97, 0xbe, 0x09, 0xfd, 0x08, 0xbf, 0x64, 0x5f, 0x0f, 0xc0,
  0xf2, 0xaa, 0x52, 0xbe, 0xad, 0xfb, 0x9e, 0xbd, 0xcd, 0x5d, 0x6e, 0xbf,
  0x7f, 0xbe, 0xbc, 0x3f, 0x7e, 0x4c, 0x75, 0xbf, 0x5a, 0x50, 0xe3, 0xbe,
  0xe5, 0xa5, 0x11, 0x3f, 0x9f, 0x56, 0xfe, 0xbe, 0x65, 0xc6, 0xa9, 0x3d,
  0xb9, 0xce, 0x8c, 0x3f, 0x3d, 0xc1, 0x92, 0xbf, 0x9e, 0xab, 0x10, 0x3f,
  0xd6, 0xb0, 0xd7, 0x3e, 0xaf, 0x99, 0x4f, 0xbf, 0xb1, 0xfe, 0xd9, 0xbe,
  0xe7, 0xe4, 0x05, 0x3f, 0x04, 0x9b, 0x21, 0xbf, 0x77, 0x7d, 0xfc, 0xbe,
  0x23, 0x2a, 0x96, 0xbf, 0xb8, 0xf4, 0x03, 0x3e, 0xbf, 0x99, 0x25, 0x3f,
  0x74, 0xed, 0xb1, 0x3d, 0xf7, 0x57, 0xa7, 0x3e, 0x45, 0x4b, 0xfa, 0xbd,
  0x98, 0x4a, 0xd5, 0x3e, 0xfb, 0x7b, 0x86, 0xbf, 0x4c, 0xce, 0x5b, 0xbf,
  0xa1, 0xd0, 0x5b, 0xbe, 0xd7, 0x57, 0x0e, 0x3f, 0xcc, 0xa9, 0x43, 0x3f,
  0xee, 0x7e, 0x67, 0x3d, 0xd4, 0xae, 0x1d, 0x3e, 0xc2, 0x6c, 0xf9, 0x3e,
  0xa8, 0x32, 0x19, 0xbf, 0x5b, 0x2a, 0x54, 0x3e, 0x5e, 0xf2, 0xcf, 0x3e,
  0xff, 0xa2, 0xad, 0xbe, 0x4b, 0xa7, 0xc8, 0xbe, 0x89, 0x66, 0x45, 0x3d,
  0x48, 0x58, 0x10, 0xbe, 0x9d, 0xa7, 0x75, 0x3e, 0xa2, 0x9e, 0x79, 0x3a,
  0x01, 0x2d, 0x05, 0xbf, 0x80, 0x75, 0x57, 0x3f, 0x22, 0xea, 0x8f, 0xbe,
  0x8a, 0xe5, 0xff, 0xff, 0x04, 0x00, 0x00, 0x00, 0x90, 0x01, 0x00, 0x00,
  0xe8, 0xe3, 0x15, 0x3e, 0x5e, 0x69, 0x7a, 0xbe, 0x57, 0xde, 0xcb, 0x3e,
  0xee, 0x20, 0x35, 0xbf, 0x27, 0x1c, 0x20, 0x3f, 0x39, 0x13, 0x19, 0xbf,
  0x99, 0x1c, 0x4c, 0x3f, 0x40, 0xbb, 0xf2, 0x3e, 0x68, 0x0d, 0x7d, 0x3f,
  0x29, 0xb2, 0x8c, 0xbd, 0x80, 0x12, 0xef, 0xbc, 0x2a, 0x66, 0xee, 0x3e,
  0xa4, 0xe4, 0x6e, 0x3e, 0x38, 0xba, 0x78, 0x3f, 0xd2, 0x4e, 0x8f, 0xbf,
  0x56, 0x83, 0x0d, 0xbf, 0xb8, 0x3c, 0x17, 0x3e, 0x8f, 0x65, 0x78, 0xbe,
  0x91, 0xf4, 0xbd, 0xbe, 0x3b, 0xc8, 0x25, 0xbf, 0xdb, 0x7e, 0x00, 0xbf,
  0x70, 0x96, 0xdf, 0x3d, 0x51, 0xf2, 0x85, 0xbd, 0xc0, 0x26, 0x72, 0xbe,
  0x0c, 0xc3, 0x07, 0xbf, 0x30, 0xa2, 0xf3, 0x3e, 0x7c, 0x58, 0x28, 0x3e,
  0x18, 0xe4, 0xc6, 0xbe, 0x12, 0x92, 0xe1, 0xbe, 0x8b, 0x40, 0x6c, 0x3e,
  0xa4, 0xc9, 0xab, 0x3e, 0x99, 0xbc, 0xa1, 0xbd, 0x9d, 0xd9, 0xc7, 0x3e,
  0x72, 0xc6, 0x80, 0xbe, 0x92, 0x5c, 0x7d, 0x3d, 0xbc, 0x8b, 0x71, 0x3f,
  0x79, 0x90, 0x8c, 0xbe, 0xa5, 0x08, 0x00, 0x3f, 0x35, 0xa4, 0x8a, 0x3e,
  0x7a, 0xd9, 0x7c, 0xbe, 0x70, 0x53, 0xe9, 0x3e, 0x8b, 0xdf, 0x12, 0x3d,
  0x33, 0xf9, 0x02, 0xbf, 0xde, 0x28, 0x98, 0x3f, 0x21, 0x2b, 0x0b, 0x3d,
  0x95, 0x88, 0xc9, 0x3e, 0x7f, 0xed, 0x73, 0xbd, 0x29, 0x97, 0xb2, 0xbe,
  0xdd, 0x07, 0xf6, 0xbe, 0x9b, 0xfd, 0x92, 0xbd, 0x5e, 0x5a, 0x0a, 0x3f,
  0x62, 0x43, 0xfb, 0x3e, 0x5c, 0xe3, 0x51, 0x3e, 0x83, 0x2e, 0x6f, 0xbe,
  0xcf, 0x7b, 0x27, 0x3f, 0xe2, 0x15, 0x23, 0xbe, 0x30, 0xc1, 0x11, 0x3f,
  0x0f, 0x7f, 0xbc, 0x3e, 0x87, 0xaa, 0x76, 0x3f, 0xff, 0x0b, 0xbe, 0xbe,
  0x7c, 0x3f, 0x0a, 0x3f, 0x07, 0x8f, 0xed, 0x3e, 0xee, 0x00, 0x9b, 0x3e,
  0x03, 0xd9, 0x4b, 0x3f, 0x24, 0xd9, 0xb4, 0xbf, 0x5d, 0x9b, 0x3d, 0xbf,
  0x27, 0x16, 0xbc, 0x3e, 0xe7, 0xe5, 0x06, 0x3f, 0xef, 0x78, 0xb4, 0x3e,
  0xb0, 0x77, 0xb8, 0x3e, 0xe4, 0x15, 0x04, 0x3f, 0x9e, 0x14, 0xfc, 0xbe,
  0xa6, 0x6d, 0x0a, 0x3d, 0xab, 0x2b, 0xf1, 0x3e, 0x84, 0x6b, 0xba, 0x3d,
  0x06, 0x47, 0xe9, 0x3d, 0xa2, 0x59, 0x98, 0xbf, 0x47, 0x67, 0x82, 0xbd,
  0x0b, 0xb7, 0xd3, 0xbe, 0xca, 0xfa, 0xa9, 0x3e, 0x64, 0x00, 0xf1, 0x3e,
  0xb6, 0x91, 0x09, 0xbe, 0x3a, 0xde, 0xaf, 0xbe, 0x9d, 0x4b, 0xc5, 0xbf,
  0x33, 0x88, 0xf2, 0x3f, 0x5c, 0xe3, 0x04, 0x3f, 0x5e, 0x29, 0x4d, 0x3e,
  0xcb, 0xa6, 0xe1, 0xbe, 0x3d, 0xea, 0x32, 0xbe, 0x42, 0x8e, 0x07, 0x3c,
  0xb0, 0x05, 0x95, 0x3d, 0xea, 0x7c, 0x97, 0xbe, 0xc2, 0xd8, 0x78, 0xbe,
  0x32, 0x57, 0x00, 0x3f, 0x74, 0xa6, 0x03, 0x3c, 0x84, 0x2f, 0x95, 0xbe,
  0x26, 0x5f, 0x15, 0xbe, 0xef, 0x91, 0x1f, 0xbf, 0x0d, 0xd1, 0x94, 0x3f,
  0x3c, 0x3a, 0x2d, 0xbe, 0x26, 0xe7, 0xff, 0xff, 0x04, 0x00, 0x00, 0x00,
  0x90, 0x01, 0x00, 0x00, 0x44, 0xef, 0xa2, 0xbd, 0x88, 0xac, 0xae, 0xbe,
  0xe8, 0x25, 0xad, 0xbe, 0x80, 0x19, 0xb8, 0xbb, 0x16, 0xd6, 0xb1, 0xbe,
  0xd2, 0xde, 0x5e, 0xbe, 0x6a, 0xc8, 0x54, 0xbe, 0xe8, 0x0a, 0xa7, 0x3d,
  0xa8, 0xd1, 0x9e, 0x3d, 0xca, 0x9b, 0xdf, 0xbe, 0x47, 0x9d, 0xdf, 0xbe,
  0xa8, 0x34, 0x31, 0xbd, 0x7a, 0xb9, 0xfd, 0x3e, 0x23, 0xba, 0xd2, 0x3e,
  0x86, 0xd8, 0x01, 0xbf, 0xaf, 0xaf, 0xf4, 0xbe, 0xc0, 0x9a, 0x4f, 0x3d,
  0x90, 0xab, 0x81, 0xbe, 0x7d, 0x2e, 0xc7, 0xbe, 0x3e, 0x6e, 0x01, 0x3f,
  0xf1, 0x17, 0xa5, 0xbe, 0xf6, 0x58, 0x32, 0x3d, 0x06, 0x73, 0x0a, 0xbf,
  0xe8, 0x80, 0xb2, 0xbd, 0x79, 0x14, 0x10, 0xbf, 0x3f, 0x8c, 0xb2, 0xbe,
  0xc4, 0x95, 0x45, 0xbe, 0x2d, 0xfa, 0xc6, 0xbe, 0x38, 0x45, 0x80, 0x3d,
  0x57, 0x98, 0x20, 0xbe, 0x2a, 0xd6, 0x5c, 0xbf, 0x85, 0x6e, 0xc4, 0x3e,
  0xae, 0xbf, 0x9a, 0xbe, 0x06, 0x06, 0x1d, 0x3e, 0xf1, 0xad, 0x87, 0x3f,
  0x72, 0x8e, 0x03, 0x3e, 0xa3, 0xf1, 0x9e, 0x3d, 0x28, 0x4c, 0x85, 0x3e,
  0x3c, 0xfd, 0x95, 0x3f, 0xf3, 0xcb, 0x15, 0x3f, 0x69, 0x12, 0x16, 0x3f,
  0xab, 0xd5, 0xda, 0x3e, 0xde, 0x31, 0x37, 0xbf, 0x03, 0xf6, 0x0f, 0x3e,
  0xca, 0xf8, 0xcd, 0x3e, 0x7f, 0xd9, 0x6c, 0x3d, 0xb3, 0x69, 0xde, 0x3c,
  0xf7, 0x46, 0x8d, 0x3f, 0xc9, 0x3f, 0x08, 0x3f, 0x30, 0x12, 0x74, 0x3f,
  0x19, 0xcf, 0x43, 0xbe, 0xe4, 0xa3, 0x87, 0x3f, 0x2a, 0x00, 0x1e, 0xbf,
  0xf7, 0x72, 0x98, 0xbd, 0x59, 0xf9, 0x32, 0x3e, 0x9d, 0x73, 0x8b, 0xbe,
  0x5c, 0x29, 0xa2, 0xbe, 0x27, 0xb2, 0x09, 0x3f, 0x63, 0x02, 0x3d, 0x3f,
  0x58, 0x1a, 0xbf, 0xbc, 0xad, 0x46, 0x8b, 0x3e, 0xed, 0x0c, 0x06, 0xbe,
  0x6c, 0x97, 0x75, 0x3e, 0xd4, 0x89, 0xfb, 0x3e, 0xb3, 0x69, 0x8e, 0xbe,
  0x49, 0x43, 0x80, 0xbe, 0x7f, 0xfc, 0x06, 0xbf, 0x4b, 0x45, 0x11, 0x3f,
  0xf4, 0x56, 0x3e, 0xbf, 0x05, 0x4f, 0x5b, 0x3f, 0xc3, 0xae, 0x50, 0x3e,
  0x7e, 0xe4, 0x2f, 0xbf, 0xda, 0x92, 0xff, 0x3e, 0x02, 0x90, 0x68, 0x3e,
  0xfe, 0xd7, 0x26, 0x3e, 0x7a, 0x60, 0x26, 0x3f, 0x7e, 0x59, 0x44, 0xbe,
  0x86, 0x1a, 0x47, 0x3d, 0xba, 0xe3, 0x86, 0x3e, 0x77, 0x5f, 0x14, 0x3e,
  0x22, 0x40, 0x90, 0xbe, 0xc6, 0xdf, 0x5a, 0x3e, 0x4c, 0xf2, 0xb6, 0xbe,
  0x06, 0xb8, 0xd0, 0xbe, 0xdf, 0x33, 0x56, 0x3f, 0xc2, 0xc5, 0x8a, 0xbf,
  0xdf, 0xf1, 0xed, 0x3d, 0x3e, 0xf4, 0xb1, 0x3d, 0x67, 0x4c, 0x01, 0xbb,
  0xc4, 0x7b, 0x3b, 0x3f, 0x6f, 0x1c, 0xb6, 0xbd, 0x40, 0x2a, 0x50, 0xbe,
  0xdf, 0x80, 0x02, 0xbe, 0x53, 0xb5, 0xbb, 0x3d, 0xd7, 0xb1, 0xfe, 0x3e,
  0x00, 0x8a, 0x0e, 0x3f, 0x48, 0x43, 0x15, 0xbe, 0x25, 0x6a, 0xca, 0xbe,
  0xeb, 0xe9, 0xf9, 0x3e, 0x8a, 0xb4, 0x7f, 0x3c, 0xc2, 0xe8, 0xff, 0xff,
  0x04, 0x00, 0x00, 0x00, 0x90, 0x01, 0x00, 0x00, 0x6e, 0xbe, 0xf7, 0x3e,
  0xb9, 0xd7, 0x46, 0xbf, 0xf9, 0xa4, 0x16, 0x3e, 0x8c, 0x46, 0x8a, 0x3f,
  0x66, 0x28, 0x20, 0x3f, 0xf3, 0xaa, 0x02, 0x3f, 0x3c, 0xc3, 0x7b, 0xbd,
  0xf7, 0x5e, 0xa5, 0xbd, 0x3e, 0x99, 0x05, 0x3f, 0xb0, 0x8e, 0xe1, 0xbe,
  0x41, 0x53, 0x64, 0x3e, 0xcf, 0xd0, 0xd6, 0xbe, 0x28, 0x27, 0x17, 0x3f,
  0xb0, 0x1c, 0x64, 0x3e, 0x46, 0x51, 0xab, 0x3e, 0xf6, 0x4b, 0x31, 0xbe,
  0x05, 0xa4, 0x98, 0xbe, 0x1d, 0x1a, 0x06, 0x3f, 0xd6, 0x93, 0xab, 0x3e,
  0x5f, 0x2c, 0xea, 0x3d, 0xdc, 0x39, 0x89, 0x3e, 0x56, 0xb3, 0x2a, 0x3f,
  0x93, 0xb2, 0x04, 0xbf, 0xf2, 0x94, 0xb0, 0xbe, 0x31, 0x49, 0x71, 0xbf,
  0xd1, 0x82, 0xa5, 0xbe, 0x1d, 0x3a, 0x1e, 0x3e, 0xc0, 0xde, 0xa3, 0xbd,
  0x11, 0x62, 0xf5, 0x3d, 0xae, 0xf4, 0x64, 0x3e, 0x16, 0x28, 0x03, 0xbf,
  0x4f, 0x1d, 0x69, 0xbe, 0x5f, 0xae, 0xc5, 0x3e, 0x7f, 0x6c, 0x05, 0x3f,
  0x9a, 0x4a, 0xf9, 0xbe, 0xba, 0x26, 0xbe, 0x3e, 0x61, 0x8e, 0x0b, 0x3f,
  0x9e, 0x6a, 0xfa, 0xbe, 0xec, 0x2b, 0xfb, 0x3c, 0xd5, 0xbc, 0xb3, 0xbd,
  0x3a, 0xc3, 0x39, 0x3e, 0x04, 0x31, 0x05, 0x3f, 0x7a, 0xcf, 0xfd, 0x3e,
  0x6e, 0x79, 0xe3, 0xbe, 0x08, 0x40, 0xcb, 0x3e, 0x66, 0x1e, 0xd3, 0x3d,
  0x7f, 0x7e, 0xf8, 0xbe, 0x9c, 0x97, 0x02, 0xbf, 0x15, 0x13, 0xee, 0x3e,
  0xcd, 0x66, 0xc3, 0x3c, 0x79, 0x98, 0xc4, 0xbe, 0x7f, 0x1b, 0xcc, 0x3e,
  0xd3, 0xb5, 0x98, 0xbd, 0xbd, 0xc7, 0xd0, 0x3e, 0xde, 0xe7, 0x99, 0x3e,
  0xf5, 0x7e, 0x33, 0x3f, 0x8d, 0xa0, 0x04, 0x3f, 0xc6, 0x9d, 0x94, 0x3e,
  0xe7, 0xf2, 0xdf, 0xbe, 0x49, 0x30, 0xa3, 0xbd, 0x55, 0xda, 0xc5, 0x3e,
  0x10, 0xca, 0x9d, 0xbe, 0x50, 0x16, 0x0d, 0xbf, 0x68, 0x39, 0xc9, 0xbd,
  0xaa, 0x99, 0x66, 0x3e, 0x60, 0x2d, 0x91, 0xbd, 0xe4, 0x97, 0x6b, 0x3e,
  0xb1, 0xfb, 0xae, 0xbe, 0x40, 0x42, 0x85, 0x3e, 0x96, 0xa5, 0xdc, 0xbe,
  0x79, 0xd0, 0x07, 0xbe, 0x5e, 0xf7, 0x1f, 0xbf, 0x0c, 0x72, 0xf0, 0xbc,
  0xdf, 0xd8, 0xbd, 0x3e, 0xd5, 0x46, 0x3d, 0x3f, 0x2c, 0xba, 0x4e, 0xbe,
  0x6e, 0x1e, 0xeb, 0x3e, 0x57, 0x60, 0x81, 0xbe, 0x7a, 0x4f, 0x5c, 0xbe,
  0xee, 0x34, 0x02, 0x3e, 0xda, 0x6b, 0x26, 0x3e, 0x0c, 0x16, 0x56, 0x3e,
  0xca, 0xc9, 0x67, 0x3f, 0xb1, 0x82, 0x05, 0xbf, 0xac, 0x5b, 0x5a, 0x3f,
  0x34, 0x80, 0x96, 0x3e, 0xec, 0x3e, 0x23, 0xbf, 0x62, 0x48, 0xe0, 0x3e,
  0x10, 0x76, 0xb2, 0xbe, 0x91, 0xa7, 0x98, 0xbd, 0x6e, 0x2b, 0x66, 0xbc,
  0x06, 0xbe, 0xb3, 0xbd, 0x5c, 0x5a, 0x53, 0x3e, 0x58, 0x30, 0xe3, 0xbd,
  0xe1, 0xae, 0x21, 0x3f, 0x09, 0x81, 0x08, 0x3d, 0x52, 0xcc, 0x8b, 0x3d,
  0x1f, 0x79, 0x05, 0xbf, 0x1c, 0xe4, 0xc9, 0xbe, 0x25, 0x03, 0xbb, 0x3e,
  0x5e, 0xea, 0xff, 0xff, 0x04, 0x00, 0x00, 0x00, 0x90, 0x01, 0x00, 0x00,
  0xfe, 0x4e, 0xfd, 0xbd, 0x49, 0xe7, 0x0b, 0x3f, 0x40, 0xf4, 0x0b, 0xbc,
  0xce, 0xe2, 0x75, 0xbc, 0x67, 0xb2, 0xc8, 0x3e, 0x12, 0xce, 0x0a, 0x3f,
  0xde, 0xf7, 0xd1, 0xbe, 0x7b, 0x69, 0x82, 0x3e, 0x4e, 0xe0, 0xd4, 0x3d,
  0x07, 0x3a, 0x8d, 0xbb, 0x7b, 0xea, 0x57, 0x3f, 0x08, 0x6f, 0x2c, 0xbe,
  0xaa, 0x64, 0xac, 0xbe, 0x69, 0x4d, 0x17, 0xbe, 0x6d, 0x76, 0x54, 0xbe,
  0x28, 0x05, 0x58, 0x3e, 0xe8, 0x5b, 0x06, 0x3f, 0x4a, 0xeb, 0xe8, 0x3e,
  0x94, 0xbb, 0xb9, 0x3b, 0xc9, 0xd9, 0x1b, 0xbf, 0xca, 0x56, 0x27, 0x3f,
  0x84, 0x58, 0x53, 0x3d, 0x54, 0x66, 0xf4, 0x3e, 0xe7, 0x2a, 0x3e, 0x3f,
  0x9e, 0x49, 0xf2, 0xbe, 0xa5, 0x5f, 0x85, 0xbd, 0x34, 0x04, 0x1b, 0xbf,
  0x7c, 0xab, 0xf3, 0x3e, 0x96, 0x4a, 0xe4, 0xbe, 0xf2, 0x64, 0xf4, 0xbe,
  0x84, 0xf1, 0x60, 0x3f, 0x7e, 0x2d, 0x54, 0xbe, 0xda, 0x1c, 0xdb, 0x3e,
  0xd7, 0x23, 0x7f, 0xbe, 0xae, 0x0e, 0x01, 0xbe, 0x19, 0xbb, 0x2c, 0x3f,
  0x1c, 0xcc, 0x2a, 0xbf, 0x9b, 0x5f, 0xda, 0xbe, 0xb1, 0xc8, 0x4d, 0xbe,
  0x25, 0x11, 0x85, 0x3f, 0x0d, 0xd4, 0x74, 0x3f, 0x6e, 0x41, 0x8f, 0xba,
  0xe0, 0x46, 0x05, 0x3f, 0x1d, 0x92, 0xeb, 0x3e, 0xa5, 0x8e, 0x41, 0x3e,
  0x04, 0x78, 0x19, 0xbe, 0xe6, 0x91, 0x1f, 0xbf, 0x30, 0x20, 0x8f, 0xbe,
  0xb7, 0x29, 0xae, 0xbe, 0x7b, 0x1e, 0xe7, 0x3c, 0xbe, 0x6a, 0xb2, 0xbe,
  0x67, 0x73, 0x09, 0xbf, 0xb4, 0xd3, 0x12, 0xbe, 0x96, 0xa7, 0x15, 0x3e,
  0x10, 0x49, 0xd8, 0x3d, 0x08, 0xa2, 0xdc, 0xbd, 0xae, 0xcf, 0x39, 0x3e,
  0x4b, 0x9d, 0x83, 0x3e, 0x21, 0x61, 0x88, 0x3e, 0x3d, 0xd2, 0x34, 0xbe,
  0xca, 0xda, 0xd1, 0x3e, 0x11, 0x94, 0x0e, 0x3f, 0x2c, 0xee, 0x6d, 0x3e,
  0xe9, 0x78, 0x24, 0xbf, 0xb0, 0xea, 0x80, 0x3e, 0xac, 0xce, 0xb3, 0xbe,
  0xb6, 0x7e, 0xd4, 0x3e, 0x48, 0x9f, 0xcf, 0xbe, 0x34, 0x8f, 0xec, 0x3e,
  0x92, 0x4c, 0xb2, 0xbe, 0x03, 0x9a, 0x80, 0x3e, 0x8f, 0x65, 0x5f, 0x3e,
  0xf4, 0xa0, 0xe6, 0xbe, 0xba, 0x34, 0x3c, 0x3f, 0x47, 0xf5, 0xbf, 0x3e,
  0x34, 0xb1, 0x0a, 0xbe, 0xfd, 0xc3, 0x0e, 0xbf, 0xcc, 0x82, 0xb4, 0xbd,
  0x93, 0x6a, 0x56, 0x3e, 0x7a, 0x00, 0x98, 0x3c, 0x34, 0x91, 0xf6, 0xbe,
  0x77, 0x73, 0x07, 0x3f, 0x50, 0xb8, 0x01, 0x3d, 0xf8, 0x0b, 0x4e, 0xbd,
  0xd0, 0x41, 0x95, 0x3e, 0x60, 0x5e, 0x6d, 0x3d, 0xf9, 0x3f, 0x90, 0x3d,
  0xb6, 0xad, 0x80, 0xbe, 0x07, 0x4c, 0xba, 0x3e, 0xf0, 0x7f, 0x99, 0x3d,
  0xfc, 0x38, 0xd5, 0xbe, 0xb8, 0xee, 0xc5, 0xbe, 0xa4, 0x72, 0x2c, 0x3e,
  0x77, 0x4c, 0x37, 0xbe, 0x27, 0x60, 0x96, 0xbe, 0xb4, 0x28, 0x62, 0xbe,
  0x10, 0x4b, 0x77, 0x3e, 0x05, 0x7c, 0xe9, 0xbd, 0x8f, 0xdd, 0x8d, 0xbe,
  0x4a, 0xd8, 0x01, 0xbe, 0xfa, 0xeb, 0xff, 0xff, 0x04, 0x00, 0x00, 0x00,
  0x90, 0x01, 0x00, 0x00, 0xad, 0x7b, 0x26, 0x3f, 0x50, 0x93, 0x17, 0x3f,
  0x0e, 0xc7, 0xef, 0x3e, 0x57, 0xe9, 0x89, 0x3d, 0xca, 0xa7, 0x9e, 0x3c,
  0x2f, 0xff, 0x22, 0xbf, 0xb5, 0xf0, 0xdb, 0xbe, 0x19, 0x92, 0x24, 0x3e,
  0x56, 0x19, 0xfa, 0x3d, 0xc8, 0x66, 0x6c, 0x3e, 0x97, 0x56, 0xc2, 0xbd,
  0x2b, 0x1f, 0xdd, 0x3e, 0x99, 0x8e, 0xe0, 0x3c, 0x81, 0x83, 0x5b, 0x3c,
  0x6f, 0x57, 0x8e, 0xbd, 0x01, 0x43, 0x61, 0xbe, 0x85, 0x7f, 0x01, 0x3d,
  0x30, 0xc9, 0x49, 0x3e, 0xdd, 0x0f, 0xcb, 0xbe, 0xfc, 0x19, 0x7a, 0x3e,
  0x70, 0x36, 0x4d, 0x3e, 0x90, 0x62, 0x2f, 0xbe, 0xd8, 0x5e, 0x08, 0xbf,
  0x9e, 0x36, 0x61, 0xbe, 0x6b, 0x6b, 0xa4, 0xbe, 0xc8, 0xa0, 0xae, 0xbd,
  0x20, 0x0c, 0xa1, 0xbc, 0x40, 0x50, 0x5b, 0xbc, 0xb3, 0x62, 0xa9, 0xbe,
  0x00, 0x10, 0x0c, 0xbc, 0x31, 0x47, 0x86, 0x3f, 0xa3, 0xaa, 0x17, 0xbf,
  0x80, 0x8d, 0xca, 0xbe, 0xcb, 0xf5, 0xf6, 0xbb, 0x3b, 0xc5, 0xc7, 0x3e,
  0x59, 0x29, 0x0b, 0x3f, 0x7e, 0x3e, 0xad, 0xbe, 0x7f, 0x0c, 0x6f, 0xbe,
  0x87, 0x7c, 0xfd, 0x3e, 0x8e, 0xb5, 0x81, 0xbe, 0x46, 0x81, 0x55, 0xbe,
  0x1b, 0x4f, 0x70, 0x3e, 0xf8, 0x42, 0xa5, 0x3d, 0xdb, 0xff, 0x86, 0x3d,
  0x24, 0x20, 0x01, 0xbf, 0x28, 0x38, 0xb6, 0xbe, 0xd5, 0x5e, 0xb6, 0x3e,
  0x40, 0xe9, 0x91, 0x3c, 0x4b, 0x88, 0xbb, 0xbe, 0xc1, 0xfb, 0xf9, 0x3e,
  0xfc, 0xac, 0x90, 0xbd, 0xa5, 0xcc, 0x9c, 0xbe, 0x50, 0xaa, 0x3d, 0x3f,
  0x53, 0xe8, 0xc1, 0xbe, 0xb5, 0x0c, 0xf1, 0xbe, 0x0d, 0x84, 0x9a, 0xbe,
  0xb2, 0x88, 0x93, 0x3e, 0x8c, 0x75, 0x12, 0xbe, 0x64, 0x06, 0x25, 0xbe,
  0x8b, 0x66, 0x20, 0xbe, 0xf7, 0x7a, 0x86, 0x3e, 0xd0, 0x44, 0x97, 0x3e,
  0xa2, 0x9d, 0x25, 0xbf, 0x5e, 0x92, 0x47, 0xbf, 0x81, 0x67, 0x3d, 0x3f,
  0x48, 0x05, 0x9a, 0xbe, 0x23, 0xa9, 0xd5, 0x3e, 0x59, 0xc1, 0x55, 0x3e,
  0xac, 0xba, 0x8e, 0x3d, 0xa5, 0x64, 0x00, 0x3f, 0xf8, 0xc7, 0xfa, 0x3d,
  0x09, 0xbb, 0xa8, 0xbe, 0xd0, 0x7e, 0xfd, 0x3e, 0x1a, 0x5b, 0x2a, 0xbf,
  0x60, 0xba, 0x14, 0x3f, 0xf3, 0xaf, 0x43, 0x3e, 0x9c, 0xf7, 0xc5, 0x3e,
  0x07, 0x1a, 0xdf, 0xbd, 0x10, 0x82, 0x46, 0xbe, 0x0d, 0x7b, 0x4e, 0x3e,
  0x83, 0x15, 0x92, 0x3e, 0x04, 0xa0, 0x4a, 0x3e, 0x1c, 0xb3, 0xce, 0xbe,
  0xb9, 0xaa, 0x99, 0x3e, 0x89, 0xd4, 0x66, 0x3e, 0x61, 0x63, 0xeb, 0xbd,
  0xe1, 0x0e, 0xc8, 0xbe, 0x24, 0x24, 0xb3, 0xbe, 0xa1, 0x64, 0x66, 0xbe,
  0x7f, 0x9b, 0xfa, 0x3e, 0x10, 0x8b, 0x76, 0x3e, 0x8a, 0xe2, 0x4e, 0xbe,
  0x29, 0x85, 0x38, 0x3f, 0x03, 0xfc, 0x16, 0xbf, 0x5f, 0xa7, 0x81, 0xbf,
  0x1b, 0xfe, 0x38, 0x3f, 0x13, 0xd6, 0xc3, 0xbe, 0x3b, 0x6f, 0x02, 0xbf,
  0x53, 0x36, 0xde, 0x3d, 0x13, 0x8d, 0x6f, 0xbe, 0x96, 0xed, 0xff, 0xff,
  0x04, 0x00, 0x00, 0x00, 0x90, 0x01, 0x00, 0x00, 0x68, 0x47, 0x3b, 0xbe,
  0xc2, 0x8f, 0xdb, 0x3e, 0xf8, 0x0c, 0x3a, 0xbe, 0xba, 0x31, 0xa9, 0x3e,
  0x29, 0x86, 0x9d, 0xbe, 0xe7, 0xd7, 0x7b, 0x3f, 0xde, 0xc6, 0x92, 0x3e,
  0x0a, 0x40, 0x2f, 0xbe, 0x04, 0x77, 0x00, 0xbf, 0xba, 0x6c, 0xaa, 0xbe,
  0x9e, 0x01, 0xde, 0x3e, 0xb6, 0x28, 0xa3, 0x3d, 0x6b, 0xa3, 0x38, 0x3f,
  0xf0, 0xe1, 0xd4, 0x3e, 0xb6, 0xd8, 0x99, 0x3e, 0x86, 0x41, 0x66, 0xbf,
  0x68, 0x73, 0xd7, 0x3d, 0x26, 0x88, 0x7f, 0x3e, 0x4f, 0x4c, 0xcd, 0x3e,
  0x43, 0x87, 0x5e, 0x3e, 0x58, 0xd1, 0x43, 0xbe, 0xbc, 0x2a, 0xb3, 0x3d,
  0xf7, 0x63, 0xbd, 0x3c, 0xac, 0x03, 0x51, 0x3e, 0xa4, 0xbe, 0x30, 0xbe,
  0xd8, 0xab, 0xaa, 0x3e, 0xdd, 0xa3, 0x6e, 0x3f, 0x6b, 0x61, 0x0b, 0xbe,
  0x28, 0x77, 0xd3, 0x3e, 0x5d, 0x23, 0xfe, 0xbe, 0x4f, 0xd4, 0xfd, 0x3e,
  0x63, 0xdc, 0x98, 0xbe, 0x77, 0x4e, 0x39, 0x3f, 0xbc, 0xfe, 0x05, 0xbf,
  0x10, 0x21, 0xb9, 0xbd, 0x4b, 0x6b, 0xc4, 0xbd, 0x7d, 0x9b, 0x19, 0xbf,
  0x22, 0xfe, 0xc2, 0x3e, 0x3e, 0xae, 0xc9, 0x3e, 0xcc, 0x4d, 0x4b, 0xbf,
  0x70, 0x15, 0xe9, 0xbe, 0x90, 0xcd, 0x2c, 0xbf, 0x03, 0x00, 0xf5, 0xbe,
  0x08, 0x18, 0xa9, 0x3d, 0x0c, 0x1f, 0x63, 0x3e, 0x13, 0x98, 0x5f, 0x3e,
  0xf1, 0xd6, 0xd7, 0xbd, 0x34, 0x62, 0xf2, 0x3e, 0xa6, 0x05, 0x5a, 0x3f,
  0xa2, 0xb3, 0xe8, 0x3e, 0x34, 0xbe, 0x9e, 0xbd, 0x2d, 0x74, 0x8c, 0x3e,
  0x97, 0x5a, 0xbc, 0x3d, 0xc0, 0x14, 0x1f, 0xbe, 0xe3, 0xf5, 0x02, 0xbf,
  0x68, 0x7a, 0x51, 0x3f, 0x52, 0xc1, 0x96, 0xbe, 0xdd, 0xb1, 0x09, 0xbf,
  0x9d, 0x24, 0x2d, 0x3e, 0xe7, 0x11, 0x05, 0x3e, 0x2c, 0x95, 0x2a, 0x3d,
  0xc2, 0x56, 0x18, 0xbe, 0xd8, 0xb5, 0xca, 0xbd, 0x94, 0xf3, 0xfb, 0x3e,
  0xb7, 0x91, 0x0a, 0xbf, 0x8f, 0x61, 0xdd, 0xbe, 0xca, 0x19, 0x0c, 0x3f,
  0x6f, 0x1f, 0xea, 0x3e, 0x39, 0xf9, 0xef, 0xbe, 0xda, 0xb5, 0x2d, 0xbe,
  0xb6, 0x10, 0x8e, 0xbe, 0x9e, 0x7c, 0x02, 0xbf, 0x55, 0x7f, 0xa7, 0xbd,
  0x30, 0x28, 0x67, 0xbe, 0x04, 0x6a, 0x8b, 0x3e, 0x9b, 0xa2, 0x43, 0xbe,
  0x29, 0xa1, 0x7b, 0xbe, 0xfc, 0x39, 0xf2, 0xbe, 0x64, 0x71, 0x8f, 0xbd,
  0x45, 0x01, 0x81, 0x3e, 0x1d, 0xad, 0x36, 0x3e, 0x86, 0x43, 0x88, 0xbe,
  0x27, 0x96, 0xd0, 0x3e, 0x7c, 0x2c, 0xbd, 0x3e, 0xf6, 0xf7, 0x11, 0xbe,
  0xec, 0x3d, 0x06, 0xbf, 0xb8, 0xc0, 0xdd, 0xbe, 0xa7, 0xaa, 0x9d, 0xbe,
  0x25, 0x11, 0x3f, 0xbe, 0xa5, 0xfe, 0x1b, 0x3e, 0x79, 0xa9, 0x9b, 0x3e,
  0xd7, 0x44, 0x01, 0xbf, 0x98, 0xf8, 0x47, 0x3e, 0x94, 0x41, 0x47, 0x3e,
  0xe4, 0x86, 0x44, 0x3e, 0xc4, 0xb0, 0x2d, 0xbd, 0xb8, 0xa8, 0x14, 0xbc,
  0x3d, 0x2f, 0xb0, 0xbe, 0x87, 0x9e, 0xe2, 0x3e, 0x70, 0x6c, 0xb9, 0xbe,
  0x32, 0xef, 0xff, 0xff, 0x04, 0x00, 0x00, 0x00, 0x90, 0x01, 0x00, 0x00,
  0xe2, 0x28, 0x7f, 0xbe, 0x62, 0x16, 0x9a, 0xbe, 0x47, 0xa1, 0x09, 0x3e,
  0x30, 0x0e, 0xa9, 0xbe, 0x19, 0xae, 0x3f, 0xbe, 0xb2, 0xf7, 0x8b, 0x3e,
  0x6c, 0x49, 0x1c, 0x3e, 0x33, 0x21, 0xe0, 0x3d, 0x96, 0xd1, 0xef, 0xbe,
  0x1e, 0x53, 0x2f, 0xbe, 0x9a, 0x20, 0x79, 0x3d, 0x7f, 0xce, 0x17, 0x3f,
  0xc9, 0x84, 0x36, 0xbf, 0xc5, 0xd0, 0xa2, 0xbe, 0x85, 0x7c, 0x3a, 0x3f,
  0x48, 0xdb, 0x5f, 0xbe, 0xec, 0xcd, 0xc8, 0xba, 0xc9, 0x35, 0xac, 0x3e,
  0xd4, 0x68, 0x09, 0xbb, 0x5e, 0x9e, 0x3a, 0x3e, 0x80, 0x03, 0x07, 0x3d,
  0x77, 0xa0, 0x31, 0xbf, 0x19, 0xba, 0x4b, 0x3f, 0x6b, 0x1b, 0xc3, 0x3e,
  0x07, 0x52, 0xaf, 0xbe, 0xf6, 0x34, 0x3e, 0xbe, 0x00, 0x7b, 0x8f, 0xbe,
  0xcd, 0x53, 0x80, 0xbe, 0x4c, 0x24, 0xbe, 0xbc, 0xe4, 0xba, 0x75, 0xbe,
  0x0d, 0xfc, 0xb5, 0xbe, 0x49, 0x65, 0xff, 0xbe, 0x19, 0xcc, 0xb0, 0xbe,
  0x3e, 0xd6, 0xb5, 0xbe, 0x12, 0x59, 0xdf, 0xbe, 0x00, 0xac, 0x1d, 0x3d,
  0x98, 0x05, 0xbf, 0x3e, 0xb0, 0x7a, 0xba, 0x3d, 0xe2, 0x67, 0xb0, 0xbe,
  0xb2, 0x85, 0x2e, 0xbe, 0x40, 0x90, 0xf4, 0x3d, 0x6a, 0x14, 0xa2, 0xbe,
  0xe2, 0x21, 0x7d, 0xbe, 0xff, 0x42, 0x88, 0xbe, 0xea, 0x47, 0x01, 0xbf,
  0xe0, 0x18, 0x9a, 0xbc, 0x60, 0x85, 0x0f, 0x3d, 0xf0, 0x2b, 0xd4, 0xbd,
  0xe0, 0x4d, 0x18, 0xbd, 0x82, 0x43, 0x03, 0xbf, 0x25, 0x7a, 0x6b, 0x3c,
  0xc6, 0x4e, 0xa4, 0x3e, 0x1d, 0xcc, 0xa9, 0xbe, 0x07, 0x3a, 0x66, 0x3f,
  0x7b, 0x10, 0x98, 0x3f, 0x22, 0x9d, 0x15, 0x3f, 0x4a, 0xaa, 0xec, 0xbb,
  0x19, 0xd5, 0xc7, 0x3c, 0x54, 0x45, 0x30, 0xbe, 0x21, 0xf0, 0xb5, 0x3e,
  0x1b, 0xa5, 0x01, 0xbf, 0xfa, 0x20, 0x54, 0xbf, 0x7e, 0xf1, 0x1c, 0x3e,
  0x2e, 0xad, 0x54, 0xbe, 0xbd, 0xc4, 0x03, 0x3f, 0x6a, 0x74, 0xc0, 0x3e,
  0xe6, 0x99, 0x1a, 0xbd, 0x4d, 0x35, 0xc5, 0xbe, 0x28, 0x0f, 0x10, 0xbe,
  0x1e, 0xd6, 0x92, 0x3e, 0x34, 0x2f, 0x08, 0x3f, 0x02, 0xc6, 0x39, 0xbf,
  0x9a, 0x61, 0xbd, 0x3d, 0xf1, 0x8e, 0xc3, 0xbe, 0x07, 0xee, 0x1b, 0xbb,
  0xe1, 0x17, 0xd3, 0x3e, 0x7f, 0x77, 0x81, 0x3e, 0x4e, 0x9b, 0x07, 0x3e,
  0x11, 0x73, 0xdf, 0x3e, 0x6a, 0x10, 0x51, 0x3f, 0xde, 0xa6, 0x82, 0x3e,
  0x19, 0x9b, 0xa9, 0x3e, 0x22, 0xdd, 0x69, 0x3f, 0xfa, 0x96, 0xaf, 0xbe,
  0xc1, 0xf9, 0xe2, 0xbe, 0xb5, 0xf7, 0xfc, 0x3e, 0x5c, 0x56, 0xdf, 0xbe,
  0x06, 0xe7, 0xa7, 0xbe, 0xd6, 0x01, 0xfc, 0xbe, 0x91, 0x62, 0x01, 0xbe,
  0xf2, 0x5d, 0x53, 0xbc, 0xd9, 0xed, 0x1e, 0x3f, 0x39, 0x8f, 0xe1, 0x3e,
  0x25, 0xdd, 0xe2, 0x3e, 0xf0, 0xf6, 0x00, 0xbf, 0x6a, 0x69, 0x6b, 0x3d,
  0x1c, 0xee, 0x9d, 0xbe, 0x6d, 0x5b, 0xf6, 0xbe, 0xbc, 0xa4, 0xdf, 0x3e,
  0x10, 0x9a, 0xfa, 0x3e, 0xce, 0xf0, 0xff, 0xff, 0x04, 0x00, 0x00, 0x00,
  0x90, 0x01, 0x00, 0x00, 0xd4, 0x64, 0x1e, 0xbe, 0xc0, 0xe1, 0xae, 0xbe,
  0x70, 0xaa, 0x0c, 0xbd, 0xb7, 0x94, 0x65, 0xbd, 0xd1, 0x2a, 0xe8, 0xbe,
  0x11, 0xe4, 0x5d, 0x3e, 0x86, 0xe6, 0x07, 0xbf, 0x89, 0x61, 0x07, 0x3f,
  0x89, 0x3d, 0x86, 0xbe, 0x52, 0x7b, 0x71, 0xbe, 0xfe, 0x67, 0xa2, 0x3e,
  0xd6, 0xe6, 0xc2, 0x3d, 0x67, 0xee, 0x7d, 0x3e, 0xa0, 0xd4, 0x76, 0xbe,
  0xb9, 0xf2, 0x60, 0xbf, 0xaf, 0xce, 0x88, 0x3f, 0x26, 0xfb, 0xae, 0xbd,
  0xf3, 0x9d, 0xd3, 0x3e, 0x6c, 0xb4, 0x5d, 0x3c, 0x2d, 0x26, 0x85, 0x3f,
  0x97, 0x1f, 0xdb, 0xbe, 0x5c, 0xea, 0xdb, 0x3d, 0x16, 0xc9, 0xc8, 0x3e,
  0x49, 0x61, 0x8f, 0xbf, 0x22, 0x16, 0x95, 0xbd, 0x7f, 0x0e, 0x90, 0xbe,
  0xd0, 0xa3, 0xbb, 0x3e, 0x1b, 0xd9, 0x08, 0x3f, 0x8d, 0xc0, 0x64, 0x3f,
  0xf8, 0x4f, 0x83, 0x3f, 0xc0, 0xf4, 0x13, 0xbf, 0x28, 0xfb, 0x0d, 0xbf,
  0xba, 0x01, 0xbe, 0x3e, 0x99, 0x33, 0x73, 0x3e, 0xc2, 0x1e, 0x4d, 0xbf,
  0xa8, 0xb3, 0x03, 0xbf, 0x7c, 0x4f, 0xc6, 0xbe, 0xf7, 0xc1, 0xec, 0xbd,
  0xe5, 0x03, 0x0b, 0xbf, 0xdb, 0x78, 0x32, 0x3f, 0x06, 0x83, 0xdf, 0x3d,
  0xa8, 0xc3, 0x36, 0xbf, 0x94, 0x2c, 0x6e, 0x3e, 0x8f, 0x2f, 0xb9, 0x3e,
  0x28, 0xd2, 0xb4, 0xbf, 0x75, 0x73, 0x61, 0x3e, 0x65, 0x47, 0x59, 0xbf,
  0x96, 0xb4, 0x3f, 0x3c, 0x5c, 0xd5, 0x84, 0x3e, 0xb9, 0x99, 0x8a, 0x3f,
  0xae, 0xc9, 0x8c, 0xbe, 0xc5, 0xe5, 0xfc, 0x3d, 0x4d, 0xeb, 0xad, 0x3e,
  0xaf, 0xb6, 0xff, 0xbe, 0x6a, 0x0f, 0xc9, 0xbe, 0x2a, 0x78, 0x09, 0x3f,
  0x51, 0xa3, 0x53, 0x3f, 0x89, 0x53, 0x3c, 0x3e, 0x3f, 0x7d, 0x48, 0xbe,
  0xed, 0x7c, 0x3b, 0x3e, 0xa4, 0x9c, 0x4e, 0x3e, 0xf2, 0x85, 0xf5, 0xbe,
  0xfe, 0x6c, 0x9e, 0x3e, 0xa3, 0xde, 0xeb, 0xbd, 0xc8, 0x74, 0x8a, 0xbe,
  0x41, 0x73, 0xcf, 0x3e, 0x49, 0x63, 0x73, 0x3d, 0x24, 0x2c, 0xae, 0xbd,
  0xb8, 0x53, 0xc0, 0x3c, 0x99, 0x7d, 0xc3, 0xbd, 0x09, 0xc1, 0x09, 0x3f,
  0x62, 0x1d, 0x10, 0x3f, 0x67, 0xa5, 0xbf, 0xbd, 0x70, 0xea, 0xce, 0xbe,
  0xab, 0xa5, 0x68, 0x3d, 0x90, 0x37, 0xa8, 0xbe, 0x64, 0xd7, 0xeb, 0xbe,
  0x73, 0x85, 0x19, 0x3f, 0x77, 0xfc, 0xfa, 0xbd, 0xaa, 0x10, 0x89, 0xbd,
  0x0a, 0xb5, 0xef, 0xbd, 0x07, 0x6f, 0xc3, 0x3e, 0x7b, 0xaa, 0x4d, 0x3f,
  0xb6, 0x9d, 0x77, 0xbe, 0x6c, 0x72, 0x20, 0xbd, 0x33, 0xde, 0xb9, 0xbd,
  0x22, 0x5f, 0xa6, 0xbe, 0xaf, 0x3c, 0x25, 0x3d, 0xeb, 0x05, 0x06, 0x3f,
  0x91, 0x6e, 0x20, 0x3f, 0x45, 0x1e, 0xd1, 0xbe, 0x5f, 0xab, 0xa9, 0x3e,
  0x4b, 0xa7, 0xa1, 0xbd, 0xc5, 0x5e, 0x46, 0xbf, 0xba, 0x89, 0x12, 0x3e,
  0xc4, 0x6f, 0x70, 0x3d, 0x5c, 0xcd, 0xa0, 0x3e, 0x63, 0xb9, 0x6f, 0xbe,
  0x78, 0xa6, 0x3a, 0xbe, 0xa9, 0x36, 0x69, 0x3f, 0x6a, 0xf2, 0xff, 0xff,
  0x04, 0x00, 0x00, 0x00, 0x90, 0x01, 0x00, 0x00, 0x46, 0x32, 0x8f, 0x3e,
  0xf6, 0x37, 0xa8, 0xbe, 0x52, 0x81, 0xe3, 0xbe, 0xf2, 0x1a, 0x10, 0xbf,
  0x73, 0xe4, 0xdd, 0xbe, 0xfa, 0xb0, 0x06, 0xbf, 0x58, 0x3c, 0x35, 0xbe,
  0x87, 0xaa, 0x67, 0xbe, 0x35, 0xdf, 0x3b, 0xbd, 0x88, 0x29, 0x3d, 0x3e,
  0x38, 0xf3, 0x38, 0xbf, 0x0d, 0xc8, 0x1c, 0x3f, 0x62, 0x46, 0x57, 0xbd,
  0x16, 0x5e, 0xc5, 0x3c, 0x74, 0x64, 0xcc, 0xbd, 0x59, 0xd6, 0xaf, 0xbe,
  0x9d, 0xd9, 0xe6, 0xbe, 0xe5, 0xca, 0x36, 0xbf, 0xa7, 0x43, 0x9a, 0x3e,
  0x5d, 0xa1, 0xdc, 0xbe, 0x7b, 0x52, 0x55, 0xbe, 0xa0, 0xad, 0xf3, 0xbd,
  0x75, 0x98, 0x11, 0x3f, 0xbe, 0x3d, 0x2c, 0xbe, 0xc3, 0x25, 0x76, 0x3e,
  0xd6, 0x1c, 0x3c, 0x3f, 0xf2, 0xb7, 0x94, 0x3e, 0xe0, 0x95, 0x3b, 0xbe,
  0x62, 0x61, 0x1b, 0x3e, 0x2f, 0xd3, 0x37, 0xbe, 0x60, 0xdc, 0x17, 0x3f,
  0xec, 0x48, 0x90, 0xbe, 0x44, 0x83, 0x93, 0x3e, 0xf3, 0x67, 0x87, 0xbf,
  0x09, 0x2a, 0xd7, 0xbe, 0x72, 0x00, 0x0a, 0x3d, 0x65, 0x07, 0x26, 0x3f,
  0x77, 0x69, 0x18, 0xbd, 0x49, 0x03, 0x08, 0xbe, 0xde, 0xca, 0xed, 0x3e,
  0x58, 0x1e, 0xe8, 0x3e, 0x92, 0x7b, 0x19, 0x3f, 0x4e, 0xe6, 0x86, 0x3e,
  0xa5, 0x10, 0x4e, 0x3e, 0xc8, 0xd3, 0xd0, 0x3c, 0x74, 0x6d, 0x95, 0x3d,
  0x8e, 0x8f, 0x6b, 0x3f, 0x67, 0xd1, 0x4c, 0x3f, 0x21, 0x06, 0x5d, 0x3f,
  0xa0, 0x94, 0xfd, 0xbe, 0x90, 0xd5, 0xb7, 0xbe, 0xe2, 0xf3, 0x99, 0xbd,
  0x09, 0x23, 0xd4, 0x3e, 0x8c, 0x09, 0x31, 0x3f, 0x1a, 0xad, 0xf0, 0x3e,
  0x6e, 0xb3, 0x82, 0xbd, 0xfe, 0xad, 0xb0, 0xbe, 0x29, 0xe4, 0x55, 0x3d,
  0x5c, 0x3f, 0x91, 0xbf, 0x01, 0x10, 0xad, 0xbe, 0x44, 0x5b, 0x9c, 0xbd,
  0xcf, 0x95, 0x39, 0x3f, 0xaa, 0x0b, 0x09, 0x3f, 0x88, 0xab, 0x2f, 0x3e,
  0x17, 0x68, 0xb0, 0x3e, 0x3d, 0x59, 0x03, 0xbe, 0xaf, 0xde, 0xab, 0xbd,
  0x48, 0x6f, 0x22, 0x3f, 0xad, 0x8e, 0x58, 0xbf, 0xa3, 0xb6, 0xd7, 0xbe,
  0xe4, 0x8f, 0x40, 0x3e, 0x6c, 0x68, 0xaf, 0xbb, 0xcd, 0xac, 0x00, 0xbf,
  0x47, 0xdf, 0x9b, 0x3d, 0xd3, 0x6e, 0xee, 0xbe, 0x2c, 0x96, 0xc5, 0xbe,
  0x9c, 0x22, 0x07, 0xbf, 0x78, 0x44, 0xfb, 0x3e, 0x81, 0x61, 0x35, 0x3e,
  0x05, 0x87, 0xa1, 0xbd, 0xf4, 0x78, 0xb7, 0xbe, 0x46, 0x3f, 0xea, 0x3e,
  0x62, 0x0e, 0x91, 0x3e, 0xe8, 0xf4, 0x26, 0x3c, 0xea, 0x90, 0xa3, 0x3d,
  0x9d, 0x1c, 0xd9, 0x3e, 0x05, 0x1e, 0x50, 0xbf, 0x17, 0xc7, 0xfc, 0xbe,
  0xa5, 0xd8, 0x3b, 0xbf, 0xc7, 0xd8, 0x83, 0xbe, 0x18, 0xb2, 0x62, 0xbf,
  0xa6, 0x90, 0x0b, 0xbd, 0x34, 0xf6, 0xee, 0x3f, 0x79, 0xb1, 0x09, 0x3e,
  0x42, 0xcf, 0x89, 0x3d, 0x74, 0x83, 0x79, 0xbd, 0x85, 0xb7, 0xba, 0x3e,
  0x78, 0x82, 0x05, 0xbd, 0x6e, 0x89, 0x28, 0xbc, 0x5e, 0x91, 0x38, 0x3f,
  0x06, 0xf4, 0xff, 0xff, 0x04, 0x00, 0x00, 0x00, 0x00, 0x0a, 0x00, 0x00,
  0x04, 0x77, 0x56, 0xbe, 0xcb, 0xab, 0x97, 0x3c, 0x8a, 0x5c, 0xca, 0x3e,
  0x4b, 0x4f, 0xdb, 0xbe, 0x69, 0x8e, 0x28, 0x3f, 0x8e, 0x52, 0x06, 0x3f,
  0x87, 0x36, 0x1b, 0x3f, 0xdb, 0x29, 0xbf, 0xbe, 0xab, 0xb7, 0x71, 0xbe,
  0x62, 0x86, 0xcb, 0xbe, 0x61, 0x53, 0x1b, 0xbe, 0x6d, 0xd1, 0x98, 0x3e,
  0x80, 0x1c, 0x48, 0x3e, 0xa8, 0xbd, 0x01, 0xbe, 0xcf, 0xd4, 0xc0, 0x3d,
  0xde, 0xa4, 0x11, 0xbd, 0x27, 0x8a, 0x8a, 0xbe, 0xa2, 0xe4, 0x2f, 0x3e,
  0x25, 0x1c, 0x06, 0xbe, 0x09, 0xe2, 0x35, 0x3d, 0x80, 0x0d, 0x5e, 0xbf,
  0xa2, 0xa7, 0xb9, 0xbf, 0xc0, 0x3e, 0x46, 0xbf, 0xb2, 0xa4, 0x72, 0x3d,
  0xc6, 0x79, 0x2d, 0xbe, 0xcc, 0xd7, 0x03, 0xbd, 0xdc, 0x5a, 0x85, 0xbd,
  0xd7, 0xc3, 0xe9, 0xbe, 0x7d, 0x82, 0x3a, 0x3f, 0x7b, 0x4d, 0xd7, 0xbe,
  0x86, 0xa2, 0x43, 0xbf, 0x54, 0xaf, 0xe0, 0xbd, 0x3e, 0x00, 0x6d, 0x3e,
  0xe2, 0x3f, 0x65, 0x3e, 0xba, 0x6c, 0x10, 0x3f, 0xbc, 0xb2, 0xaa, 0xbe,
  0xfd, 0xd8, 0x8b, 0x3d, 0x02, 0x38, 0x83, 0xbe, 0xdb, 0xb0, 0x09, 0x3e,
  0xd0, 0xd5, 0xe3, 0xbc, 0xf5, 0x9a, 0xfa, 0x3b, 0x15, 0x10, 0xb9, 0xbe,
  0xe9, 0x62, 0x8d, 0xbf, 0x23, 0x89, 0x92, 0xbf, 0xed, 0x4d, 0x02, 0x3d,
  0x9a, 0xaa, 0x21, 0x3f, 0xcd, 0x35, 0x04, 0x3f, 0x7b, 0xb5, 0x3d, 0xbe,
  0x9a, 0x06, 0x6e, 0xbd, 0x6d, 0x7d, 0x1e, 0x3d, 0xa1, 0xcd, 0x5e, 0x3e,
  0x21, 0xb3, 0x17, 0xbe, 0xdf, 0x70, 0x15, 0x3e, 0x59, 0xd9, 0x53, 0xbe,
  0xef, 0xab, 0x84, 0xbe, 0x7e, 0x24, 0x01, 0x3d, 0xa1, 0xc2, 0xc0, 0x3e,
  0xf8, 0xef, 0x5a, 0xbd, 0x75, 0xf3, 0xfa, 0x3e, 0x83, 0x1e, 0xc5, 0x3e,
  0x5c, 0xbf, 0xa0, 0xbd, 0x9e, 0xc9, 0x3b, 0x3e, 0x82, 0xf0, 0xba, 0xbe,
  0x99, 0xfd, 0x8c, 0xbe, 0x49, 0x2e, 0x87, 0xbe, 0x7f, 0x22, 0x2f, 0x3e,
  0x6a, 0xdf, 0x6a, 0x3e, 0xb9, 0xc8, 0x26, 0xbe, 0xa9, 0x41, 0x0f, 0x3f,
  0xe6, 0x9c, 0x0c, 0x3d, 0xc2, 0xf9, 0x99, 0x3e, 0x73, 0x06, 0xd0, 0x3d,
  0x57, 0xfa, 0x08, 0xbe, 0x2c, 0x8b, 0x0c, 0x3e, 0x9f, 0x2d, 0x13, 0x3e,
  0x43, 0x45, 0xcc, 0x3e, 0x99, 0x97, 0x42, 0x3e, 0x24, 0x35, 0x9c, 0xbe,
  0x8c, 0xe5, 0xa1, 0xbc, 0xc6, 0x24, 0xa6, 0xbd, 0x43, 0xba, 0xc2, 0x3a,
  0x9a, 0xef, 0x0b, 0xbe, 0x45, 0x1c, 0x8f, 0xbe, 0x63, 0x58, 0x02, 0x3d,
  0xd1, 0xe9, 0xcb, 0x3d, 0x94, 0xc3, 0x03, 0xbf, 0xbc, 0xfe, 0xd6, 0xbd,
  0xa9, 0x2c, 0x36, 0x3e, 0xdb, 0x4b, 0x81, 0x3d, 0x6d, 0x8e, 0x5f, 0xbe,
  0xff, 0xcb, 0x7f, 0x3e, 0x0a, 0x89, 0xd5, 0xbe, 0xc8, 0x65, 0x4b, 0x3e,
  0x24, 0x32, 0x6a, 0x3d, 0x69, 0x30, 0xb4, 0x3e, 0xd5, 0x30, 0xf2, 0xbd,
  0xcc, 0x8a, 0xb5, 0xbd, 0x4a, 0xbf, 0x67, 0x3d, 0x02, 0x8f, 0x03, 0x3f,
  0x2b, 0x8d, 0x12, 0x3d, 0x90, 0x57, 0xd4, 0x3e, 0x57, 0x96, 0xcf, 0x3e,
  0x79, 0x8e, 0x0f, 0x3f, 0x52, 0x39, 0x44, 0x3e, 0xf9, 0x72, 0x42, 0x3e,
  0xcd, 0x24, 0x3b, 0x3e, 0x5a, 0x89, 0xe4, 0x3d, 0xbb, 0xa1, 0xeb, 0x3e,
  0xe5, 0xc6, 0x39, 0x3f, 0x35, 0xa3, 0x13, 0x3c, 0x82, 0xfe, 0xe8, 0xbe,
  0x32, 0xf0, 0x58, 0x3d, 0xf8, 0xba, 0x91, 0xbd, 0xab, 0xf1, 0x8f, 0x3e,
  0xe7, 0xbf, 0x8d, 0xbe, 0x1e, 0x73, 0xd3, 0x3e, 0x0a, 0x49, 0xb6, 0xbe,
  0xf9, 0x19, 0x64, 0xbf, 0x4e, 0x47, 0xf9, 0xbe, 0xcf, 0x38, 0x01, 0xbe,
  0x14, 0xec, 0x1a, 0xbe, 0xf1, 0x28, 0x30, 0xbe, 0xcf, 0xdb, 0xe9, 0x3d,
  0x4d, 0x97, 0x64, 0xbe, 0x69, 0x4d, 0xe4, 0xbd, 0x24, 0xa9, 0xf8, 0x3d,
  0xd6, 0x64, 0xd6, 0xbe, 0x4b, 0x0e, 0xa9, 0xbd, 0xfe, 0xfc, 0x37, 0x3e,
  0x90, 0x43, 0x06, 0xbe, 0x7b, 0xd0, 0x2a, 0xbe, 0xe4, 0x06, 0x23, 0xbf,
  0x05, 0x3a, 0x6d, 0xbe, 0x80, 0xd4, 0x0f, 0xbf, 0xc8, 0x7a, 0x89, 0xbf,
  0x59, 0x5a, 0x33, 0x3e, 0xf7, 0x56, 0xa3, 0x3d, 0x55, 0x4b, 0x88, 0xbe,
  0x15, 0x0b, 0x38, 0xbf, 0xb0, 0xbf, 0x43, 0xbd, 0xdd, 0xbc, 0xfa, 0xbe,
  0x33, 0x94, 0xf0, 0xbe, 0xe5, 0xf7, 0xdd, 0x3d, 0xc5, 0xbc, 0x36, 0x3d,
  0x59, 0x09, 0x68, 0x3d, 0x15, 0x12, 0x76, 0x3e, 0x90, 0x86, 0x05, 0x3f,
  0x10, 0x02, 0xd0, 0x3e, 0x1e, 0xef, 0x12, 0xbf, 0x21, 0x7e, 0xcd, 0xbe,
  0x5f, 0x41, 0x50, 0xbd, 0x89, 0x01, 0x30, 0x3d, 0xe4, 0xaf, 0x76, 0xbe,
  0xa1, 0x56, 0x1c, 0x3f, 0x84, 0x5f, 0x53, 0x3e, 0xd6, 0xbc, 0xe6, 0xbe,
  0xa8, 0xb4, 0x29, 0xbf, 0xca, 0x26, 0x0f, 0xbf, 0xd7, 0x6b, 0x03, 0x3f,
  0x65, 0xa3, 0x86, 0x3e, 0xe4, 0x7a, 0x26, 0xbe, 0x15, 0x77, 0x0c, 0x3f,
  0x6a, 0x83, 0xcd, 0x3e, 0x3c, 0x5d, 0xce, 0xbe, 0x59, 0x82, 0xbb, 0xbe,
  0x59, 0x8c, 0x65, 0x3f, 0x6e, 0x62, 0xea, 0x3e, 0xd0, 0xf5, 0xf7, 0x3d,
  0x71, 0xf7, 0x20, 0x3e, 0x28, 0x29, 0x98, 0x3d, 0x2f, 0xb3, 0x1e, 0x3f,
  0x7b, 0x1b, 0x4d, 0x3e, 0x36, 0xb3, 0xe5, 0x3d, 0x56, 0x24, 0x43, 0x3e,
  0x52, 0xf7, 0x8f, 0x3e, 0x29, 0x5c, 0x67, 0x3e, 0x06, 0x75, 0x92, 0xbd,
  0x0e, 0x92, 0xda, 0x3d, 0x42, 0xd4, 0x22, 0x3f, 0xf5, 0xa7, 0x8b, 0xbd,
  0xfe, 0xef, 0x89, 0xbd, 0x40, 0x7c, 0x90, 0xbd, 0x19, 0x4d, 0x63, 0xbd,
  0x7e, 0x1d, 0x9b, 0xbd, 0x35, 0xda, 0xc1, 0xbc, 0xc4, 0xd3, 0xc7, 0x3d,
  0x3a, 0x9f, 0x47, 0xbe, 0x06, 0x09, 0x03, 0xbe, 0xf9, 0xeb, 0xf8, 0xbc,
  0xe4, 0x0a, 0x09, 0x3e, 0xc0, 0x51, 0x1a, 0xbe, 0x37, 0x4c, 0xd4, 0xbe,
  0x9c, 0x1d, 0x57, 0xbe, 0x32, 0xb7, 0x96, 0x3d, 0xd9, 0x1a, 0x45, 0xbe,
  0xc7, 0x02, 0x84, 0xbe, 0x30, 0xf9, 0xa1, 0x3b, 0xcf, 0xfd, 0x66, 0xbe,
  0x09, 0x45, 0xe7, 0xbe, 0x9c, 0xf1, 0x1e, 0xbe, 0x01, 0x13, 0x53, 0x3d,
  0xa5, 0x1c, 0x60, 0xbe, 0xad, 0x71, 0xec, 0x3d, 0xc7, 0x81, 0xbc, 0xbe,
  0xe8, 0xc7, 0x09, 0xbf, 0xd1, 0x04, 0xfd, 0x3e, 0x84, 0xfe, 0x9f, 0x3e,
  0x66, 0x48, 0x31, 0xbd, 0xb3, 0xb1, 0x87, 0x3e, 0x27, 0xc8, 0xf4, 0x3c,
  0x66, 0x21, 0x62, 0x3e, 0xb9, 0x85, 0xc8, 0x3e, 0x05, 0x54, 0xad, 0xbd,
  0x54, 0x32, 0x8e, 0xbe, 0x56, 0xba, 0x39, 0xbe, 0x46, 0x11, 0xc2, 0x3e,
  0x34, 0x2c, 0x60, 0xbd, 0xc6, 0x49, 0x96, 0xbd, 0xb8, 0xfc, 0xaf, 0x3e,
  0xfc, 0x01, 0xce, 0x3e, 0xc4, 0xc1, 0x8e, 0x3e, 0x21, 0x19, 0xbe, 0xbe,
  0x68, 0x59, 0x97, 0xbe, 0x42, 0xba, 0x10, 0x3f, 0x56, 0xfd, 0x3b, 0xbe,
  0x0c, 0x93, 0x22, 0x3e, 0xd1, 0xcc, 0x27, 0x3f, 0xd3, 0x75, 0x41, 0x3f,
  0xaa, 0x95, 0xe4, 0x3e, 0x1e, 0x75, 0x24, 0xbd, 0x5a, 0xc8, 0x9a, 0xbe,
  0xa5, 0x1d, 0x69, 0xbe, 0x71, 0x62, 0xdf, 0xbd, 0xba, 0xe9, 0xd1, 0x3e,
  0xa0, 0xb8, 0x7c, 0x3f, 0x98, 0x3b, 0xe8, 0x3e, 0xaa, 0x3d, 0x0b, 0x3f,
  0x28, 0x58, 0x6c, 0x3e, 0x7e, 0x28, 0x9c, 0x3e, 0x5c, 0x05, 0xa6, 0x3d,
  0x0b, 0x8f, 0x33, 0x3e, 0xde, 0x36, 0xe8, 0xbd, 0xa5, 0xda, 0x1a, 0x3f,
  0x3b, 0x47, 0x7a, 0xbe, 0x46, 0x75, 0x45, 0xbf, 0xe9, 0x35, 0xdc, 0xbe,
  0x7b, 0x87, 0xa7, 0x3c, 0x51, 0x4a, 0x53, 0xbe, 0x43, 0x44, 0x20, 0xbd,
  0x1b, 0x15, 0xe0, 0xbd, 0x35, 0x0e, 0xc2, 0xbe, 0x93, 0x9e, 0xb8, 0x3d,
  0x80, 0xf4, 0x2a, 0x3f, 0xff, 0x3e, 0x18, 0xbf, 0x6a, 0x49, 0x10, 0xbf,
  0x8f, 0x29, 0x3d, 0x3e, 0xa8, 0x16, 0x9e, 0x3d, 0x00, 0xa0, 0x0b, 0xbe,
  0x03, 0xd0, 0x82, 0xbe, 0x8a, 0xa8, 0xe8, 0xbd, 0xdd, 0xdc, 0x2e, 0xbe,
  0x71, 0x48, 0xe9, 0xbd, 0xb3, 0x98, 0x8d, 0xbe, 0xe5, 0x0b, 0x6b, 0xbd,
  0x55, 0xae, 0xf5, 0xbd, 0xb2, 0x00, 0x0f, 0xbf, 0x51, 0xbd, 0x02, 0xbf,
  0x24, 0x5e, 0x9c, 0xbe, 0xea, 0x57, 0xbd, 0xbe, 0x8e, 0xc7, 0x94, 0xbe,
  0xb0, 0x23, 0x12, 0xbf, 0xbc, 0x2c, 0xb9, 0xbd, 0xe8, 0x54, 0x1a, 0xbe,
  0x2a, 0x78, 0x1a, 0x3f, 0x50, 0xf0, 0x3c, 0x3c, 0x4a, 0x8d, 0x5d, 0x3f,
  0x10, 0x72, 0x7d, 0xbe, 0xf8, 0x1a, 0x4a, 0xbf, 0xe8, 0x0c, 0x81, 0x3e,
  0xb6, 0x87, 0xd0, 0xbd, 0x78, 0x7e, 0xb9, 0x3e, 0x4a, 0xfc, 0x62, 0xbd,
  0x44, 0xbd, 0x8f, 0xbe, 0x43, 0xa4, 0xfe, 0x3e, 0x1a, 0x82, 0x39, 0xbd,
  0xfd, 0x75, 0x90, 0xbe, 0xfd, 0x9e, 0x6b, 0xbe, 0x1f, 0x0f, 0x7f, 0x3e,
  0x12, 0xa8, 0x7d, 0x3e, 0xd5, 0xf9, 0xb3, 0x3e, 0x62, 0x2b, 0x9b, 0xbe,
  0x21, 0x8b, 0x1c, 0x3e, 0x25, 0x83, 0x3f, 0x3f, 0x0b, 0xc7, 0x13, 0x3f,
  0x9f, 0x8d, 0xb6, 0x3e, 0xf6, 0xe1, 0x6d, 0x3e, 0x13, 0x1e, 0x87, 0x3b,
  0x5e, 0x17, 0x18, 0xbf, 0x1d, 0x43, 0x01, 0xbf, 0xa9, 0x25, 0x57, 0x3f,
  0x11, 0xeb, 0x92, 0x3f, 0x6b, 0x21, 0x68, 0x3e, 0xc5, 0x6d, 0x65, 0x3e,
  0xdd, 0xbf, 0x80, 0xbd, 0x6a, 0x4a, 0xb6, 0x3d, 0x71, 0xe2, 0xa7, 0xbf,
  0xe9, 0xf6, 0x0e, 0xbf, 0x6e, 0x32, 0xa5, 0xbc, 0xfb, 0x06, 0x15, 0x3e,
  0x65, 0xd4, 0xbc, 0x3e, 0x39, 0x6e, 0x31, 0xbe, 0xf0, 0xbd, 0xb4, 0x3d,
  0xd1, 0x88, 0xf4, 0xbd, 0x25, 0x3d, 0xca, 0x3d, 0x58, 0x02, 0x07, 0xbf,
  0x79, 0x73, 0x29, 0xbf, 0x50, 0x2e, 0xfe, 0x3d, 0x10, 0xc4, 0xc9, 0x3e,
  0xd0, 0xb0, 0x22, 0xbe, 0x36, 0xd3, 0x48, 0x3d, 0x84, 0x0a, 0x6d, 0xbd,
  0x89, 0x56, 0x32, 0xbe, 0x80, 0xd2, 0x49, 0x3e, 0xb0, 0x4c, 0x58, 0xbd,
  0xc0, 0x9b, 0xff, 0xbd, 0x75, 0x56, 0x79, 0x3d, 0x76, 0x7b, 0xf1, 0x3d,
  0x47, 0x1a, 0x9c, 0xbe, 0x62, 0xd0, 0x6e, 0xbd, 0x68, 0xa9, 0x29, 0x3e,
  0x11, 0x3a, 0x28, 0xbe, 0x9b, 0xa9, 0xbf, 0x3d, 0xb4, 0x29, 0x2c, 0xbd,
  0x5c, 0x1e, 0x88, 0x3c, 0xab, 0xd1, 0x16, 0x3e, 0xbd, 0xc4, 0x7c, 0xbd,
  0x17, 0x22, 0x96, 0xbd, 0x2c, 0x39, 0x2d, 0x3d, 0x25, 0xe4, 0x1f, 0xbd,
  0x93, 0xd3, 0x6f, 0xbe, 0xfc, 0x1f, 0x12, 0xbd, 0xaa, 0x7c, 0x98, 0x3d,
  0x45, 0x99, 0x4d, 0xbe, 0x05, 0xcf, 0xe8, 0x3c, 0xfd, 0x39, 0xe2, 0x3e,
  0xc8, 0x64, 0x26, 0xbe, 0xfa, 0xbf, 0x9e, 0xbd, 0xc6, 0x53, 0x99, 0xbe,
  0xfa, 0xd5, 0x90, 0xbe, 0x77, 0x76, 0x69, 0x3d, 0x45, 0xa8, 0xc8, 0xbb,
  0xa2, 0x06, 0x33, 0x3e, 0x13, 0xb2, 0x85, 0x3e, 0x72, 0xdd, 0x75, 0x3d,
  0x50, 0x4c, 0xa1, 0xbb, 0x28, 0x3a, 0x39, 0xbe, 0x36, 0x7e, 0xa2, 0x3d,
  0xc8, 0x1d, 0x94, 0x3d, 0x81, 0xb0, 0x81, 0x3e, 0xeb, 0xd5, 0x84, 0x3e,
  0x3d, 0x17, 0x4d, 0xbe, 0x88, 0x3b, 0xdb, 0x3e, 0x71, 0x7a, 0xba, 0xbe,
  0x9b, 0xe6, 0xf0, 0xbd, 0x52, 0xd5, 0x8b, 0x3e, 0xa9, 0x88, 0xb6, 0xbe,
  0x6f, 0x9e, 0x9f, 0xbe, 0xc7, 0xb1, 0x61, 0xbe, 0x4d, 0xc1, 0x34, 0x3c,
  0xf8, 0x34, 0x83, 0x3d, 0x5b, 0x82, 0x42, 0xbe, 0x96, 0xda, 0x63, 0xbe,
  0x46, 0x89, 0x5e, 0x3e, 0x17, 0xc8, 0x91, 0xbe, 0x92, 0x95, 0x85, 0x3e,
  0xdb, 0x04, 0x19, 0xbe, 0x85, 0xbd, 0x8a, 0x3d, 0xc1, 0xab, 0x42, 0xbd,
  0x4f, 0xf8, 0x7f, 0xbe, 0x60, 0xcf, 0xdd, 0xbe, 0xb7, 0x4e, 0x90, 0x3d,
  0x7c, 0x15, 0x82, 0x3c, 0x46, 0x0b, 0x1d, 0x3e, 0xee, 0xce, 0x2f, 0x3e,
  0x28, 0xb5, 0x33, 0x3e, 0x40, 0xc8, 0x80, 0x3e, 0xc2, 0x1d, 0x8c, 0xbe,
  0x82, 0x5a, 0xdc, 0xbe, 0x13, 0x77, 0x96, 0x3e, 0x4f, 0xb4, 0x5f, 0xbe,
  0x7f, 0xaf, 0x78, 0x3e, 0x6f, 0x5a, 0x97, 0x3d, 0x2f, 0x68, 0x9b, 0xbe,
  0x5e, 0x52, 0x21, 0x3c, 0xfb, 0xa5, 0xb5, 0xbe, 0x6a, 0x1e, 0xf6, 0xbd,
  0x0f, 0x35, 0x92, 0xbe, 0xc9, 0x40, 0x0d, 0xbf, 0xc3, 0xec, 0x53, 0xbd,
  0x08, 0x37, 0x04, 0x3e, 0xdc, 0x71, 0xbf, 0x3d, 0x77, 0xbd, 0x1c, 0x3e,
  0xb0, 0x79, 0xa9, 0x3e, 0x0a, 0x5d, 0x72, 0x3e, 0xdd, 0x1b, 0x27, 0xbf,
  0x5e, 0xe3, 0x1c, 0xbf, 0x5f, 0x01, 0xc0, 0xbe, 0xd2, 0x8e, 0x7a, 0xbd,
  0xf8, 0x7f, 0x36, 0xbd, 0xc6, 0xfa, 0x0a, 0xbe, 0x8e, 0x5a, 0x2f, 0x3e,
  0x0e, 0xc2, 0x20, 0x3e, 0xb4, 0x04, 0xb8, 0xbd, 0x88, 0xdf, 0x44, 0xbe,
  0x17, 0x23, 0x95, 0x3e, 0xf0, 0x77, 0xd5, 0x3d, 0x46, 0x8a, 0x8a, 0xbe,
  0xc9, 0x8e, 0xbd, 0x3d, 0xa4, 0xc0, 0x00, 0x3f, 0xa6, 0x4d, 0x06, 0x3e,
  0xc5, 0x62, 0x09, 0xbe, 0x2f, 0x77, 0x46, 0x3e, 0x23, 0x63, 0x9d, 0x3e,
  0xc0, 0x80, 0x09, 0x3d, 0x6a, 0x7a, 0x47, 0x3e, 0x1d, 0x13, 0x9a, 0x3e,
  0xd3, 0x74, 0x17, 0x3c, 0x4a, 0x31, 0xc5, 0x3e, 0xe0, 0x5c, 0x75, 0x3e,
  0xb1, 0x28, 0xf7, 0x3d, 0x5f, 0x5a, 0xbd, 0x3d, 0x7b, 0x7a, 0xef, 0xbd,
  0x10, 0x27, 0xe7, 0x3d, 0x1a, 0x62, 0x99, 0xbd, 0x7d, 0x63, 0x64, 0xbd,
  0x52, 0x30, 0x8e, 0xbe, 0x57, 0xe0, 0xc9, 0x3e, 0x2f, 0x72, 0x03, 0xbe,
  0x10, 0x2a, 0xc3, 0xbd, 0x2e, 0xd4, 0x7d, 0xbe, 0x28, 0xfb, 0x52, 0xbe,
  0x0e, 0xf4, 0x77, 0x3c, 0x9c, 0x75, 0x1e, 0x3e, 0xef, 0x01, 0x0c, 0xbf,
  0x93, 0x0e, 0x55, 0x3e, 0x8b, 0xaf, 0x47, 0xbd, 0x02, 0xa9, 0x66, 0x3d,
  0x13, 0xa2, 0xa1, 0xbe, 0x4a, 0xdc, 0x52, 0x3e, 0x59, 0xc2, 0x61, 0xbe,
  0xf9, 0x33, 0x1a, 0xbe, 0x90, 0x68, 0x6e, 0xbe, 0x0e, 0xe1, 0xb8, 0xbe,
  0xb5, 0xf1, 0xb5, 0xbc, 0xa6, 0x3c, 0x4f, 0xbe, 0x00, 0xcc, 0x68, 0xbe,
  0xa4, 0x8b, 0x6d, 0x3d, 0xd3, 0xa5, 0x42, 0xbe, 0x53, 0x21, 0x8b, 0xbe,
  0x5c, 0xa3, 0xcf, 0xbe, 0x70, 0x8f, 0x17, 0xbf, 0x79, 0xad, 0x3c, 0xbf,
  0xb0, 0xe7, 0x37, 0xbe, 0x7e, 0x14, 0x28, 0x3e, 0x25, 0x4a, 0xcb, 0x3c,
  0x10, 0x66, 0x23, 0xbe, 0x9a, 0x10, 0x84, 0xbe, 0xbb, 0x49, 0xdb, 0xbd,
  0xba, 0x96, 0x83, 0xbd, 0xd8, 0x07, 0x0a, 0xbf, 0x91, 0xc4, 0xfb, 0xbd,
  0x95, 0xe3, 0x4e, 0x3d, 0x62, 0x55, 0x83, 0x3d, 0xe2, 0x96, 0xea, 0x3e,
  0x41, 0x0c, 0x71, 0x3e, 0x8a, 0x8f, 0x7f, 0x3d, 0xef, 0x35, 0xea, 0xbd,
  0xe0, 0x93, 0x81, 0xbe, 0x4e, 0x20, 0xac, 0x3d, 0x04, 0xe9, 0xc6, 0xbd,
  0x26, 0xce, 0x2d, 0x3e, 0x5c, 0x25, 0x8a, 0x3e, 0xed, 0x9c, 0x80, 0x3e,
  0xe6, 0x37, 0xb7, 0xbe, 0xad, 0x6f, 0xf7, 0x3d, 0x20, 0x0a, 0x9b, 0x3e,
  0xe9, 0x6b, 0xae, 0x3e, 0xcc, 0x4d, 0x30, 0xbe, 0x14, 0x8b, 0xcd, 0x3d,
  0x40, 0x2c, 0x96, 0x3e, 0x94, 0xca, 0x5b, 0x3e, 0x3a, 0x7f, 0x92, 0x3e,
  0x7c, 0xf9, 0x87, 0x3e, 0x3c, 0xe7, 0xee, 0x3c, 0x68, 0xd2, 0xd9, 0x3d,
  0xb7, 0x8c, 0x43, 0x3e, 0xec, 0xe9, 0x0c, 0x3e, 0xf3, 0xb0, 0xe5, 0xbd,
  0xd1, 0x31, 0x12, 0x3e, 0xdc, 0x50, 0x50, 0xbe, 0x7a, 0xd2, 0x03, 0x3e,
  0x34, 0x1c, 0x16, 0x3e, 0xd1, 0xf5, 0xa1, 0x3d, 0x66, 0xf9, 0x1d, 0x3e,
  0xfe, 0x88, 0x63, 0xbe, 0x24, 0xf5, 0xba, 0xbd, 0x3a, 0xae, 0x30, 0xbe,
  0x72, 0x24, 0x51, 0xbe, 0x48, 0x04, 0x6f, 0x3e, 0x31, 0xfd, 0xee, 0x3d,
  0x24, 0xa6, 0x9e, 0x3d, 0xcf, 0xa6, 0xac, 0x3e, 0x0e, 0xc4, 0x75, 0x3e,
  0x28, 0x54, 0xf2, 0x3d, 0xdf, 0x57, 0xaa, 0x3d, 0x15, 0x23, 0xc0, 0xbe,
  0x16, 0x0a, 0xd8, 0xbd, 0x84, 0x40, 0xb8, 0xbd, 0x7d, 0x93, 0xa3, 0x3e,
  0x36, 0xca, 0xd5, 0x3c, 0xbc, 0x17, 0x16, 0x3e, 0xe0, 0x29, 0xd2, 0x3e,
  0xf9, 0x26, 0x16, 0x3e, 0xa8, 0x7a, 0x6b, 0x3e, 0x81, 0x40, 0x15, 0x3e,
  0xa5, 0xd7, 0x95, 0xbe, 0xbb, 0x95, 0x2b, 0xbe, 0x91, 0x7c, 0x87, 0x3d,
  0x3d, 0x8e, 0x98, 0x3e, 0x2b, 0x84, 0x34, 0xbe, 0x5b, 0x57, 0x8e, 0xbe,
  0x61, 0x8c, 0x42, 0xbe, 0xfa, 0xbe, 0x6b, 0xbe, 0xfb, 0xb3, 0x98, 0xbd,
  0xaf, 0x7e, 0xac, 0xbb, 0x8c, 0x9f, 0x0f, 0x3e, 0xf7, 0xa7, 0x84, 0x3c,
  0x8f, 0x07, 0x2e, 0xbe, 0xed, 0x95, 0xa7, 0x3e, 0xfe, 0x8b, 0xb1, 0xbe,
  0x44, 0x0f, 0xbe, 0xbd, 0xce, 0xad, 0x32, 0xbd, 0x75, 0xb0, 0xbc, 0x3e,
  0x9e, 0xe5, 0xa4, 0x3e, 0xce, 0x9e, 0x4c, 0x3e, 0x7d, 0xe8, 0xda, 0x3e,
  0x43, 0x3b, 0xbf, 0x3d, 0x35, 0xd5, 0xdc, 0x3d, 0x80, 0x8e, 0x0f, 0x3f,
  0xae, 0xa2, 0x95, 0x3e, 0xd0, 0xc7, 0xd6, 0x3e, 0x32, 0x77, 0x8b, 0xbe,
  0x77, 0xb7, 0xe0, 0xbc, 0x64, 0xac, 0x0c, 0x3f, 0x68, 0xcd, 0x1a, 0xbe,
  0x86, 0xcd, 0xb1, 0x3e, 0x73, 0xd2, 0x9a, 0x3e, 0xeb, 0x4d, 0x87, 0x3e,
  0xae, 0x42, 0xbd, 0x3c, 0x35, 0xc6, 0x16, 0xbe, 0x81, 0x04, 0x90, 0x3e,
  0xc0, 0xd5, 0x5b, 0x3e, 0x53, 0x84, 0xd1, 0xbe, 0xbc, 0x07, 0xaf, 0x3d,
  0x13, 0x34, 0xe2, 0xbe, 0xae, 0xa2, 0x33, 0xbf, 0x25, 0x08, 0x82, 0xbe,
  0x10, 0x6f, 0x77, 0x3e, 0x48, 0x1c, 0xaa, 0xbd, 0x2d, 0x64, 0xa5, 0xbe,
  0x0e, 0x1f, 0x3b, 0x3e, 0x23, 0xf1, 0xe8, 0xbe, 0x1f, 0x4b, 0xb5, 0xbe,
  0x84, 0x3a, 0x44, 0xbf, 0x1e, 0xcb, 0xdb, 0xbe, 0xa4, 0x5d, 0x78, 0xbe,
  0x8c, 0x82, 0x9d, 0x3d, 0x09, 0x27, 0xb2, 0x3d, 0x48, 0x3b, 0x17, 0xbe,
  0x49, 0x93, 0x2d, 0xbd, 0x67, 0x12, 0x8a, 0x3e, 0x06, 0xc7, 0x1b, 0xbd,
  0x8f, 0xfd, 0x33, 0xbe, 0x57, 0xbc, 0xfb, 0xbd, 0xf1, 0x85, 0xe5, 0x3e,
  0xa0, 0x62, 0x48, 0x3e, 0x4d, 0x19, 0x18, 0x3e, 0x13, 0xa3, 0x89, 0xbd,
  0x96, 0xd7, 0x0c, 0x3e, 0x80, 0xa9, 0x5e, 0xbd, 0x06, 0xae, 0xb9, 0xbc,
  0x48, 0x66, 0x74, 0xbe, 0x2b, 0x82, 0x94, 0x3d, 0x70, 0xb9, 0xb3, 0x3d,
  0x13, 0xbd, 0xa4, 0xbe, 0x8b, 0x32, 0x12, 0xbf, 0xa7, 0x8e, 0x26, 0x3e,
  0x10, 0x7f, 0x05, 0xbf, 0x18, 0xb9, 0xdc, 0x3c, 0xb4, 0xb4, 0x81, 0xbe,
  0xdc, 0x05, 0x20, 0xbe, 0xbc, 0xa4, 0x33, 0xbe, 0xa1, 0xcd, 0x59, 0xbf,
  0xf0, 0x6b, 0xa2, 0xbe, 0xe6, 0x56, 0xb2, 0xbe, 0x5a, 0xa3, 0xa0, 0xbe,
  0xef, 0xb9, 0x8d, 0xbe, 0x79, 0xfd, 0xc0, 0x3d, 0xc6, 0xd8, 0x08, 0xbe,
  0xa7, 0x1e, 0xf2, 0xbd, 0xb2, 0xb6, 0xac, 0xbe, 0xa8, 0x0a, 0xd7, 0xbd,
  0x54, 0xbe, 0x10, 0x3e, 0xb3, 0x41, 0x3d, 0xbe, 0x72, 0x7e, 0x8f, 0xbe,
  0x9c, 0x85, 0x4d, 0x3e, 0xee, 0xf4, 0x2d, 0xbe, 0x41, 0x71, 0x94, 0x3d,
  0x7e, 0x1f, 0x72, 0xbe, 0xe6, 0x6b, 0xeb, 0x3e, 0xc4, 0x17, 0x96, 0xbe,
  0xad, 0x4c, 0x08, 0xbf, 0x2a, 0x95, 0xc3, 0xbd, 0x82, 0xe1, 0x61, 0x3d,
  0x9f, 0xb4, 0xa4, 0x3e, 0x6d, 0xe7, 0xe8, 0x3d, 0x42, 0x23, 0x8b, 0x3e,
  0xa2, 0x89, 0xf5, 0x3e, 0x76, 0xa9, 0xed, 0x3e, 0x7f, 0x7e, 0x0e, 0x3f,
  0xd2, 0x39, 0x11, 0x3e, 0x7c, 0xc6, 0xa6, 0xbc, 0x5b, 0xec, 0xef, 0x3e,
  0x5c, 0x36, 0xb1, 0x3d, 0x0c, 0x4c, 0x4f, 0x3e, 0x41, 0x67, 0x49, 0xbd,
  0x83, 0x14, 0x0b, 0x3d, 0x6a, 0xa6, 0xbc, 0x3e, 0x89, 0xe1, 0x8c, 0x3e,
  0x63, 0xc4, 0x19, 0x3e, 0x12, 0xfe, 0xff, 0xff, 0x04, 0x00, 0x00, 0x00,
  0x28, 0x00, 0x00, 0x00, 0x63, 0xab, 0x7c, 0xbf, 0xa5, 0x09, 0x29, 0xbf,
  0x69, 0xa2, 0x7b, 0xbf, 0x56, 0xc3, 0xe3, 0xbe, 0xf5, 0x01, 0xd8, 0xbf,
  0x99, 0xfa, 0x1d, 0xbf, 0xd3, 0x56, 0xcd, 0xbd, 0x88, 0xa7, 0xae, 0xbe,
  0x4f, 0xe1, 0x28, 0xbf, 0x0e, 0xe8, 0x28, 0xbf, 0x46, 0xfe, 0xff, 0xff,
  0x04, 0x00, 0x00, 0x00, 0x28, 0x00, 0x00, 0x00, 0x1c, 0xc2, 0xbd, 0xbf,
  0xb9, 0x82, 0x70, 0x3f, 0x5c, 0x0b, 0xc1, 0x3b, 0xa9, 0xa3, 0x43, 0x3f,
  0xbc, 0xa2, 0x12, 0xc0, 0x8e, 0xaa, 0xf4, 0x3f, 0x69, 0x6d, 0x83, 0xbf,
  0x97, 0xcc, 0xdc, 0x3f, 0x25, 0x9b, 0xa7, 0x3e, 0x51, 0x6e, 0x17, 0x3f,
  0x7a, 0xfe, 0xff, 0xff, 0x04, 0x00, 0x00, 0x00, 0x28, 0x00, 0x00, 0x00,
  0xfb, 0xe1, 0x9a, 0xbf, 0x40, 0x9c, 0x82, 0xbe, 0x2e, 0x52, 0xa4, 0xbe,
  0xb7, 0x05, 0x43, 0x40, 0xcc, 0xbc, 0x9c, 0x40, 0x61, 0xbf, 0x10, 0x40,
  0xf0, 0x9f, 0x1c, 0x40, 0x18, 0x3e, 0xb1, 0xbf, 0xf6, 0x6c, 0x8c, 0x40,
  0x08, 0xb5, 0x2e, 0xbf, 0xae, 0xfe, 0xff, 0xff, 0x04, 0x00, 0x00, 0x00,
  0x28, 0x00, 0x00, 0x00, 0x61, 0x8f, 0x5a, 0x3e, 0x6c, 0x9c, 0x50, 0xbf,
  0xce, 0x2e, 0x72, 0x3f, 0x96, 0x5a, 0x0c, 0x40, 0x13, 0xc3, 0x0e, 0x40,
  0xca, 0x79, 0x99, 0xbf, 0x05, 0xa6, 0xdc, 0xbf, 0xe1, 0xda, 0x79, 0x3f,
  0x7c, 0xc8, 0x30, 0xbf, 0xba, 0x4c, 0x0a, 0xbf, 0xe2, 0xfe, 0xff, 0xff,
  0x04, 0x00, 0x00, 0x00, 0x28, 0x00, 0x00, 0x00, 0xed, 0xf2, 0x13, 0xbf,
  0xe1, 0xb6, 0xff, 0xbe, 0x79, 0x84, 0xb1, 0x3f, 0xca, 0x85, 0xcb, 0x3e,
  0xa6, 0x2c, 0xdc, 0x3e, 0x22, 0xc1, 0xb9, 0x3e, 0xcf, 0xa6, 0x4d, 0x3f,
  0xe5, 0x2b, 0x9b, 0x3e, 0xe0, 0xa1, 0x07, 0xbe, 0x78, 0x64, 0x74, 0xbe,
  0x16, 0xff, 0xff, 0xff, 0x04, 0x00, 0x00, 0x00, 0x28, 0x00, 0x00, 0x00,
  0xd6, 0xaf, 0x9c, 0xbd, 0x42, 0x1f, 0x26, 0x3f, 0x8b, 0xb7, 0xd5, 0xbf,
  0x0d, 0x2f, 0x4d, 0x3e, 0xe6, 0xd8, 0x8b, 0x3f, 0x84, 0xcf, 0x27, 0xbd,
  0x08, 0xbd, 0xe8, 0x3c, 0xa7, 0xcf, 0xb4, 0xbe, 0x82, 0x8e, 0x44, 0x3e,
  0x0c, 0x72, 0x58, 0xbf, 0x04, 0xf1, 0xff, 0xff, 0x08, 0xf1, 0xff, 0xff,
  0x0f, 0x00, 0x00, 0x00, 0x4d, 0x4c, 0x49, 0x52, 0x20, 0x43, 0x6f, 0x6e,
  0x76, 0x65, 0x72, 0x74, 0x65, 0x64, 0x2e, 0x00, 0x01, 0x00, 0x00, 0x00,
  0x14, 0x00, 0x00, 0x00, 0x00, 0x00, 0x0e, 0x00, 0x18, 0x00, 0x14, 0x00,
  0x10, 0x00, 0x0c, 0x00, 0x08, 0x00, 0x04, 0x00, 0x0e, 0x00, 0x00, 0x00,
  0x14, 0x00, 0x00, 0x00, 0x1c, 0x00, 0x00, 0x00, 0xb4, 0x02, 0x00, 0x00,
  0xb8, 0x02, 0x00, 0x00, 0xbc, 0x02, 0x00, 0x00, 0x04, 0x00, 0x00, 0x00,
  0x6d, 0x61, 0x69, 0x6e, 0x00, 0x00, 0x00, 0x00, 0x0c, 0x00, 0x00, 0x00,
  0x68, 0x02, 0x00, 0x00, 0x24, 0x02, 0x00, 0x00, 0xf0, 0x01, 0x00, 0x00,
  0xbc, 0x01, 0x00, 0x00, 0x88, 0x01, 0x00, 0x00, 0x54, 0x01, 0x00, 0x00,
  0x20, 0x01, 0x00, 0x00, 0xec, 0x00, 0x00, 0x00, 0xb8, 0x00, 0x00, 0x00,
  0x84, 0x00, 0x00, 0x00, 0x50, 0x00, 0x00, 0x00, 0x14, 0x00, 0x00, 0x00,
  0x00, 0x00, 0x0e, 0x00, 0x1a, 0x00, 0x14, 0x00, 0x10, 0x00, 0x0c, 0x00,
  0x0b, 0x00, 0x04, 0x00, 0x0e, 0x00, 0x00, 0x00, 0x1c, 0x00, 0x00, 0x00,
  0x00, 0x00, 0x00, 0x09, 0x1c, 0x00, 0x00, 0x00, 0x20, 0x00, 0x00, 0x00,
  0x01, 0x00, 0x00, 0x00, 0x00, 0x00, 0x06, 0x00, 0x08, 0x00, 0x04, 0x00,
  0x06, 0x00, 0x00, 0x00, 0x00, 0x00, 0x80, 0x3f, 0x01, 0x00, 0x00, 0x00,
  0x1d, 0x00, 0x00, 0x00, 0x01, 0x00, 0x00, 0x00, 0x1c, 0x00, 0x00, 0x00,
  0x1e, 0xfe, 0xff, 0xff, 0x10, 0x00, 0x00, 0x00, 0x00, 0x00, 0x00, 0x08,
  0x0c, 0x00, 0x00, 0x00, 0x10, 0x00, 0x00, 0x00, 0xec, 0xf1, 0xff, 0xff,
  0x01, 0x00, 0x00, 0x00, 0x1c, 0x00, 0x00, 0x00, 0x03, 0x00, 0x00, 0x00,
  0x1b, 0x00, 0x00, 0x00, 0x11, 0x00, 0x00, 0x00, 0x05, 0x00, 0x00, 0x00,
  0x4e, 0xfe, 0xff, 0xff, 0x10, 0x00, 0x00, 0x00, 0x00, 0x00, 0x00, 0x08,
  0x0c, 0x00, 0x00, 0x00, 0x10, 0x00, 0x00, 0x00, 0x1c, 0xf2, 0xff, 0xff,
  0x01, 0x00, 0x00, 0x00, 0x1b, 0x00, 0x00, 0x00, 0x03, 0x00, 0x00, 0x00,
  0x1a, 0x00, 0x00, 0x00, 0x10, 0x00, 0x00, 0x00, 0xff, 0xff, 0xff, 0xff,
  0x7e, 0xfe, 0xff, 0xff, 0x10, 0x00, 0x00, 0x00, 0x00, 0x00, 0x00, 0x08,
  0x0c, 0x00, 0x00, 0x00, 0x10, 0x00, 0x00, 0x00, 0x4c, 0xf2, 0xff, 0xff,
  0x01, 0x00, 0x00, 0x00, 0x1a, 0x00, 0x00, 0x00, 0x03, 0x00, 0x00, 0x00,
  0x19, 0x00, 0x00, 0x00, 0x0f, 0x00, 0x00, 0x00, 0x04, 0x00, 0x00, 0x00,
  0xae, 0xfe, 0xff, 0xff, 0x10, 0x00, 0x00, 0x00, 0x00, 0x00, 0x00, 0x08,
  0x0c, 0x00, 0x00, 0x00, 0x10, 0x00, 0x00, 0x00, 0x7c, 0xf2, 0xff, 0xff,
  0x01, 0x00, 0x00, 0x00, 0x19, 0x00, 0x00, 0x00, 0x03, 0x00, 0x00, 0x00,
  0x18, 0x00, 0x00, 0x00, 0x0e, 0x00, 0x00, 0x00, 0xff, 0xff, 0xff, 0xff,
  0xde, 0xfe, 0xff, 0xff, 0x10, 0x00, 0x00, 0x00, 0x00, 0x00, 0x00, 0x08,
  0x0c, 0x00, 0x00, 0x00, 0x10, 0x00, 0x00, 0x00, 0xac, 0xf2, 0xff, 0xff,
  0x01, 0x00, 0x00, 0x00, 0x18, 0x00, 0x00, 0x00, 0x03, 0x00, 0x00, 0x00,
  0x17, 0x00, 0x00, 0x00, 0x0d, 0x00, 0x00, 0x00, 0x03, 0x00, 0x00, 0x00,
  0x0e, 0xff, 0xff, 0xff, 0x10, 0x00, 0x00, 0x00, 0x00, 0x00, 0x00, 0x08,
  0x0c, 0x00, 0x00, 0x00, 0x10, 0x00, 0x00, 0x00, 0xdc, 0xf2, 0xff, 0xff,
  0x01, 0x00, 0x00, 0x00, 0x17, 0x00, 0x00, 0x00, 0x03, 0x00, 0x00, 0x00,
  0x16, 0x00, 0x00, 0x00, 0x0c, 0x00, 0x00, 0x00, 0xff, 0xff, 0xff, 0xff,
  0x3e, 0xff, 0xff, 0xff, 0x10, 0x00, 0x00, 0x00, 0x00, 0x00, 0x00, 0x08,
  0x0c, 0x00, 0x00, 0x00, 0x10, 0x00, 0x00, 0x00, 0x0c, 0xf3, 0xff, 0xff,
  0x01, 0x00, 0x00, 0x00, 0x16, 0x00, 0x00, 0x00, 0x03, 0x00, 0x00, 0x00,
  0x15, 0x00, 0x00, 0x00, 0x0b, 0x00, 0x00, 0x00, 0x02, 0x00, 0x00, 0x00,
  0x6e, 0xff, 0xff, 0xff, 0x10, 0x00, 0x00, 0x00, 0x00, 0x00, 0x00, 0x08,
  0x0c, 0x00, 0x00, 0x00, 0x10, 0x00, 0x00, 0x00, 0x3c, 0xf3, 0xff, 0xff,
  0x01, 0x00, 0x00, 0x00, 0x15, 0x00, 0x00, 0x00, 0x03, 0x00, 0x00, 0x00,
  0x14, 0x00, 0x00, 0x00, 0x0a, 0x00, 0x00, 0x00, 0xff, 0xff, 0xff, 0xff,
  0x9e, 0xff, 0xff, 0xff, 0x10, 0x00, 0x00, 0x00, 0x00, 0x00, 0x00, 0x08,
  0x0c, 0x00, 0x00, 0x00, 0x10, 0x00, 0x00, 0x00, 0x6c, 0xf3, 0xff, 0xff,
  0x01, 0x00, 0x00, 0x00, 0x14, 0x00, 0x00, 0x00, 0x03, 0x00, 0x00, 0x00,
  0x13, 0x00, 0x00, 0x00, 0x09, 0x00, 0x00, 0x00, 0x01, 0x00, 0x00, 0x00,
  0xce, 0xff, 0xff, 0xff, 0x10, 0x00, 0x00, 0x00, 0x00, 0x00, 0x00, 0x08,
  0x0c, 0x00, 0x00, 0x00, 0x10, 0x00, 0x00, 0x00, 0x9c, 0xf3, 0xff, 0xff,
  0x01, 0x00, 0x00, 0x00, 0x13, 0x00, 0x00, 0x00, 0x03, 0x00, 0x00, 0x00,
  0x12, 0x00, 0x00, 0x00, 0x08, 0x00, 0x00, 0x00, 0xff, 0xff, 0xff, 0xff,
  0x00, 0x00, 0x0e, 0x00, 0x14, 0x00, 0x00, 0x00, 0x10, 0x00, 0x0c, 0x00,
  0x0b, 0x00, 0x04, 0x00, 0x0e, 0x00, 0x00, 0x00, 0x10, 0x00, 0x00, 0x00,
  0x00, 0x00, 0x00, 0x08, 0x0c, 0x00, 0x00, 0x00, 0x10, 0x00, 0x00, 0x00,
  0xdc, 0xf3, 0xff, 0xff, 0x01, 0x00, 0x00, 0x00, 0x12, 0x00, 0x00, 0x00,
  0x03, 0x00, 0x00, 0x00, 0x00, 0x00, 0x00, 0x00, 0x07, 0x00, 0x00, 0x00,
  0x06, 0x00, 0x00, 0x00, 0x01, 0x00, 0x00, 0x00, 0x1d, 0x00, 0x00, 0x00,
  0x01, 0x00, 0x00, 0x00, 0x00, 0x00, 0x00, 0x00, 0x1e, 0x00, 0x00, 0x00,
  0xcc, 0x0b, 0x00, 0x00, 0x4c, 0x0b, 0x00, 0x00, 0xcc, 0x0a, 0x00, 0x00,
  0x64, 0x0a, 0x00, 0x00, 0xfc, 0x09, 0x00, 0x00, 0x94, 0x09, 0x00, 0x00,
  0x38, 0x09, 0x00, 0x00, 0xe8, 0x08, 0x00, 0x00, 0x98, 0x08, 0x00, 0x00,
  0x48, 0x08, 0x00, 0x00, 0xf8, 0x07, 0x00, 0x00, 0xa8, 0x07, 0x00, 0x00,
  0x58, 0x07, 0x00, 0x00, 0x08, 0x07, 0x00, 0x00, 0xb8, 0x06, 0x00, 0x00,
  0x68, 0x06, 0x00, 0x00, 0x18, 0x06, 0x00, 0x00, 0xc8, 0x05, 0x00, 0x00,
  0x4c, 0x05, 0x00, 0x00, 0xec, 0x04, 0x00, 0x00, 0x50, 0x04, 0x00, 0x00,
  0xf0, 0x03, 0x00, 0x00, 0x54, 0x03, 0x00, 0x00, 0xf4, 0x02, 0x00, 0x00,
  0x58, 0x02, 0x00, 0x00, 0xf8, 0x01, 0x00, 0x00, 0x5c, 0x01, 0x00, 0x00,
  0xfc, 0x00, 0x00, 0x00, 0x60, 0x00, 0x00, 0x00, 0x04, 0x00, 0x00, 0x00,
  0xc2, 0xf4, 0xff, 0xff, 0x00, 0x00, 0x00, 0x01, 0x14, 0x00, 0x00, 0x00,
  0x1c, 0x00, 0x00, 0x00, 0x1c, 0x00, 0x00, 0x00, 0x1e, 0x00, 0x00, 0x00,
  0x34, 0x00, 0x00, 0x00, 0x02, 0x00, 0x00, 0x00, 0xff, 0xff, 0xff, 0xff,
  0x0a, 0x00, 0x00, 0x00, 0xac, 0xf4, 0xff, 0xff, 0x19, 0x00, 0x00, 0x00,
  0x53, 0x74, 0x61, 0x74, 0x65, 0x66, 0x75, 0x6c, 0x50, 0x61, 0x72, 0x74,
  0x69, 0x74, 0x69, 0x6f, 0x6e, 0x65, 0x64, 0x43, 0x61, 0x6c, 0x6c, 0x3a,
  0x30, 0x00, 0x00, 0x00, 0x02, 0x00, 0x00, 0x00, 0x01, 0x00, 0x00, 0x00,
  0x0a, 0x00, 0x00, 0x00, 0x1a, 0xf5, 0xff, 0xff, 0x00, 0x00, 0x00, 0x01,
  0x14, 0x00, 0x00, 0x00, 0x1c, 0x00, 0x00, 0x00, 0x1c, 0x00, 0x00, 0x00,
  0x1d, 0x00, 0x00, 0x00, 0x74, 0x00, 0x00, 0x00, 0x02, 0x00, 0x00, 0x00,
  0xff, 0xff, 0xff, 0xff, 0x0a, 0x00, 0x00, 0x00, 0x04, 0xf5, 0xff, 0xff,
  0x58, 0x00, 0x00, 0x00, 0x73, 0x65, 0x71, 0x75, 0x65, 0x6e, 0x74, 0x69,
  0x61, 0x6c, 0x5f, 0x33, 0x2f, 0x64, 0x65, 0x6e, 0x73, 0x65, 0x5f, 0x32,
  0x34, 0x2f, 0x42, 0x69, 0x61, 0x73, 0x41, 0x64, 0x64, 0x3b, 0x73, 0x65,
  0x71, 0x75, 0x65, 0x6e, 0x74, 0x69, 0x61, 0x6c, 0x5f, 0x33, 0x2f, 0x64,
  0x65, 0x6e, 0x73, 0x65, 0x5f, 0x32, 0x35, 0x2f, 0x4d, 0x61, 0x74, 0x4d,
  0x75, 0x6c, 0x3b, 0x73, 0x65, 0x71, 0x75, 0x65, 0x6e, 0x74, 0x69, 0x61,
  0x6c, 0x5f, 0x33, 0x2f, 0x64, 0x65, 0x6e, 0x73, 0x65, 0x5f, 0x32, 0x35,
  0x2f, 0x42, 0x69, 0x61, 0x73, 0x41, 0x64, 0x64, 0x00, 0x00, 0x00, 0x00,
  0x02, 0x00, 0x00, 0x00, 0x01, 0x00, 0x00, 0x00, 0x0a, 0x00, 0x00, 0x00,
  0xb2, 0xf5, 0xff, 0xff, 0x00, 0x00, 0x00, 0x01, 0x14, 0x00, 0x00, 0x00,
  0x1c, 0x00, 0x00, 0x00, 0x1c, 0x00, 0x00, 0x00, 0x1c, 0x00, 0x00, 0x00,
  0x38, 0x00, 0x00, 0x00, 0x02, 0x00, 0x00, 0x00, 0xff, 0xff, 0xff, 0xff,
  0x0a, 0x00, 0x00, 0x00, 0x9c, 0xf5, 0xff, 0xff, 0x1d, 0x00, 0x00, 0x00,
  0x73, 0x65, 0x71, 0x75, 0x65, 0x6e, 0x74, 0x69, 0x61, 0x6c, 0x5f, 0x33,
  0x2f, 0x64, 0x65, 0x6e, 0x73, 0x65, 0x5f, 0x32, 0x34, 0x2f, 0x4d, 0x61,
  0x74, 0x4d, 0x75, 0x6c, 0x31, 0x00, 0x00, 0x00, 0x02, 0x00, 0x00, 0x00,
  0x01, 0x00, 0x00, 0x00, 0x0a, 0x00, 0x00, 0x00, 0x0e, 0xf6, 0xff, 0xff,
  0x00, 0x00, 0x00, 0x01, 0x14, 0x00, 0x00, 0x00, 0x1c, 0x00, 0x00, 0x00,
  0x1c, 0x00, 0x00, 0x00, 0x1b, 0x00, 0x00, 0x00, 0x74, 0x00, 0x00, 0x00,
  0x02, 0x00, 0x00, 0x00, 0xff, 0xff, 0xff, 0xff, 0x0a, 0x00, 0x00, 0x00,
  0xf8, 0xf5, 0xff, 0xff, 0x58, 0x00, 0x00, 0x00, 0x73, 0x65, 0x71, 0x75,
  0x65, 0x6e, 0x74, 0x69, 0x61, 0x6c, 0x5f, 0x33, 0x2f, 0x64, 0x65, 0x6e,
  0x73, 0x65, 0x5f, 0x32, 0x32, 0x2f, 0x42, 0x69, 0x61, 0x73, 0x41, 0x64,
  0x64, 0x3b, 0x73, 0x65, 0x71, 0x75, 0x65, 0x6e, 0x74, 0x69, 0x61, 0x6c,
  0x5f, 0x33, 0x2f, 0x64, 0x65, 0x6e, 0x73, 0x65, 0x5f, 0x32, 0x33, 0x2f,
  0x4d, 0x61, 0x74, 0x4d, 0x75, 0x6c, 0x3b, 0x73, 0x65, 0x71, 0x75, 0x65,
  0x6e, 0x74, 0x69, 0x61, 0x6c, 0x5f, 0x33, 0x2f, 0x64, 0x65, 0x6e, 0x73,
  0x65, 0x5f, 0x32, 0x33, 0x2f, 0x42, 0x69, 0x61, 0x73, 0x41, 0x64, 0x64,
  0x00, 0x00, 0x00, 0x00, 0x02, 0x00, 0x00, 0x00, 0x01, 0x00, 0x00, 0x00,
  0x0a, 0x00, 0x00, 0x00, 0xa6, 0xf6, 0xff, 0xff, 0x00, 0x00, 0x00, 0x01,
  0x14, 0x00, 0x00, 0x00, 0x1c, 0x00, 0x00, 0x00, 0x1c, 0x00, 0x00, 0x00,
  0x1a, 0x00, 0x00, 0x00, 0x38, 0x00, 0x00, 0x00, 0x02, 0x00, 0x00, 0x00,
  0xff, 0xff, 0xff, 0xff, 0x0a, 0x00, 0x00, 0x00, 0x90, 0xf6, 0xff, 0xff,
  0x1d, 0x00, 0x00, 0x00, 0x73, 0x65, 0x71, 0x75, 0x65, 0x6e, 0x74, 0x69,
  0x61, 0x6c, 0x5f, 0x33, 0x2f, 0x64, 0x65, 0x6e, 0x73, 0x65, 0x5f, 0x32,
  0x32, 0x2f, 0x4d, 0x61, 0x74, 0x4d, 0x75, 0x6c, 0x31, 0x00, 0x00, 0x00,
  0x02, 0x00, 0x00, 0x00, 0x01, 0x00, 0x00, 0x00, 0x0a, 0x00, 0x00, 0x00,
  0x02, 0xf7, 0xff, 0xff, 0x00, 0x00, 0x00, 0x01, 0x14, 0x00, 0x00, 0x00,
  0x1c, 0x00, 0x00, 0x00, 0x1c, 0x00, 0x00, 0x00, 0x19, 0x00, 0x00, 0x00,
  0x74, 0x00, 0x00, 0x00, 0x02, 0x00, 0x00, 0x00, 0xff, 0xff, 0xff, 0xff,
  0x0a, 0x00, 0x00, 0x00, 0xec, 0xf6, 0xff, 0xff, 0x58, 0x00, 0x00, 0x00,
  0x73, 0x65, 0x71, 0x75, 0x65, 0x6e, 0x74, 0x69, 0x61, 0x6c, 0x5f, 0x33,
  0x2f, 0x64, 0x65, 0x6e, 0x73, 0x65, 0x5f, 0x32, 0x30, 0x2f, 0x42, 0x69,
  0x61, 0x73, 0x41, 0x64, 0x64, 0x3b, 0x73, 0x65, 0x71, 0x75, 0x65, 0x6e,
  0x74, 0x69, 0x61, 0x6c, 0x5f, 0x33, 0x2f, 0x64, 0x65, 0x6e, 0x73, 0x65,
  0x5f, 0x32, 0x31, 0x2f, 0x4d, 0x61, 0x74, 0x4d, 0x75, 0x6c, 0x3b, 0x73,
  0x65, 0x71, 0x75, 0x65, 0x6e, 0x74, 0x69, 0x61, 0x6c, 0x5f, 0x33, 0x2f,
  0x64, 0x65, 0x6e, 0x73, 0x65, 0x5f, 0x32, 0x31, 0x2f, 0x42, 0x69, 0x61,
  0x73, 0x41, 0x64, 0x64, 0x00, 0x00, 0x00, 0x00, 0x02, 0x00, 0x00, 0x00,
  0x01, 0x00, 0x00, 0x00, 0x0a, 0x00, 0x00, 0x00, 0x9a, 0xf7, 0xff, 0xff,
  0x00, 0x00, 0x00, 0x01, 0x14, 0x00, 0x00, 0x00, 0x1c, 0x00, 0x00, 0x00,
  0x1c, 0x00, 0x00, 0x00, 0x18, 0x00, 0x00, 0x00, 0x38, 0x00, 0x00, 0x00,
  0x02, 0x00, 0x00, 0x00, 0xff, 0xff, 0xff, 0xff, 0x0a, 0x00, 0x00, 0x00,
  0x84, 0xf7, 0xff, 0xff, 0x1d, 0x00, 0x00, 0x00, 0x73, 0x65, 0x71, 0x75,
  0x65, 0x6e, 0x74, 0x69, 0x61, 0x6c, 0x5f, 0x33, 0x2f, 0x64, 0x65, 0x6e,
  0x73, 0x65, 0x5f, 0x32, 0x30, 0x2f, 0x4d, 0x61, 0x74, 0x4d, 0x75, 0x6c,
  0x31, 0x00, 0x00, 0x00, 0x02, 0x00, 0x00, 0x00, 0x01, 0x00, 0x00, 0x00,
  0x0a, 0x00, 0x00, 0x00, 0xf6, 0xf7, 0xff, 0xff, 0x00, 0x00, 0x00, 0x01,
  0x14, 0x00, 0x00, 0x00, 0x1c, 0x00, 0x00, 0x00, 0x1c, 0x00, 0x00, 0x00,
  0x17, 0x00, 0x00, 0x00, 0x74, 0x00, 0x00, 0x00, 0x02, 0x00, 0x00, 0x00,
  0xff, 0xff, 0xff, 0xff, 0x0a, 0x00, 0x00, 0x00, 0xe0, 0xf7, 0xff, 0xff,
  0x58, 0x00, 0x00, 0x00, 0x73, 0x65, 0x71, 0x75, 0x65, 0x6e, 0x74, 0x69,
  0x61, 0x6c, 0x5f, 0x33, 0x2f, 0x64, 0x65, 0x6e, 0x73, 0x65, 0x5f, 0x31,
  0x38, 0x2f, 0x42, 0x69, 0x61, 0x73, 0x41, 0x64, 0x64, 0x3b, 0x73, 0x65,
  0x71, 0x75, 0x65, 0x6e, 0x74, 0x69, 0x61, 0x6c, 0x5f, 0x33, 0x2f, 0x64,
  0x65, 0x6e, 0x73, 0x65, 0x5f, 0x31, 0x39, 0x2f, 0x4d, 0x61, 0x74, 0x4d,
  0x75, 0x6c, 0x3b, 0x73, 0x65, 0x71, 0x75, 0x65, 0x6e, 0x74, 0x69, 0x61,
  0x6c, 0x5f, 0x33, 0x2f, 0x64, 0x65, 0x6e, 0x73, 0x65, 0x5f, 0x31, 0x39,
  0x2f, 0x42, 0x69, 0x61, 0x73, 0x41, 0x64, 0x64, 0x00, 0x00, 0x00, 0x00,
  0x02, 0x00, 0x00, 0x00, 0x01, 0x00, 0x00, 0x00, 0x0a, 0x00, 0x00, 0x00,
  0x8e, 0xf8, 0xff, 0xff, 0x00, 0x00, 0x00, 0x01, 0x14, 0x00, 0x00, 0x00,
  0x1c, 0x00, 0x00, 0x00, 0x1c, 0x00, 0x00, 0x00, 0x16, 0x00, 0x00, 0x00,
  0x38, 0x00, 0x00, 0x00, 0x02, 0x00, 0x00, 0x00, 0xff, 0xff, 0xff, 0xff,
  0x0a, 0x00, 0x00, 0x00, 0x78, 0xf8, 0xff, 0xff, 0x1d, 0x00, 0x00, 0x00,
  0x73, 0x65, 0x71, 0x75, 0x65, 0x6e, 0x74, 0x69, 0x61, 0x6c, 0x5f, 0x33,
  0x2f, 0x64, 0x65, 0x6e, 0x73, 0x65, 0x5f, 0x31, 0x38, 0x2f, 0x4d, 0x61,
  0x74, 0x4d, 0x75, 0x6c, 0x31, 0x00, 0x00, 0x00, 0x02, 0x00, 0x00, 0x00,
  0x01, 0x00, 0x00, 0x00, 0x0a, 0x00, 0x00, 0x00, 0xea, 0xf8, 0xff, 0xff,
  0x00, 0x00, 0x00, 0x01, 0x14, 0x00, 0x00, 0x00, 0x1c, 0x00, 0x00, 0x00,
  0x1c, 0x00, 0x00, 0x00, 0x15, 0x00, 0x00, 0x00, 0x74, 0x00, 0x00, 0x00,
  0x02, 0x00, 0x00, 0x00, 0xff, 0xff, 0xff, 0xff, 0x0a, 0x00, 0x00, 0x00,
  0xd4, 0xf8, 0xff, 0xff, 0x58, 0x00, 0x00, 0x00, 0x73, 0x65, 0x71, 0x75,
  0x65, 0x6e, 0x74, 0x69, 0x61, 0x6c, 0x5f, 0x33, 0x2f, 0x64, 0x65, 0x6e,
  0x73, 0x65, 0x5f, 0x31, 0x36, 0x2f, 0x42, 0x69, 0x61, 0x73, 0x41, 0x64,
  0x64, 0x3b, 0x73, 0x65, 0x71, 0x75, 0x65, 0x6e, 0x74, 0x69, 0x61, 0x6c,
  0x5f, 0x33, 0x2f, 0x64, 0x65, 0x6e, 0x73, 0x65, 0x5f, 0x31, 0x37, 0x2f,
  0x4d, 0x61, 0x74, 0x4d, 0x75, 0x6c, 0x3b, 0x73, 0x65, 0x71, 0x75, 0x65,
  0x6e, 0x74, 0x69, 0x61, 0x6c, 0x5f, 0x33, 0x2f, 0x64, 0x65, 0x6e, 0x73,
  0x65, 0x5f, 0x31, 0x37, 0x2f, 0x42, 0x69, 0x61, 0x73, 0x41, 0x64, 0x64,
  0x00, 0x00, 0x00, 0x00, 0x02, 0x00, 0x00, 0x00, 0x01, 0x00, 0x00, 0x00,
  0x0a, 0x00, 0x00, 0x00, 0x82, 0xf9, 0xff, 0xff, 0x00, 0x00, 0x00, 0x01,
  0x14, 0x00, 0x00, 0x00, 0x1c, 0x00, 0x00, 0x00, 0x1c, 0x00, 0x00, 0x00,
  0x14, 0x00, 0x00, 0x00, 0x38, 0x00, 0x00, 0x00, 0x02, 0x00, 0x00, 0x00,
  0xff, 0xff, 0xff, 0xff, 0x0a, 0x00, 0x00, 0x00, 0x6c, 0xf9, 0xff, 0xff,
  0x1d, 0x00, 0x00, 0x00, 0x73, 0x65, 0x71, 0x75, 0x65, 0x6e, 0x74, 0x69,
  0x61, 0x6c, 0x5f, 0x33, 0x2f, 0x64, 0x65, 0x6e, 0x73, 0x65, 0x5f, 0x31,
  0x36, 0x2f, 0x4d, 0x61, 0x74, 0x4d, 0x75, 0x6c, 0x31, 0x00, 0x00, 0x00,
  0x02, 0x00, 0x00, 0x00, 0x01, 0x00, 0x00, 0x00, 0x0a, 0x00, 0x00, 0x00,
  0xde, 0xf9, 0xff, 0xff, 0x00, 0x00, 0x00, 0x01, 0x14, 0x00, 0x00, 0x00,
  0x1c, 0x00, 0x00, 0x00, 0x1c, 0x00, 0x00, 0x00, 0x13, 0x00, 0x00, 0x00,
  0x54, 0x00, 0x00, 0x00, 0x02, 0x00, 0x00, 0x00, 0xff, 0xff, 0xff, 0xff,
  0x0a, 0x00, 0x00, 0x00, 0xc8, 0xf9, 0xff, 0xff, 0x3a, 0x00, 0x00, 0x00,
  0x73, 0x65, 0x71, 0x75, 0x65, 0x6e, 0x74, 0x69, 0x61, 0x6c, 0x5f, 0x33,
  0x2f, 0x64, 0x65, 0x6e, 0x73, 0x65, 0x5f, 0x31, 0x35, 0x2f, 0x4d, 0x61,
  0x74, 0x4d, 0x75, 0x6c, 0x3b, 0x73, 0x65, 0x71, 0x75, 0x65, 0x6e, 0x74,
  0x69, 0x61, 0x6c, 0x5f, 0x33, 0x2f, 0x64, 0x65, 0x6e, 0x73, 0x65, 0x5f,
  0x31, 0x35, 0x2f, 0x42, 0x69, 0x61, 0x73, 0x41, 0x64, 0x64, 0x00, 0x00,
  0x02, 0x00, 0x00, 0x00, 0x01, 0x00, 0x00, 0x00, 0x0a, 0x00, 0x00, 0x00,
  0xd2, 0xfa, 0xff, 0xff, 0x00, 0x00, 0x00, 0x01, 0x10, 0x00, 0x00, 0x00,
  0x10, 0x00, 0x00, 0x00, 0x12, 0x00, 0x00, 0x00, 0x2c, 0x00, 0x00, 0x00,
  0x30, 0xfa, 0xff, 0xff, 0x1c, 0x00, 0x00, 0x00, 0x73, 0x65, 0x71, 0x75,
  0x65, 0x6e, 0x74, 0x69, 0x61, 0x6c, 0x5f, 0x33, 0x2f, 0x64, 0x65, 0x6e,
  0x73, 0x65, 0x5f, 0x32, 0x35, 0x2f, 0x4d, 0x61, 0x74, 0x4d, 0x75, 0x6c,
  0x00, 0x00, 0x00, 0x00, 0x02, 0x00, 0x00, 0x00, 0x0a, 0x00, 0x00, 0x00,
  0x0a, 0x00, 0x00, 0x00, 0x1e, 0xfb, 0xff, 0xff, 0x00, 0x00, 0x00, 0x01,
  0x10, 0x00, 0x00, 0x00, 0x10, 0x00, 0x00, 0x00, 0x11, 0x00, 0x00, 0x00,
  0x2c, 0x00, 0x00, 0x00, 0x7c, 0xfa, 0xff, 0xff, 0x1c, 0x00, 0x00, 0x00,
  0x73, 0x65, 0x71, 0x75, 0x65, 0x6e, 0x74, 0x69, 0x61, 0x6c, 0x5f, 0x33,
  0x2f, 0x64, 0x65, 0x6e, 0x73, 0x65, 0x5f, 0x32, 0x34, 0x2f, 0x4d, 0x61,
  0x74, 0x4d, 0x75, 0x6c, 0x00, 0x00, 0x00, 0x00, 0x02, 0x00, 0x00, 0x00,
  0x0a, 0x00, 0x00, 0x00, 0x0a, 0x00, 0x00, 0x00, 0x6a, 0xfb, 0xff, 0xff,
  0x00, 0x00, 0x00, 0x01, 0x10, 0x00, 0x00, 0x00, 0x10, 0x00, 0x00, 0x00,
  0x10, 0x00, 0x00, 0x00, 0x2c, 0x00, 0x00, 0x00, 0xc8, 0xfa, 0xff, 0xff,
  0x1c, 0x00, 0x00, 0x00, 0x73, 0x65, 0x71, 0x75, 0x65, 0x6e, 0x74, 0x69,
  0x61, 0x6c, 0x5f, 0x33, 0x2f, 0x64, 0x65, 0x6e, 0x73, 0x65, 0x5f, 0x32,
  0x33, 0x2f, 0x4d, 0x61, 0x74, 0x4d, 0x75, 0x6c, 0x00, 0x00, 0x00, 0x00,
  0x02, 0x00, 0x00, 0x00, 0x0a, 0x00, 0x00, 0x00, 0x0a, 0x00, 0x00, 0x00,
  0xb6, 0xfb, 0xff, 0xff, 0x00, 0x00, 0x00, 0x01, 0x10, 0x00, 0x00, 0x00,
  0x10, 0x00, 0x00, 0x00, 0x0f, 0x00, 0x00, 0x00, 0x2c, 0x00, 0x00, 0x00,
  0x14, 0xfb, 0xff, 0xff, 0x1c, 0x00, 0x00, 0x00, 0x73, 0x65, 0x71, 0x75,
  0x65, 0x6e, 0x74, 0x69, 0x61, 0x6c, 0x5f, 0x33, 0x2f, 0x64, 0x65, 0x6e,
  0x73, 0x65, 0x5f, 0x32, 0x32, 0x2f, 0x4d, 0x61, 0x74, 0x4d, 0x75, 0x6c,
  0x00, 0x00, 0x00, 0x00, 0x02, 0x00, 0x00, 0x00, 0x0a, 0x00, 0x00, 0x00,
  0x0a, 0x00, 0x00, 0x00, 0x02, 0xfc, 0xff, 0xff, 0x00, 0x00, 0x00, 0x01,
  0x10, 0x00, 0x00, 0x00, 0x10, 0x00, 0x00, 0x00, 0x0e, 0x00, 0x00, 0x00,
  0x2c, 0x00, 0x00, 0x00, 0x60, 0xfb, 0xff, 0xff, 0x1c, 0x00, 0x00, 0x00,
  0x73, 0x65, 0x71, 0x75, 0x65, 0x6e, 0x74, 0x69, 0x61, 0x6c, 0x5f, 0x33,
  0x2f, 0x64, 0x65, 0x6e, 0x73, 0x65, 0x5f, 0x32, 0x31, 0x2f, 0x4d, 0x61,
  0x74, 0x4d, 0x75, 0x6c, 0x00, 0x00, 0x00, 0x00, 0x02, 0x00, 0x00, 0x00,
  0x0a, 0x00, 0x00, 0x00, 0x0a, 0x00, 0x00, 0x00, 0x4e, 0xfc, 0xff, 0xff,
  0x00, 0x00, 0x00, 0x01, 0x10, 0x00, 0x00, 0x00, 0x10, 0x00, 0x00, 0x00,
  0x0d, 0x00, 0x00, 0x00, 0x2c, 0x00, 0x00, 0x00, 0xac, 0xfb, 0xff, 0xff,
  0x1c, 0x00, 0x00, 0x00, 0x73, 0x65, 0x71, 0x75, 0x65, 0x6e, 0x74, 0x69,
  0x61, 0x6c, 0x5f, 0x33, 0x2f, 0x64, 0x65, 0x6e, 0x73, 0x65, 0x5f, 0x32,
  0x30, 0x2f, 0x4d, 0x61, 0x74, 0x4d, 0x75, 0x6c, 0x00, 0x00, 0x00, 0x00,
  0x02, 0x00, 0x00, 0x00, 0x0a, 0x00, 0x00, 0x00, 0x0a, 0x00, 0x00, 0x00,
  0x9a, 0xfc, 0xff, 0xff, 0x00, 0x00, 0x00, 0x01, 0x10, 0x00, 0x00, 0x00,
  0x10, 0x00, 0x00, 0x00, 0x0c, 0x00, 0x00, 0x00, 0x2c, 0x00, 0x00, 0x00,
  0xf8, 0xfb, 0xff, 0xff, 0x1c, 0x00, 0x00, 0x00, 0x73, 0x65, 0x71, 0x75,
  0x65, 0x6e, 0x74, 0x69, 0x61, 0x6c, 0x5f, 0x33, 0x2f, 0x64, 0x65, 0x6e,
  0x73, 0x65, 0x5f, 0x31, 0x39, 0x2f, 0x4d, 0x61, 0x74, 0x4d, 0x75, 0x6c,
  0x00, 0x00, 0x00, 0x00, 0x02, 0x00, 0x00, 0x00, 0x0a, 0x00, 0x00, 0x00,
  0x0a, 0x00, 0x00, 0x00, 0xe6, 0xfc, 0xff, 0xff, 0x00, 0x00, 0x00, 0x01,
  0x10, 0x00, 0x00, 0x00, 0x10, 0x00, 0x00, 0x00, 0x0b, 0x00, 0x00, 0x00,
  0x2c, 0x00, 0x00, 0x00, 0x44, 0xfc, 0xff, 0xff, 0x1c, 0x00, 0x00, 0x00,
  0x73, 0x65, 0x71, 0x75, 0x65, 0x6e, 0x74, 0x69, 0x61, 0x6c, 0x5f, 0x33,
  0x2f, 0x64, 0x65, 0x6e, 0x73, 0x65, 0x5f, 0x31, 0x38, 0x2f, 0x4d, 0x61,
  0x74, 0x4d, 0x75, 0x6c, 0x00, 0x00, 0x00, 0x00, 0x02, 0x00, 0x00, 0x00,
  0x0a, 0x00, 0x00, 0x00, 0x0a, 0x00, 0x00, 0x00, 0x32, 0xfd, 0xff, 0xff,
  0x00, 0x00, 0x00, 0x01, 0x10, 0x00, 0x00, 0x00, 0x10, 0x00, 0x00, 0x00,
  0x0a, 0x00, 0x00, 0x00, 0x2c, 0x00, 0x00, 0x00, 0x90, 0xfc, 0xff, 0xff,
  0x1c, 0x00, 0x00, 0x00, 0x73, 0x65, 0x71, 0x75, 0x65, 0x6e, 0x74, 0x69,
  0x61, 0x6c, 0x5f, 0x33, 0x2f, 0x64, 0x65, 0x6e, 0x73, 0x65, 0x5f, 0x31,
  0x37, 0x2f, 0x4d, 0x61, 0x74, 0x4d, 0x75, 0x6c, 0x00, 0x00, 0x00, 0x00,
  0x02, 0x00, 0x00, 0x00, 0x0a, 0x00, 0x00, 0x00, 0x0a, 0x00, 0x00, 0x00,
  0x7e, 0xfd, 0xff, 0xff, 0x00, 0x00, 0x00, 0x01, 0x10, 0x00, 0x00, 0x00,
  0x10, 0x00, 0x00, 0x00, 0x09, 0x00, 0x00, 0x00, 0x2c, 0x00, 0x00, 0x00,
  0xdc, 0xfc, 0xff, 0xff, 0x1c, 0x00, 0x00, 0x00, 0x73, 0x65, 0x71, 0x75,
  0x65, 0x6e, 0x74, 0x69, 0x61, 0x6c, 0x5f, 0x33, 0x2f, 0x64, 0x65, 0x6e,
  0x73, 0x65, 0x5f, 0x31, 0x36, 0x2f, 0x4d, 0x61, 0x74, 0x4d, 0x75, 0x6c,
  0x00, 0x00, 0x00, 0x00, 0x02, 0x00, 0x00, 0x00, 0x0a, 0x00, 0x00, 0x00,
  0x0a, 0x00, 0x00, 0x00, 0xca, 0xfd, 0xff, 0xff, 0x00, 0x00, 0x00, 0x01,
  0x10, 0x00, 0x00, 0x00, 0x10, 0x00, 0x00, 0x00, 0x08, 0x00, 0x00, 0x00,
  0x2c, 0x00, 0x00, 0x00, 0x28, 0xfd, 0xff, 0xff, 0x1c, 0x00, 0x00, 0x00,
  0x73, 0x65, 0x71, 0x75, 0x65, 0x6e, 0x74, 0x69, 0x61, 0x6c, 0x5f, 0x33,
  0x2f, 0x64, 0x65, 0x6e, 0x73, 0x65, 0x5f, 0x31, 0x35, 0x2f, 0x4d, 0x61,
  0x74, 0x4d, 0x75, 0x6c, 0x00, 0x00, 0x00, 0x00, 0x02, 0x00, 0x00, 0x00,
  0x0a, 0x00, 0x00, 0x00, 0x40, 0x00, 0x00, 0x00, 0x16, 0xfe, 0xff, 0xff,
  0x00, 0x00, 0x00, 0x01, 0x10, 0x00, 0x00, 0x00, 0x10, 0x00, 0x00, 0x00,
  0x07, 0x00, 0x00, 0x00, 0x3c, 0x00, 0x00, 0x00, 0x74, 0xfd, 0xff, 0xff,
  0x2c, 0x00, 0x00, 0x00, 0x73, 0x65, 0x71, 0x75, 0x65, 0x6e, 0x74, 0x69,
  0x61, 0x6c, 0x5f, 0x33, 0x2f, 0x64, 0x65, 0x6e, 0x73, 0x65, 0x5f, 0x31,
  0x35, 0x2f, 0x42, 0x69, 0x61, 0x73, 0x41, 0x64, 0x64, 0x2f, 0x52, 0x65,
  0x61, 0x64, 0x56, 0x61, 0x72, 0x69, 0x61, 0x62, 0x6c, 0x65, 0x4f, 0x70,
  0x00, 0x00, 0x00, 0x00, 0x01, 0x00, 0x00, 0x00, 0x0a, 0x00, 0x00, 0x00,
  0x6e, 0xfe, 0xff, 0xff, 0x00, 0x00, 0x00, 0x01, 0x10, 0x00, 0x00, 0x00,
  0x10, 0x00, 0x00, 0x00, 0x06, 0x00, 0x00, 0x00, 0x48, 0x00, 0x00, 0x00,
  0xcc, 0xfd, 0xff, 0xff, 0x3a, 0x00, 0x00, 0x00, 0x73, 0x65, 0x71, 0x75,
  0x65, 0x6e, 0x74, 0x69, 0x61, 0x6c, 0x5f, 0x33, 0x2f, 0x64, 0x65, 0x6e,
  0x73, 0x65, 0x5f, 0x32, 0x35, 0x2f, 0x4d, 0x61, 0x74, 0x4d, 0x75, 0x6c,
  0x3b, 0x73, 0x65, 0x71, 0x75, 0x65, 0x6e, 0x74, 0x69, 0x61, 0x6c, 0x5f,
  0x33, 0x2f, 0x64, 0x65, 0x6e, 0x73, 0x65, 0x5f, 0x32, 0x35, 0x2f, 0x42,
  0x69, 0x61, 0x73, 0x41, 0x64, 0x64, 0x00, 0x00, 0x01, 0x00, 0x00, 0x00,
  0x0a, 0x00, 0x00, 0x00, 0xd2, 0xfe, 0xff, 0xff, 0x00, 0x00, 0x00, 0x01,
  0x10, 0x00, 0x00, 0x00, 0x10, 0x00, 0x00, 0x00, 0x05, 0x00, 0x00, 0x00,
  0x48, 0x00, 0x00, 0x00, 0x30, 0xfe, 0xff, 0xff, 0x3a, 0x00, 0x00, 0x00,
  0x73, 0x65, 0x71, 0x75, 0x65, 0x6e, 0x74, 0x69, 0x61, 0x6c, 0x5f, 0x33,
  0x2f, 0x64, 0x65, 0x6e, 0x73, 0x65, 0x5f, 0x32, 0x33, 0x2f, 0x4d, 0x61,
  0x74, 0x4d, 0x75, 0x6c, 0x3b, 0x73, 0x65, 0x71, 0x75, 0x65, 0x6e, 0x74,
  0x69, 0x61, 0x6c, 0x5f, 0x33, 0x2f, 0x64, 0x65, 0x6e, 0x73, 0x65, 0x5f,
  0x32, 0x33, 0x2f, 0x42, 0x69, 0x61, 0x73, 0x41, 0x64, 0x64, 0x00, 0x00,
  0x01, 0x00, 0x00, 0x00, 0x0a, 0x00, 0x00, 0x00, 0x36, 0xff, 0xff, 0xff,
  0x00, 0x00, 0x00, 0x01, 0x10, 0x00, 0x00, 0x00, 0x10, 0x00, 0x00, 0x00,
  0x04, 0x00, 0x00, 0x00, 0x48, 0x00, 0x00, 0x00, 0x94, 0xfe, 0xff, 0xff,
  0x3a, 0x00, 0x00, 0x00, 0x73, 0x65, 0x71, 0x75, 0x65, 0x6e, 0x74, 0x69,
  0x61, 0x6c, 0x5f, 0x33, 0x2f, 0x64, 0x65, 0x6e, 0x73, 0x65, 0x5f, 0x32,
  0x31, 0x2f, 0x4d, 0x61, 0x74, 0x4d, 0x75, 0x6c, 0x3b, 0x73, 0x65, 0x71,
  0x75, 0x65, 0x6e, 0x74, 0x69, 0x61, 0x6c, 0x5f, 0x33, 0x2f, 0x64, 0x65,
  0x6e, 0x73, 0x65, 0x5f, 0x32, 0x31, 0x2f, 0x42, 0x69, 0x61, 0x73, 0x41,
  0x64, 0x64, 0x00, 0x00, 0x01, 0x00, 0x00, 0x00, 0x0a, 0x00, 0x00, 0x00,
  0x9a, 0xff, 0xff, 0xff, 0x00, 0x00, 0x00, 0x01, 0x10, 0x00, 0x00, 0x00,
  0x10, 0x00, 0x00, 0x00, 0x03, 0x00, 0x00, 0x00, 0x48, 0x00, 0x00, 0x00,
  0xf8, 0xfe, 0xff, 0xff, 0x3a, 0x00, 0x00, 0x00, 0x73, 0x65, 0x71, 0x75,
  0x65, 0x6e, 0x74, 0x69, 0x61, 0x6c, 0x5f, 0x33, 0x2f, 0x64, 0x65, 0x6e,
  0x73, 0x65, 0x5f, 0x31, 0x39, 0x2f, 0x4d, 0x61, 0x74, 0x4d, 0x75, 0x6c,
  0x3b, 0x73, 0x65, 0x71, 0x75, 0x65, 0x6e, 0x74, 0x69, 0x61, 0x6c, 0x5f,
  0x33, 0x2f, 0x64, 0x65, 0x6e, 0x73, 0x65, 0x5f, 0x31, 0x39, 0x2f, 0x42,
  0x69, 0x61, 0x73, 0x41, 0x64, 0x64, 0x00, 0x00, 0x01, 0x00, 0x00, 0x00,
  0x0a, 0x00, 0x00, 0x00, 0x00, 0x00, 0x16, 0x00, 0x18, 0x00, 0x14, 0x00,
  0x00, 0x00, 0x10, 0x00, 0x0c, 0x00, 0x08, 0x00, 0x00, 0x00, 0x00, 0x00,
  0x00, 0x00, 0x07, 0x00, 0x16, 0x00, 0x00, 0x00, 0x00, 0x00, 0x00, 0x01,
  0x10, 0x00, 0x00, 0x00, 0x10, 0x00, 0x00, 0x00, 0x02, 0x00, 0x00, 0x00,
  0x48, 0x00, 0x00, 0x00, 0x74, 0xff, 0xff, 0xff, 0x3a, 0x00, 0x00, 0x00,
  0x73, 0x65, 0x71, 0x75, 0x65, 0x6e, 0x74, 0x69, 0x61, 0x6c, 0x5f, 0x33,
  0x2f, 0x64, 0x65, 0x6e, 0x73, 0x65, 0x5f, 0x31, 0x37, 0x2f, 0x4d, 0x61,
  0x74, 0x4d, 0x75, 0x6c, 0x3b, 0x73, 0x65, 0x71, 0x75, 0x65, 0x6e, 0x74,
  0x69, 0x61, 0x6c, 0x5f, 0x33, 0x2f, 0x64, 0x65, 0x6e, 0x73, 0x65, 0x5f,
  0x31, 0x37, 0x2f, 0x42, 0x69, 0x61, 0x73, 0x41, 0x64, 0x64, 0x00, 0x00,
  0x01, 0x00, 0x00, 0x00, 0x0a, 0x00, 0x00, 0x00, 0x00, 0x00, 0x16, 0x00,
  0x1c, 0x00, 0x18, 0x00, 0x00, 0x00, 0x14, 0x00, 0x10, 0x00, 0x0c, 0x00,
  0x00, 0x00, 0x00, 0x00, 0x08, 0x00, 0x07, 0x00, 0x16, 0x00, 0x00, 0x00,
  0x00, 0x00, 0x00, 0x01, 0x14, 0x00, 0x00, 0x00, 0x20, 0x00, 0x00, 0x00,
  0x20, 0x00, 0x00, 0x00, 0x01, 0x00, 0x00, 0x00, 0x40, 0x00, 0x00, 0x00,
  0x02, 0x00, 0x00, 0x00, 0xff, 0xff, 0xff, 0xff, 0x40, 0x00, 0x00, 0x00,
  0x04, 0x00, 0x04, 0x00, 0x04, 0x00, 0x00, 0x00, 0x20, 0x00, 0x00, 0x00,
  0x73, 0x65, 0x72, 0x76, 0x69, 0x6e, 0x67, 0x5f, 0x64, 0x65, 0x66, 0x61,
  0x75, 0x6c, 0x74, 0x5f, 0x64, 0x65, 0x6e, 0x73, 0x65, 0x5f, 0x31, 0x35,
  0x5f, 0x69, 0x6e, 0x70, 0x75, 0x74, 0x3a, 0x30, 0x00, 0x00, 0x00, 0x00,
  0x02, 0x00, 0x00, 0x00, 0x01, 0x00, 0x00, 0x00, 0x40, 0x00, 0x00, 0x00,
  0x02, 0x00, 0x00, 0x00, 0x20, 0x00, 0x00, 0x00, 0x04, 0x00, 0x00, 0x00,
  0xf4, 0xff, 0xff, 0xff, 0x19, 0x00, 0x00, 0x00, 0x00, 0x00, 0x00, 0x19,
  0x0c, 0x00, 0x0c, 0x00, 0x0b, 0x00, 0x00, 0x00, 0x00, 0x00, 0x04, 0x00,
  0x0c, 0x00, 0x00, 0x00, 0x09, 0x00, 0x00, 0x00, 0x00, 0x00, 0x00, 0x09
};
unsigned int second_model_NO_activations_tflite_len = 11544;
