#include "model.h"

unsigned char third_model_NO_activations_tflite[] = {
  0x1c, 0x00, 0x00, 0x00, 0x54, 0x46, 0x4c, 0x33, 0x14, 0x00, 0x20, 0x00,
  0x1c, 0x00, 0x18, 0x00, 0x14, 0x00, 0x10, 0x00, 0x0c, 0x00, 0x00, 0x00,
  0x08, 0x00, 0x04, 0x00, 0x14, 0x00, 0x00, 0x00, 0x1c, 0x00, 0x00, 0x00,
  0x98, 0x00, 0x00, 0x00, 0xf0, 0x00, 0x00, 0x00, 0xec, 0x1b, 0x00, 0x00,
  0xfc, 0x1b, 0x00, 0x00, 0x64, 0x21, 0x00, 0x00, 0x03, 0x00, 0x00, 0x00,
  0x01, 0x00, 0x00, 0x00, 0x10, 0x00, 0x00, 0x00, 0x00, 0x00, 0x0a, 0x00,
  0x10, 0x00, 0x0c, 0x00, 0x08, 0x00, 0x04, 0x00, 0x0a, 0x00, 0x00, 0x00,
  0x0c, 0x00, 0x00, 0x00, 0x1c, 0x00, 0x00, 0x00, 0x3c, 0x00, 0x00, 0x00,
  0x0f, 0x00, 0x00, 0x00, 0x73, 0x65, 0x72, 0x76, 0x69, 0x6e, 0x67, 0x5f,
  0x64, 0x65, 0x66, 0x61, 0x75, 0x6c, 0x74, 0x00, 0x01, 0x00, 0x00, 0x00,
  0x04, 0x00, 0x00, 0x00, 0x90, 0xff, 0xff, 0xff, 0x09, 0x00, 0x00, 0x00,
  0x04, 0x00, 0x00, 0x00, 0x08, 0x00, 0x00, 0x00, 0x64, 0x65, 0x6e, 0x73,
  0x65, 0x5f, 0x33, 0x31, 0x00, 0x00, 0x00, 0x00, 0x01, 0x00, 0x00, 0x00,
  0x04, 0x00, 0x00, 0x00, 0xfa, 0xe3, 0xff, 0xff, 0x04, 0x00, 0x00, 0x00,
  0x0e, 0x00, 0x00, 0x00, 0x64, 0x65, 0x6e, 0x73, 0x65, 0x5f, 0x32, 0x39,
  0x5f, 0x69, 0x6e, 0x70, 0x75, 0x74, 0x00, 0x00, 0x02, 0x00, 0x00, 0x00,
  0x34, 0x00, 0x00, 0x00, 0x04, 0x00, 0x00, 0x00, 0xdc, 0xff, 0xff, 0xff,
  0x0c, 0x00, 0x00, 0x00, 0x04, 0x00, 0x00, 0x00, 0x13, 0x00, 0x00, 0x00,
  0x43, 0x4f, 0x4e, 0x56, 0x45, 0x52, 0x53, 0x49, 0x4f, 0x4e, 0x5f, 0x4d,
  0x45, 0x54, 0x41, 0x44, 0x41, 0x54, 0x41, 0x00, 0x08, 0x00, 0x0c, 0x00,
  0x08, 0x00, 0x04, 0x00, 0x08, 0x00, 0x00, 0x00, 0x0b, 0x00, 0x00, 0x00,
  0x04, 0x00, 0x00, 0x00, 0x13, 0x00, 0x00, 0x00, 0x6d, 0x69, 0x6e, 0x5f,
  0x72, 0x75, 0x6e, 0x74, 0x69, 0x6d, 0x65, 0x5f, 0x76, 0x65, 0x72, 0x73,
  0x69, 0x6f, 0x6e, 0x00, 0x0d, 0x00, 0x00, 0x00, 0xf8, 0x1a, 0x00, 0x00,
  0xf0, 0x1a, 0x00, 0x00, 0xb8, 0x1a, 0x00, 0x00, 0x80, 0x1a, 0x00, 0x00,
  0x70, 0x10, 0x00, 0x00, 0x90, 0x08, 0x00, 0x00, 0xb0, 0x00, 0x00, 0x00,
  0xa8, 0x00, 0x00, 0x00, 0xa0, 0x00, 0x00, 0x00, 0x98, 0x00, 0x00, 0x00,
  0x90, 0x00, 0x00, 0x00, 0x70, 0x00, 0x00, 0x00, 0x04, 0x00, 0x00, 0x00,
  0xaa, 0xe4, 0xff, 0xff, 0x04, 0x00, 0x00, 0x00, 0x5c, 0x00, 0x00, 0x00,
  0x0c, 0x00, 0x00, 0x00, 0x08, 0x00, 0x0e, 0x00, 0x08, 0x00, 0x04, 0x00,
  0x08, 0x00, 0x00, 0x00, 0x14, 0x00, 0x00, 0x00, 0x2c, 0x00, 0x00, 0x00,
  0x00, 0x00, 0x0a, 0x00, 0x0c, 0x00, 0x08, 0x00, 0x00, 0x00, 0x07, 0x00,
  0x0a, 0x00, 0x00, 0x00, 0x00, 0x00, 0x00, 0x01, 0x04, 0x00, 0x00, 0x00,
  0x00, 0x00, 0x00, 0x00, 0x00, 0x00, 0x0a, 0x00, 0x10, 0x00, 0x0c, 0x00,
  0x08, 0x00, 0x04, 0x00, 0x0a, 0x00, 0x00, 0x00, 0x01, 0x00, 0x00, 0x00,
  0x02, 0x00, 0x00, 0x00, 0x04, 0x00, 0x00, 0x00, 0x06, 0x00, 0x00, 0x00,
  0x32, 0x2e, 0x31, 0x31, 0x2e, 0x30, 0x00, 0x00, 0x12, 0xe5, 0xff, 0xff,
  0x04, 0x00, 0x00, 0x00, 0x10, 0x00, 0x00, 0x00, 0x31, 0x2e, 0x35, 0x2e,
  0x30, 0x00, 0x00, 0x00, 0x00, 0x00, 0x00, 0x00, 0x00, 0x00, 0x00, 0x00,
  0x78, 0xe0, 0xff, 0xff, 0x7c, 0xe0, 0xff, 0xff, 0x80, 0xe0, 0xff, 0xff,
  0x84, 0xe0, 0xff, 0xff, 0x3e, 0xe5, 0xff, 0xff, 0x04, 0x00, 0x00, 0x00,
  0xd0, 0x07, 0x00, 0x00, 0x36, 0x8a, 0xf6, 0xbe, 0xe8, 0x6e, 0x8a, 0xbe,
  0xa2, 0xa4, 0x49, 0x3e, 0x20, 0x10, 0x2c, 0x3f, 0x81, 0xb6, 0x92, 0x3e,
  0x7d, 0x94, 0x38, 0x3e, 0xea, 0x31, 0x32, 0x3e, 0xb7, 0x2a, 0x2b, 0xbf,
  0x4e, 0x1d, 0xde, 0x3c, 0xf2, 0x01, 0x29, 0x3f, 0x3c, 0x49, 0xa4, 0xbc,
  0x8c, 0x48, 0x1a, 0x3e, 0xe9, 0x7f, 0xc6, 0xbe, 0x14, 0x38, 0x50, 0xbe,
  0x92, 0xba, 0x90, 0x3e, 0x49, 0x49, 0xd1, 0x3c, 0x31, 0xd2, 0x56, 0x3d,
  0xdd, 0x45, 0xc7, 0xbd, 0xa4, 0x41, 0x1f, 0x3f, 0x6c, 0x01, 0x77, 0x3e,
  0xa1, 0x5b, 0x94, 0x3e, 0x9f, 0xad, 0xa4, 0x3e, 0x05, 0x6e, 0x0f, 0x3f,
  0xb4, 0x56, 0x8f, 0xbe, 0xae, 0x7f, 0x8b, 0xbe, 0xee, 0xe3, 0xbd, 0x3e,
  0x87, 0xc7, 0x28, 0x3f, 0x29, 0x14, 0xd3, 0xbd, 0x01, 0x28, 0x0c, 0xbf,
  0x7a, 0xf4, 0xc8, 0x3e, 0x10, 0xc8, 0x11, 0x3f, 0x7d, 0x30, 0x16, 0x3e,
  0x6c, 0x64, 0xb8, 0xbd, 0x5d, 0x0e, 0x62, 0xbe, 0x7b, 0x26, 0x13, 0x3f,
  0x16, 0x78, 0x86, 0xbe, 0x9e, 0x8e, 0x0b, 0xbf, 0x0e, 0x7c, 0x29, 0xbe,
  0x8d, 0x94, 0xf0, 0xbe, 0x32, 0xf4, 0xf9, 0xbd, 0xfb, 0x7d, 0xe0, 0xbe,
  0xed, 0x99, 0xa5, 0xbe, 0xfb, 0xb9, 0xd2, 0x3e, 0xea, 0x12, 0x2f, 0x3e,
  0x5a, 0x56, 0x4e, 0xbf, 0x5a, 0xe0, 0x72, 0xbe, 0x2e, 0xd0, 0x62, 0x3e,
  0x71, 0x81, 0x02, 0x3e, 0x89, 0x40, 0x41, 0x3e, 0x53, 0x13, 0xc2, 0xbd,
  0x28, 0xa5, 0xe0, 0xbe, 0x16, 0xb5, 0x4b, 0x3f, 0xf7, 0x27, 0xb9, 0xbd,
  0x5f, 0x9f, 0x10, 0x3e, 0x2e, 0xaa, 0x1c, 0xbe, 0x48, 0x85, 0x07, 0x3e,
  0x84, 0x5c, 0x49, 0xbe, 0xf9, 0x5d, 0x8c, 0xbd, 0x1c, 0xfe, 0xc9, 0x3d,
  0x27, 0x8b, 0x7b, 0x3e, 0x82, 0x32, 0x93, 0x3e, 0x17, 0xa3, 0xc6, 0x3e,
  0x82, 0x4b, 0x93, 0x3e, 0x35, 0x4d, 0x49, 0x3e, 0xa5, 0xae, 0x82, 0xbe,
  0x49, 0x22, 0xe4, 0x3b, 0x27, 0x13, 0x4f, 0xbe, 0xb7, 0x5e, 0x00, 0x3f,
  0xc7, 0x35, 0x14, 0xbd, 0x83, 0x39, 0x84, 0x3e, 0x18, 0xc6, 0x84, 0xbe,
  0xf4, 0x1d, 0xcd, 0xbd, 0x2b, 0xdc, 0xd1, 0x3e, 0xde, 0xcc, 0xdb, 0xbe,
  0x98, 0xe4, 0xc8, 0x3e, 0x21, 0xa4, 0x5d, 0x3e, 0xf2, 0xcb, 0x23, 0xbe,
  0xf6, 0xfc, 0xfc, 0x3e, 0x64, 0x24, 0xb5, 0x3e, 0x67, 0x32, 0x9f, 0xbe,
  0x42, 0xe5, 0x4d, 0x3f, 0x9c, 0x8b, 0x87, 0x3e, 0x01, 0x04, 0x08, 0xbe,
  0x62, 0x3f, 0xd1, 0xbe, 0xe1, 0xf4, 0xc8, 0x3e, 0x28, 0xa8, 0x7f, 0xbe,
  0x85, 0x19, 0xbe, 0xbe, 0x77, 0xc3, 0x0f, 0x3c, 0x9e, 0x3b, 0x8c, 0xbe,
  0xb5, 0x7e, 0xce, 0xbd, 0x70, 0xe6, 0x8d, 0xbd, 0x3f, 0x8f, 0xac, 0x3e,
  0x20, 0xe8, 0x95, 0x3e, 0x2b, 0xec, 0x44, 0xbe, 0x9c, 0x08, 0x78, 0x3f,
  0x52, 0x49, 0xf6, 0xbb, 0xcc, 0x86, 0xe1, 0xbe, 0xf6, 0xaa, 0x94, 0xbd,
  0xf9, 0xb2, 0x35, 0xbf, 0xd2, 0x52, 0x53, 0x3e, 0xf5, 0xb7, 0x04, 0xbf,
  0xc8, 0xe1, 0xb3, 0x3b, 0x94, 0x2f, 0x4c, 0xbe, 0x6a, 0xb1, 0xf5, 0x3e,
  0x9e, 0x84, 0xa4, 0x3d, 0x09, 0xef, 0xce, 0xbd, 0x58, 0x90, 0x54, 0x3e,
  0x22, 0x34, 0x98, 0x3e, 0xcc, 0x34, 0x6e, 0xbe, 0x12, 0x83, 0x27, 0xbf,
  0x05, 0x4a, 0xb1, 0x3e, 0x5b, 0x3b, 0x0c, 0xbd, 0xfa, 0xa8, 0xd9, 0x3e,
  0x25, 0xce, 0xaf, 0x3c, 0x29, 0x27, 0x6e, 0xbe, 0xd4, 0x90, 0x46, 0x3f,
  0x14, 0x66, 0x5e, 0x3e, 0xe1, 0x70, 0x1d, 0x3e, 0x75, 0xba, 0xe9, 0x3e,
  0xf3, 0xe7, 0x5c, 0x3d, 0x02, 0xd9, 0x24, 0x3e, 0x96, 0xa6, 0x42, 0x3e,
  0x3f, 0x97, 0x95, 0xbe, 0x7c, 0x19, 0x83, 0x3e, 0x58, 0xc5, 0xcb, 0xbc,
  0x09, 0xaa, 0x41, 0xbe, 0x70, 0x5b, 0x38, 0x3f, 0xb4, 0x8c, 0x06, 0xbd,
  0xcb, 0x31, 0x16, 0x3f, 0x1d, 0x54, 0x4d, 0xbd, 0x16, 0x48, 0xef, 0x3e,
  0xb2, 0xf2, 0xa8, 0xbe, 0x76, 0x7f, 0x35, 0x3f, 0x26, 0x81, 0x88, 0x3e,
  0x55, 0x87, 0xde, 0x3e, 0x6e, 0x78, 0xdf, 0xbe, 0xc9, 0x7d, 0xd7, 0xbe,
  0xad, 0x5b, 0x21, 0xbe, 0x6d, 0x35, 0xc7, 0x3e, 0x9d, 0x5d, 0x3c, 0x3e,
  0x1e, 0x56, 0x67, 0xbe, 0x32, 0x12, 0xed, 0x3e, 0x5f, 0x12, 0x1e, 0x3f,
  0xe5, 0xd4, 0xe0, 0xbe, 0x9f, 0x4a, 0x25, 0xbf, 0x36, 0x4b, 0x81, 0xbe,
  0x46, 0x87, 0xcd, 0xbe, 0xc0, 0xaf, 0xa6, 0x3e, 0x9e, 0x1e, 0x82, 0xbe,
  0x79, 0xdc, 0x88, 0x3e, 0xc9, 0x0f, 0xfe, 0xbd, 0x8a, 0xcf, 0xa3, 0xbe,
  0x13, 0x9c, 0x92, 0xbe, 0x3c, 0x9d, 0x92, 0xbf, 0x31, 0xa9, 0x0d, 0x3d,
  0x50, 0xc2, 0x6e, 0xbe, 0xba, 0x89, 0xe0, 0x3e, 0xb4, 0xbc, 0x95, 0x3d,
  0x92, 0x21, 0x3e, 0xbf, 0x25, 0x62, 0x6e, 0xbd, 0xc1, 0x39, 0xe2, 0x3e,
  0x6c, 0x02, 0x2d, 0x3e, 0xa7, 0xed, 0x86, 0x3e, 0x59, 0x2c, 0x7b, 0xbe,
  0x20, 0xd7, 0x41, 0x3e, 0xaf, 0xd8, 0xd4, 0xbe, 0xc3, 0x69, 0x66, 0xbe,
  0xa2, 0x17, 0x31, 0xbf, 0xc8, 0x9d, 0x4e, 0xbf, 0x12, 0x3e, 0x7c, 0xbe,
  0x65, 0x27, 0xa7, 0x3e, 0x4d, 0xc7, 0xe8, 0xbe, 0x31, 0x25, 0x2c, 0x3f,
  0xea, 0x41, 0x7d, 0xbe, 0x73, 0x5c, 0xed, 0x3e, 0xa9, 0x2c, 0x09, 0xbe,
  0xee, 0xc9, 0x81, 0x3e, 0x9d, 0x07, 0x91, 0xbe, 0xaf, 0xef, 0x1e, 0x3e,
  0x66, 0xf5, 0xda, 0xbd, 0x38, 0xc1, 0x0c, 0x3e, 0xbe, 0x30, 0xc0, 0xbe,
  0x17, 0x5a, 0x58, 0x3f, 0x55, 0xb4, 0xb3, 0x3b, 0x30, 0xbf, 0x12, 0xbf,
  0xe2, 0x07, 0xf3, 0x3e, 0x62, 0x19, 0x21, 0x3f, 0x18, 0x6c, 0x9e, 0x3d,
  0x54, 0x3b, 0x04, 0x3f, 0xf7, 0x1c, 0x39, 0xbe, 0x22, 0x57, 0xbb, 0x3e,
  0xe6, 0xe7, 0x7c, 0x3d, 0x4c, 0x89, 0x84, 0xbd, 0x48, 0xe2, 0x07, 0x3f,
  0x03, 0xd8, 0x3d, 0xbe, 0x26, 0x72, 0xc3, 0x3e, 0x62, 0x7d, 0x8a, 0xbf,
  0xd8, 0x91, 0xa9, 0xbe, 0x6b, 0x4d, 0xd5, 0xbd, 0xad, 0x30, 0x2a, 0x3e,
  0xbe, 0x6c, 0x33, 0x3d, 0xff, 0x80, 0x88, 0xbe, 0x60, 0xe8, 0xf4, 0x3e,
  0x08, 0xfb, 0x4f, 0x3f, 0x7a, 0x7c, 0xf4, 0x3e, 0x7e, 0x3c, 0xb1, 0xbe,
  0xcd, 0x39, 0xb7, 0xbe, 0x93, 0xf2, 0x7e, 0xbe, 0x3d, 0x66, 0xd0, 0x3e,
  0x0a, 0x23, 0x17, 0x3f, 0x04, 0x99, 0x84, 0xbf, 0xc3, 0x81, 0xc3, 0x3e,
  0xb6, 0x0c, 0x93, 0xbe, 0x83, 0x9e, 0x81, 0xbe, 0x7b, 0xc5, 0x17, 0x3e,
  0xc4, 0x9b, 0xb3, 0x3d, 0x95, 0xad, 0x02, 0x3d, 0x5e, 0xba, 0x20, 0x3f,
  0x9f, 0xd0, 0x0d, 0x3f, 0x93, 0x51, 0x4b, 0x3e, 0x44, 0x20, 0x89, 0x3e,
  0x7c, 0xf8, 0xa3, 0x3e, 0x5a, 0xf0, 0x77, 0xbf, 0x84, 0xd9, 0xb9, 0x3e,
  0x82, 0xf5, 0x68, 0xbf, 0xd1, 0x8b, 0x0c, 0x3f, 0x72, 0xb3, 0x81, 0x3d,
  0xe2, 0x94, 0x38, 0x3f, 0x81, 0x2a, 0xf1, 0xbe, 0x0a, 0x06, 0x57, 0xbd,
  0x16, 0xbf, 0xca, 0x3e, 0xe6, 0x1a, 0x06, 0x3f, 0x69, 0xf2, 0x56, 0xbe,
  0xb1, 0x44, 0x24, 0xbf, 0xef, 0x7c, 0x07, 0x3e, 0x9d, 0x72, 0x55, 0xbf,
  0x28, 0xaa, 0x7f, 0xbe, 0x94, 0x77, 0x99, 0xb8, 0x2e, 0x81, 0x7c, 0xbe,
  0x16, 0xbe, 0x42, 0xbe, 0x47, 0x2e, 0x50, 0xbf, 0x57, 0x0f, 0xe2, 0xbe,
  0xdc, 0x39, 0x9a, 0xbe, 0xc6, 0xed, 0x33, 0xbe, 0x12, 0x09, 0x6d, 0x3f,
  0x27, 0xb4, 0x31, 0x3e, 0xeb, 0x3d, 0x64, 0x3f, 0x3c, 0xf9, 0xbb, 0x3d,
  0xe2, 0xad, 0xaa, 0xbd, 0xd8, 0xea, 0x31, 0x3e, 0xb1, 0x0b, 0x82, 0xbe,
  0x48, 0x14, 0x80, 0xbf, 0x49, 0x1c, 0x8f, 0xbe, 0x76, 0x5f, 0xe9, 0xbe,
  0x9e, 0xab, 0x1b, 0xbf, 0x0b, 0x7d, 0xec, 0xbe, 0xd5, 0x43, 0x9e, 0xbd,
  0x6a, 0x89, 0x07, 0x3f, 0x78, 0xa4, 0x2d, 0xbe, 0xc2, 0x1d, 0x31, 0x3d,
  0x07, 0x92, 0xa0, 0x3e, 0x4f, 0x55, 0x0f, 0x3e, 0x8e, 0xe1, 0x3d, 0xbe,
  0xad, 0x10, 0x96, 0xbe, 0xc3, 0xa3, 0x93, 0x3e, 0xfc, 0x4d, 0xa7, 0x3e,
  0xe8, 0xe1, 0xa1, 0x3d, 0x73, 0x28, 0x00, 0xbf, 0xc2, 0x02, 0x5c, 0xbf,
  0x22, 0xfb, 0x13, 0x3e, 0x5f, 0x2b, 0xe6, 0x3d, 0xb7, 0x8e, 0x79, 0x3e,
  0x3b, 0x30, 0x18, 0x3f, 0x90, 0xc4, 0xd4, 0x3e, 0x24, 0xf5, 0x05, 0x3d,
  0x54, 0xdc, 0x9b, 0x3f, 0xeb, 0xe1, 0xf5, 0xbe, 0xe8, 0x95, 0xcd, 0x3e,
  0x90, 0xef, 0x26, 0x3f, 0x2e, 0x32, 0x01, 0xbe, 0x7e, 0x1c, 0x08, 0xbf,
  0x72, 0x13, 0x5b, 0xbf, 0xba, 0x02, 0x42, 0xbe, 0xc5, 0xf5, 0xe5, 0x3e,
  0x3c, 0x6a, 0x84, 0xbf, 0xed, 0xef, 0x07, 0x3f, 0x52, 0xb4, 0x35, 0x3f,
  0x14, 0x3b, 0xbe, 0x3d, 0xae, 0xd2, 0x4a, 0x3e, 0x8e, 0x35, 0x54, 0xbf,
  0xa1, 0x21, 0x92, 0x3e, 0x94, 0x45, 0xe0, 0xbe, 0x59, 0x0e, 0x1c, 0xbf,
  0xfa, 0x7b, 0x03, 0x3f, 0x33, 0x04, 0x67, 0x3f, 0x60, 0x69, 0x0f, 0xbe,
  0x91, 0x89, 0xea, 0xbd, 0x44, 0xc2, 0xf9, 0x3d, 0x99, 0xd0, 0x24, 0x3f,
  0x8a, 0xfe, 0x0f, 0xbe, 0xcd, 0xb7, 0x84, 0x3e, 0x8b, 0x43, 0x69, 0xbe,
  0x58, 0x71, 0x70, 0x3e, 0x51, 0xc9, 0x14, 0x3f, 0xac, 0x49, 0x04, 0x3d,
  0xfa, 0x82, 0x21, 0x3e, 0xe8, 0xbc, 0xcd, 0xbd, 0x4c, 0x34, 0x2e, 0x3e,
  0x2d, 0x79, 0x91, 0x3e, 0xa5, 0x85, 0x62, 0x3f, 0xa2, 0x0a, 0xe6, 0xbe,
  0x7e, 0x38, 0xff, 0x3e, 0x13, 0xb5, 0x97, 0x3e, 0x10, 0x0b, 0x0b, 0x3f,
  0xe2, 0x56, 0x5c, 0xbd, 0xa9, 0x53, 0x39, 0x3e, 0x19, 0xaf, 0xd4, 0xbc,
  0x4a, 0x61, 0x94, 0x3d, 0x05, 0x5e, 0x4e, 0x3f, 0xc7, 0x3b, 0x3a, 0xbe,
  0xac, 0x55, 0x27, 0xbc, 0xd3, 0x73, 0x08, 0xbf, 0xb1, 0x99, 0x2d, 0xbf,
  0x53, 0xf2, 0xe4, 0xbe, 0x6b, 0x51, 0xd5, 0x3e, 0x6d, 0xb2, 0x16, 0x3e,
  0xee, 0x63, 0x0e, 0xbe, 0x7e, 0x22, 0x54, 0xbf, 0x75, 0x60, 0xa7, 0x3d,
  0x5a, 0x0b, 0x9d, 0xbe, 0x86, 0x52, 0x59, 0xbf, 0x60, 0xa2, 0x16, 0x3e,
  0x54, 0xaa, 0x94, 0xbe, 0xed, 0xad, 0x9b, 0xbe, 0x3f, 0x0e, 0x34, 0x3f,
  0x1b, 0x6a, 0xc6, 0xbe, 0xa2, 0x3c, 0xc9, 0xbe, 0xf4, 0x42, 0x5c, 0xba,
  0x22, 0x47, 0xa5, 0xbe, 0xef, 0x64, 0xd3, 0xbe, 0xb2, 0x5d, 0xa6, 0xbe,
  0x89, 0x4a, 0x7f, 0x3d, 0xeb, 0x15, 0xc3, 0x3e, 0xdf, 0x81, 0xa6, 0xbe,
  0x5c, 0x53, 0x7b, 0xbe, 0x90, 0xf1, 0xe5, 0xbe, 0x67, 0xe8, 0x44, 0x3f,
  0x3a, 0x7c, 0x0b, 0x3d, 0xd7, 0x10, 0xf0, 0x3d, 0xf4, 0x8f, 0xde, 0xbd,
  0x4b, 0x10, 0x36, 0x3f, 0x26, 0x8c, 0x08, 0x3f, 0xdf, 0x7f, 0x9d, 0x3e,
  0xe5, 0xc8, 0x4b, 0x3e, 0x9f, 0xdc, 0xdd, 0xbd, 0x5e, 0x07, 0xcb, 0x3d,
  0x6c, 0x07, 0x6c, 0xbd, 0x48, 0x15, 0xd8, 0x3d, 0xe2, 0x7a, 0x97, 0xbe,
  0xc6, 0xb2, 0xa0, 0xbd, 0x93, 0x24, 0xe3, 0xbe, 0x9d, 0x5c, 0xc8, 0xbe,
  0x07, 0xb7, 0x44, 0xbe, 0x78, 0x45, 0x97, 0x3e, 0x58, 0xf3, 0xe3, 0x3d,
  0x21, 0xd3, 0xb8, 0xbe, 0x4a, 0x09, 0x9b, 0xbe, 0x73, 0x92, 0x9e, 0x3e,
  0x3b, 0xa2, 0xd9, 0x3e, 0x9b, 0x7a, 0xb7, 0xbd, 0x72, 0x5b, 0x5f, 0xbc,
  0x78, 0x19, 0x1f, 0xbe, 0x6c, 0x84, 0x99, 0x3d, 0xa6, 0x16, 0x9e, 0x3e,
  0x79, 0xb5, 0x3e, 0xbf, 0xb6, 0xbd, 0x05, 0xbf, 0x62, 0x42, 0xc7, 0xbe,
  0x24, 0x23, 0x9b, 0xbe, 0x22, 0xac, 0x8b, 0x3e, 0xa9, 0xf7, 0x8c, 0x3d,
  0x8a, 0x80, 0xb5, 0x3d, 0x92, 0x28, 0xbd, 0xbd, 0x0d, 0x80, 0x9f, 0xbd,
  0x5a, 0x3d, 0x11, 0x3e, 0xdf, 0x8b, 0x44, 0xbf, 0xb4, 0xd8, 0x00, 0x3f,
  0x7a, 0xa1, 0x46, 0x3c, 0xa6, 0x81, 0x9c, 0x3e, 0x1d, 0x62, 0x94, 0x3d,
  0xe0, 0x7d, 0x2d, 0x3e, 0x3a, 0x94, 0xc7, 0xbd, 0x3d, 0x46, 0x53, 0x3e,
  0x05, 0x57, 0x5f, 0xbd, 0xbf, 0x52, 0x0a, 0x3f, 0xcf, 0x68, 0xe1, 0x3d,
  0x0d, 0x66, 0x1d, 0x3f, 0xe8, 0x0e, 0x2a, 0x3e, 0x98, 0xd5, 0xc2, 0x3e,
  0x3e, 0x62, 0x0d, 0xbf, 0xbd, 0x11, 0x80, 0xbe, 0xd2, 0x01, 0x80, 0xbe,
  0x24, 0xba, 0x88, 0x3e, 0x65, 0x9a, 0x3d, 0xbe, 0x2b, 0xb5, 0x82, 0xbf,
  0x91, 0xeb, 0xc5, 0x3e, 0x96, 0xc8, 0x9b, 0x3e, 0x74, 0xdd, 0x31, 0xbe,
  0xae, 0x8a, 0x2e, 0xbf, 0x90, 0x55, 0x8a, 0x3e, 0x50, 0x7d, 0x20, 0xbf,
  0xf7, 0x45, 0xd4, 0x3e, 0xe8, 0x47, 0x17, 0x3e, 0x92, 0x43, 0x52, 0xbf,
  0xa5, 0xaf, 0xd1, 0x3d, 0x2e, 0x56, 0x21, 0x3e, 0xbc, 0x94, 0x62, 0xbe,
  0x28, 0xd2, 0x19, 0xbe, 0xda, 0x77, 0x08, 0x3f, 0x18, 0x45, 0xaa, 0x3e,
  0x31, 0x67, 0xdf, 0x3d, 0x89, 0x79, 0x44, 0x3e, 0x64, 0xe3, 0xbf, 0x3d,
  0xe4, 0xbb, 0xcf, 0xbe, 0x81, 0x80, 0x3e, 0x3e, 0xe9, 0x24, 0x29, 0x3f,
  0x14, 0xab, 0x3d, 0xbf, 0x92, 0x35, 0x3f, 0x3e, 0x04, 0x5d, 0x7f, 0xbe,
  0x5a, 0x92, 0x52, 0xbe, 0x4d, 0xb6, 0xdb, 0x3d, 0xfb, 0x72, 0xe9, 0xbe,
  0x27, 0x1c, 0xad, 0x3e, 0x3e, 0x34, 0xf0, 0xbe, 0xc9, 0xa6, 0xed, 0x3d,
  0xe0, 0x79, 0xbf, 0x3e, 0xa4, 0x15, 0xf2, 0x3e, 0x9a, 0x85, 0x8a, 0x3e,
  0x07, 0x22, 0xf6, 0x3d, 0x02, 0x2e, 0x0d, 0x3f, 0x12, 0xf0, 0x20, 0x3f,
  0x2c, 0x2f, 0x1a, 0xbe, 0xc5, 0xa6, 0xcd, 0x3e, 0x7b, 0xa5, 0x1d, 0x3e,
  0xcc, 0x8d, 0x70, 0xbe, 0xe8, 0x54, 0x76, 0xbf, 0x19, 0xf9, 0xe6, 0xbe,
  0x45, 0x68, 0x05, 0x3e, 0x79, 0x19, 0xc6, 0x3e, 0x39, 0xa2, 0x0b, 0x3c,
  0xfe, 0x2d, 0x15, 0x3d, 0x49, 0x01, 0xb8, 0xbd, 0x87, 0x82, 0x13, 0xbe,
  0xef, 0x15, 0xc3, 0xbe, 0xf7, 0xe3, 0xfd, 0xbe, 0xaa, 0x8b, 0xbf, 0x3c,
  0x7b, 0x27, 0x29, 0x3d, 0x9a, 0xae, 0x5d, 0xbe, 0xdf, 0xf4, 0xd4, 0xbe,
  0xa6, 0x06, 0x89, 0xbe, 0x53, 0x0f, 0x80, 0xbd, 0xc1, 0x8f, 0x52, 0x3d,
  0x35, 0xc3, 0x86, 0xbe, 0x4b, 0x70, 0xc3, 0xbd, 0x5d, 0x08, 0x1c, 0x3d,
  0xf5, 0xb7, 0x1f, 0x3e, 0x0a, 0xde, 0xe3, 0x3d, 0x30, 0xc2, 0x8b, 0x3c,
  0x68, 0x36, 0x49, 0xbd, 0xef, 0x39, 0x76, 0xbe, 0x35, 0x7b, 0x13, 0xbd,
  0x63, 0x2f, 0xf7, 0xbc, 0x99, 0x62, 0x80, 0x3e, 0x56, 0xeb, 0x85, 0x3e,
  0x33, 0x98, 0x5b, 0x3e, 0x1e, 0xde, 0xaf, 0x3d, 0xb8, 0xc6, 0xdf, 0xbe,
  0xbd, 0x00, 0x0f, 0xbf, 0xff, 0x7b, 0x92, 0x3e, 0x1d, 0x83, 0x4e, 0xbf,
  0x2b, 0x28, 0x3f, 0x3e, 0xa4, 0x8e, 0x3a, 0xbe, 0xe3, 0xe2, 0xd2, 0x3e,
  0x4a, 0x6b, 0x2d, 0xbe, 0x82, 0x6f, 0x13, 0x3f, 0x80, 0x39, 0x56, 0xbf,
  0xb0, 0x4d, 0xd1, 0x3e, 0x25, 0x33, 0x6a, 0x3f, 0x16, 0xb0, 0x0e, 0xbe,
  0xcd, 0x83, 0xa0, 0xbe, 0xf9, 0x0d, 0x11, 0xbf, 0x6e, 0x6f, 0xa3, 0x3e,
  0x7d, 0xed, 0xd4, 0xbe, 0x15, 0x31, 0xd0, 0xbe, 0x94, 0xd0, 0x26, 0x3f,
  0xba, 0xcd, 0xe6, 0x3d, 0x40, 0xf5, 0x03, 0x3f, 0xd1, 0x43, 0x90, 0xbe,
  0xd8, 0x72, 0x09, 0x3e, 0xd0, 0x5d, 0x26, 0xbd, 0x5c, 0xf2, 0x49, 0x3e,
  0x1a, 0xed, 0xff, 0xff, 0x04, 0x00, 0x00, 0x00, 0xd0, 0x07, 0x00, 0x00,
  0x61, 0xb7, 0xa2, 0xbe, 0xb5, 0xd4, 0x00, 0xbe, 0x38, 0x37, 0x38, 0x3f,
  0x57, 0x98, 0x87, 0xbd, 0xe7, 0x85, 0xbb, 0x3d, 0xd0, 0x74, 0x6e, 0x3d,
  0x01, 0x97, 0xa3, 0x3e, 0xd6, 0x0a, 0x2f, 0xbe, 0xe8, 0x4b, 0x2b, 0x3d,
  0xe1, 0x65, 0x85, 0x3e, 0x68, 0x33, 0x01, 0x3e, 0x02, 0x7e, 0x01, 0xbe,
  0x37, 0x43, 0xab, 0x3e, 0x09, 0x04, 0x1f, 0x3e, 0xba, 0x17, 0x63, 0xbf,
  0x74, 0xf2, 0x6b, 0x3e, 0x1c, 0xc3, 0x3d, 0x3e, 0xcd, 0x8b, 0x9d, 0xbe,
  0x46, 0x06, 0x45, 0x3d, 0xd9, 0x6c, 0x4b, 0x3d, 0x6c, 0xd2, 0x84, 0xbe,
  0xdb, 0xa5, 0x7c, 0x3e, 0xd8, 0x72, 0x02, 0x3e, 0xeb, 0x08, 0x93, 0xbd,
  0x73, 0xfb, 0x5b, 0x3d, 0x7c, 0xfd, 0x87, 0xbd, 0x5a, 0x81, 0xe0, 0x3d,
  0xb8, 0xa6, 0x3c, 0xbe, 0x8e, 0x6e, 0x06, 0xbd, 0x54, 0x3a, 0xde, 0xbc,
  0x85, 0x96, 0xaa, 0x3d, 0x42, 0x56, 0xb6, 0xbe, 0x77, 0x6c, 0x2f, 0x3e,
  0xd6, 0x75, 0x73, 0xbf, 0x1f, 0x6a, 0xf2, 0x3e, 0x44, 0x39, 0x7b, 0xbd,
  0x98, 0xe1, 0x69, 0x3e, 0x4a, 0xaa, 0xf0, 0xbd, 0x04, 0x92, 0x55, 0xbe,
  0x0c, 0x2b, 0x86, 0x3d, 0x33, 0x5b, 0x84, 0xbd, 0x56, 0xb2, 0xfc, 0x3d,
  0x66, 0x34, 0x81, 0xbe, 0x04, 0x0c, 0x0d, 0x3e, 0x7b, 0x6e, 0x28, 0xbe,
  0xd6, 0x8a, 0x5d, 0xbe, 0x11, 0x8f, 0x0f, 0x3e, 0x92, 0xa3, 0x27, 0x3e,
  0xa9, 0xc6, 0xbe, 0x3d, 0xcb, 0x32, 0x4a, 0x3e, 0x53, 0x0e, 0x53, 0x3d,
  0x2e, 0xd6, 0xd0, 0x3e, 0x1b, 0x72, 0xb1, 0xbc, 0x5d, 0x0c, 0x08, 0x3e,
  0x4f, 0x4f, 0xf0, 0xbd, 0xda, 0xe2, 0xc6, 0x3d, 0xe4, 0x1d, 0x6a, 0x3d,
  0x98, 0xd0, 0x71, 0x3d, 0xf1, 0xdc, 0x3d, 0xbd, 0x60, 0x4c, 0x9d, 0x3d,
  0xaa, 0x84, 0x62, 0x3d, 0xd0, 0xa1, 0x7c, 0xbe, 0xce, 0xe3, 0x77, 0xbe,
  0x58, 0x18, 0x82, 0x3e, 0xc7, 0xd7, 0x94, 0x3e, 0xb7, 0x71, 0xbc, 0x3c,
  0xfe, 0x48, 0xbb, 0xbc, 0x9c, 0x1c, 0x09, 0xbe, 0xdb, 0xe9, 0x84, 0x3e,
  0xb1, 0x8f, 0xd8, 0x3d, 0x4d, 0xe5, 0xd9, 0x3e, 0xad, 0xd4, 0xe2, 0xbe,
  0x2f, 0x34, 0x0b, 0x3f, 0x6d, 0x1c, 0xc9, 0x3e, 0x1c, 0x13, 0xe6, 0x3e,
  0x5d, 0x84, 0xac, 0x3d, 0xb5, 0x8d, 0xff, 0xbd, 0x8d, 0xe1, 0xe3, 0xba,
  0xdc, 0x31, 0x07, 0x3e, 0x02, 0xe8, 0x5c, 0xbe, 0x06, 0xce, 0x23, 0xbe,
  0x48, 0x86, 0x74, 0x3e, 0x00, 0xa9, 0x37, 0x3e, 0x01, 0x34, 0x3e, 0x3d,
  0xab, 0x42, 0xd9, 0x3c, 0x0b, 0x0f, 0x82, 0x3d, 0x62, 0x59, 0xaf, 0x3d,
  0xe9, 0x32, 0x9a, 0x3e, 0xd7, 0xd6, 0x99, 0xbd, 0xce, 0x99, 0x0a, 0xbe,
  0x7c, 0x72, 0xba, 0xbe, 0x31, 0xb5, 0x4b, 0xbe, 0xbe, 0x58, 0x2c, 0xbc,
  0xbc, 0x0f, 0xce, 0xbd, 0xdc, 0x39, 0x50, 0x3f, 0xf0, 0x44, 0x4b, 0x3d,
  0xc7, 0x3b, 0xc1, 0x3a, 0xcb, 0xdb, 0x36, 0xbe, 0x93, 0x4b, 0x30, 0xbd,
  0xa1, 0xd2, 0x6a, 0x3d, 0x6f, 0xb0, 0x10, 0x3f, 0x3f, 0x57, 0xa8, 0xba,
  0x6e, 0x80, 0x22, 0xbf, 0xdb, 0xda, 0x29, 0x3f, 0x26, 0x04, 0xd2, 0x3e,
  0x34, 0x94, 0x52, 0x3e, 0xfe, 0x67, 0x41, 0xbe, 0x34, 0xde, 0x9c, 0x3e,
  0xba, 0x9f, 0x06, 0x3e, 0x21, 0xea, 0xc2, 0x3d, 0xa6, 0x37, 0xa7, 0xbe,
  0x33, 0xa1, 0x9e, 0x3e, 0xd0, 0xe6, 0x07, 0x3e, 0xaa, 0xd5, 0xd0, 0x3d,
  0x28, 0x7d, 0xa6, 0x3e, 0xda, 0x5a, 0x3c, 0x3e, 0xe5, 0x03, 0x1e, 0xbe,
  0x67, 0x65, 0x06, 0xbb, 0x69, 0xf2, 0x4b, 0x3b, 0x56, 0x30, 0x1c, 0x3d,
  0xf5, 0x8e, 0x0f, 0xbd, 0xb7, 0xd0, 0x89, 0xbe, 0xd1, 0xbd, 0xd6, 0x3d,
  0x6d, 0x0b, 0x1d, 0x3f, 0xfe, 0x06, 0x4e, 0x3d, 0xd1, 0x3a, 0xe2, 0x3e,
  0x68, 0x13, 0xd7, 0xbd, 0x2f, 0x7f, 0xc0, 0xbd, 0x2d, 0xf1, 0xec, 0x3e,
  0x0d, 0x49, 0x27, 0x3e, 0x17, 0xef, 0x00, 0x3d, 0x80, 0x60, 0xa5, 0x3c,
  0xf4, 0x99, 0xd6, 0x3e, 0xeb, 0xb5, 0xe5, 0x3d, 0x91, 0x78, 0xd7, 0x3c,
  0x0b, 0x1b, 0x76, 0x3e, 0x41, 0xf4, 0x04, 0xbe, 0xff, 0x0f, 0x31, 0xbd,
  0x69, 0xa8, 0xc3, 0x3c, 0x0e, 0x11, 0xdb, 0x3b, 0xe7, 0x31, 0x8f, 0xbd,
  0x24, 0x1a, 0x29, 0xbd, 0xa4, 0x51, 0xc4, 0x3d, 0xbd, 0xb0, 0x9f, 0xbd,
  0x8a, 0xa9, 0xad, 0x3c, 0x37, 0x47, 0x9d, 0x3b, 0x3d, 0x1e, 0x71, 0x3c,
  0x0e, 0xea, 0xb8, 0xbc, 0x73, 0xad, 0xa9, 0xbd, 0xe4, 0x46, 0x25, 0xbd,
  0xee, 0xf4, 0xbb, 0xbe, 0x7d, 0x5a, 0x46, 0xbe, 0xd6, 0x21, 0x2a, 0x3d,
  0x52, 0xb7, 0x14, 0x3f, 0xe9, 0x38, 0x5e, 0x3e, 0x6e, 0x98, 0xa8, 0x3d,
  0xe0, 0xb0, 0x04, 0xbe, 0xf5, 0xad, 0xb1, 0x3e, 0xc5, 0x9f, 0x82, 0x3e,
  0x69, 0x13, 0x78, 0xbe, 0x1d, 0x09, 0xf4, 0xbd, 0x3a, 0x21, 0x12, 0xbe,
  0xd5, 0xce, 0xd2, 0x3b, 0x72, 0xdf, 0x57, 0x3e, 0x12, 0x9e, 0xf1, 0x3c,
  0x08, 0xde, 0xaa, 0x3a, 0xe0, 0x65, 0x80, 0xbd, 0x03, 0x1b, 0x91, 0x3d,
  0xf8, 0x07, 0x8d, 0x3d, 0x1c, 0x49, 0x4a, 0xbd, 0x84, 0xd9, 0x2b, 0xbe,
  0x5c, 0xe9, 0xa4, 0x3e, 0x81, 0x21, 0x9e, 0x3e, 0x34, 0x7b, 0xfb, 0xbd,
  0xec, 0xf7, 0xfd, 0xbe, 0x49, 0xe0, 0x95, 0xbc, 0xed, 0x5e, 0xf7, 0x3d,
  0x46, 0x2e, 0x09, 0x3e, 0xb5, 0x72, 0xcb, 0xbd, 0x4f, 0x05, 0x25, 0xbe,
  0xc6, 0x05, 0x58, 0xbe, 0x37, 0x0e, 0x7d, 0x3e, 0x24, 0xcf, 0x37, 0x3e,
  0xce, 0xe5, 0xc1, 0xbe, 0xba, 0x56, 0x33, 0x3e, 0x4f, 0xa9, 0x6e, 0xbd,
  0x96, 0xd0, 0x31, 0x3e, 0x88, 0x3c, 0x51, 0x3e, 0xf4, 0xe2, 0xb4, 0xbd,
  0x9a, 0xd6, 0x9b, 0xbc, 0x0a, 0xd0, 0xa2, 0xbd, 0xb5, 0x9d, 0x9d, 0xbd,
  0x22, 0xac, 0x36, 0x3b, 0xaf, 0x2a, 0xb2, 0x3b, 0x5f, 0x52, 0x8c, 0xbd,
  0x6d, 0x33, 0x89, 0x3b, 0xd0, 0x0f, 0xb6, 0xbb, 0x19, 0xbb, 0x1e, 0x3c,
  0xbb, 0x73, 0x48, 0xbc, 0xf8, 0x90, 0xd0, 0xbd, 0xe9, 0xaa, 0x31, 0x3c,
  0x1f, 0x62, 0xd2, 0xbc, 0x6d, 0xce, 0x07, 0xbe, 0x4f, 0x08, 0x0b, 0xbe,
  0x76, 0x37, 0xf2, 0x3d, 0xc4, 0x30, 0x63, 0x3d, 0x48, 0xbd, 0x14, 0x3d,
  0xce, 0x50, 0xa0, 0xbd, 0x72, 0x9c, 0xd6, 0x3c, 0x8e, 0x38, 0x1d, 0x3d,
  0x92, 0x7c, 0x14, 0x3e, 0xd1, 0x55, 0x4d, 0xbe, 0xd6, 0x10, 0xb8, 0xbe,
  0xef, 0x94, 0xcf, 0xbe, 0x29, 0x09, 0x0f, 0x3e, 0xd6, 0x0b, 0x14, 0xbd,
  0xc7, 0xd0, 0x28, 0x3e, 0x29, 0x03, 0x85, 0x3d, 0x51, 0x97, 0x5d, 0xbe,
  0x6b, 0xe5, 0x46, 0x3e, 0x46, 0x1a, 0x23, 0x3f, 0x90, 0x1f, 0x0c, 0x3d,
  0xf0, 0x0d, 0x75, 0xbf, 0x81, 0xe3, 0x36, 0xbe, 0x89, 0x57, 0x49, 0x3f,
  0xea, 0x25, 0x9b, 0x3e, 0xb6, 0x8f, 0x0d, 0x3e, 0xc4, 0x82, 0xe5, 0xbe,
  0x1e, 0xe9, 0x40, 0x3d, 0x0c, 0x2b, 0xe8, 0x3e, 0x3e, 0x73, 0xab, 0x3e,
  0x6d, 0x5a, 0x5d, 0xbe, 0x68, 0x5d, 0x00, 0x3f, 0xb7, 0xc8, 0x5b, 0xbe,
  0x29, 0x5e, 0x6e, 0x3d, 0xdb, 0x11, 0x39, 0xbe, 0x80, 0x9a, 0x92, 0x3e,
  0xb9, 0x1c, 0xa8, 0x3e, 0x07, 0x13, 0x2b, 0xbe, 0x87, 0x7d, 0xde, 0xbd,
  0x6c, 0xb6, 0x85, 0x3e, 0x4b, 0x67, 0x76, 0x3e, 0xdc, 0x5b, 0xde, 0xbd,
  0x29, 0xb9, 0x95, 0x3f, 0x67, 0x84, 0xf8, 0x3d, 0x8b, 0x16, 0xe5, 0x3e,
  0xfd, 0xd5, 0xa3, 0xbe, 0x90, 0xc7, 0xbc, 0x3e, 0x9c, 0x39, 0x8a, 0x3d,
  0xa6, 0xdd, 0x38, 0x3e, 0xb6, 0xda, 0x86, 0x3e, 0x2b, 0xea, 0xff, 0x3e,
  0x79, 0xfa, 0x19, 0x3e, 0x8c, 0x08, 0x4d, 0xbd, 0xfb, 0xe5, 0x7b, 0x3f,
  0x1a, 0xfc, 0x26, 0x3e, 0x6e, 0x20, 0xc5, 0x3d, 0x40, 0x98, 0x99, 0x3d,
  0x4f, 0xf1, 0xcb, 0xbd, 0xa5, 0xf4, 0x17, 0xbe, 0xdb, 0x07, 0x73, 0x3d,
  0xe2, 0x8b, 0x13, 0xbe, 0xc8, 0x32, 0x49, 0xbf, 0xf4, 0x2c, 0xd6, 0x3e,
  0x9f, 0x33, 0x81, 0x3e, 0x4a, 0xee, 0x30, 0xbd, 0xda, 0x08, 0x54, 0xbe,
  0x03, 0xf1, 0xd5, 0x3d, 0x07, 0x38, 0xe6, 0x3e, 0xce, 0xdb, 0xda, 0xbd,
  0x20, 0xfc, 0x3e, 0x3e, 0xa4, 0x70, 0x32, 0x3f, 0x62, 0xa8, 0xae, 0x3e,
  0x20, 0x94, 0x28, 0xbd, 0x1a, 0x85, 0xf2, 0xbd, 0x77, 0x71, 0x91, 0x3d,
  0x9c, 0x01, 0x7a, 0x3e, 0xb0, 0x52, 0xe7, 0xbd, 0x88, 0x87, 0x82, 0xbe,
  0x81, 0xde, 0x10, 0x3e, 0x3b, 0x03, 0xd8, 0x3e, 0x3a, 0xfd, 0x5e, 0xbf,
  0x9d, 0xa0, 0x0a, 0x3f, 0x36, 0xe7, 0x1d, 0x3f, 0x89, 0xad, 0x50, 0xbd,
  0x76, 0x92, 0x1d, 0x3e, 0x10, 0x1e, 0x2b, 0xbd, 0xaf, 0x9e, 0x97, 0x3e,
  0x08, 0xb6, 0xb8, 0x3d, 0xe2, 0x3d, 0xd9, 0xbe, 0xc1, 0x82, 0x91, 0xbc,
  0x78, 0xe8, 0xce, 0xbd, 0xd3, 0x6c, 0xb8, 0xbe, 0x39, 0x67, 0x21, 0xbe,
  0x1c, 0xe8, 0x32, 0x3e, 0x94, 0x8c, 0xa5, 0xbd, 0x7b, 0x78, 0x02, 0x3e,
  0x8b, 0x66, 0x8a, 0xbd, 0x2b, 0x76, 0x00, 0x3d, 0x03, 0xc0, 0x2c, 0x3e,
  0x19, 0x6b, 0x54, 0x3e, 0x2c, 0x71, 0x40, 0xbf, 0x21, 0x65, 0x33, 0xbf,
  0x2e, 0x28, 0x61, 0xbe, 0xb5, 0x6d, 0x0a, 0x3f, 0xb3, 0x92, 0x87, 0x3d,
  0x4e, 0xce, 0x40, 0xbd, 0x96, 0x64, 0x3a, 0xbe, 0x01, 0x6d, 0xc7, 0x3e,
  0x65, 0xa5, 0x1c, 0x3e, 0xb2, 0x5f, 0xe9, 0xbd, 0x1b, 0x3d, 0x18, 0x3f,
  0xd0, 0x42, 0x12, 0x3e, 0x27, 0xbe, 0xc2, 0x3d, 0x2e, 0x4d, 0x5b, 0xbe,
  0x97, 0xf8, 0xe2, 0xbd, 0x2c, 0x71, 0x53, 0x3e, 0xa4, 0xfc, 0x23, 0xbd,
  0x9f, 0xfc, 0x11, 0xbe, 0x0a, 0x13, 0xa9, 0x3e, 0x7f, 0x61, 0xd9, 0x3d,
  0xd8, 0x05, 0x67, 0xbf, 0x40, 0x3f, 0xb6, 0xbe, 0xd0, 0x2b, 0x1c, 0x3f,
  0x49, 0xbc, 0x33, 0xbe, 0xe2, 0xf8, 0x00, 0xbd, 0x12, 0x2b, 0x63, 0xbe,
  0x0f, 0x2b, 0x30, 0xbe, 0x90, 0xcd, 0xc9, 0x3e, 0xe9, 0x83, 0xef, 0x3d,
  0x6b, 0x8a, 0x28, 0x3f, 0x7f, 0x51, 0x23, 0x3e, 0xcb, 0x4d, 0x6d, 0x3d,
  0x5a, 0xb0, 0x32, 0xbe, 0xec, 0xa4, 0x33, 0xba, 0xfc, 0xc3, 0xbc, 0xbd,
  0xf5, 0x4e, 0xf1, 0x3d, 0xf3, 0x1c, 0xee, 0x3e, 0x88, 0x50, 0x85, 0xbd,
  0xae, 0x09, 0xc1, 0x3d, 0x83, 0x0b, 0x77, 0xbe, 0x38, 0x0a, 0x2b, 0x3e,
  0x81, 0x76, 0xbb, 0xbe, 0xa4, 0xb1, 0xde, 0x3e, 0xa2, 0x02, 0x03, 0x3f,
  0x49, 0xaf, 0x9a, 0x3e, 0x5f, 0x54, 0xa9, 0xbe, 0x46, 0x1f, 0x6f, 0x3e,
  0x24, 0xf6, 0x59, 0x3e, 0xc7, 0xb4, 0x8c, 0xbe, 0xcd, 0x57, 0x60, 0x3f,
  0xfa, 0xeb, 0x96, 0x3c, 0x23, 0xed, 0xdc, 0x3e, 0x4a, 0x47, 0x96, 0x3e,
  0xe5, 0x5b, 0xbb, 0xbe, 0x8e, 0x80, 0x6e, 0xbe, 0xb7, 0xa4, 0x12, 0x3e,
  0x37, 0x88, 0x38, 0x3e, 0xeb, 0x9c, 0x46, 0xbe, 0x41, 0x83, 0x91, 0x3e,
  0x29, 0x73, 0x6a, 0x3f, 0x77, 0x66, 0x87, 0x3e, 0xee, 0xb8, 0xf8, 0x3d,
  0xb3, 0xdd, 0xc8, 0x3d, 0xcd, 0x5e, 0x4a, 0xbe, 0x98, 0xdd, 0x49, 0xbe,
  0xa9, 0x5f, 0xa1, 0x3d, 0xa1, 0x22, 0xb1, 0x3e, 0xd9, 0x6c, 0x8a, 0xbe,
  0x73, 0xe7, 0x12, 0x3f, 0x36, 0xf8, 0xc2, 0xba, 0xb7, 0x4d, 0x07, 0x3b,
  0x09, 0xd5, 0x84, 0xbd, 0xc8, 0xe2, 0xcf, 0xbd, 0x96, 0xbc, 0x94, 0xbd,
  0x08, 0x2e, 0x95, 0xbc, 0x2f, 0x4c, 0x63, 0xbd, 0xc8, 0xcc, 0xe5, 0xbc,
  0x72, 0x8e, 0x95, 0x3c, 0x44, 0x8b, 0x84, 0x3b, 0x4a, 0x11, 0x99, 0x3e,
  0x47, 0xe8, 0xda, 0xbd, 0x4f, 0xec, 0x2f, 0xbe, 0xb3, 0x85, 0x38, 0x3f,
  0x55, 0xa6, 0x34, 0xbe, 0xc4, 0x54, 0x8a, 0xbe, 0xd0, 0xcc, 0x36, 0xbe,
  0x73, 0xfc, 0x99, 0x3e, 0x9c, 0xba, 0x25, 0x3e, 0xf2, 0x1a, 0xc4, 0xbd,
  0xfa, 0x28, 0x6b, 0xbd, 0xf6, 0x62, 0xa4, 0xbd, 0xc9, 0x4b, 0x4c, 0x3d,
  0x42, 0x4c, 0xe6, 0x3e, 0xf1, 0xd8, 0x38, 0xbf, 0x37, 0x03, 0xa0, 0xbe,
  0x60, 0x17, 0xba, 0xb9, 0x52, 0x27, 0x62, 0x3e, 0xd9, 0x98, 0xbc, 0xbd,
  0xa8, 0xf1, 0x03, 0xbe, 0x9a, 0x71, 0x34, 0x3f, 0x54, 0x24, 0x06, 0x3d,
  0xc3, 0x02, 0x5d, 0x3d, 0x48, 0xb7, 0x8d, 0x3e, 0xc5, 0x12, 0xc7, 0x3c,
  0x4f, 0x97, 0x4d, 0x3d, 0x2a, 0x42, 0x11, 0xbd, 0xb1, 0x39, 0x00, 0x3d,
  0x70, 0x3a, 0x06, 0x3c, 0x88, 0x39, 0xab, 0x3e, 0xab, 0xe9, 0xeb, 0x3c,
  0x37, 0x08, 0x4b, 0xbd, 0xfb, 0xcb, 0x34, 0x3e, 0xc8, 0xa6, 0x3c, 0x3f,
  0x9c, 0x5c, 0x6c, 0xbe, 0x92, 0x56, 0x01, 0x3e, 0x46, 0xe7, 0xa3, 0xbd,
  0xe8, 0x86, 0x23, 0xbd, 0x26, 0xb8, 0x60, 0x3e, 0x42, 0x6d, 0x3e, 0xbe,
  0xb6, 0x62, 0x01, 0xbe, 0xa5, 0xcd, 0xbb, 0x3d, 0x10, 0x54, 0x6e, 0xbe,
  0x0b, 0x05, 0xda, 0x3e, 0xc4, 0x38, 0x61, 0x3e, 0xed, 0x02, 0x71, 0x3e,
  0x82, 0x98, 0xec, 0xbd, 0xbc, 0x13, 0x0a, 0xbd, 0x4b, 0x92, 0xa7, 0x3e,
  0x46, 0x51, 0x0c, 0xbe, 0xeb, 0x23, 0xc5, 0x3e, 0xef, 0xe9, 0x2e, 0x3c,
  0x3a, 0xb9, 0xc7, 0x3e, 0x4d, 0x7c, 0xad, 0xbd, 0x74, 0x33, 0xd3, 0xbd,
  0x5f, 0xe7, 0x08, 0xbd, 0xbc, 0xd9, 0x93, 0x3e, 0x97, 0x1f, 0x1e, 0xbe,
  0x27, 0x29, 0x86, 0xbd, 0x2c, 0x97, 0xbe, 0x3e, 0xff, 0x1e, 0x98, 0x3e,
  0x21, 0x43, 0x34, 0x3f, 0x1e, 0x3f, 0x81, 0x3f, 0xc9, 0x7d, 0xcd, 0xbd,
  0x3c, 0xed, 0xa9, 0x3e, 0xb1, 0xd0, 0xcf, 0x3e, 0xe8, 0x00, 0xa9, 0x3e,
  0x75, 0xe4, 0x00, 0xbf, 0x89, 0x44, 0x33, 0xbe, 0x38, 0x00, 0xa2, 0x3d,
  0xc5, 0x6c, 0xcf, 0x3e, 0x2f, 0x4d, 0x93, 0xbd, 0xff, 0x33, 0xcd, 0x3e,
  0x0f, 0xf1, 0x59, 0xbe, 0x56, 0xcd, 0xf1, 0xbd, 0xe9, 0x64, 0xff, 0xbd,
  0x60, 0x2b, 0xec, 0x3e, 0x31, 0xa2, 0xbe, 0xbe, 0xb9, 0xc1, 0xb3, 0x3d,
  0xc7, 0xe4, 0x07, 0x3f, 0x46, 0x8b, 0x82, 0xbe, 0xe9, 0xe8, 0x3f, 0x3d,
  0xb0, 0x20, 0x27, 0x3f, 0x44, 0x32, 0x46, 0xbe, 0x33, 0x09, 0xaa, 0x3e,
  0x1c, 0x75, 0xe4, 0xbe, 0xd2, 0xa8, 0xe2, 0x3e, 0x93, 0xb7, 0xa8, 0x3e,
  0xee, 0xda, 0x4e, 0xbe, 0x27, 0xea, 0xcb, 0xbd, 0x5c, 0x44, 0x4f, 0x3d,
  0x2c, 0xfd, 0x24, 0x3e, 0xe7, 0xbe, 0xc9, 0x3d, 0xbb, 0xde, 0x35, 0xbe,
  0x92, 0x98, 0xc8, 0xbd, 0x7f, 0x8d, 0x2c, 0xbe, 0x5f, 0xbc, 0x50, 0x3e,
  0xeb, 0xa7, 0x88, 0x3e, 0x1c, 0x6f, 0x3a, 0xbe, 0xd3, 0x01, 0x8f, 0xbd,
  0xa2, 0xf2, 0x87, 0x3e, 0x3e, 0xc5, 0x82, 0x3a, 0x7d, 0x1f, 0x4d, 0x3d,
  0xbe, 0xf3, 0x27, 0xbe, 0x9f, 0x38, 0x2d, 0x3f, 0xa5, 0x7b, 0x08, 0xbe,
  0x44, 0x1e, 0x73, 0x3d, 0x36, 0xb9, 0x0b, 0x3f, 0x7d, 0x5e, 0x0c, 0xbe,
  0x41, 0xd4, 0xea, 0xbc, 0x51, 0x56, 0x47, 0x3c, 0xaa, 0x7a, 0xb1, 0xbc,
  0x0c, 0xae, 0xb9, 0xbc, 0xd0, 0xd4, 0x79, 0xbd, 0x38, 0xe5, 0xa5, 0xbc,
  0x93, 0x49, 0xf7, 0xbb, 0x36, 0xb8, 0xe9, 0x3c, 0xfe, 0xd0, 0xd5, 0xbd,
  0xf9, 0x70, 0xb3, 0xbc, 0xb0, 0x19, 0x0b, 0x3d, 0xf6, 0xf4, 0xff, 0xff,
  0x04, 0x00, 0x00, 0x00, 0x00, 0x0a, 0x00, 0x00, 0xe5, 0x79, 0x72, 0x3d,
  0x64, 0x04, 0x3b, 0x3d, 0x9e, 0xcc, 0xf0, 0x3d, 0xc2, 0x0e, 0x56, 0x3e,
  0xb5, 0xfc, 0x29, 0x3e, 0xa8, 0xf1, 0xdb, 0x3e, 0x40, 0x9b, 0xc0, 0x3e,
  0x47, 0x19, 0x21, 0xbe, 0x59, 0x3a, 0x2e, 0xbb, 0x80, 0x30, 0xd2, 0xbd,
  0x5f, 0xc1, 0xba, 0x3e, 0x9d, 0x45, 0x19, 0x3e, 0x64, 0x65, 0x75, 0x3e,
  0xc8, 0xa7, 0x89, 0x3c, 0xd0, 0x8c, 0x15, 0xbe, 0x3a, 0xaf, 0xe4, 0x3d,
  0x3a, 0xe7, 0x42, 0xbd, 0x3f, 0xe2, 0xde, 0x3d, 0x10, 0x4d, 0x71, 0xbe,
  0xc7, 0xf7, 0x57, 0xbd, 0x76, 0x7b, 0x4a, 0xbe, 0x15, 0xdc, 0x2e, 0xbe,
  0x63, 0x3c, 0x93, 0xbd, 0x5e, 0xd3, 0x74, 0xbd, 0x69, 0xa7, 0x13, 0xbe,
  0xce, 0x07, 0x72, 0x3b, 0x26, 0xa6, 0x69, 0xbc, 0x56, 0xf6, 0x29, 0x3e,
  0xef, 0x03, 0xc8, 0x3e, 0x34, 0x95, 0xa7, 0x3d, 0x2e, 0xd9, 0xb8, 0xbe,
  0xe2, 0xc1, 0x21, 0xbe, 0x25, 0x55, 0x0b, 0xbc, 0xb9, 0xe9, 0xd0, 0xbe,
  0x91, 0x4e, 0xa4, 0x3d, 0x9a, 0xc4, 0x33, 0x3d, 0x51, 0x2d, 0x69, 0xbe,
  0xb3, 0x8f, 0x49, 0xbe, 0x8a, 0xdc, 0x50, 0x3d, 0xa9, 0x12, 0x45, 0xbd,
  0x94, 0x84, 0xf4, 0xbd, 0x6a, 0xde, 0x70, 0x3d, 0xf6, 0xec, 0x40, 0xbf,
  0x0c, 0x71, 0x0c, 0xbf, 0xeb, 0xb6, 0xdc, 0xbd, 0x4a, 0xce, 0x4d, 0x3e,
  0x2a, 0xa0, 0xd1, 0x3d, 0xfb, 0x00, 0xb6, 0xbd, 0xee, 0x2c, 0xbb, 0xbd,
  0xfc, 0x2f, 0x81, 0xbb, 0x1f, 0x51, 0x3c, 0x3d, 0x9a, 0x7c, 0xd7, 0xbd,
  0x6f, 0x8f, 0xb8, 0x3c, 0x9b, 0x32, 0x73, 0xbe, 0x58, 0x63, 0xde, 0xbd,
  0xaf, 0x0a, 0xa1, 0x3d, 0x4d, 0x3d, 0x1b, 0xbd, 0x02, 0xca, 0xe5, 0x3c,
  0x49, 0xcb, 0x40, 0x3e, 0xbf, 0x65, 0x43, 0x3c, 0x59, 0xb2, 0xd4, 0xbd,
  0x3c, 0x91, 0xd8, 0x3d, 0x3f, 0xf1, 0xa0, 0xbd, 0xac, 0xe6, 0xea, 0xbd,
  0x03, 0xfa, 0x29, 0xbd, 0x1f, 0x50, 0x33, 0xbe, 0xc7, 0xad, 0xed, 0x3d,
  0xdd, 0x4e, 0x1d, 0xbe, 0x66, 0xed, 0xd8, 0xbe, 0xe4, 0xed, 0xa7, 0x3d,
  0x37, 0x13, 0xee, 0xbe, 0xb7, 0xd8, 0x6b, 0xbd, 0x0f, 0xc9, 0x71, 0xbc,
  0x5f, 0x58, 0x79, 0xbe, 0x1a, 0x5b, 0x42, 0xbf, 0x1b, 0x8c, 0x92, 0xbe,
  0xc0, 0xfb, 0xcb, 0xbe, 0x11, 0xca, 0x57, 0xbd, 0x27, 0x54, 0x38, 0xbe,
  0x14, 0x60, 0xe9, 0x3d, 0xa1, 0x3e, 0xb5, 0x3d, 0x72, 0x2b, 0x90, 0x3e,
  0xb2, 0x74, 0x22, 0x3f, 0x01, 0x9e, 0x48, 0x3f, 0x95, 0x1a, 0xf4, 0x3e,
  0xd0, 0x2c, 0x9f, 0x3e, 0x11, 0xf7, 0x5e, 0xbc, 0x4f, 0x3d, 0xe2, 0xbd,
  0x20, 0x97, 0x11, 0xbd, 0x31, 0x42, 0x99, 0xbd, 0xe5, 0xc7, 0xfc, 0x3e,
  0x18, 0x06, 0xfe, 0x3e, 0xe0, 0x42, 0xbf, 0x3e, 0xcc, 0x88, 0xab, 0x3e,
  0x08, 0x4b, 0x13, 0x3e, 0xb0, 0xa5, 0x61, 0x3e, 0x0c, 0xd3, 0xb6, 0x3c,
  0x29, 0x62, 0xcd, 0x3d, 0x9e, 0x94, 0xcd, 0xbd, 0xfe, 0x3b, 0xd5, 0x3e,
  0x94, 0x86, 0xd8, 0xbd, 0x75, 0xa9, 0x60, 0x3e, 0x5a, 0x32, 0x76, 0xbc,
  0x96, 0x7c, 0x47, 0x3d, 0xc6, 0x16, 0x35, 0x3e, 0x5e, 0xf1, 0x4b, 0x3e,
  0x09, 0xf9, 0xaf, 0xbe, 0x3f, 0x42, 0x5b, 0x3e, 0xd6, 0x46, 0x18, 0x3f,
  0x0e, 0x89, 0xb0, 0x3d, 0x8f, 0x24, 0xa8, 0x3c, 0x7f, 0x86, 0xda, 0xbd,
  0x7a, 0x11, 0xf0, 0x3d, 0xac, 0x69, 0xc0, 0x3c, 0x1d, 0x79, 0x3a, 0x3b,
  0x3f, 0xeb, 0xcf, 0xbe, 0xeb, 0xa9, 0x23, 0xbe, 0xf7, 0xc8, 0xbb, 0xbe,
  0xe2, 0xbc, 0xec, 0xbd, 0x80, 0x10, 0xb3, 0x3d, 0x76, 0x90, 0xd4, 0xbd,
  0x87, 0xb4, 0x5f, 0xbe, 0x81, 0xa2, 0xca, 0xbe, 0x0b, 0x46, 0xdf, 0xbb,
  0xb1, 0x16, 0x0d, 0x3f, 0xcb, 0xe4, 0xa3, 0xbd, 0x64, 0xa2, 0x11, 0xbe,
  0x47, 0x7d, 0x7b, 0x3d, 0x25, 0x6d, 0xf8, 0xbc, 0x68, 0x78, 0x1c, 0x3e,
  0xf8, 0x61, 0x0c, 0xbd, 0x17, 0x16, 0xe0, 0x3d, 0x46, 0xaf, 0x0e, 0xbe,
  0x5a, 0x5c, 0x36, 0x3e, 0xae, 0xd8, 0xc9, 0x3e, 0xd3, 0x40, 0x51, 0x3d,
  0x6c, 0x99, 0xb0, 0xbd, 0xaf, 0xfb, 0x18, 0x3e, 0xd3, 0x09, 0x91, 0x3d,
  0xa3, 0x7b, 0xa8, 0x3d, 0xd0, 0x8a, 0x67, 0x3d, 0x3b, 0xc7, 0xe4, 0xbe,
  0x31, 0xbe, 0x2f, 0xbe, 0x7a, 0xf0, 0x8b, 0x3e, 0xab, 0xa7, 0xe5, 0xbd,
  0xa3, 0x54, 0xa1, 0xbe, 0x26, 0xcf, 0xfb, 0xbe, 0x06, 0x37, 0x95, 0xbe,
  0x3b, 0x7c, 0x06, 0xbf, 0x4a, 0xd4, 0x33, 0xbf, 0x87, 0x1d, 0xb2, 0xbe,
  0x5a, 0x38, 0xa7, 0x3d, 0x92, 0xda, 0x3a, 0x3d, 0xa0, 0x77, 0x8d, 0x3c,
  0xe9, 0x64, 0x45, 0x3e, 0x63, 0x85, 0x76, 0xbd, 0xbd, 0xbb, 0xe5, 0x3e,
  0xcb, 0x10, 0xdd, 0xbe, 0x81, 0x9d, 0x91, 0x3e, 0xc2, 0x30, 0xd9, 0x3b,
  0x55, 0x7f, 0xbf, 0xbc, 0x3b, 0x83, 0x50, 0x3e, 0x61, 0x37, 0xf1, 0x3e,
  0x80, 0x4d, 0x6f, 0x3e, 0x39, 0x7c, 0x56, 0x3f, 0xfc, 0x7e, 0x88, 0x3e,
  0x8b, 0xc5, 0x1f, 0x3f, 0x38, 0x7c, 0x79, 0xbc, 0xd7, 0x0b, 0xd5, 0xbc,
  0x43, 0xff, 0xf8, 0x3e, 0x35, 0x44, 0x14, 0x3e, 0x4d, 0xcf, 0x5d, 0x3f,
  0x40, 0x43, 0x1c, 0x3f, 0x56, 0x33, 0x64, 0x3d, 0x92, 0x1a, 0x0d, 0xbe,
  0x2e, 0x2c, 0x53, 0x3d, 0x87, 0x71, 0x9b, 0x3c, 0x04, 0xff, 0x2e, 0x3d,
  0xf7, 0x84, 0x86, 0xbe, 0x60, 0xfd, 0x11, 0x3f, 0x17, 0x56, 0x53, 0xbe,
  0xa7, 0xd0, 0x34, 0xbf, 0x56, 0xcb, 0xb4, 0xbe, 0xab, 0xa4, 0x50, 0xbe,
  0x07, 0xad, 0x73, 0xbd, 0xfb, 0x61, 0x0a, 0xbe, 0xfd, 0xf7, 0x3b, 0x3e,
  0x06, 0xcb, 0xf6, 0xbe, 0xc2, 0x65, 0x86, 0xbd, 0x94, 0x8a, 0x4a, 0xba,
  0xdb, 0xb8, 0x9a, 0xbe, 0x34, 0x4d, 0x80, 0xbe, 0xd5, 0x03, 0x54, 0x3c,
  0x7b, 0x82, 0x83, 0x3d, 0x2c, 0xba, 0x51, 0xbe, 0xed, 0xb2, 0x02, 0x3c,
  0x39, 0xf6, 0x8a, 0x3d, 0x43, 0x47, 0x68, 0x3e, 0xda, 0x3f, 0xf3, 0x3d,
  0x93, 0x43, 0xf0, 0x3c, 0xf3, 0x01, 0xd4, 0xbd, 0x36, 0x0d, 0x51, 0x3e,
  0x62, 0xac, 0x77, 0x39, 0xee, 0x7e, 0x63, 0xbd, 0xba, 0xdd, 0x9e, 0x3d,
  0x71, 0xb1, 0x99, 0xbd, 0x53, 0xd0, 0x5e, 0x3d, 0xbb, 0xd2, 0xdc, 0xbd,
  0x67, 0xa6, 0x94, 0xbc, 0x2c, 0x08, 0x07, 0xbe, 0x95, 0x2e, 0x3a, 0xbe,
  0xf5, 0x08, 0x13, 0xbf, 0x35, 0xcb, 0x9f, 0x3e, 0x4f, 0xed, 0x1a, 0xbf,
  0x47, 0xbf, 0x21, 0x3e, 0x5a, 0x6c, 0x0f, 0xbe, 0x33, 0x8a, 0xed, 0xbd,
  0xb6, 0x06, 0xc2, 0xbe, 0x13, 0x59, 0x1f, 0xbf, 0x2c, 0x3d, 0x50, 0xbe,
  0x4b, 0x4e, 0x00, 0xbe, 0x8a, 0x40, 0x8d, 0xbe, 0x05, 0xff, 0x9f, 0xbe,
  0xbb, 0xd7, 0xfd, 0xbd, 0x07, 0xb4, 0x41, 0x3c, 0x7e, 0xf1, 0xad, 0x3d,
  0x6f, 0x27, 0x0e, 0x3e, 0xde, 0xa7, 0x8b, 0x3c, 0x78, 0x30, 0xdf, 0x3e,
  0x7a, 0xa6, 0x87, 0xbe, 0x87, 0x8e, 0xd7, 0xbe, 0x4d, 0xf1, 0x02, 0xbd,
  0xe1, 0x4b, 0x45, 0xbd, 0x2d, 0xec, 0xd0, 0xbd, 0x76, 0x2f, 0xb7, 0x3e,
  0x40, 0x4b, 0x40, 0x3f, 0xf0, 0x28, 0xd0, 0x3d, 0x35, 0xcc, 0x30, 0xbf,
  0xa8, 0x99, 0x28, 0xbe, 0x2e, 0x57, 0xfd, 0x3c, 0xdb, 0x6d, 0x18, 0xbe,
  0x8f, 0x48, 0xda, 0xbd, 0xe2, 0x94, 0x02, 0x3e, 0x2f, 0x05, 0xd0, 0x3e,
  0x90, 0xb3, 0x81, 0x3e, 0xf4, 0x00, 0x3c, 0x3f, 0xd0, 0x40, 0xed, 0x3d,
  0x39, 0xc3, 0x5f, 0xbd, 0xfd, 0x28, 0xbb, 0xbd, 0x1b, 0x52, 0x47, 0x3e,
  0xdf, 0x40, 0x2e, 0x3e, 0xd1, 0xb6, 0x1a, 0x3e, 0x6d, 0x7e, 0xfc, 0x3e,
  0x24, 0x6a, 0xb4, 0x3e, 0x82, 0x2c, 0x2e, 0x3e, 0x76, 0x13, 0xc8, 0x3e,
  0xe3, 0x4f, 0x8a, 0xbd, 0x1c, 0xa8, 0x32, 0x3e, 0x07, 0xdb, 0xda, 0x3d,
  0x51, 0x8d, 0xcb, 0xbe, 0x47, 0xeb, 0xd4, 0xbe, 0x71, 0x13, 0xb5, 0x3d,
  0x57, 0x1d, 0x00, 0x3d, 0x3a, 0x9e, 0x52, 0x3d, 0x0c, 0x46, 0xaf, 0x3c,
  0xe0, 0x19, 0x3d, 0xbe, 0xc1, 0x60, 0x8d, 0xbe, 0x0e, 0xed, 0x55, 0x3c,
  0xf7, 0xc5, 0x5b, 0xbe, 0x1f, 0xf6, 0x51, 0xbe, 0xa4, 0x74, 0x97, 0xbe,
  0xf2, 0x78, 0xfa, 0xbd, 0x26, 0x04, 0x2c, 0xbe, 0x81, 0xab, 0xd7, 0x3d,
  0xdc, 0x84, 0x45, 0xbb, 0x35, 0x55, 0x58, 0x3e, 0x6b, 0x41, 0x70, 0xbf,
  0xcb, 0x83, 0x0a, 0xbf, 0x74, 0xf4, 0xc9, 0xbe, 0x35, 0x13, 0x33, 0xbc,
  0x98, 0xb0, 0x4c, 0x3d, 0xac, 0x75, 0xe4, 0xbd, 0x85, 0x9e, 0xd8, 0x3e,
  0x68, 0xb1, 0xe5, 0xbd, 0x18, 0x1b, 0x27, 0xbf, 0x8d, 0xf6, 0xd2, 0xbe,
  0x33, 0xb7, 0xff, 0xbd, 0x77, 0x0d, 0xb6, 0x3d, 0x22, 0xd5, 0x2e, 0x3d,
  0xe7, 0x02, 0xf0, 0x3e, 0x70, 0x30, 0xd0, 0x3e, 0xa6, 0x85, 0xc3, 0xbe,
  0xf3, 0x13, 0x3a, 0xbf, 0x75, 0x6f, 0x81, 0x3e, 0x28, 0xe3, 0x3a, 0x3f,
  0xe3, 0x15, 0x53, 0x3d, 0x10, 0xc4, 0x08, 0x3d, 0x56, 0xa0, 0x3f, 0x3d,
  0xd5, 0x6b, 0xa1, 0x3e, 0x5d, 0x77, 0x84, 0x3e, 0x73, 0x56, 0xa1, 0x3e,
  0x7a, 0x26, 0x98, 0x3e, 0x0e, 0xd3, 0x2c, 0x3e, 0x36, 0x25, 0xdd, 0x3d,
  0x05, 0x5f, 0x5e, 0xbd, 0xb3, 0xeb, 0xa6, 0xbe, 0x6f, 0x5e, 0xd8, 0x3d,
  0x2b, 0xb9, 0x42, 0x3e, 0x37, 0x86, 0xb9, 0x3e, 0x34, 0xfe, 0xb9, 0x3e,
  0xdb, 0xa4, 0x9e, 0xbe, 0x3f, 0x31, 0x86, 0x3d, 0x13, 0x59, 0xd7, 0xbc,
  0xd3, 0x6e, 0x87, 0x3e, 0x8c, 0x31, 0x87, 0xbd, 0x1c, 0x0d, 0x48, 0x3e,
  0x73, 0xa5, 0x4b, 0x3d, 0x3f, 0x49, 0x02, 0x3e, 0x1e, 0x52, 0x99, 0x3e,
  0x9b, 0x4f, 0x17, 0x3f, 0x05, 0x74, 0x8b, 0x3d, 0xf3, 0xf7, 0xb1, 0xbc,
  0xa6, 0x35, 0x9f, 0xbd, 0x95, 0xf1, 0x80, 0x3e, 0x2c, 0x66, 0x9f, 0xbe,
  0xa0, 0xb8, 0x19, 0x3f, 0xad, 0x11, 0xa4, 0x3e, 0x91, 0x15, 0x35, 0xbd,
  0x07, 0x03, 0x1b, 0xbd, 0x05, 0xbc, 0xb9, 0xbd, 0x14, 0x4c, 0x85, 0xbe,
  0xf6, 0x08, 0xba, 0x3a, 0x52, 0x07, 0xa9, 0x3e, 0xc8, 0x92, 0x57, 0x3d,
  0x2a, 0x0b, 0xe9, 0xbd, 0xbc, 0x4c, 0xb2, 0xbc, 0x16, 0x6f, 0x4a, 0x3d,
  0x30, 0x87, 0x19, 0x3e, 0x0f, 0x01, 0x66, 0xb9, 0x8c, 0x27, 0x9a, 0x3e,
  0xb5, 0x42, 0x84, 0x3e, 0xf5, 0x36, 0x77, 0xbe, 0x56, 0xe1, 0x17, 0x3d,
  0x73, 0xbc, 0x76, 0xbc, 0x25, 0x8c, 0xe6, 0x3d, 0x22, 0xc7, 0xda, 0xbb,
  0xda, 0x23, 0x63, 0x3d, 0x21, 0xd0, 0x62, 0x3d, 0x27, 0x99, 0x4c, 0x3e,
  0xc2, 0x07, 0x33, 0x3d, 0x7e, 0x31, 0xa1, 0xbc, 0x2c, 0xa7, 0x12, 0xbd,
  0x71, 0x60, 0xc4, 0x3c, 0x34, 0x45, 0x44, 0xbc, 0xf9, 0xfd, 0x44, 0x3e,
  0x44, 0x24, 0x2f, 0xbe, 0x92, 0xee, 0x33, 0x3e, 0xf4, 0x29, 0x68, 0x3e,
  0x31, 0x6c, 0x76, 0x3c, 0xe0, 0xdd, 0xab, 0xbb, 0x97, 0xc0, 0x68, 0xbd,
  0xbf, 0xdf, 0x58, 0xbe, 0xcd, 0x2c, 0xac, 0xbd, 0x54, 0xb6, 0x26, 0x3e,
  0xc1, 0xf2, 0xba, 0xbd, 0x6b, 0xb3, 0x9b, 0xbd, 0xe8, 0x99, 0x63, 0xbe,
  0x66, 0x6e, 0x03, 0x3d, 0x77, 0x9e, 0xcd, 0x3c, 0x96, 0x44, 0x6e, 0xbe,
  0xa8, 0x36, 0xbd, 0xbd, 0xa3, 0x1c, 0x47, 0x3e, 0xc4, 0x8e, 0x82, 0x3e,
  0x95, 0xfd, 0xac, 0x3d, 0x7f, 0x08, 0x0b, 0xbe, 0x77, 0x26, 0xae, 0x3d,
  0x15, 0x27, 0xb1, 0xbc, 0x54, 0x28, 0xea, 0xbc, 0x48, 0x8f, 0xa4, 0x3d,
  0x8b, 0x3e, 0x05, 0x3e, 0xf7, 0x62, 0x09, 0xbe, 0xd5, 0xad, 0x29, 0x3e,
  0xcf, 0x0c, 0xd2, 0x3d, 0xb1, 0x14, 0x9f, 0x3e, 0xfb, 0xb7, 0x41, 0xbd,
  0x95, 0x2f, 0x1a, 0xbd, 0x23, 0x23, 0xc6, 0x3d, 0xfb, 0xaa, 0xc7, 0x3d,
  0x0c, 0x5b, 0xce, 0xbc, 0x3a, 0x51, 0x39, 0xbe, 0x43, 0x57, 0x22, 0x3e,
  0x9c, 0x69, 0xf9, 0x3d, 0x26, 0xe5, 0x5f, 0xbd, 0x9f, 0xe8, 0xa7, 0x3d,
  0xdc, 0xc7, 0x74, 0x3e, 0x50, 0xd9, 0x2f, 0xbd, 0xe3, 0xb2, 0x1b, 0x3e,
  0x08, 0xec, 0xc9, 0x3c, 0xc8, 0xa9, 0x6c, 0x3e, 0x09, 0xa3, 0x91, 0xbc,
  0x2b, 0x92, 0x13, 0xbd, 0xcb, 0xc9, 0xad, 0x3d, 0xd1, 0x00, 0x23, 0x3d,
  0x2c, 0x9f, 0x0d, 0xbe, 0x8e, 0x0c, 0xc1, 0x3c, 0x7f, 0x97, 0xb0, 0x3e,
  0x6a, 0x75, 0xeb, 0x3d, 0x34, 0x48, 0x77, 0xbc, 0x35, 0x9d, 0x7c, 0x3d,
  0x67, 0x76, 0x10, 0x3e, 0xd3, 0x65, 0x43, 0x3e, 0x9d, 0x5a, 0x5a, 0xbe,
  0x8a, 0x14, 0x7d, 0x3e, 0xf6, 0x68, 0xf6, 0x3e, 0x15, 0x83, 0x37, 0x3e,
  0x31, 0x6d, 0x32, 0xbd, 0xee, 0xf8, 0x97, 0x3d, 0xa7, 0xb9, 0x2d, 0xbe,
  0x2b, 0xc8, 0x85, 0xbc, 0x2b, 0x55, 0x39, 0x3e, 0xc7, 0x19, 0xe0, 0xbd,
  0x6b, 0x03, 0x86, 0x3e, 0xdc, 0x65, 0x5f, 0x3e, 0xdf, 0x02, 0xca, 0x3c,
  0xc4, 0x38, 0x6b, 0xbd, 0x6a, 0xfd, 0x13, 0xbe, 0x68, 0xd6, 0xbd, 0xbe,
  0xb2, 0xea, 0xab, 0xbd, 0xea, 0x4a, 0x02, 0xbe, 0x91, 0xf2, 0x8c, 0xbe,
  0x5a, 0xe6, 0x9c, 0xbc, 0xb2, 0xe2, 0x87, 0xbd, 0x85, 0x8e, 0x85, 0xbc,
  0xf5, 0x9f, 0xd6, 0x3c, 0x31, 0x1b, 0x0d, 0xbe, 0x4a, 0xf2, 0xd6, 0x3c,
  0x22, 0x4f, 0x87, 0xbe, 0x12, 0xbe, 0xd6, 0xbe, 0xcf, 0xc8, 0x02, 0xbd,
  0x51, 0xa3, 0xbc, 0x3c, 0xe3, 0xa8, 0x13, 0x3b, 0x17, 0x1a, 0xc5, 0xbd,
  0xcb, 0x9f, 0x85, 0x3d, 0x90, 0x7d, 0xf1, 0xbd, 0x30, 0xfc, 0x5d, 0xbe,
  0x41, 0xab, 0x91, 0xbe, 0xfb, 0xf5, 0x16, 0xbe, 0xeb, 0x3d, 0x21, 0xbe,
  0x0a, 0xc1, 0xfd, 0xbd, 0x2f, 0x75, 0x9b, 0xbd, 0x5a, 0xfc, 0xbb, 0x3d,
  0x8f, 0xef, 0x74, 0xbe, 0x0e, 0xb2, 0x3f, 0xbc, 0xfd, 0xbe, 0x1b, 0x3e,
  0x7d, 0x70, 0x63, 0xbd, 0x21, 0xb1, 0x95, 0xbd, 0xd1, 0xa0, 0x8e, 0x3d,
  0xe0, 0xf3, 0xb1, 0x3d, 0x55, 0x20, 0x60, 0x3e, 0x14, 0x6d, 0xea, 0x3d,
  0x05, 0xfb, 0x83, 0xbe, 0x13, 0x74, 0x59, 0x3e, 0xf8, 0x1a, 0x13, 0x3e,
  0xe3, 0xa8, 0xb2, 0xbc, 0xc6, 0x36, 0x8a, 0xbd, 0x5f, 0xf8, 0x5b, 0x3e,
  0x0a, 0x1e, 0x7e, 0x3e, 0x9a, 0xf5, 0x02, 0xbd, 0x9f, 0x9f, 0xe0, 0xbe,
  0x46, 0x70, 0x7d, 0xbd, 0xa0, 0xb0, 0xbf, 0x3c, 0x8c, 0xd3, 0x9c, 0xbd,
  0xb4, 0x79, 0xcd, 0x3c, 0xf2, 0x67, 0xf6, 0xb9, 0x24, 0x2a, 0xff, 0xbc,
  0xd6, 0x68, 0xcf, 0x3e, 0x25, 0x38, 0x55, 0x3d, 0x6e, 0x8b, 0xce, 0x3d,
  0x7b, 0x61, 0x11, 0xbe, 0xe8, 0xf7, 0x68, 0xbd, 0xc8, 0x2d, 0xef, 0x3c,
  0x99, 0xbe, 0x1a, 0xbe, 0x82, 0x99, 0x45, 0x3e, 0x47, 0x3c, 0xf3, 0x3e,
  0x70, 0xf0, 0x31, 0x3e, 0xfc, 0x69, 0xaf, 0xbe, 0x2e, 0xe1, 0xbc, 0xbe,
  0x37, 0xc4, 0x07, 0x39, 0xb8, 0x85, 0x9e, 0x3d, 0x0e, 0xf2, 0x28, 0xbe,
  0x17, 0xb2, 0xf6, 0x3c, 0x23, 0x2f, 0x87, 0x3d, 0xbc, 0xa0, 0x8e, 0x3c,
  0x21, 0x80, 0x80, 0x3e, 0x67, 0x8d, 0x46, 0x3e, 0xc4, 0xa9, 0xf5, 0xbc,
  0x78, 0xd9, 0xa0, 0xbd, 0x49, 0x6f, 0x28, 0x3d, 0x7d, 0x3d, 0xe5, 0x3e,
  0xa2, 0x64, 0x8e, 0xbe, 0xf2, 0x95, 0xcf, 0xbe, 0xcb, 0xc5, 0x9d, 0x3e,
  0xac, 0xc4, 0x4d, 0x3e, 0x67, 0x11, 0x5a, 0xbd, 0xb6, 0x76, 0x97, 0x3d,
  0xed, 0x7c, 0x80, 0x3d, 0xeb, 0x65, 0x14, 0x3d, 0x48, 0x1c, 0x9e, 0x3d,
  0xd5, 0x1e, 0x85, 0x3e, 0xe6, 0x34, 0xde, 0xbd, 0xba, 0x2d, 0x8f, 0xbe,
  0xce, 0x67, 0x71, 0xbd, 0x72, 0x8b, 0xa2, 0x3c, 0x1f, 0xe5, 0xa5, 0x3c,
  0xac, 0xa9, 0x59, 0xbe, 0x2f, 0x8f, 0x56, 0xbd, 0x24, 0x00, 0x2e, 0x3e,
  0xf9, 0xc9, 0x9a, 0xbc, 0x01, 0x5c, 0xfe, 0xbb, 0x84, 0x7c, 0x1a, 0xbd,
  0xc3, 0x60, 0x1b, 0xbd, 0xe7, 0x63, 0xf8, 0x3d, 0x56, 0x57, 0x31, 0xbe,
  0x98, 0x38, 0x47, 0xbe, 0x2e, 0x08, 0x6d, 0x3e, 0xd8, 0x6e, 0x39, 0x3d,
  0x05, 0xc0, 0x0e, 0xbd, 0x89, 0x62, 0x91, 0xba, 0x32, 0x56, 0xe9, 0xbc,
  0xa0, 0x58, 0x62, 0x3d, 0x85, 0xe4, 0x5c, 0xbe, 0x74, 0x8c, 0xa3, 0xbe,
  0x14, 0x77, 0xc6, 0x3d, 0xef, 0x10, 0x0e, 0xbd, 0x2d, 0x4d, 0x18, 0x3e,
  0xd1, 0x96, 0x05, 0xbc, 0x9f, 0x62, 0xe2, 0x3c, 0xe8, 0xab, 0xbe, 0x3d,
  0xef, 0x0e, 0x92, 0xbe, 0x0e, 0xe7, 0xf1, 0xbe, 0x26, 0x0b, 0xac, 0xbd,
  0x24, 0x28, 0x2d, 0xbe, 0x92, 0x55, 0x4c, 0xbe, 0xb5, 0xc1, 0x11, 0xbd,
  0x9b, 0x8a, 0x35, 0x3d, 0x7b, 0x35, 0x71, 0xbe, 0x83, 0xd6, 0xf8, 0xbe,
  0x75, 0x7d, 0x69, 0xbe, 0x3c, 0x4d, 0xb3, 0x3e, 0x59, 0xab, 0xbe, 0x3d,
  0xc5, 0x7a, 0xa6, 0x3d, 0x45, 0x84, 0x69, 0x3d, 0xa1, 0xd6, 0x58, 0xbb,
  0x7f, 0x72, 0x18, 0xbc, 0xe0, 0xdf, 0x9b, 0xbe, 0x08, 0xc4, 0x5b, 0xbd,
  0x96, 0x93, 0x79, 0xbc, 0x37, 0x31, 0x94, 0x3c, 0xde, 0xbf, 0x2d, 0x3e,
  0x95, 0x4b, 0x96, 0x3d, 0xad, 0x8e, 0x90, 0xbd, 0xee, 0xed, 0x5b, 0x3b,
  0x6f, 0xd7, 0x3d, 0xbe, 0x56, 0x4e, 0x34, 0xbd, 0x88, 0xf1, 0xb5, 0x3e,
  0xba, 0xc8, 0x08, 0x3e, 0x17, 0xa2, 0x82, 0x3e, 0x90, 0x6c, 0x8e, 0xbd,
  0xdc, 0xfd, 0xd5, 0xbc, 0x18, 0x84, 0x1d, 0xbc, 0x5c, 0x8a, 0x4b, 0xbb,
  0x26, 0x63, 0x1e, 0xbd, 0xbd, 0x1c, 0x4e, 0xbd, 0x65, 0x4b, 0xe0, 0x3d,
  0xae, 0xdf, 0x91, 0xbc, 0xaf, 0xa4, 0xca, 0x3c, 0x3e, 0x10, 0x8c, 0x3c,
  0x04, 0xfe, 0x70, 0xbd, 0xd9, 0x6e, 0x5a, 0xbe, 0xf6, 0xa1, 0xb6, 0x3e,
  0x71, 0x9f, 0x22, 0x3e, 0xee, 0x63, 0xb6, 0xbd, 0xf0, 0xe0, 0xf1, 0xbd,
  0xb0, 0x0a, 0xd6, 0x3b, 0xab, 0x04, 0xf9, 0xbc, 0xce, 0x0d, 0x96, 0xbd,
  0x88, 0x18, 0x02, 0x3e, 0x77, 0x92, 0x2d, 0x3e, 0xe7, 0xac, 0x83, 0xbd,
  0x0f, 0x4a, 0x82, 0x3e, 0x8b, 0x3f, 0x85, 0x3e, 0x82, 0x20, 0x97, 0x3d,
  0xd1, 0xf6, 0x91, 0xbd, 0xf2, 0xa0, 0x95, 0xbd, 0x76, 0xed, 0x71, 0xbe,
  0x2d, 0x8a, 0x65, 0xbe, 0x17, 0x87, 0xb3, 0x3e, 0x69, 0xdd, 0x04, 0x3f,
  0x1b, 0x2d, 0xee, 0x3d, 0x00, 0xd2, 0xb6, 0x3d, 0x59, 0xfc, 0x06, 0x3d,
  0xda, 0x2f, 0x08, 0xbc, 0x95, 0xed, 0xe0, 0xbd, 0x85, 0x4a, 0x20, 0x3e,
  0x1d, 0xdc, 0xc2, 0x3e, 0x97, 0x05, 0x39, 0xbd, 0x4f, 0xd6, 0x52, 0x3d,
  0x14, 0x69, 0x10, 0x3d, 0x18, 0xd8, 0x11, 0xbd, 0xb8, 0x3a, 0x55, 0xbe,
  0xae, 0x0b, 0x0d, 0xbe, 0x14, 0xf0, 0x4d, 0x3e, 0x7a, 0x2b, 0x12, 0xbc,
  0x3f, 0x28, 0x51, 0xbd, 0x98, 0x37, 0x1b, 0x3d, 0x1b, 0xf8, 0x3a, 0xbd,
  0x36, 0x20, 0x6c, 0x3c, 0x2a, 0xcc, 0x42, 0x3d, 0x1f, 0xd1, 0x98, 0xbe,
  0x45, 0x8c, 0x0d, 0xbf, 0x53, 0xde, 0x0c, 0xbe, 0xa5, 0xc9, 0x54, 0x3e,
  0x67, 0x40, 0x7e, 0x3e, 0x87, 0x24, 0x05, 0xbd, 0x48, 0x67, 0x16, 0x3c,
  0x49, 0x1c, 0x84, 0xbd, 0xbe, 0x9d, 0x74, 0xbe, 0xe8, 0xd7, 0xb7, 0xbe,
  0x12, 0x47, 0x8c, 0xbe, 0x93, 0x29, 0xd8, 0xbc, 0xfa, 0xda, 0x8c, 0x3e,
  0x39, 0x6d, 0x03, 0xbd, 0x2e, 0x93, 0x36, 0x3c, 0xfc, 0xcf, 0x77, 0xbd,
  0xd6, 0x38, 0xe1, 0xbd, 0x0b, 0x95, 0x9f, 0x3d, 0xee, 0x8f, 0x4a, 0x3d,
  0x32, 0x25, 0x9e, 0x3d, 0x33, 0x98, 0x57, 0xbd, 0x79, 0x1f, 0x86, 0xbe,
  0x02, 0xff, 0xff, 0xff, 0x04, 0x00, 0x00, 0x00, 0x28, 0x00, 0x00, 0x00,
  0xa5, 0x6a, 0x16, 0x40, 0xe2, 0xc2, 0x78, 0x3f, 0x00, 0xaa, 0x56, 0x3f,
  0x39, 0xd5, 0xc9, 0x3f, 0x68, 0x52, 0x31, 0x3f, 0x8d, 0xeb, 0x7c, 0xbd,
  0xce, 0x9f, 0x14, 0x3e, 0x00, 0xa4, 0x44, 0x3f, 0x65, 0xd9, 0x1c, 0x3e,
  0x9a, 0x07, 0x32, 0x3e, 0x36, 0xff, 0xff, 0xff, 0x04, 0x00, 0x00, 0x00,
  0x28, 0x00, 0x00, 0x00, 0x02, 0x78, 0xdf, 0x40, 0x4e, 0x81, 0x68, 0x3f,
  0xbb, 0x6d, 0x64, 0x40, 0xd7, 0x3b, 0x09, 0xc1, 0x19, 0x77, 0x77, 0x40,
  0x18, 0xb9, 0x73, 0xc1, 0x27, 0x6d, 0xe9, 0x40, 0x02, 0xc4, 0xed, 0x3f,
  0x09, 0xb4, 0x9a, 0x40, 0xf8, 0xb3, 0xa3, 0xc0, 0xb4, 0xfa, 0xff, 0xff,
  0xb8, 0xfa, 0xff, 0xff, 0x0f, 0x00, 0x00, 0x00, 0x4d, 0x4c, 0x49, 0x52,
  0x20, 0x43, 0x6f, 0x6e, 0x76, 0x65, 0x72, 0x74, 0x65, 0x64, 0x2e, 0x00,
  0x01, 0x00, 0x00, 0x00, 0x14, 0x00, 0x00, 0x00, 0x00, 0x00, 0x0e, 0x00,
  0x18, 0x00, 0x14, 0x00, 0x10, 0x00, 0x0c, 0x00, 0x08, 0x00, 0x04, 0x00,
  0x0e, 0x00, 0x00, 0x00, 0x14, 0x00, 0x00, 0x00, 0x1c, 0x00, 0x00, 0x00,
  0x14, 0x01, 0x00, 0x00, 0x18, 0x01, 0x00, 0x00, 0x1c, 0x01, 0x00, 0x00,
  0x04, 0x00, 0x00, 0x00, 0x6d, 0x61, 0x69, 0x6e, 0x00, 0x00, 0x00, 0x00,
  0x04, 0x00, 0x00, 0x00, 0xc8, 0x00, 0x00, 0x00, 0x84, 0x00, 0x00, 0x00,
  0x50, 0x00, 0x00, 0x00, 0x14, 0x00, 0x00, 0x00, 0x00, 0x00, 0x0e, 0x00,
  0x1a, 0x00, 0x14, 0x00, 0x10, 0x00, 0x0c, 0x00, 0x0b, 0x00, 0x04, 0x00,
  0x0e, 0x00, 0x00, 0x00, 0x1c, 0x00, 0x00, 0x00, 0x00, 0x00, 0x00, 0x09,
  0x1c, 0x00, 0x00, 0x00, 0x20, 0x00, 0x00, 0x00, 0x01, 0x00, 0x00, 0x00,
  0x00, 0x00, 0x06, 0x00, 0x08, 0x00, 0x04, 0x00, 0x06, 0x00, 0x00, 0x00,
  0x00, 0x00, 0x80, 0x3f, 0x01, 0x00, 0x00, 0x00, 0x09, 0x00, 0x00, 0x00,
  0x01, 0x00, 0x00, 0x00, 0x08, 0x00, 0x00, 0x00, 0x9e, 0xff, 0xff, 0xff,
  0x10, 0x00, 0x00, 0x00, 0x00, 0x00, 0x00, 0x08, 0x0c, 0x00, 0x00, 0x00,
  0x10, 0x00, 0x00, 0x00, 0x7c, 0xfb, 0xff, 0xff, 0x01, 0x00, 0x00, 0x00,
  0x08, 0x00, 0x00, 0x00, 0x03, 0x00, 0x00, 0x00, 0x07, 0x00, 0x00, 0x00,
  0x05, 0x00, 0x00, 0x00, 0x01, 0x00, 0x00, 0x00, 0xce, 0xff, 0xff, 0xff,
  0x10, 0x00, 0x00, 0x00, 0x00, 0x00, 0x00, 0x08, 0x0c, 0x00, 0x00, 0x00,
  0x10, 0x00, 0x00, 0x00, 0xac, 0xfb, 0xff, 0xff, 0x01, 0x00, 0x00, 0x00,
  0x07, 0x00, 0x00, 0x00, 0x03, 0x00, 0x00, 0x00, 0x06, 0x00, 0x00, 0x00,
  0x04, 0x00, 0x00, 0x00, 0xff, 0xff, 0xff, 0xff, 0x00, 0x00, 0x0e, 0x00,
  0x14, 0x00, 0x00, 0x00, 0x10, 0x00, 0x0c, 0x00, 0x0b, 0x00, 0x04, 0x00,
  0x0e, 0x00, 0x00, 0x00, 0x10, 0x00, 0x00, 0x00, 0x00, 0x00, 0x00, 0x08,
  0x0c, 0x00, 0x00, 0x00, 0x10, 0x00, 0x00, 0x00, 0xec, 0xfb, 0xff, 0xff,
  0x01, 0x00, 0x00, 0x00, 0x06, 0x00, 0x00, 0x00, 0x03, 0x00, 0x00, 0x00,
  0x00, 0x00, 0x00, 0x00, 0x03, 0x00, 0x00, 0x00, 0x02, 0x00, 0x00, 0x00,
  0x01, 0x00, 0x00, 0x00, 0x09, 0x00, 0x00, 0x00, 0x01, 0x00, 0x00, 0x00,
  0x00, 0x00, 0x00, 0x00, 0x0a, 0x00, 0x00, 0x00, 0xbc, 0x03, 0x00, 0x00,
  0x3c, 0x03, 0x00, 0x00, 0xc8, 0x02, 0x00, 0x00, 0x78, 0x02, 0x00, 0x00,
  0x28, 0x02, 0x00, 0x00, 0xd8, 0x01, 0x00, 0x00, 0x5c, 0x01, 0x00, 0x00,
  0xfc, 0x00, 0x00, 0x00, 0x60, 0x00, 0x00, 0x00, 0x04, 0x00, 0x00, 0x00,
  0x82, 0xfc, 0xff, 0xff, 0x00, 0x00, 0x00, 0x01, 0x14, 0x00, 0x00, 0x00,
  0x1c, 0x00, 0x00, 0x00, 0x1c, 0x00, 0x00, 0x00, 0x0a, 0x00, 0x00, 0x00,
  0x34, 0x00, 0x00, 0x00, 0x02, 0x00, 0x00, 0x00, 0xff, 0xff, 0xff, 0xff,
  0x0a, 0x00, 0x00, 0x00, 0x6c, 0xfc, 0xff, 0xff, 0x19, 0x00, 0x00, 0x00,
  0x53, 0x74, 0x61, 0x74, 0x65, 0x66, 0x75, 0x6c, 0x50, 0x61, 0x72, 0x74,
  0x69, 0x74, 0x69, 0x6f, 0x6e, 0x65, 0x64, 0x43, 0x61, 0x6c, 0x6c, 0x3a,
  0x30, 0x00, 0x00, 0x00, 0x02, 0x00, 0x00, 0x00, 0x01, 0x00, 0x00, 0x00,
  0x0a, 0x00, 0x00, 0x00, 0xda, 0xfc, 0xff, 0xff, 0x00, 0x00, 0x00, 0x01,
  0x14, 0x00, 0x00, 0x00, 0x1c, 0x00, 0x00, 0x00, 0x1c, 0x00, 0x00, 0x00,
  0x09, 0x00, 0x00, 0x00, 0x74, 0x00, 0x00, 0x00, 0x02, 0x00, 0x00, 0x00,
  0xff, 0xff, 0xff, 0xff, 0x0a, 0x00, 0x00, 0x00, 0xc4, 0xfc, 0xff, 0xff,
  0x58, 0x00, 0x00, 0x00, 0x73, 0x65, 0x71, 0x75, 0x65, 0x6e, 0x74, 0x69,
  0x61, 0x6c, 0x5f, 0x35, 0x2f, 0x64, 0x65, 0x6e, 0x73, 0x65, 0x5f, 0x33,
  0x30, 0x2f, 0x42, 0x69, 0x61, 0x73, 0x41, 0x64, 0x64, 0x3b, 0x73, 0x65,
  0x71, 0x75, 0x65, 0x6e, 0x74, 0x69, 0x61, 0x6c, 0x5f, 0x35, 0x2f, 0x64,
  0x65, 0x6e, 0x73, 0x65, 0x5f, 0x33, 0x31, 0x2f, 0x4d, 0x61, 0x74, 0x4d,
  0x75, 0x6c, 0x3b, 0x73, 0x65, 0x71, 0x75, 0x65, 0x6e, 0x74, 0x69, 0x61,
  0x6c, 0x5f, 0x35, 0x2f, 0x64, 0x65, 0x6e, 0x73, 0x65, 0x5f, 0x33, 0x31,
  0x2f, 0x42, 0x69, 0x61, 0x73, 0x41, 0x64, 0x64, 0x00, 0x00, 0x00, 0x00,
  0x02, 0x00, 0x00, 0x00, 0x01, 0x00, 0x00, 0x00, 0x0a, 0x00, 0x00, 0x00,
  0x72, 0xfd, 0xff, 0xff, 0x00, 0x00, 0x00, 0x01, 0x14, 0x00, 0x00, 0x00,
  0x1c, 0x00, 0x00, 0x00, 0x1c, 0x00, 0x00, 0x00, 0x08, 0x00, 0x00, 0x00,
  0x38, 0x00, 0x00, 0x00, 0x02, 0x00, 0x00, 0x00, 0xff, 0xff, 0xff, 0xff,
  0x32, 0x00, 0x00, 0x00, 0x5c, 0xfd, 0xff, 0xff, 0x1d, 0x00, 0x00, 0x00,
  0x73, 0x65, 0x71, 0x75, 0x65, 0x6e, 0x74, 0x69, 0x61, 0x6c, 0x5f, 0x35,
  0x2f, 0x64, 0x65, 0x6e, 0x73, 0x65, 0x5f, 0x33, 0x30, 0x2f, 0x4d, 0x61,
  0x74, 0x4d, 0x75, 0x6c, 0x31, 0x00, 0x00, 0x00, 0x02, 0x00, 0x00, 0x00,
  0x01, 0x00, 0x00, 0x00, 0x32, 0x00, 0x00, 0x00, 0xce, 0xfd, 0xff, 0xff,
  0x00, 0x00, 0x00, 0x01, 0x14, 0x00, 0x00, 0x00, 0x1c, 0x00, 0x00, 0x00,
  0x1c, 0x00, 0x00, 0x00, 0x07, 0x00, 0x00, 0x00, 0x54, 0x00, 0x00, 0x00,
  0x02, 0x00, 0x00, 0x00, 0xff, 0xff, 0xff, 0xff, 0x0a, 0x00, 0x00, 0x00,
  0xb8, 0xfd, 0xff, 0xff, 0x3a, 0x00, 0x00, 0x00, 0x73, 0x65, 0x71, 0x75,
  0x65, 0x6e, 0x74, 0x69, 0x61, 0x6c, 0x5f, 0x35, 0x2f, 0x64, 0x65, 0x6e,
  0x73, 0x65, 0x5f, 0x32, 0x39, 0x2f, 0x4d, 0x61, 0x74, 0x4d, 0x75, 0x6c,
  0x3b, 0x73, 0x65, 0x71, 0x75, 0x65, 0x6e, 0x74, 0x69, 0x61, 0x6c, 0x5f,
  0x35, 0x2f, 0x64, 0x65, 0x6e, 0x73, 0x65, 0x5f, 0x32, 0x39, 0x2f, 0x42,
  0x69, 0x61, 0x73, 0x41, 0x64, 0x64, 0x00, 0x00, 0x02, 0x00, 0x00, 0x00,
  0x01, 0x00, 0x00, 0x00, 0x0a, 0x00, 0x00, 0x00, 0xc2, 0xfe, 0xff, 0xff,
  0x00, 0x00, 0x00, 0x01, 0x10, 0x00, 0x00, 0x00, 0x10, 0x00, 0x00, 0x00,
  0x06, 0x00, 0x00, 0x00, 0x2c, 0x00, 0x00, 0x00, 0x20, 0xfe, 0xff, 0xff,
  0x1c, 0x00, 0x00, 0x00, 0x73, 0x65, 0x71, 0x75, 0x65, 0x6e, 0x74, 0x69,
  0x61, 0x6c, 0x5f, 0x35, 0x2f, 0x64, 0x65, 0x6e, 0x73, 0x65, 0x5f, 0x33,
  0x31, 0x2f, 0x4d, 0x61, 0x74, 0x4d, 0x75, 0x6c, 0x00, 0x00, 0x00, 0x00,
  0x02, 0x00, 0x00, 0x00, 0x0a, 0x00, 0x00, 0x00, 0x32, 0x00, 0x00, 0x00,
  0x0e, 0xff, 0xff, 0xff, 0x00, 0x00, 0x00, 0x01, 0x10, 0x00, 0x00, 0x00,
  0x10, 0x00, 0x00, 0x00, 0x05, 0x00, 0x00, 0x00, 0x2c, 0x00, 0x00, 0x00,
  0x6c, 0xfe, 0xff, 0xff, 0x1c, 0x00, 0x00, 0x00, 0x73, 0x65, 0x71, 0x75,
  0x65, 0x6e, 0x74, 0x69, 0x61, 0x6c, 0x5f, 0x35, 0x2f, 0x64, 0x65, 0x6e,
  0x73, 0x65, 0x5f, 0x33, 0x30, 0x2f, 0x4d, 0x61, 0x74, 0x4d, 0x75, 0x6c,
  0x00, 0x00, 0x00, 0x00, 0x02, 0x00, 0x00, 0x00, 0x32, 0x00, 0x00, 0x00,
  0x0a, 0x00, 0x00, 0x00, 0x5a, 0xff, 0xff, 0xff, 0x00, 0x00, 0x00, 0x01,
  0x10, 0x00, 0x00, 0x00, 0x10, 0x00, 0x00, 0x00, 0x04, 0x00, 0x00, 0x00,
  0x2c, 0x00, 0x00, 0x00, 0xb8, 0xfe, 0xff, 0xff, 0x1c, 0x00, 0x00, 0x00,
  0x73, 0x65, 0x71, 0x75, 0x65, 0x6e, 0x74, 0x69, 0x61, 0x6c, 0x5f, 0x35,
  0x2f, 0x64, 0x65, 0x6e, 0x73, 0x65, 0x5f, 0x32, 0x39, 0x2f, 0x4d, 0x61,
  0x74, 0x4d, 0x75, 0x6c, 0x00, 0x00, 0x00, 0x00, 0x02, 0x00, 0x00, 0x00,
  0x0a, 0x00, 0x00, 0x00, 0x40, 0x00, 0x00, 0x00, 0xa6, 0xff, 0xff, 0xff,
  0x00, 0x00, 0x00, 0x01, 0x10, 0x00, 0x00, 0x00, 0x10, 0x00, 0x00, 0x00,
  0x03, 0x00, 0x00, 0x00, 0x3c, 0x00, 0x00, 0x00, 0x04, 0xff, 0xff, 0xff,
  0x2c, 0x00, 0x00, 0x00, 0x73, 0x65, 0x71, 0x75, 0x65, 0x6e, 0x74, 0x69,
  0x61, 0x6c, 0x5f, 0x35, 0x2f, 0x64, 0x65, 0x6e, 0x73, 0x65, 0x5f, 0x32,
  0x39, 0x2f, 0x42, 0x69, 0x61, 0x73, 0x41, 0x64, 0x64, 0x2f, 0x52, 0x65,
  0x61, 0x64, 0x56, 0x61, 0x72, 0x69, 0x61, 0x62, 0x6c, 0x65, 0x4f, 0x70,
  0x00, 0x00, 0x00, 0x00, 0x01, 0x00, 0x00, 0x00, 0x0a, 0x00, 0x00, 0x00,
  0x00, 0x00, 0x16, 0x00, 0x18, 0x00, 0x14, 0x00, 0x00, 0x00, 0x10, 0x00,
  0x0c, 0x00, 0x08, 0x00, 0x00, 0x00, 0x00, 0x00, 0x00, 0x00, 0x07, 0x00,
  0x16, 0x00, 0x00, 0x00, 0x00, 0x00, 0x00, 0x01, 0x10, 0x00, 0x00, 0x00,
  0x10, 0x00, 0x00, 0x00, 0x02, 0x00, 0x00, 0x00, 0x48, 0x00, 0x00, 0x00,
  0x74, 0xff, 0xff, 0xff, 0x3a, 0x00, 0x00, 0x00, 0x73, 0x65, 0x71, 0x75,
  0x65, 0x6e, 0x74, 0x69, 0x61, 0x6c, 0x5f, 0x35, 0x2f, 0x64, 0x65, 0x6e,
  0x73, 0x65, 0x5f, 0x33, 0x31, 0x2f, 0x4d, 0x61, 0x74, 0x4d, 0x75, 0x6c,
  0x3b, 0x73, 0x65, 0x71, 0x75, 0x65, 0x6e, 0x74, 0x69, 0x61, 0x6c, 0x5f,
  0x35, 0x2f, 0x64, 0x65, 0x6e, 0x73, 0x65, 0x5f, 0x33, 0x31, 0x2f, 0x42,
  0x69, 0x61, 0x73, 0x41, 0x64, 0x64, 0x00, 0x00, 0x01, 0x00, 0x00, 0x00,
  0x0a, 0x00, 0x00, 0x00, 0x00, 0x00, 0x16, 0x00, 0x1c, 0x00, 0x18, 0x00,
  0x00, 0x00, 0x14, 0x00, 0x10, 0x00, 0x0c, 0x00, 0x00, 0x00, 0x00, 0x00,
  0x08, 0x00, 0x07, 0x00, 0x16, 0x00, 0x00, 0x00, 0x00, 0x00, 0x00, 0x01,
  0x14, 0x00, 0x00, 0x00, 0x20, 0x00, 0x00, 0x00, 0x20, 0x00, 0x00, 0x00,
  0x01, 0x00, 0x00, 0x00, 0x40, 0x00, 0x00, 0x00, 0x02, 0x00, 0x00, 0x00,
  0xff, 0xff, 0xff, 0xff, 0x40, 0x00, 0x00, 0x00, 0x04, 0x00, 0x04, 0x00,
  0x04, 0x00, 0x00, 0x00, 0x20, 0x00, 0x00, 0x00, 0x73, 0x65, 0x72, 0x76,
  0x69, 0x6e, 0x67, 0x5f, 0x64, 0x65, 0x66, 0x61, 0x75, 0x6c, 0x74, 0x5f,
  0x64, 0x65, 0x6e, 0x73, 0x65, 0x5f, 0x32, 0x39, 0x5f, 0x69, 0x6e, 0x70,
  0x75, 0x74, 0x3a, 0x30, 0x00, 0x00, 0x00, 0x00, 0x02, 0x00, 0x00, 0x00,
  0x01, 0x00, 0x00, 0x00, 0x40, 0x00, 0x00, 0x00, 0x02, 0x00, 0x00, 0x00,
  0x20, 0x00, 0x00, 0x00, 0x04, 0x00, 0x00, 0x00, 0xf4, 0xff, 0xff, 0xff,
  0x19, 0x00, 0x00, 0x00, 0x00, 0x00, 0x00, 0x19, 0x0c, 0x00, 0x0c, 0x00,
  0x0b, 0x00, 0x00, 0x00, 0x00, 0x00, 0x04, 0x00, 0x0c, 0x00, 0x00, 0x00,
  0x09, 0x00, 0x00, 0x00, 0x00, 0x00, 0x00, 0x09
};
unsigned int third_model_NO_activations_tflite_len = 8648;
