unsigned char cnn_comparison_tflite[] = {
  0x1c, 0x00, 0x00, 0x00, 0x54, 0x46, 0x4c, 0x33, 0x14, 0x00, 0x20, 0x00,
  0x1c, 0x00, 0x18, 0x00, 0x14, 0x00, 0x10, 0x00, 0x0c, 0x00, 0x00, 0x00,
  0x08, 0x00, 0x04, 0x00, 0x14, 0x00, 0x00, 0x00, 0x1c, 0x00, 0x00, 0x00,
  0x88, 0x00, 0x00, 0x00, 0xe0, 0x00, 0x00, 0x00, 0xd8, 0x09, 0x00, 0x00,
  0xe8, 0x09, 0x00, 0x00, 0x80, 0x11, 0x00, 0x00, 0x03, 0x00, 0x00, 0x00,
  0x01, 0x00, 0x00, 0x00, 0x04, 0x00, 0x00, 0x00, 0x62, 0xf5, 0xff, 0xff,
  0x0c, 0x00, 0x00, 0x00, 0x1c, 0x00, 0x00, 0x00, 0x38, 0x00, 0x00, 0x00,
  0x0f, 0x00, 0x00, 0x00, 0x73, 0x65, 0x72, 0x76, 0x69, 0x6e, 0x67, 0x5f,
  0x64, 0x65, 0x66, 0x61, 0x75, 0x6c, 0x74, 0x00, 0x01, 0x00, 0x00, 0x00,
  0x04, 0x00, 0x00, 0x00, 0x94, 0xff, 0xff, 0xff, 0x0c, 0x00, 0x00, 0x00,
  0x04, 0x00, 0x00, 0x00, 0x05, 0x00, 0x00, 0x00, 0x64, 0x65, 0x6e, 0x73,
  0x65, 0x00, 0x00, 0x00, 0x01, 0x00, 0x00, 0x00, 0x04, 0x00, 0x00, 0x00,
  0x02, 0xf6, 0xff, 0xff, 0x04, 0x00, 0x00, 0x00, 0x0c, 0x00, 0x00, 0x00,
  0x63, 0x6f, 0x6e, 0x76, 0x32, 0x64, 0x5f, 0x69, 0x6e, 0x70, 0x75, 0x74,
  0x00, 0x00, 0x00, 0x00, 0x02, 0x00, 0x00, 0x00, 0x34, 0x00, 0x00, 0x00,
  0x04, 0x00, 0x00, 0x00, 0xdc, 0xff, 0xff, 0xff, 0x0f, 0x00, 0x00, 0x00,
  0x04, 0x00, 0x00, 0x00, 0x13, 0x00, 0x00, 0x00, 0x43, 0x4f, 0x4e, 0x56,
  0x45, 0x52, 0x53, 0x49, 0x4f, 0x4e, 0x5f, 0x4d, 0x45, 0x54, 0x41, 0x44,
  0x41, 0x54, 0x41, 0x00, 0x08, 0x00, 0x0c, 0x00, 0x08, 0x00, 0x04, 0x00,
  0x08, 0x00, 0x00, 0x00, 0x0e, 0x00, 0x00, 0x00, 0x04, 0x00, 0x00, 0x00,
  0x13, 0x00, 0x00, 0x00, 0x6d, 0x69, 0x6e, 0x5f, 0x72, 0x75, 0x6e, 0x74,
  0x69, 0x6d, 0x65, 0x5f, 0x76, 0x65, 0x72, 0x73, 0x69, 0x6f, 0x6e, 0x00,
  0x10, 0x00, 0x00, 0x00, 0xf4, 0x08, 0x00, 0x00, 0xec, 0x08, 0x00, 0x00,
  0xd8, 0x08, 0x00, 0x00, 0xb8, 0x08, 0x00, 0x00, 0x98, 0x08, 0x00, 0x00,
  0x80, 0x08, 0x00, 0x00, 0xc8, 0x00, 0x00, 0x00, 0xc0, 0x00, 0x00, 0x00,
  0xb8, 0x00, 0x00, 0x00, 0xb0, 0x00, 0x00, 0x00, 0xa8, 0x00, 0x00, 0x00,
  0xa0, 0x00, 0x00, 0x00, 0x98, 0x00, 0x00, 0x00, 0x90, 0x00, 0x00, 0x00,
  0x70, 0x00, 0x00, 0x00, 0x04, 0x00, 0x00, 0x00, 0xbe, 0xf6, 0xff, 0xff,
  0x04, 0x00, 0x00, 0x00, 0x5c, 0x00, 0x00, 0x00, 0x0c, 0x00, 0x00, 0x00,
  0x08, 0x00, 0x0e, 0x00, 0x08, 0x00, 0x04, 0x00, 0x08, 0x00, 0x00, 0x00,
  0x14, 0x00, 0x00, 0x00, 0x2c, 0x00, 0x00, 0x00, 0x00, 0x00, 0x0a, 0x00,
  0x0c, 0x00, 0x08, 0x00, 0x00, 0x00, 0x07, 0x00, 0x0a, 0x00, 0x00, 0x00,
  0x00, 0x00, 0x00, 0x01, 0x04, 0x00, 0x00, 0x00, 0x00, 0x00, 0x00, 0x00,
  0x00, 0x00, 0x0a, 0x00, 0x10, 0x00, 0x0c, 0x00, 0x08, 0x00, 0x04, 0x00,
  0x0a, 0x00, 0x00, 0x00, 0x01, 0x00, 0x00, 0x00, 0x02, 0x00, 0x00, 0x00,
  0x04, 0x00, 0x00, 0x00, 0x06, 0x00, 0x00, 0x00, 0x32, 0x2e, 0x31, 0x31,
  0x2e, 0x30, 0x00, 0x00, 0x26, 0xf7, 0xff, 0xff, 0x04, 0x00, 0x00, 0x00,
  0x10, 0x00, 0x00, 0x00, 0x31, 0x2e, 0x35, 0x2e, 0x30, 0x00, 0x00, 0x00,
  0x00, 0x00, 0x00, 0x00, 0x00, 0x00, 0x00, 0x00, 0x5c, 0xf0, 0xff, 0xff,
  0x60, 0xf0, 0xff, 0xff, 0x64, 0xf0, 0xff, 0xff, 0x68, 0xf0, 0xff, 0xff,
  0x6c, 0xf0, 0xff, 0xff, 0x70, 0xf0, 0xff, 0xff, 0x74, 0xf0, 0xff, 0xff,
  0x5e, 0xf7, 0xff, 0xff, 0x04, 0x00, 0x00, 0x00, 0xa8, 0x07, 0x00, 0x00,
  0x50, 0xf9, 0x95, 0x3c, 0x7f, 0x4b, 0x11, 0xbf, 0xd6, 0x0f, 0x90, 0xbe,
  0xd8, 0x32, 0xfd, 0xbe, 0xd4, 0x6f, 0x36, 0xbe, 0x25, 0xcc, 0x96, 0xbe,
  0x20, 0x17, 0x95, 0xbd, 0x10, 0x95, 0x75, 0xbe, 0x9e, 0x60, 0xec, 0xbe,
  0x9c, 0x60, 0x63, 0xbe, 0xe4, 0xe3, 0x91, 0x3e, 0x32, 0x0f, 0x46, 0xbe,
  0x0f, 0x12, 0x1b, 0xbf, 0x1d, 0x0c, 0x17, 0xbf, 0x46, 0x15, 0xc4, 0xbe,
  0x00, 0x6b, 0x8e, 0x3d, 0x78, 0x39, 0x0c, 0xbe, 0xfa, 0xe7, 0xb3, 0xbe,
  0x2d, 0x61, 0x0b, 0xbe, 0xc5, 0x9b, 0xb5, 0xbe, 0x26, 0xd2, 0x39, 0xbe,
  0x41, 0xd1, 0x07, 0xbe, 0x19, 0x81, 0x12, 0x3f, 0x93, 0x2c, 0xbe, 0xbd,
  0x26, 0x63, 0xd1, 0xbf, 0xc6, 0x38, 0xaf, 0x3f, 0x41, 0xba, 0xc2, 0x3f,
  0xdd, 0x50, 0xd4, 0xbd, 0xc7, 0x0d, 0x2a, 0x3e, 0x73, 0x60, 0xd4, 0x3e,
  0x49, 0xec, 0xd0, 0x3e, 0x51, 0xc2, 0x6a, 0x3e, 0x8a, 0x0c, 0x89, 0x3f,
  0xd9, 0x2d, 0x96, 0x3f, 0xff, 0x00, 0x3c, 0x3e, 0x14, 0xd7, 0x83, 0xbd,
  0x10, 0xfe, 0x0b, 0x3e, 0x2e, 0xa5, 0x21, 0xbe, 0xa8, 0x1f, 0x48, 0xbf,
  0x99, 0x30, 0xf6, 0xbe, 0xbc, 0x32, 0x87, 0xbe, 0x84, 0x7c, 0x62, 0xbd,
  0x99, 0x27, 0xb3, 0xbd, 0x12, 0xdc, 0x17, 0xbf, 0x79, 0x95, 0x0d, 0xbe,
  0x2f, 0xf5, 0xb8, 0xbf, 0xe3, 0x79, 0xf1, 0xbf, 0x36, 0xc1, 0x73, 0xbf,
  0xd0, 0x60, 0x42, 0xbc, 0x37, 0xf0, 0x48, 0x3d, 0xf5, 0x3c, 0x61, 0xbd,
  0x5e, 0xb9, 0x08, 0x3f, 0x4f, 0xcb, 0xa2, 0x3f, 0xef, 0x68, 0xb5, 0x3d,
  0x2e, 0x11, 0x28, 0x3f, 0xe8, 0x15, 0x03, 0xbc, 0xbf, 0x72, 0x6e, 0xbd,
  0x11, 0xa0, 0x66, 0xbf, 0xd0, 0x89, 0x3e, 0x3d, 0x78, 0x64, 0x04, 0x3f,
  0x1f, 0xcc, 0x72, 0x3f, 0xa5, 0x0e, 0x56, 0x3f, 0xfa, 0x0e, 0x9f, 0xbe,
  0x0d, 0x5b, 0x53, 0xbe, 0x23, 0x36, 0x87, 0xbf, 0x00, 0x85, 0x24, 0xbf,
  0x41, 0x4c, 0xd0, 0x3e, 0x13, 0x85, 0xe4, 0xbd, 0x47, 0x28, 0x5e, 0xbf,
  0xe2, 0xe1, 0xe9, 0xbd, 0xa7, 0x8b, 0xf2, 0xbd, 0xda, 0xfb, 0x73, 0xbf,
  0x44, 0x2f, 0x1b, 0xbe, 0x3a, 0xc6, 0x5c, 0x3f, 0x8a, 0xff, 0xbd, 0xbf,
  0xf7, 0x87, 0x06, 0xbf, 0x7e, 0x70, 0x9e, 0xbd, 0xbb, 0xac, 0xf6, 0xbe,
  0x5e, 0xe4, 0x74, 0xbf, 0x6e, 0x54, 0x5d, 0x3e, 0x1a, 0x53, 0xcd, 0x3e,
  0xf8, 0x43, 0x07, 0xc0, 0x7d, 0x73, 0x64, 0xbe, 0xa1, 0x8f, 0x12, 0xbc,
  0x12, 0x43, 0x74, 0xbe, 0x88, 0x08, 0x44, 0x3e, 0x81, 0xde, 0x92, 0x3c,
  0x55, 0x3b, 0x67, 0x3e, 0x58, 0x26, 0xc9, 0xbd, 0xad, 0x74, 0x2c, 0xbe,
  0x88, 0x16, 0xb2, 0x3d, 0x37, 0xb2, 0xcb, 0xbd, 0xf9, 0xb3, 0xa4, 0xbe,
  0x87, 0xe3, 0xa4, 0xbe, 0x91, 0xf4, 0xde, 0x3e, 0xd9, 0x06, 0xf2, 0x3e,
  0x9d, 0x70, 0x58, 0x3d, 0x24, 0x98, 0xaf, 0x3d, 0x09, 0x80, 0x00, 0xbc,
  0x79, 0x8f, 0x14, 0x3e, 0xcc, 0x44, 0x9b, 0x3e, 0xe0, 0x4e, 0x13, 0x3f,
  0x65, 0x1f, 0x33, 0x3f, 0x2b, 0x70, 0x52, 0xbe, 0xe6, 0xa8, 0x4f, 0xbd,
  0x3b, 0x0c, 0x77, 0x3e, 0xef, 0x04, 0x60, 0x3f, 0xf7, 0xbd, 0x1d, 0x3f,
  0xd0, 0xcb, 0xbb, 0xbe, 0xd5, 0x0e, 0x96, 0xbf, 0x5e, 0xc5, 0xc5, 0xbf,
  0xad, 0xb3, 0x41, 0xbf, 0x5f, 0xc0, 0x23, 0x3d, 0x09, 0xc8, 0x2c, 0xbf,
  0xca, 0xf2, 0x3a, 0xbf, 0x54, 0xda, 0xe4, 0xbc, 0xdd, 0xbf, 0x19, 0x3f,
  0xd6, 0x32, 0x78, 0x3e, 0x76, 0xc1, 0x97, 0xbe, 0x40, 0xfd, 0x97, 0xbe,
  0x8e, 0x4e, 0x33, 0xbf, 0x4a, 0x91, 0x25, 0xbf, 0x7b, 0x3f, 0xc2, 0x3e,
  0xc1, 0xe5, 0x8e, 0x3f, 0xcc, 0xb9, 0x3f, 0x3f, 0xe0, 0xdc, 0x9f, 0x3f,
  0x2b, 0x44, 0xc8, 0x3f, 0x0e, 0x9e, 0xa5, 0x3f, 0x0d, 0x18, 0x62, 0x3f,
  0xf3, 0x2f, 0xe6, 0xbe, 0xc3, 0x26, 0x63, 0xbf, 0xff, 0x37, 0xdf, 0x3c,
  0x27, 0x58, 0xda, 0x3f, 0x92, 0x8d, 0x83, 0x3f, 0xac, 0x90, 0x52, 0x3f,
  0x8b, 0xb5, 0x06, 0x3f, 0x48, 0x82, 0xef, 0xbe, 0xe4, 0x70, 0x02, 0xbe,
  0x91, 0x1d, 0xa7, 0x3e, 0x6d, 0x74, 0x80, 0x3e, 0xd4, 0x15, 0x7f, 0xbe,
  0x9c, 0x84, 0xa0, 0xbf, 0x84, 0x2c, 0xc7, 0xbf, 0x44, 0xb6, 0x33, 0xbf,
  0x95, 0xbb, 0xf2, 0x3d, 0xc3, 0x1f, 0x88, 0x3d, 0xa1, 0xde, 0x50, 0x3d,
  0xe1, 0x60, 0x01, 0x3d, 0xee, 0x9d, 0xdf, 0x3e, 0x05, 0xef, 0xa8, 0x3e,
  0xa2, 0x9b, 0x8d, 0x3e, 0x9f, 0x5b, 0xf2, 0x3d, 0x07, 0x93, 0x58, 0xbf,
  0xb2, 0xf9, 0x33, 0xbd, 0x96, 0x3a, 0x8c, 0x3f, 0x48, 0x5f, 0x50, 0x3f,
  0x8f, 0x19, 0x39, 0x3f, 0x38, 0x91, 0xc9, 0xbe, 0x52, 0x73, 0x39, 0xbf,
  0x20, 0x1b, 0x92, 0xbf, 0xc1, 0x27, 0x4c, 0xbf, 0xd0, 0xbe, 0x25, 0x3f,
  0x78, 0xa4, 0xd2, 0xbe, 0xd3, 0x43, 0x1c, 0xbf, 0x1f, 0x41, 0x86, 0x3e,
  0x93, 0x09, 0x0b, 0x3e, 0xa7, 0xf9, 0x01, 0xbf, 0x27, 0xec, 0xa0, 0xbe,
  0x0d, 0x3b, 0xee, 0xbe, 0x4b, 0xba, 0x45, 0xbf, 0xb2, 0xce, 0x06, 0x3f,
  0x5d, 0xbd, 0xec, 0x3e, 0xf5, 0x60, 0x3b, 0xbf, 0x00, 0xce, 0xa4, 0xbf,
  0x60, 0xd2, 0xd1, 0xbe, 0x6f, 0x5e, 0x9c, 0x3f, 0x18, 0x98, 0x08, 0xbf,
  0x6a, 0xe7, 0x4f, 0xbf, 0x66, 0x45, 0xcb, 0x3d, 0xba, 0x58, 0x83, 0x3f,
  0x77, 0x80, 0x48, 0x3e, 0x58, 0x7a, 0x1c, 0xbf, 0x2b, 0x87, 0x03, 0x40,
  0x12, 0x14, 0x87, 0x3f, 0x5c, 0xbd, 0xe1, 0x3e, 0xbc, 0xbd, 0xf1, 0x3e,
  0x95, 0x37, 0x01, 0x3f, 0xcd, 0x8c, 0x96, 0x3e, 0x67, 0x23, 0xa6, 0xbd,
  0x07, 0xd8, 0x1b, 0x3f, 0x69, 0x3c, 0xdf, 0x3e, 0x96, 0x36, 0x3c, 0x3f,
  0x3a, 0x76, 0x37, 0xbc, 0xdd, 0x4e, 0xf4, 0xbe, 0xb1, 0x24, 0xc4, 0xbe,
  0x8b, 0xd2, 0x32, 0xbd, 0x81, 0x20, 0x1d, 0x3d, 0x38, 0xbf, 0xf9, 0xbd,
  0xae, 0x8c, 0xde, 0xbd, 0x44, 0x2f, 0x74, 0x3d, 0x47, 0x23, 0x22, 0xbd,
  0xfb, 0x57, 0x5f, 0xbd, 0x09, 0xe3, 0x7e, 0x3d, 0xc0, 0x7f, 0x81, 0x3d,
  0xd9, 0xc9, 0xe5, 0x3e, 0x8b, 0x8e, 0x96, 0x3d, 0x5b, 0x1a, 0xf9, 0x3e,
  0xdc, 0xfa, 0x9d, 0x3f, 0x29, 0x7a, 0xd6, 0x3f, 0x99, 0xa6, 0xec, 0x3e,
  0x3c, 0x09, 0x14, 0xbb, 0xc2, 0x7a, 0x85, 0xbe, 0x33, 0x86, 0x4f, 0x3f,
  0xcf, 0x2b, 0x4c, 0x3f, 0xba, 0x5c, 0xae, 0x3f, 0xdf, 0xcf, 0x7f, 0x3f,
  0x5e, 0x76, 0xc9, 0xbd, 0x41, 0xc0, 0x8e, 0x3e, 0x7a, 0xd0, 0x2f, 0x3f,
  0x6c, 0x0e, 0x76, 0x3e, 0x64, 0x79, 0x50, 0xbe, 0x0a, 0x34, 0xf2, 0xbd,
  0x38, 0xe5, 0x15, 0x3f, 0x24, 0x6f, 0x88, 0x3e, 0x34, 0x43, 0x74, 0xbf,
  0x10, 0xc2, 0x8b, 0xbe, 0x5d, 0xcd, 0x18, 0xbf, 0x34, 0xed, 0x0b, 0xbf,
  0x51, 0xae, 0x4a, 0xbf, 0xcd, 0x36, 0x82, 0xbf, 0xec, 0xe6, 0xcf, 0xbd,
  0x13, 0xe5, 0x85, 0xbf, 0xd5, 0xb5, 0x09, 0xc0, 0x4c, 0xfe, 0x42, 0xbf,
  0x5b, 0x84, 0xf5, 0x3e, 0xb7, 0x51, 0x8a, 0x3e, 0x47, 0x84, 0x2d, 0x3e,
  0x9b, 0x02, 0x43, 0x38, 0xdd, 0x8c, 0x73, 0xbd, 0xde, 0x2c, 0x2c, 0x3f,
  0x68, 0x1a, 0x13, 0xbe, 0x25, 0xe9, 0x2b, 0xbd, 0xcc, 0x7d, 0x10, 0x3f,
  0x77, 0x44, 0xa7, 0x3e, 0x55, 0xf1, 0xeb, 0xbd, 0xcf, 0x68, 0xb7, 0xbc,
  0xd8, 0xa8, 0x94, 0xbe, 0x6c, 0x61, 0x12, 0xbf, 0xcd, 0xe5, 0xab, 0xbe,
  0xdf, 0xa1, 0xff, 0x3d, 0xbb, 0x7e, 0x97, 0xbe, 0xeb, 0x70, 0xb4, 0xbd,
  0x4c, 0x3c, 0xf8, 0xbe, 0x81, 0xd5, 0x90, 0xbc, 0x6e, 0x30, 0x15, 0x3e,
  0x69, 0x04, 0x51, 0xbe, 0x84, 0xb7, 0xff, 0x3e, 0x6d, 0x16, 0xea, 0x3f,
  0x47, 0x29, 0x0e, 0x40, 0x30, 0x6c, 0x13, 0xbf, 0xf4, 0xd2, 0x82, 0x3f,
  0xb8, 0x9e, 0x2c, 0x3f, 0xec, 0x62, 0xb8, 0x3d, 0x23, 0x5d, 0xa4, 0xbf,
  0xdd, 0xeb, 0x30, 0xbe, 0x31, 0x49, 0xbd, 0x3f, 0x6e, 0xe7, 0x10, 0xbe,
  0x15, 0xf2, 0x93, 0x3e, 0x70, 0xcd, 0xa1, 0x3e, 0xbf, 0x2a, 0x71, 0xbf,
  0x46, 0xf5, 0x83, 0xbf, 0xd4, 0x5d, 0xb4, 0xbf, 0x0b, 0xfe, 0x12, 0xbf,
  0xf1, 0xdf, 0x09, 0x3f, 0x2a, 0xad, 0x75, 0xbe, 0xb8, 0x78, 0x40, 0xbf,
  0x70, 0x5f, 0xde, 0xbc, 0x12, 0x02, 0x78, 0x3f, 0xa2, 0x14, 0xde, 0x3e,
  0xbb, 0x24, 0x81, 0xbe, 0xa1, 0xb4, 0x5c, 0x3e, 0x12, 0x88, 0x6c, 0x3f,
  0xab, 0x48, 0xf8, 0x3d, 0xf8, 0x8e, 0xa5, 0x3e, 0xe3, 0x25, 0x2b, 0x3f,
  0x3d, 0x69, 0x1a, 0x3f, 0x7d, 0x99, 0x80, 0xbd, 0xa3, 0xd2, 0x9f, 0xbd,
  0xfc, 0x47, 0x4a, 0xbf, 0x6e, 0x89, 0x1b, 0x3e, 0x29, 0x2f, 0x07, 0xbf,
  0x20, 0x9e, 0x51, 0xbf, 0xff, 0xec, 0x0e, 0xbd, 0x69, 0x5b, 0xad, 0x3d,
  0x62, 0x6f, 0xe5, 0x3a, 0xf6, 0xee, 0xa3, 0x3f, 0x67, 0x35, 0x0c, 0x40,
  0x20, 0x55, 0xf2, 0x3f, 0x8c, 0x18, 0x26, 0x40, 0x6b, 0xbc, 0x23, 0x40,
  0x2a, 0x93, 0xbe, 0x3e, 0x05, 0x3c, 0x0a, 0xbe, 0x95, 0xb0, 0xca, 0x3d,
  0xee, 0xbe, 0xbf, 0xbe, 0x7d, 0xc4, 0x0d, 0x3f, 0x50, 0x6e, 0x89, 0x3e,
  0x2e, 0x46, 0x5a, 0x3e, 0xc0, 0x25, 0x4c, 0x3d, 0x2c, 0x5b, 0x3f, 0xbe,
  0x45, 0x12, 0x76, 0x3e, 0xc5, 0xd4, 0x97, 0x3e, 0x57, 0xce, 0x4f, 0xbe,
  0xd1, 0x31, 0xd1, 0xbe, 0xba, 0x89, 0xff, 0x3c, 0x09, 0x04, 0xd0, 0xbc,
  0x49, 0x34, 0xc2, 0xbe, 0xac, 0x0a, 0x53, 0x3f, 0x1c, 0x47, 0xa8, 0x3e,
  0x90, 0x29, 0xa7, 0x3e, 0xc6, 0x61, 0x8b, 0xbd, 0xe3, 0x8d, 0x52, 0x3e,
  0xf0, 0xb6, 0x58, 0xbd, 0xcb, 0x45, 0xc2, 0xbf, 0xa2, 0xc3, 0xae, 0x3e,
  0xb0, 0x02, 0x85, 0x3e, 0x46, 0x93, 0x35, 0x3d, 0xca, 0x9d, 0x75, 0x3e,
  0xd9, 0xa7, 0xf5, 0x3e, 0x29, 0x7d, 0x9d, 0xbe, 0xfa, 0x65, 0x7b, 0xbf,
  0x55, 0x02, 0x95, 0xbf, 0x7d, 0x41, 0x1c, 0xbf, 0xf4, 0x7d, 0x8e, 0xbf,
  0xda, 0x34, 0x58, 0xbf, 0x46, 0x92, 0x7f, 0xbf, 0xe5, 0x3c, 0xb8, 0x3c,
  0xcd, 0x0b, 0x1e, 0xbe, 0xf7, 0xdc, 0xa0, 0xbf, 0x26, 0xc8, 0xdb, 0xbf,
  0x73, 0x85, 0x3e, 0xbf, 0xdb, 0xae, 0x99, 0xbf, 0x7f, 0x93, 0xa3, 0xbe,
  0x72, 0x4e, 0xa8, 0xbd, 0x8e, 0xa7, 0xf2, 0x3c, 0x3e, 0x1b, 0xb1, 0xbe,
  0x73, 0x54, 0x81, 0xbf, 0x8c, 0x7d, 0x96, 0xbf, 0xf4, 0x03, 0x8b, 0xbf,
  0x23, 0xa3, 0x0d, 0xbf, 0x63, 0xc2, 0xa8, 0x3b, 0x67, 0x52, 0x7b, 0x3d,
  0x37, 0x54, 0xcd, 0xbe, 0xc6, 0xf3, 0x8f, 0xbf, 0x0c, 0xdf, 0xcf, 0xbf,
  0x31, 0x85, 0xc5, 0x3d, 0x25, 0xbc, 0x97, 0x3a, 0xeb, 0x36, 0xa9, 0xbe,
  0x40, 0x1c, 0x25, 0x3f, 0xc4, 0xec, 0x9e, 0xbd, 0xc9, 0x68, 0x97, 0xbe,
  0x8c, 0x08, 0x4b, 0xbf, 0xf2, 0xab, 0x75, 0xbf, 0xa3, 0x52, 0xe1, 0xbe,
  0xe4, 0x98, 0x18, 0xbe, 0x9e, 0x6c, 0xd0, 0x3e, 0x95, 0x44, 0x51, 0xbe,
  0x64, 0x96, 0xc6, 0xbe, 0x50, 0xf8, 0x97, 0x3f, 0xcd, 0x8e, 0xa1, 0x3f,
  0x3e, 0x98, 0x52, 0x3f, 0xa6, 0xd0, 0x50, 0x3e, 0x3a, 0x4d, 0xba, 0xbc,
  0xcb, 0xd1, 0xae, 0xbe, 0x80, 0x4f, 0x80, 0xb9, 0xfa, 0x18, 0x4f, 0x3f,
  0x6c, 0x1a, 0x5a, 0x3f, 0x2c, 0xd7, 0x4d, 0xbe, 0xbe, 0x01, 0x06, 0xbd,
  0xad, 0x57, 0xbd, 0x3d, 0xc1, 0x8c, 0x34, 0x3c, 0x81, 0x7f, 0x8c, 0x3e,
  0x21, 0x31, 0xf3, 0x3d, 0x3c, 0x49, 0x08, 0xbf, 0x92, 0xc5, 0x05, 0xbf,
  0x2f, 0x0f, 0x0a, 0xbe, 0xe9, 0x4d, 0x9c, 0x3e, 0x7d, 0xb8, 0x06, 0x40,
  0x06, 0x0a, 0xf0, 0x3f, 0x36, 0xce, 0xfa, 0x3f, 0x81, 0x09, 0x04, 0x40,
  0xe1, 0xf8, 0x60, 0x3d, 0x3f, 0x58, 0xc9, 0xbc, 0x53, 0xdc, 0x3a, 0xbc,
  0x88, 0x71, 0x95, 0xbe, 0x5f, 0x98, 0x41, 0xbf, 0x4a, 0xe8, 0x5a, 0xbf,
  0x44, 0x37, 0x39, 0xbf, 0x5e, 0xdb, 0x26, 0xbf, 0x02, 0x1c, 0x80, 0xbd,
  0x9d, 0x43, 0x34, 0xbe, 0x9b, 0xa6, 0xa6, 0x3e, 0x89, 0x1c, 0x0e, 0x3f,
  0x5e, 0xd1, 0x1f, 0x3f, 0x68, 0x09, 0xd6, 0xbd, 0x7d, 0xac, 0xb2, 0x3e,
  0xed, 0x31, 0x34, 0x3f, 0x7d, 0xad, 0xcf, 0x3b, 0x15, 0x77, 0xd6, 0x3e,
  0x24, 0xc4, 0x5f, 0xbd, 0x67, 0x9e, 0x63, 0xbe, 0xcf, 0x15, 0x03, 0x3f,
  0xf0, 0x54, 0x85, 0x3f, 0xb0, 0x9e, 0xfa, 0x3e, 0x33, 0xdb, 0x00, 0xbe,
  0x48, 0x57, 0xdc, 0xbe, 0x33, 0x8d, 0x12, 0xbf, 0xe1, 0x40, 0xdc, 0xbe,
  0x80, 0x25, 0x3a, 0xbf, 0xe4, 0xd7, 0x48, 0xbf, 0xe2, 0x4f, 0xa8, 0xbe,
  0xcc, 0x71, 0xbc, 0xbe, 0x3c, 0x37, 0x4d, 0x3f, 0x2c, 0x9e, 0x8d, 0x3f,
  0x26, 0x66, 0x85, 0xbe, 0xd3, 0x00, 0xd1, 0xbe, 0x11, 0xba, 0x84, 0xbe,
  0x83, 0xae, 0xf6, 0xbe, 0x52, 0x3e, 0x46, 0xbf, 0x0f, 0x95, 0x43, 0x3f,
  0x3d, 0x27, 0xc7, 0x3e, 0x9d, 0x6c, 0xe0, 0x3e, 0x5d, 0x1b, 0x12, 0x3f,
  0x18, 0xb9, 0x9c, 0x3e, 0xab, 0xdc, 0x2c, 0xbe, 0xef, 0x42, 0x94, 0xbe,
  0x14, 0x4d, 0x59, 0xbf, 0x05, 0x9d, 0x94, 0xbe, 0x15, 0xe7, 0x12, 0xbf,
  0x06, 0xac, 0x96, 0xbf, 0xa2, 0x12, 0xec, 0xbe, 0x8a, 0x48, 0x3d, 0x3c,
  0x7e, 0x55, 0x92, 0xbd, 0x52, 0xc8, 0x0c, 0xbd, 0x75, 0x09, 0x35, 0xbf,
  0xb4, 0x5f, 0xd2, 0xbf, 0x6e, 0x76, 0xaa, 0xbf, 0x1b, 0xc9, 0xe8, 0xbe,
  0x8f, 0x15, 0x1a, 0xbd, 0xeb, 0x9e, 0x92, 0xbe, 0x02, 0x1e, 0x5a, 0xbf,
  0x2e, 0xaa, 0x01, 0xbf, 0xc4, 0x64, 0x5b, 0x3d, 0x41, 0x57, 0x4e, 0xbf,
  0x2d, 0xef, 0xca, 0xbf, 0x5c, 0xc8, 0x4d, 0xbf, 0xeb, 0x08, 0xaf, 0xbd,
  0xd3, 0xa6, 0x2e, 0x3f, 0x56, 0x24, 0x1f, 0x3f, 0xbc, 0xda, 0x19, 0xbc,
  0x5f, 0xf1, 0xca, 0x3e, 0x79, 0x16, 0xab, 0xbd, 0xa9, 0x05, 0x06, 0xbf,
  0x6a, 0x53, 0x61, 0x3f, 0x11, 0x31, 0x09, 0x3f, 0x4b, 0xf4, 0xb0, 0x3e,
  0x74, 0xac, 0x4a, 0xbd, 0x66, 0xc6, 0xc3, 0x3e, 0x5e, 0xbe, 0x0d, 0xbd,
  0x40, 0xf7, 0xb3, 0xbe, 0xcb, 0xe5, 0xe9, 0xbd, 0xcd, 0xe7, 0x01, 0xbf,
  0xfa, 0x95, 0x38, 0xbf, 0xf1, 0xb6, 0x36, 0xbe, 0xf7, 0x69, 0xc1, 0xbd,
  0x2a, 0xc7, 0xc3, 0xbe, 0x0c, 0x45, 0xd6, 0xbc, 0x73, 0x59, 0xa6, 0xbd,
  0xe0, 0x5b, 0xfa, 0xbe, 0x16, 0xc2, 0x42, 0xbe, 0x1a, 0x82, 0x63, 0x3e,
  0x60, 0xd4, 0xf7, 0x3c, 0x05, 0xb4, 0xd3, 0x3e, 0x78, 0x50, 0x22, 0x3e,
  0xc1, 0xa8, 0x8c, 0x3b, 0x56, 0xa3, 0xe9, 0x3f, 0x3d, 0x29, 0xb9, 0x3f,
  0x8e, 0xd7, 0xc1, 0x3f, 0xca, 0x64, 0x1c, 0x40, 0x81, 0xf5, 0xc8, 0x3f,
  0xe9, 0x13, 0x5f, 0x3d, 0x12, 0xff, 0xff, 0xff, 0x04, 0x00, 0x00, 0x00,
  0x08, 0x00, 0x00, 0x00, 0xff, 0xff, 0xff, 0xff, 0x31, 0x00, 0x00, 0x00,
  0x26, 0xff, 0xff, 0xff, 0x04, 0x00, 0x00, 0x00, 0x10, 0x00, 0x00, 0x00,
  0xd4, 0x64, 0xb6, 0xbf, 0x7f, 0xd6, 0xe6, 0x3e, 0x4b, 0xfb, 0x41, 0xbf,
  0xb6, 0xff, 0x80, 0x3f, 0x42, 0xff, 0xff, 0xff, 0x04, 0x00, 0x00, 0x00,
  0x10, 0x00, 0x00, 0x00, 0x20, 0x45, 0x57, 0x3d, 0x00, 0x93, 0x96, 0x3e,
  0x2e, 0x58, 0xcf, 0x3e, 0x21, 0xe9, 0x8a, 0x3e, 0x5e, 0xff, 0xff, 0xff,
  0x04, 0x00, 0x00, 0x00, 0x04, 0x00, 0x00, 0x00, 0x00, 0x00, 0x00, 0x00,
  0x88, 0xf8, 0xff, 0xff, 0x8c, 0xf8, 0xff, 0xff, 0x0f, 0x00, 0x00, 0x00,
  0x4d, 0x4c, 0x49, 0x52, 0x20, 0x43, 0x6f, 0x6e, 0x76, 0x65, 0x72, 0x74,
  0x65, 0x64, 0x2e, 0x00, 0x01, 0x00, 0x00, 0x00, 0x14, 0x00, 0x00, 0x00,
  0x00, 0x00, 0x0e, 0x00, 0x18, 0x00, 0x14, 0x00, 0x10, 0x00, 0x0c, 0x00,
  0x08, 0x00, 0x04, 0x00, 0x0e, 0x00, 0x00, 0x00, 0x14, 0x00, 0x00, 0x00,
  0x1c, 0x00, 0x00, 0x00, 0x10, 0x02, 0x00, 0x00, 0x14, 0x02, 0x00, 0x00,
  0x18, 0x02, 0x00, 0x00, 0x04, 0x00, 0x00, 0x00, 0x6d, 0x61, 0x69, 0x6e,
  0x00, 0x00, 0x00, 0x00, 0x07, 0x00, 0x00, 0x00, 0xa8, 0x01, 0x00, 0x00,
  0x44, 0x01, 0x00, 0x00, 0xf0, 0x00, 0x00, 0x00, 0xac, 0x00, 0x00, 0x00,
  0x84, 0x00, 0x00, 0x00, 0x40, 0x00, 0x00, 0x00, 0x04, 0x00, 0x00, 0x00,
  0xe2, 0xfe, 0xff, 0xff, 0x1c, 0x00, 0x00, 0x00, 0x00, 0x00, 0x00, 0x09,
  0x1c, 0x00, 0x00, 0x00, 0x20, 0x00, 0x00, 0x00, 0x04, 0x00, 0x00, 0x00,
  0x00, 0x00, 0x06, 0x00, 0x08, 0x00, 0x04, 0x00, 0x06, 0x00, 0x00, 0x00,
  0x00, 0x00, 0x80, 0x3f, 0x01, 0x00, 0x00, 0x00, 0x0c, 0x00, 0x00, 0x00,
  0x01, 0x00, 0x00, 0x00, 0x0b, 0x00, 0x00, 0x00, 0x1a, 0xff, 0xff, 0xff,
  0x14, 0x00, 0x00, 0x00, 0x00, 0x00, 0x00, 0x08, 0x10, 0x00, 0x00, 0x00,
  0x14, 0x00, 0x00, 0x00, 0x03, 0x00, 0x00, 0x00, 0x50, 0xf9, 0xff, 0xff,
  0x01, 0x00, 0x00, 0x00, 0x0b, 0x00, 0x00, 0x00, 0x03, 0x00, 0x00, 0x00,
  0x0a, 0x00, 0x00, 0x00, 0x05, 0x00, 0x00, 0x00, 0xff, 0xff, 0xff, 0xff,
  0x00, 0x00, 0x0a, 0x00, 0x10, 0x00, 0x0c, 0x00, 0x08, 0x00, 0x04, 0x00,
  0x0a, 0x00, 0x00, 0x00, 0x0c, 0x00, 0x00, 0x00, 0x10, 0x00, 0x00, 0x00,
  0x02, 0x00, 0x00, 0x00, 0x01, 0x00, 0x00, 0x00, 0x0a, 0x00, 0x00, 0x00,
  0x02, 0x00, 0x00, 0x00, 0x09, 0x00, 0x00, 0x00, 0x04, 0x00, 0x00, 0x00,
  0x7e, 0xff, 0xff, 0xff, 0x14, 0x00, 0x00, 0x00, 0x00, 0x00, 0x00, 0x05,
  0x24, 0x00, 0x00, 0x00, 0x28, 0x00, 0x00, 0x00, 0x01, 0x00, 0x00, 0x00,
  0x6e, 0xff, 0xff, 0xff, 0x02, 0x00, 0x00, 0x00, 0x02, 0x00, 0x00, 0x00,
  0x02, 0x00, 0x00, 0x00, 0x02, 0x00, 0x00, 0x00, 0x00, 0x00, 0x00, 0x01,
  0x01, 0x00, 0x00, 0x00, 0x09, 0x00, 0x00, 0x00, 0x01, 0x00, 0x00, 0x00,
  0x08, 0x00, 0x00, 0x00, 0x5e, 0xff, 0xff, 0xff, 0x10, 0x00, 0x00, 0x00,
  0x00, 0x00, 0x00, 0x01, 0x1c, 0x00, 0x00, 0x00, 0x20, 0x00, 0x00, 0x00,
  0x50, 0xff, 0xff, 0xff, 0x00, 0x00, 0x00, 0x01, 0x01, 0x00, 0x00, 0x00,
  0x01, 0x00, 0x00, 0x00, 0x00, 0x00, 0x00, 0x01, 0x01, 0x00, 0x00, 0x00,
  0x08, 0x00, 0x00, 0x00, 0x03, 0x00, 0x00, 0x00, 0x07, 0x00, 0x00, 0x00,
  0x03, 0x00, 0x00, 0x00, 0x01, 0x00, 0x00, 0x00, 0x00, 0x00, 0x0e, 0x00,
  0x1a, 0x00, 0x14, 0x00, 0x10, 0x00, 0x0c, 0x00, 0x0b, 0x00, 0x04, 0x00,
  0x0e, 0x00, 0x00, 0x00, 0x24, 0x00, 0x00, 0x00, 0x00, 0x00, 0x00, 0x05,
  0x34, 0x00, 0x00, 0x00, 0x38, 0x00, 0x00, 0x00, 0x01, 0x00, 0x00, 0x00,
  0x00, 0x00, 0x0e, 0x00, 0x18, 0x00, 0x17, 0x00, 0x10, 0x00, 0x0c, 0x00,
  0x08, 0x00, 0x04, 0x00, 0x0e, 0x00, 0x00, 0x00, 0x02, 0x00, 0x00, 0x00,
  0x02, 0x00, 0x00, 0x00, 0x02, 0x00, 0x00, 0x00, 0x02, 0x00, 0x00, 0x00,
  0x00, 0x00, 0x00, 0x01, 0x01, 0x00, 0x00, 0x00, 0x07, 0x00, 0x00, 0x00,
  0x01, 0x00, 0x00, 0x00, 0x06, 0x00, 0x00, 0x00, 0x00, 0x00, 0x0e, 0x00,
  0x14, 0x00, 0x00, 0x00, 0x10, 0x00, 0x0c, 0x00, 0x0b, 0x00, 0x04, 0x00,
  0x0e, 0x00, 0x00, 0x00, 0x1c, 0x00, 0x00, 0x00, 0x00, 0x00, 0x00, 0x01,
  0x28, 0x00, 0x00, 0x00, 0x2c, 0x00, 0x00, 0x00, 0x0c, 0x00, 0x14, 0x00,
  0x13, 0x00, 0x0c, 0x00, 0x08, 0x00, 0x07, 0x00, 0x0c, 0x00, 0x00, 0x00,
  0x00, 0x00, 0x00, 0x01, 0x01, 0x00, 0x00, 0x00, 0x01, 0x00, 0x00, 0x00,
  0x00, 0x00, 0x00, 0x01, 0x01, 0x00, 0x00, 0x00, 0x06, 0x00, 0x00, 0x00,
  0x03, 0x00, 0x00, 0x00, 0x00, 0x00, 0x00, 0x00, 0x02, 0x00, 0x00, 0x00,
  0x01, 0x00, 0x00, 0x00, 0x01, 0x00, 0x00, 0x00, 0x0c, 0x00, 0x00, 0x00,
  0x01, 0x00, 0x00, 0x00, 0x00, 0x00, 0x00, 0x00, 0x0d, 0x00, 0x00, 0x00,
  0xe4, 0x04, 0x00, 0x00, 0x84, 0x04, 0x00, 0x00, 0x18, 0x04, 0x00, 0x00,
  0xc4, 0x03, 0x00, 0x00, 0x74, 0x03, 0x00, 0x00, 0x10, 0x03, 0x00, 0x00,
  0x90, 0x02, 0x00, 0x00, 0x18, 0x02, 0x00, 0x00, 0x94, 0x01, 0x00, 0x00,
  0x1c, 0x01, 0x00, 0x00, 0xbc, 0x00, 0x00, 0x00, 0x60, 0x00, 0x00, 0x00,
  0x04, 0x00, 0x00, 0x00, 0x66, 0xfb, 0xff, 0xff, 0x00, 0x00, 0x00, 0x01,
  0x14, 0x00, 0x00, 0x00, 0x1c, 0x00, 0x00, 0x00, 0x1c, 0x00, 0x00, 0x00,
  0x0d, 0x00, 0x00, 0x00, 0x34, 0x00, 0x00, 0x00, 0x02, 0x00, 0x00, 0x00,
  0xff, 0xff, 0xff, 0xff, 0x0a, 0x00, 0x00, 0x00, 0x48, 0xfb, 0xff, 0xff,
  0x19, 0x00, 0x00, 0x00, 0x53, 0x74, 0x61, 0x74, 0x65, 0x66, 0x75, 0x6c,
  0x50, 0x61, 0x72, 0x74, 0x69, 0x74, 0x69, 0x6f, 0x6e, 0x65, 0x64, 0x43,
  0x61, 0x6c, 0x6c, 0x3a, 0x30, 0x00, 0x00, 0x00, 0x02, 0x00, 0x00, 0x00,
  0x01, 0x00, 0x00, 0x00, 0x0a, 0x00, 0x00, 0x00, 0xbe, 0xfb, 0xff, 0xff,
  0x00, 0x00, 0x00, 0x01, 0x14, 0x00, 0x00, 0x00, 0x1c, 0x00, 0x00, 0x00,
  0x1c, 0x00, 0x00, 0x00, 0x0c, 0x00, 0x00, 0x00, 0x34, 0x00, 0x00, 0x00,
  0x02, 0x00, 0x00, 0x00, 0xff, 0xff, 0xff, 0xff, 0x0a, 0x00, 0x00, 0x00,
  0xa0, 0xfb, 0xff, 0xff, 0x18, 0x00, 0x00, 0x00, 0x73, 0x65, 0x71, 0x75,
  0x65, 0x6e, 0x74, 0x69, 0x61, 0x6c, 0x2f, 0x64, 0x65, 0x6e, 0x73, 0x65,
  0x2f, 0x4d, 0x61, 0x74, 0x4d, 0x75, 0x6c, 0x32, 0x00, 0x00, 0x00, 0x00,
  0x02, 0x00, 0x00, 0x00, 0x01, 0x00, 0x00, 0x00, 0x0a, 0x00, 0x00, 0x00,
  0x16, 0xfc, 0xff, 0xff, 0x00, 0x00, 0x00, 0x01, 0x14, 0x00, 0x00, 0x00,
  0x1c, 0x00, 0x00, 0x00, 0x1c, 0x00, 0x00, 0x00, 0x0b, 0x00, 0x00, 0x00,
  0x38, 0x00, 0x00, 0x00, 0x02, 0x00, 0x00, 0x00, 0xff, 0xff, 0xff, 0xff,
  0x31, 0x00, 0x00, 0x00, 0xf8, 0xfb, 0xff, 0xff, 0x1f, 0x00, 0x00, 0x00,
  0x73, 0x65, 0x71, 0x75, 0x65, 0x6e, 0x74, 0x69, 0x61, 0x6c, 0x2f, 0x66,
  0x6c, 0x61, 0x74, 0x74, 0x65, 0x6e, 0x5f, 0x32, 0x31, 0x39, 0x30, 0x2f,
  0x52, 0x65, 0x73, 0x68, 0x61, 0x70, 0x65, 0x00, 0x02, 0x00, 0x00, 0x00,
  0x01, 0x00, 0x00, 0x00, 0x31, 0x00, 0x00, 0x00, 0x72, 0xfc, 0xff, 0xff,
  0x00, 0x00, 0x00, 0x01, 0x14, 0x00, 0x00, 0x00, 0x24, 0x00, 0x00, 0x00,
  0x24, 0x00, 0x00, 0x00, 0x0a, 0x00, 0x00, 0x00, 0x48, 0x00, 0x00, 0x00,
  0x04, 0x00, 0x00, 0x00, 0xff, 0xff, 0xff, 0xff, 0x07, 0x00, 0x00, 0x00,
  0x07, 0x00, 0x00, 0x00, 0x01, 0x00, 0x00, 0x00, 0x5c, 0xfc, 0xff, 0xff,
  0x25, 0x00, 0x00, 0x00, 0x73, 0x65, 0x71, 0x75, 0x65, 0x6e, 0x74, 0x69,
  0x61, 0x6c, 0x2f, 0x6d, 0x61, 0x78, 0x5f, 0x70, 0x6f, 0x6f, 0x6c, 0x69,
  0x6e, 0x67, 0x32, 0x64, 0x5f, 0x34, 0x33, 0x38, 0x31, 0x2f, 0x4d, 0x61,
  0x78, 0x50, 0x6f, 0x6f, 0x6c, 0x00, 0x00, 0x00, 0x04, 0x00, 0x00, 0x00,
  0x01, 0x00, 0x00, 0x00, 0x07, 0x00, 0x00, 0x00, 0x07, 0x00, 0x00, 0x00,
  0x01, 0x00, 0x00, 0x00, 0xe6, 0xfc, 0xff, 0xff, 0x00, 0x00, 0x00, 0x01,
  0x14, 0x00, 0x00, 0x00, 0x24, 0x00, 0x00, 0x00, 0x24, 0x00, 0x00, 0x00,
  0x09, 0x00, 0x00, 0x00, 0x54, 0x00, 0x00, 0x00, 0x04, 0x00, 0x00, 0x00,
  0xff, 0xff, 0xff, 0xff, 0x0e, 0x00, 0x00, 0x00, 0x0e, 0x00, 0x00, 0x00,
  0x01, 0x00, 0x00, 0x00, 0xd0, 0xfc, 0xff, 0xff, 0x33, 0x00, 0x00, 0x00,
  0x73, 0x65, 0x71, 0x75, 0x65, 0x6e, 0x74, 0x69, 0x61, 0x6c, 0x2f, 0x63,
  0x6f, 0x6e, 0x76, 0x32, 0x64, 0x5f, 0x31, 0x2f, 0x52, 0x65, 0x6c, 0x75,
  0x3b, 0x73, 0x65, 0x71, 0x75, 0x65, 0x6e, 0x74, 0x69, 0x61, 0x6c, 0x2f,
  0x63, 0x6f, 0x6e, 0x76, 0x32, 0x64, 0x5f, 0x31, 0x2f, 0x43, 0x6f, 0x6e,
  0x76, 0x32, 0x44, 0x00, 0x04, 0x00, 0x00, 0x00, 0x01, 0x00, 0x00, 0x00,
  0x0e, 0x00, 0x00, 0x00, 0x0e, 0x00, 0x00, 0x00, 0x01, 0x00, 0x00, 0x00,
  0x66, 0xfd, 0xff, 0xff, 0x00, 0x00, 0x00, 0x01, 0x14, 0x00, 0x00, 0x00,
  0x24, 0x00, 0x00, 0x00, 0x24, 0x00, 0x00, 0x00, 0x08, 0x00, 0x00, 0x00,
  0x48, 0x00, 0x00, 0x00, 0x04, 0x00, 0x00, 0x00, 0xff, 0xff, 0xff, 0xff,
  0x0f, 0x00, 0x00, 0x00, 0x0f, 0x00, 0x00, 0x00, 0x01, 0x00, 0x00, 0x00,
  0x50, 0xfd, 0xff, 0xff, 0x25, 0x00, 0x00, 0x00, 0x73, 0x65, 0x71, 0x75,
  0x65, 0x6e, 0x74, 0x69, 0x61, 0x6c, 0x2f, 0x6d, 0x61, 0x78, 0x5f, 0x70,
  0x6f, 0x6f, 0x6c, 0x69, 0x6e, 0x67, 0x32, 0x64, 0x5f, 0x34, 0x33, 0x38,
  0x30, 0x2f, 0x4d, 0x61, 0x78, 0x50, 0x6f, 0x6f, 0x6c, 0x00, 0x00, 0x00,
  0x04, 0x00, 0x00, 0x00, 0x01, 0x00, 0x00, 0x00, 0x0f, 0x00, 0x00, 0x00,
  0x0f, 0x00, 0x00, 0x00, 0x01, 0x00, 0x00, 0x00, 0xda, 0xfd, 0xff, 0xff,
  0x00, 0x00, 0x00, 0x01, 0x14, 0x00, 0x00, 0x00, 0x24, 0x00, 0x00, 0x00,
  0x24, 0x00, 0x00, 0x00, 0x07, 0x00, 0x00, 0x00, 0x50, 0x00, 0x00, 0x00,
  0x04, 0x00, 0x00, 0x00, 0xff, 0xff, 0xff, 0xff, 0x1f, 0x00, 0x00, 0x00,
  0x1f, 0x00, 0x00, 0x00, 0x01, 0x00, 0x00, 0x00, 0xc4, 0xfd, 0xff, 0xff,
  0x2f, 0x00, 0x00, 0x00, 0x73, 0x65, 0x71, 0x75, 0x65, 0x6e, 0x74, 0x69,
  0x61, 0x6c, 0x2f, 0x63, 0x6f, 0x6e, 0x76, 0x32, 0x64, 0x2f, 0x52, 0x65,
  0x6c, 0x75, 0x3b, 0x73, 0x65, 0x71, 0x75, 0x65, 0x6e, 0x74, 0x69, 0x61,
  0x6c, 0x2f, 0x63, 0x6f, 0x6e, 0x76, 0x32, 0x64, 0x2f, 0x43, 0x6f, 0x6e,
  0x76, 0x32, 0x44, 0x00, 0x04, 0x00, 0x00, 0x00, 0x01, 0x00, 0x00, 0x00,
  0x1f, 0x00, 0x00, 0x00, 0x1f, 0x00, 0x00, 0x00, 0x01, 0x00, 0x00, 0x00,
  0xb2, 0xfe, 0xff, 0xff, 0x00, 0x00, 0x00, 0x01, 0x10, 0x00, 0x00, 0x00,
  0x10, 0x00, 0x00, 0x00, 0x06, 0x00, 0x00, 0x00, 0x28, 0x00, 0x00, 0x00,
  0x28, 0xfe, 0xff, 0xff, 0x18, 0x00, 0x00, 0x00, 0x73, 0x65, 0x71, 0x75,
  0x65, 0x6e, 0x74, 0x69, 0x61, 0x6c, 0x2f, 0x64, 0x65, 0x6e, 0x73, 0x65,
  0x2f, 0x4d, 0x61, 0x74, 0x4d, 0x75, 0x6c, 0x31, 0x00, 0x00, 0x00, 0x00,
  0x02, 0x00, 0x00, 0x00, 0x0a, 0x00, 0x00, 0x00, 0x31, 0x00, 0x00, 0x00,
  0x00, 0x00, 0x16, 0x00, 0x1c, 0x00, 0x18, 0x00, 0x17, 0x00, 0x10, 0x00,
  0x0c, 0x00, 0x08, 0x00, 0x00, 0x00, 0x00, 0x00, 0x00, 0x00, 0x07, 0x00,
  0x16, 0x00, 0x00, 0x00, 0x00, 0x00, 0x00, 0x01, 0x14, 0x00, 0x00, 0x00,
  0x14, 0x00, 0x00, 0x00, 0x05, 0x00, 0x00, 0x00, 0x00, 0x00, 0x00, 0x02,
  0x2c, 0x00, 0x00, 0x00, 0x8c, 0xfe, 0xff, 0xff, 0x1d, 0x00, 0x00, 0x00,
  0x73, 0x65, 0x71, 0x75, 0x65, 0x6e, 0x74, 0x69, 0x61, 0x6c, 0x2f, 0x66,
  0x6c, 0x61, 0x74, 0x74, 0x65, 0x6e, 0x5f, 0x32, 0x31, 0x39, 0x30, 0x2f,
  0x43, 0x6f, 0x6e, 0x73, 0x74, 0x00, 0x00, 0x00, 0x01, 0x00, 0x00, 0x00,
  0x02, 0x00, 0x00, 0x00, 0x5e, 0xff, 0xff, 0xff, 0x00, 0x00, 0x00, 0x01,
  0x10, 0x00, 0x00, 0x00, 0x10, 0x00, 0x00, 0x00, 0x04, 0x00, 0x00, 0x00,
  0x28, 0x00, 0x00, 0x00, 0xd4, 0xfe, 0xff, 0xff, 0x1b, 0x00, 0x00, 0x00,
  0x73, 0x65, 0x71, 0x75, 0x65, 0x6e, 0x74, 0x69, 0x61, 0x6c, 0x2f, 0x63,
  0x6f, 0x6e, 0x76, 0x32, 0x64, 0x5f, 0x31, 0x2f, 0x43, 0x6f, 0x6e, 0x76,
  0x32, 0x44, 0x31, 0x00, 0x04, 0x00, 0x00, 0x00, 0x01, 0x00, 0x00, 0x00,
  0x02, 0x00, 0x00, 0x00, 0x02, 0x00, 0x00, 0x00, 0x01, 0x00, 0x00, 0x00,
  0xae, 0xff, 0xff, 0xff, 0x00, 0x00, 0x00, 0x01, 0x10, 0x00, 0x00, 0x00,
  0x10, 0x00, 0x00, 0x00, 0x03, 0x00, 0x00, 0x00, 0x28, 0x00, 0x00, 0x00,
  0x24, 0xff, 0xff, 0xff, 0x18, 0x00, 0x00, 0x00, 0x73, 0x65, 0x71, 0x75,
  0x65, 0x6e, 0x74, 0x69, 0x61, 0x6c, 0x2f, 0x63, 0x6f, 0x6e, 0x76, 0x32,
  0x64, 0x2f, 0x43, 0x6f, 0x6e, 0x76, 0x32, 0x44, 0x00, 0x00, 0x00, 0x00,
  0x04, 0x00, 0x00, 0x00, 0x01, 0x00, 0x00, 0x00, 0x02, 0x00, 0x00, 0x00,
  0x02, 0x00, 0x00, 0x00, 0x01, 0x00, 0x00, 0x00, 0x00, 0x00, 0x16, 0x00,
  0x18, 0x00, 0x14, 0x00, 0x00, 0x00, 0x10, 0x00, 0x0c, 0x00, 0x08, 0x00,
  0x00, 0x00, 0x00, 0x00, 0x00, 0x00, 0x07, 0x00, 0x16, 0x00, 0x00, 0x00,
  0x00, 0x00, 0x00, 0x01, 0x10, 0x00, 0x00, 0x00, 0x10, 0x00, 0x00, 0x00,
  0x02, 0x00, 0x00, 0x00, 0x28, 0x00, 0x00, 0x00, 0x8c, 0xff, 0xff, 0xff,
  0x1a, 0x00, 0x00, 0x00, 0x73, 0x65, 0x71, 0x75, 0x65, 0x6e, 0x74, 0x69,
  0x61, 0x6c, 0x2f, 0x63, 0x6f, 0x6e, 0x76, 0x32, 0x64, 0x5f, 0x31, 0x2f,
  0x43, 0x6f, 0x6e, 0x76, 0x32, 0x44, 0x00, 0x00, 0x01, 0x00, 0x00, 0x00,
  0x01, 0x00, 0x00, 0x00, 0x00, 0x00, 0x16, 0x00, 0x1c, 0x00, 0x18, 0x00,
  0x00, 0x00, 0x14, 0x00, 0x10, 0x00, 0x0c, 0x00, 0x00, 0x00, 0x00, 0x00,
  0x08, 0x00, 0x07, 0x00, 0x16, 0x00, 0x00, 0x00, 0x00, 0x00, 0x00, 0x01,
  0x14, 0x00, 0x00, 0x00, 0x28, 0x00, 0x00, 0x00, 0x28, 0x00, 0x00, 0x00,
  0x01, 0x00, 0x00, 0x00, 0x44, 0x00, 0x00, 0x00, 0x04, 0x00, 0x00, 0x00,
  0xff, 0xff, 0xff, 0xff, 0x20, 0x00, 0x00, 0x00, 0x20, 0x00, 0x00, 0x00,
  0x01, 0x00, 0x00, 0x00, 0x04, 0x00, 0x04, 0x00, 0x04, 0x00, 0x00, 0x00,
  0x1e, 0x00, 0x00, 0x00, 0x73, 0x65, 0x72, 0x76, 0x69, 0x6e, 0x67, 0x5f,
  0x64, 0x65, 0x66, 0x61, 0x75, 0x6c, 0x74, 0x5f, 0x63, 0x6f, 0x6e, 0x76,
  0x32, 0x64, 0x5f, 0x69, 0x6e, 0x70, 0x75, 0x74, 0x3a, 0x30, 0x00, 0x00,
  0x04, 0x00, 0x00, 0x00, 0x01, 0x00, 0x00, 0x00, 0x20, 0x00, 0x00, 0x00,
  0x20, 0x00, 0x00, 0x00, 0x01, 0x00, 0x00, 0x00, 0x05, 0x00, 0x00, 0x00,
  0x50, 0x00, 0x00, 0x00, 0x34, 0x00, 0x00, 0x00, 0x24, 0x00, 0x00, 0x00,
  0x14, 0x00, 0x00, 0x00, 0x04, 0x00, 0x00, 0x00, 0xd0, 0xff, 0xff, 0xff,
  0x19, 0x00, 0x00, 0x00, 0x00, 0x00, 0x00, 0x19, 0xdc, 0xff, 0xff, 0xff,
  0x09, 0x00, 0x00, 0x00, 0x00, 0x00, 0x00, 0x09, 0xe8, 0xff, 0xff, 0xff,
  0x16, 0x00, 0x00, 0x00, 0x00, 0x00, 0x00, 0x16, 0xf4, 0xff, 0xff, 0xff,
  0x11, 0x00, 0x00, 0x00, 0x00, 0x00, 0x00, 0x11, 0x0c, 0x00, 0x0c, 0x00,
  0x0b, 0x00, 0x00, 0x00, 0x00, 0x00, 0x04, 0x00, 0x0c, 0x00, 0x00, 0x00,
  0x03, 0x00, 0x00, 0x00, 0x00, 0x00, 0x00, 0x03
};
unsigned int cnn_comparison_tflite_len = 4628;
