unsigned char cnn_model_print_tflite[] = {
  0x1c, 0x00, 0x00, 0x00, 0x54, 0x46, 0x4c, 0x33, 0x14, 0x00, 0x20, 0x00,
  0x1c, 0x00, 0x18, 0x00, 0x14, 0x00, 0x10, 0x00, 0x0c, 0x00, 0x00, 0x00,
  0x08, 0x00, 0x04, 0x00, 0x14, 0x00, 0x00, 0x00, 0x1c, 0x00, 0x00, 0x00,
  0x88, 0x00, 0x00, 0x00, 0xe0, 0x00, 0x00, 0x00, 0xc4, 0x11, 0x00, 0x00,
  0xd4, 0x11, 0x00, 0x00, 0x6c, 0x19, 0x00, 0x00, 0x03, 0x00, 0x00, 0x00,
  0x01, 0x00, 0x00, 0x00, 0x04, 0x00, 0x00, 0x00, 0x76, 0xed, 0xff, 0xff,
  0x0c, 0x00, 0x00, 0x00, 0x1c, 0x00, 0x00, 0x00, 0x38, 0x00, 0x00, 0x00,
  0x0f, 0x00, 0x00, 0x00, 0x73, 0x65, 0x72, 0x76, 0x69, 0x6e, 0x67, 0x5f,
  0x64, 0x65, 0x66, 0x61, 0x75, 0x6c, 0x74, 0x00, 0x01, 0x00, 0x00, 0x00,
  0x04, 0x00, 0x00, 0x00, 0x94, 0xff, 0xff, 0xff, 0x0c, 0x00, 0x00, 0x00,
  0x04, 0x00, 0x00, 0x00, 0x05, 0x00, 0x00, 0x00, 0x64, 0x65, 0x6e, 0x73,
  0x65, 0x00, 0x00, 0x00, 0x01, 0x00, 0x00, 0x00, 0x04, 0x00, 0x00, 0x00,
  0x16, 0xee, 0xff, 0xff, 0x04, 0x00, 0x00, 0x00, 0x0c, 0x00, 0x00, 0x00,
  0x63, 0x6f, 0x6e, 0x76, 0x32, 0x64, 0x5f, 0x69, 0x6e, 0x70, 0x75, 0x74,
  0x00, 0x00, 0x00, 0x00, 0x02, 0x00, 0x00, 0x00, 0x34, 0x00, 0x00, 0x00,
  0x04, 0x00, 0x00, 0x00, 0xdc, 0xff, 0xff, 0xff, 0x0f, 0x00, 0x00, 0x00,
  0x04, 0x00, 0x00, 0x00, 0x13, 0x00, 0x00, 0x00, 0x43, 0x4f, 0x4e, 0x56,
  0x45, 0x52, 0x53, 0x49, 0x4f, 0x4e, 0x5f, 0x4d, 0x45, 0x54, 0x41, 0x44,
  0x41, 0x54, 0x41, 0x00, 0x08, 0x00, 0x0c, 0x00, 0x08, 0x00, 0x04, 0x00,
  0x08, 0x00, 0x00, 0x00, 0x0e, 0x00, 0x00, 0x00, 0x04, 0x00, 0x00, 0x00,
  0x13, 0x00, 0x00, 0x00, 0x6d, 0x69, 0x6e, 0x5f, 0x72, 0x75, 0x6e, 0x74,
  0x69, 0x6d, 0x65, 0x5f, 0x76, 0x65, 0x72, 0x73, 0x69, 0x6f, 0x6e, 0x00,
  0x10, 0x00, 0x00, 0x00, 0xe0, 0x10, 0x00, 0x00, 0xd8, 0x10, 0x00, 0x00,
  0xc0, 0x10, 0x00, 0x00, 0x90, 0x10, 0x00, 0x00, 0x40, 0x10, 0x00, 0x00,
  0x28, 0x10, 0x00, 0x00, 0xc8, 0x00, 0x00, 0x00, 0xc0, 0x00, 0x00, 0x00,
  0xb8, 0x00, 0x00, 0x00, 0xb0, 0x00, 0x00, 0x00, 0xa8, 0x00, 0x00, 0x00,
  0xa0, 0x00, 0x00, 0x00, 0x98, 0x00, 0x00, 0x00, 0x90, 0x00, 0x00, 0x00,
  0x70, 0x00, 0x00, 0x00, 0x04, 0x00, 0x00, 0x00, 0xd2, 0xee, 0xff, 0xff,
  0x04, 0x00, 0x00, 0x00, 0x5c, 0x00, 0x00, 0x00, 0x0c, 0x00, 0x00, 0x00,
  0x08, 0x00, 0x0e, 0x00, 0x08, 0x00, 0x04, 0x00, 0x08, 0x00, 0x00, 0x00,
  0x14, 0x00, 0x00, 0x00, 0x2c, 0x00, 0x00, 0x00, 0x00, 0x00, 0x0a, 0x00,
  0x0c, 0x00, 0x08, 0x00, 0x00, 0x00, 0x07, 0x00, 0x0a, 0x00, 0x00, 0x00,
  0x00, 0x00, 0x00, 0x01, 0x04, 0x00, 0x00, 0x00, 0x00, 0x00, 0x00, 0x00,
  0x00, 0x00, 0x0a, 0x00, 0x10, 0x00, 0x0c, 0x00, 0x08, 0x00, 0x04, 0x00,
  0x0a, 0x00, 0x00, 0x00, 0x01, 0x00, 0x00, 0x00, 0x02, 0x00, 0x00, 0x00,
  0x04, 0x00, 0x00, 0x00, 0x06, 0x00, 0x00, 0x00, 0x32, 0x2e, 0x31, 0x31,
  0x2e, 0x30, 0x00, 0x00, 0x3a, 0xef, 0xff, 0xff, 0x04, 0x00, 0x00, 0x00,
  0x10, 0x00, 0x00, 0x00, 0x31, 0x2e, 0x35, 0x2e, 0x30, 0x00, 0x00, 0x00,
  0x00, 0x00, 0x00, 0x00, 0x00, 0x00, 0x00, 0x00, 0x70, 0xe8, 0xff, 0xff,
  0x74, 0xe8, 0xff, 0xff, 0x78, 0xe8, 0xff, 0xff, 0x7c, 0xe8, 0xff, 0xff,
  0x80, 0xe8, 0xff, 0xff, 0x84, 0xe8, 0xff, 0xff, 0x88, 0xe8, 0xff, 0xff,
  0x72, 0xef, 0xff, 0xff, 0x04, 0x00, 0x00, 0x00, 0x50, 0x0f, 0x00, 0x00,
  0x56, 0x70, 0x4f, 0xba, 0xfe, 0x08, 0x43, 0xbc, 0x42, 0xa4, 0x00, 0x3d,
  0x23, 0xca, 0xe0, 0xbe, 0xe0, 0xb2, 0xaa, 0x3d, 0x76, 0x29, 0x1b, 0xbf,
  0xfa, 0xa7, 0x10, 0x3e, 0x6b, 0xae, 0x19, 0xbf, 0x89, 0x1c, 0x45, 0x3e,
  0x69, 0x7a, 0x01, 0xbf, 0xc5, 0x19, 0xf4, 0x3d, 0x69, 0xe4, 0x91, 0x3e,
  0x42, 0xf5, 0x09, 0xbf, 0x48, 0x20, 0xf9, 0xbe, 0xd8, 0x1f, 0xff, 0xbb,
  0x38, 0x4f, 0x0f, 0xbe, 0x7d, 0x9f, 0x4a, 0xbf, 0x14, 0x42, 0x2a, 0x3d,
  0xf2, 0xef, 0x82, 0x3f, 0xce, 0xcf, 0x3e, 0xbc, 0x50, 0x78, 0xeb, 0xbe,
  0xfa, 0x52, 0x31, 0xbe, 0x31, 0x22, 0x66, 0xbe, 0xfc, 0xb5, 0x5f, 0xbf,
  0x05, 0x4f, 0x72, 0xbd, 0xc9, 0x58, 0xba, 0x3e, 0x46, 0xf6, 0x5a, 0xbe,
  0xe6, 0xbc, 0x47, 0x3e, 0x4a, 0x18, 0x49, 0x3e, 0x1b, 0xf7, 0xfc, 0x3e,
  0x11, 0xab, 0x1a, 0xbf, 0x4c, 0xa2, 0x46, 0xbf, 0x56, 0x09, 0x7e, 0xbf,
  0x8e, 0x44, 0xc4, 0x3e, 0x2d, 0xb4, 0xbb, 0x3e, 0xc2, 0x05, 0xb1, 0x3d,
  0x32, 0x20, 0x3a, 0x3f, 0xdc, 0xad, 0x8c, 0x3e, 0x0f, 0xbd, 0xd1, 0xbe,
  0xda, 0xbf, 0x0d, 0x3e, 0x3d, 0x5e, 0x72, 0x3f, 0x21, 0xff, 0xee, 0x3e,
  0xa8, 0x6a, 0xab, 0xbe, 0xde, 0x44, 0x27, 0x3f, 0xe1, 0x2a, 0x40, 0xbd,
  0x5f, 0x41, 0x10, 0x3f, 0xcf, 0xd5, 0x39, 0xbe, 0x5c, 0xe8, 0x18, 0x3e,
  0x72, 0x39, 0xf9, 0xbe, 0x57, 0x05, 0x8e, 0xbf, 0xf4, 0xa1, 0x78, 0x3e,
  0xa4, 0x92, 0x91, 0x3f, 0x58, 0x7f, 0xd8, 0xbe, 0x1a, 0xd3, 0xb5, 0x3f,
  0x91, 0xea, 0x89, 0xbd, 0xec, 0x53, 0xa0, 0xbe, 0x88, 0x5d, 0x8c, 0xbe,
  0x3d, 0xf6, 0x97, 0x3e, 0x06, 0xe9, 0x94, 0xbc, 0x87, 0x42, 0xda, 0x3e,
  0x5c, 0xd2, 0x3f, 0xbf, 0x7a, 0xc1, 0xc2, 0xbe, 0x96, 0x3f, 0x6b, 0xbf,
  0xe8, 0xba, 0xc9, 0x3e, 0xeb, 0x2d, 0x19, 0xbf, 0x6a, 0x00, 0x99, 0x3f,
  0xb5, 0x45, 0xec, 0x3e, 0x84, 0x29, 0xa5, 0x3f, 0xd0, 0xd7, 0xe2, 0x3e,
  0x08, 0x9a, 0x54, 0xbe, 0x41, 0x15, 0x63, 0xbd, 0x20, 0x6c, 0x81, 0x3d,
  0x0c, 0x3e, 0x8d, 0xbd, 0x7c, 0xd4, 0x2c, 0xbf, 0x5c, 0xb6, 0x18, 0x3e,
  0x06, 0xf9, 0x36, 0xbf, 0xee, 0xf1, 0x05, 0x3e, 0x9c, 0x75, 0x77, 0xbf,
  0x59, 0x77, 0xcd, 0x3d, 0x78, 0x71, 0x6e, 0xbe, 0x37, 0x3c, 0x09, 0x3f,
  0x34, 0x8a, 0x04, 0x3e, 0xbd, 0xa1, 0xb3, 0x3e, 0x24, 0x05, 0x00, 0xbe,
  0x98, 0xb1, 0x2f, 0xbe, 0x15, 0x6c, 0xc6, 0x3c, 0x63, 0x06, 0xd6, 0x3d,
  0x3d, 0x58, 0x34, 0xbe, 0x40, 0xed, 0x09, 0x3f, 0x0a, 0x70, 0xf1, 0xbe,
  0x7d, 0x1e, 0xcb, 0x3e, 0x3d, 0x35, 0x4b, 0xbf, 0x12, 0x06, 0x69, 0x3e,
  0xa4, 0x16, 0x1d, 0xbf, 0xaf, 0xea, 0x10, 0x3e, 0x10, 0xae, 0x8e, 0xbd,
  0x81, 0x61, 0xd4, 0xbd, 0x20, 0x1e, 0x7f, 0xbd, 0xc6, 0xe7, 0xd3, 0x3d,
  0x9d, 0x93, 0x22, 0x3e, 0x75, 0x32, 0x00, 0x3d, 0x8e, 0xc7, 0xc0, 0xbd,
  0x04, 0x61, 0x8b, 0x3d, 0x29, 0x86, 0x54, 0x3f, 0x32, 0x2c, 0x3a, 0x3f,
  0x50, 0xa8, 0x5d, 0x3f, 0xea, 0xe8, 0x9b, 0xbd, 0x72, 0x70, 0xc3, 0x3e,
  0xf4, 0xab, 0x67, 0xbc, 0x57, 0x26, 0x4e, 0xbf, 0x71, 0x70, 0x72, 0xbe,
  0x56, 0xc2, 0xe0, 0x3e, 0x6f, 0x41, 0x36, 0xbc, 0x17, 0x36, 0x01, 0xbf,
  0xad, 0x86, 0xbb, 0xbd, 0x5a, 0x58, 0xfc, 0xbe, 0x9f, 0x07, 0xb9, 0xbf,
  0x9f, 0x17, 0x84, 0x3e, 0x4f, 0x03, 0x44, 0xbf, 0x3b, 0x96, 0x29, 0xbd,
  0x1d, 0x9d, 0x8c, 0xbf, 0x18, 0x59, 0x09, 0xbf, 0x61, 0x3d, 0xa6, 0xbe,
  0x88, 0x0c, 0x13, 0x3e, 0x70, 0x87, 0x46, 0xbf, 0x2d, 0xc7, 0x6a, 0x3d,
  0x49, 0x3a, 0x74, 0xbd, 0xeb, 0xfa, 0x41, 0xbf, 0x6c, 0x78, 0xae, 0xbf,
  0xba, 0x1c, 0xa3, 0x3d, 0xcc, 0xd8, 0xde, 0x3e, 0x16, 0x09, 0xa3, 0xbf,
  0xd6, 0xde, 0xcb, 0xbf, 0x79, 0xfe, 0x3b, 0x3f, 0x31, 0xfd, 0xc9, 0xbf,
  0xd5, 0xc9, 0xbc, 0xbd, 0x65, 0x4b, 0xc3, 0x3f, 0x3c, 0x99, 0x48, 0xbf,
  0xf9, 0x5c, 0x42, 0xbf, 0x77, 0x47, 0x45, 0x3f, 0x7f, 0xa0, 0x4f, 0xbe,
  0xde, 0x46, 0x15, 0x3f, 0xf2, 0x02, 0xe9, 0x3e, 0xca, 0xd7, 0xb2, 0x3f,
  0xd8, 0xf3, 0x55, 0xbe, 0xc1, 0x42, 0x25, 0x3f, 0x46, 0x07, 0x2d, 0xbf,
  0xb4, 0x17, 0x84, 0x3f, 0xa7, 0xc3, 0x51, 0xbe, 0x5f, 0x01, 0x3d, 0xbf,
  0x33, 0x4c, 0x3b, 0xbf, 0xd8, 0x56, 0xb6, 0xbd, 0xc8, 0x96, 0x3a, 0xbe,
  0x6f, 0xa6, 0xd9, 0x3e, 0x9b, 0x48, 0xc9, 0x3b, 0x0f, 0xaa, 0x8f, 0xbe,
  0xc8, 0x56, 0x63, 0xbf, 0xbe, 0xbb, 0x57, 0xbf, 0x99, 0xe0, 0xb4, 0xbf,
  0xe1, 0xef, 0x1c, 0x3f, 0x4e, 0x1b, 0xa9, 0x3d, 0x01, 0x1b, 0x35, 0x3f,
  0x80, 0x3f, 0xb7, 0x3e, 0x70, 0x08, 0x7a, 0xbf, 0xb4, 0x16, 0x89, 0xbf,
  0x25, 0x69, 0x8e, 0xbd, 0x77, 0x5b, 0x23, 0xbe, 0x31, 0xae, 0xee, 0x3e,
  0xbd, 0xb3, 0xab, 0xba, 0x8f, 0x9c, 0x09, 0x3e, 0x85, 0x97, 0x8d, 0xbe,
  0xe5, 0x20, 0x6f, 0x3d, 0x33, 0x14, 0x2b, 0xbf, 0x0a, 0x71, 0x95, 0x3b,
  0xdf, 0xdc, 0x62, 0x3f, 0x63, 0x3c, 0xe9, 0x3e, 0xe7, 0xba, 0xbb, 0xbe,
  0xa1, 0xe7, 0xed, 0xbe, 0xc9, 0x09, 0x93, 0x3e, 0x23, 0xb1, 0x89, 0x3d,
  0x8f, 0x06, 0xb8, 0xbb, 0x40, 0x94, 0xd6, 0x3e, 0xc5, 0x6a, 0x04, 0x3d,
  0x57, 0x37, 0xcf, 0x3e, 0xa6, 0xc9, 0xea, 0x3e, 0x9d, 0x9e, 0xc3, 0xbe,
  0x1e, 0x94, 0x85, 0xbe, 0xb7, 0xc5, 0x06, 0x3d, 0x38, 0xc0, 0xe4, 0x3e,
  0x40, 0xb3, 0x3b, 0xbe, 0xe0, 0x8a, 0x8f, 0x3e, 0x2c, 0x39, 0x98, 0x3e,
  0xd4, 0x97, 0x4f, 0xbe, 0x85, 0x70, 0xa0, 0x3e, 0x4a, 0x6b, 0xc4, 0xbc,
  0x71, 0xfe, 0xfb, 0x3e, 0x47, 0x9a, 0x42, 0xbc, 0xa3, 0xf8, 0xe6, 0xbc,
  0x8f, 0x50, 0x84, 0xbd, 0xc6, 0x80, 0x28, 0xbf, 0x68, 0xec, 0xb2, 0xbd,
  0x03, 0x70, 0xa5, 0x3e, 0xf6, 0x6c, 0xc3, 0xbd, 0xdf, 0xcc, 0x39, 0x3f,
  0x2b, 0x2e, 0x99, 0x3e, 0xb1, 0x5f, 0x18, 0x3f, 0x5e, 0x49, 0x81, 0x3f,
  0x40, 0x5f, 0x06, 0x3f, 0xb3, 0xf5, 0x09, 0xbc, 0xf4, 0x0a, 0xb0, 0xbe,
  0xe2, 0x9a, 0x8a, 0xbe, 0x8f, 0x55, 0x06, 0x3f, 0x34, 0x01, 0x60, 0x3f,
  0xaf, 0xae, 0x79, 0x3e, 0xf7, 0xbb, 0x89, 0x3e, 0xe7, 0x1c, 0xe8, 0xbe,
  0x71, 0x66, 0x63, 0x3f, 0x17, 0xd5, 0xb9, 0xbe, 0x72, 0x87, 0x27, 0x3b,
  0x18, 0x84, 0xa4, 0xbe, 0x9f, 0x0d, 0x00, 0xbf, 0x98, 0xb6, 0x1b, 0xbf,
  0x4f, 0x6e, 0xc3, 0xbe, 0x83, 0x8e, 0x04, 0x3e, 0xee, 0x66, 0xe7, 0x3e,
  0x25, 0xd1, 0x94, 0xbf, 0x12, 0x5e, 0x9f, 0xbc, 0x9a, 0x29, 0x18, 0xbf,
  0x9d, 0xd6, 0xc3, 0x3e, 0x15, 0xae, 0x37, 0xbd, 0x61, 0xed, 0x5d, 0x3f,
  0xaf, 0x44, 0xaa, 0x3e, 0xb4, 0xcc, 0xb2, 0x3e, 0x64, 0x0e, 0x08, 0x3f,
  0x18, 0x3c, 0xe3, 0xbe, 0x9a, 0x16, 0x20, 0x3f, 0x76, 0xd7, 0x31, 0x3f,
  0xc2, 0xda, 0x6d, 0x3f, 0xa7, 0xf9, 0x4d, 0x3e, 0xec, 0xe6, 0x0d, 0x3f,
  0x5c, 0x0d, 0x4d, 0x3e, 0x02, 0x12, 0x2d, 0xbf, 0xbd, 0xac, 0xa2, 0x3e,
  0x0e, 0x84, 0xd1, 0x3e, 0xfc, 0x2b, 0x5a, 0xbe, 0xbf, 0x0e, 0x36, 0x3f,
  0x8f, 0xf6, 0xd0, 0xbe, 0x5b, 0xd6, 0x39, 0x3f, 0x69, 0xfb, 0xaf, 0xbe,
  0xa7, 0xda, 0x14, 0x3f, 0xa8, 0x8e, 0xae, 0x3d, 0xd5, 0x33, 0xa8, 0x3e,
  0xb8, 0x04, 0xdc, 0x3d, 0x89, 0xf0, 0x2c, 0x3f, 0x63, 0xcc, 0x0e, 0xbf,
  0x8f, 0x2d, 0x66, 0x3f, 0x57, 0x1d, 0x74, 0xbe, 0xa2, 0x6a, 0xc7, 0x3e,
  0xd3, 0xc0, 0xf4, 0x3c, 0x75, 0xba, 0x0e, 0xbf, 0xf8, 0xbd, 0x56, 0xbe,
  0x8f, 0x35, 0x15, 0xbf, 0xdb, 0x18, 0x1c, 0x3f, 0x5c, 0x5b, 0xb9, 0xbe,
  0x4f, 0xf1, 0xa9, 0x3f, 0x29, 0x71, 0xea, 0xbd, 0xde, 0x74, 0xe3, 0x3e,
  0x17, 0xe7, 0x8f, 0x3d, 0x58, 0x6c, 0x1d, 0xbd, 0x67, 0x22, 0xd7, 0xbc,
  0x6b, 0x5b, 0x56, 0xbe, 0x05, 0x66, 0xc5, 0x3e, 0x98, 0x18, 0x70, 0xbe,
  0xdd, 0xc1, 0x30, 0xbf, 0x30, 0xa2, 0xc0, 0x3e, 0xdf, 0x19, 0x38, 0xbf,
  0xc3, 0xaa, 0x51, 0x3f, 0x53, 0x65, 0x95, 0xbe, 0xda, 0x27, 0x4d, 0x3f,
  0x16, 0x02, 0xb8, 0xbe, 0x8f, 0x97, 0xde, 0x3d, 0x2b, 0xe9, 0x5a, 0xbe,
  0xbf, 0x68, 0x9b, 0xbd, 0xc6, 0x53, 0x17, 0xbf, 0x4c, 0xba, 0x8d, 0x3c,
  0x2f, 0x17, 0x56, 0xbf, 0xad, 0x54, 0xe3, 0xbe, 0x7c, 0x4a, 0xc5, 0xbe,
  0x88, 0xf7, 0xe3, 0x3e, 0x20, 0x3e, 0x07, 0xbf, 0xfd, 0xd6, 0x3b, 0x3f,
  0x58, 0xa6, 0x53, 0xbe, 0x95, 0xba, 0x0d, 0x3e, 0x2e, 0xf2, 0x59, 0xbe,
  0x3e, 0x37, 0x7f, 0xbc, 0x6a, 0xae, 0x47, 0xbd, 0x7b, 0xb5, 0x2d, 0xbc,
  0x04, 0x69, 0xd8, 0x3e, 0xc0, 0xc4, 0x49, 0x3d, 0x22, 0xe3, 0x4e, 0x3f,
  0xee, 0x52, 0x83, 0x3b, 0x8d, 0x9f, 0xf1, 0x3e, 0x3e, 0xb8, 0x00, 0x3f,
  0x6f, 0xe3, 0x06, 0x3f, 0xb5, 0x5b, 0x99, 0x3f, 0x3d, 0xb3, 0xab, 0xbe,
  0xbc, 0x67, 0x22, 0xbf, 0xd6, 0x2e, 0xce, 0xbe, 0xb4, 0xe6, 0x1d, 0x3f,
  0xfa, 0x7e, 0xbb, 0x3e, 0x49, 0x9b, 0x89, 0x3f, 0xa8, 0x5e, 0x51, 0x3e,
  0x50, 0x7f, 0x88, 0x3d, 0xa8, 0x09, 0x2f, 0xbc, 0x8b, 0xfa, 0x49, 0x3f,
  0x2d, 0x8d, 0x07, 0xbf, 0x60, 0xb1, 0x05, 0xbf, 0x2d, 0x33, 0x1e, 0xbd,
  0xde, 0x12, 0xe0, 0x3e, 0x14, 0x37, 0xda, 0x3e, 0x8c, 0x6b, 0xca, 0xbe,
  0x5d, 0x53, 0x2d, 0xbf, 0x2d, 0x59, 0xac, 0x3f, 0x7c, 0xd9, 0x6e, 0xbf,
  0xdd, 0xa0, 0x9e, 0x3e, 0xea, 0x51, 0x20, 0x3e, 0x52, 0x2f, 0x15, 0x3f,
  0xd7, 0x31, 0xdd, 0xbe, 0x77, 0x89, 0x54, 0x3e, 0xdc, 0x12, 0x15, 0x3f,
  0x0e, 0x9e, 0xcf, 0x3e, 0x20, 0x14, 0x6a, 0xbd, 0x90, 0x88, 0x1d, 0xbf,
  0xfe, 0x98, 0xed, 0x3e, 0xcd, 0x5e, 0x59, 0x3d, 0xe5, 0x39, 0x6b, 0xbd,
  0x28, 0x42, 0x2a, 0x3f, 0x4b, 0xd5, 0x01, 0x3f, 0x54, 0xd8, 0x58, 0x3e,
  0xf1, 0xa8, 0xe8, 0xbe, 0x50, 0xc3, 0x35, 0x3e, 0x06, 0x4c, 0xb3, 0x3c,
  0x4d, 0xba, 0x3c, 0x3f, 0x5a, 0xe3, 0xe5, 0xbd, 0xf7, 0xf3, 0xcc, 0x3e,
  0x63, 0x84, 0x9f, 0xbf, 0xb6, 0x9c, 0x3d, 0xbe, 0x1e, 0x4a, 0x41, 0xbf,
  0x9c, 0x6e, 0x55, 0xbf, 0xa2, 0xf7, 0xb2, 0xbd, 0x82, 0xcc, 0x02, 0xbe,
  0xa1, 0x79, 0x03, 0x3f, 0x8c, 0x35, 0x3d, 0xbe, 0xef, 0xcd, 0xe9, 0xbe,
  0x8c, 0x5d, 0xc8, 0x3e, 0xcb, 0x4d, 0x39, 0xbf, 0x5f, 0x3b, 0x44, 0x3f,
  0xbe, 0x11, 0x6f, 0xbe, 0x99, 0x7d, 0xd7, 0x3c, 0x5b, 0x20, 0xa1, 0x3e,
  0x6e, 0x68, 0x46, 0xbf, 0xd5, 0x76, 0xa2, 0xbe, 0x96, 0x8c, 0xf7, 0xbe,
  0x1e, 0xc2, 0x44, 0xbe, 0x98, 0xb3, 0x13, 0x3f, 0x99, 0x65, 0x1d, 0x3f,
  0xc6, 0xb5, 0xd9, 0x3e, 0xdd, 0x51, 0x47, 0x3f, 0x8c, 0xbe, 0x37, 0x3e,
  0x04, 0x81, 0xd1, 0x3e, 0xdd, 0xfd, 0xe1, 0x3d, 0x3c, 0x82, 0xa3, 0x3e,
  0x7d, 0x92, 0x4e, 0x3e, 0x06, 0xd1, 0x36, 0x3e, 0x48, 0x17, 0xde, 0xbe,
  0x26, 0xe8, 0xa8, 0x3d, 0x72, 0x64, 0x9a, 0xbe, 0x56, 0x6b, 0x1d, 0xbe,
  0x01, 0xf8, 0x1a, 0x3f, 0x40, 0x90, 0xb2, 0xbd, 0x62, 0xde, 0xf4, 0x3e,
  0x89, 0x7a, 0x9a, 0x3e, 0x83, 0x87, 0x8b, 0x3e, 0x1c, 0x40, 0x6e, 0x3e,
  0xef, 0x0f, 0x90, 0x3e, 0x47, 0xbc, 0x87, 0xbe, 0x21, 0x56, 0x87, 0xbd,
  0xbb, 0x3e, 0x4d, 0xbe, 0xf8, 0x8e, 0xe7, 0xbe, 0x9d, 0xc8, 0xf4, 0xbd,
  0xc2, 0x0c, 0x83, 0xbe, 0x1b, 0x33, 0xf2, 0xbd, 0x48, 0x3e, 0x85, 0x3d,
  0xfc, 0x1a, 0xf4, 0x3c, 0xb6, 0x05, 0x91, 0xbc, 0xa3, 0xd9, 0x13, 0x3d,
  0x66, 0x82, 0xd6, 0x3d, 0x2c, 0x3b, 0xfc, 0xbd, 0xbc, 0xb4, 0x97, 0x3d,
  0xf5, 0x59, 0xf8, 0x3d, 0xaf, 0x03, 0x21, 0x3e, 0xe0, 0x70, 0x21, 0xbe,
  0xf1, 0xb1, 0x51, 0xbf, 0x4e, 0x61, 0x8c, 0xbe, 0x57, 0xcb, 0x04, 0xbe,
  0x34, 0x14, 0x9e, 0x3e, 0x42, 0x2d, 0x9d, 0xbc, 0xce, 0x5e, 0x05, 0x3c,
  0xa6, 0xcf, 0x77, 0xbf, 0x12, 0x13, 0x4f, 0xbf, 0x36, 0xcb, 0xb2, 0xbf,
  0x35, 0xb4, 0x08, 0xbe, 0xe6, 0xf2, 0x04, 0x3e, 0xac, 0x0e, 0xe9, 0x3d,
  0xd5, 0x62, 0xf4, 0xbe, 0x32, 0x1f, 0x6d, 0x3f, 0x0e, 0x9d, 0xfa, 0xbe,
  0x8e, 0x36, 0x80, 0xbe, 0xfc, 0x7c, 0x1b, 0xbc, 0xca, 0x29, 0xc9, 0xbe,
  0x8e, 0x32, 0xd1, 0xbe, 0x60, 0xa4, 0xa4, 0x3f, 0x0a, 0xf2, 0x81, 0x3f,
  0xd6, 0xec, 0x5a, 0x3f, 0xe2, 0xda, 0x80, 0xbd, 0x7e, 0x82, 0x9b, 0x3f,
  0xb6, 0x8a, 0xaa, 0xbf, 0x65, 0x1c, 0x5d, 0x3f, 0x58, 0xca, 0x1b, 0xbf,
  0x16, 0xcf, 0x8b, 0x3f, 0x5f, 0xd4, 0x2f, 0xbf, 0xef, 0x56, 0x3e, 0x3e,
  0xf4, 0x67, 0xd7, 0x3b, 0x64, 0x68, 0x1a, 0xbf, 0x1f, 0x9e, 0x35, 0xbf,
  0x37, 0x11, 0xbd, 0xbe, 0xce, 0x74, 0x7b, 0xbe, 0x75, 0xb6, 0xc5, 0xbe,
  0x2c, 0x4d, 0x82, 0x3e, 0x56, 0xb0, 0x8e, 0xbe, 0x71, 0x56, 0x0d, 0xbd,
  0xf4, 0xd1, 0xbe, 0xbe, 0x73, 0xf0, 0x55, 0xbf, 0x75, 0xd6, 0x54, 0x3f,
  0x59, 0xcf, 0xe6, 0x3e, 0x30, 0x8e, 0x01, 0xbe, 0xc4, 0xb4, 0x21, 0xbe,
  0x84, 0xf1, 0xb4, 0x3d, 0x1a, 0xa7, 0xea, 0xbd, 0xab, 0xd0, 0x9e, 0xbe,
  0x75, 0xaf, 0x60, 0x3f, 0xd6, 0x20, 0x85, 0xbe, 0x59, 0xb6, 0x3c, 0x3f,
  0xf7, 0xb3, 0x1e, 0xbf, 0xf8, 0xed, 0x95, 0x3e, 0x30, 0x94, 0x82, 0xbe,
  0x59, 0xa6, 0x59, 0x3e, 0xa5, 0xae, 0x29, 0xbf, 0xbf, 0xf8, 0x14, 0x3f,
  0xa1, 0x47, 0x95, 0xbe, 0xb6, 0xd5, 0x08, 0xbf, 0x04, 0xff, 0xcf, 0x3d,
  0x40, 0x03, 0x47, 0xbe, 0x2b, 0xa4, 0xc0, 0xbe, 0xb1, 0x43, 0x88, 0x3e,
  0x33, 0x46, 0xe7, 0xbe, 0x9e, 0x88, 0x25, 0x3d, 0xde, 0x2d, 0x47, 0x3e,
  0xae, 0x6a, 0xbe, 0xbe, 0xc8, 0x3c, 0x28, 0x3f, 0xd0, 0x98, 0x99, 0x3d,
  0x0b, 0xf6, 0x18, 0x3f, 0xb8, 0x01, 0xa3, 0x3d, 0x7c, 0xad, 0x87, 0xbd,
  0xde, 0xfc, 0xb3, 0xbe, 0xfb, 0x51, 0xf9, 0x3d, 0xd2, 0xca, 0xd9, 0xbd,
  0x67, 0x2f, 0x07, 0x3e, 0x88, 0x05, 0xa5, 0xbe, 0xa3, 0x64, 0xae, 0xbd,
  0x40, 0x88, 0x9b, 0xbd, 0x8c, 0x00, 0x93, 0xbe, 0xff, 0x0a, 0xef, 0xbe,
  0xdf, 0x55, 0x71, 0xbd, 0x04, 0xb2, 0xad, 0x3d, 0xdb, 0x44, 0xa1, 0xbe,
  0xeb, 0x5a, 0x77, 0x3e, 0x69, 0x92, 0xef, 0x3c, 0x56, 0x89, 0x9e, 0x3d,
  0x61, 0xd2, 0x91, 0x3d, 0x34, 0xef, 0x83, 0xbd, 0x35, 0x2d, 0x11, 0xbd,
  0xb1, 0x22, 0x99, 0xbc, 0xbe, 0xb9, 0x30, 0x3d, 0x0b, 0x02, 0x52, 0x3c,
  0xb0, 0x59, 0x81, 0xbf, 0x49, 0xbe, 0x88, 0xbe, 0x9a, 0x03, 0x5f, 0xbd,
  0x7e, 0xec, 0x9d, 0xbd, 0x11, 0xfb, 0x78, 0x3e, 0xc2, 0x5a, 0xd2, 0xbc,
  0xb8, 0xb8, 0x52, 0x3f, 0x51, 0x93, 0x8c, 0x3f, 0x15, 0xb1, 0x9b, 0x3e,
  0x67, 0xa8, 0x01, 0xbf, 0x8d, 0x31, 0xa6, 0x3c, 0xa5, 0xd9, 0x82, 0xbe,
  0xaa, 0x56, 0xe0, 0xbb, 0x25, 0x39, 0x1a, 0x3f, 0x7a, 0xa4, 0x7a, 0x3f,
  0xfc, 0x67, 0x36, 0x3f, 0x69, 0xab, 0x97, 0xbd, 0xf3, 0xf5, 0xd6, 0x3e,
  0xa9, 0xb3, 0xb8, 0x3d, 0x37, 0xc0, 0x05, 0x3f, 0x29, 0x88, 0xf8, 0x3e,
  0x32, 0x9a, 0xb0, 0xbe, 0x3f, 0xca, 0x93, 0x3f, 0xf4, 0xcb, 0x68, 0xbf,
  0x99, 0xa5, 0x0d, 0xbe, 0x51, 0xe5, 0x72, 0x3e, 0xc5, 0x5b, 0x12, 0x3f,
  0x56, 0xe2, 0x91, 0xbe, 0x5c, 0x8e, 0xde, 0xbe, 0x71, 0xde, 0x2e, 0x3e,
  0xc8, 0x36, 0xd5, 0xbe, 0x7e, 0xb2, 0x6b, 0x3f, 0x58, 0x84, 0x53, 0xbf,
  0xa2, 0xcb, 0xc7, 0x3e, 0xd9, 0xcd, 0x6c, 0xbf, 0xf0, 0x31, 0x90, 0x3f,
  0xea, 0x69, 0x3c, 0xbf, 0x07, 0xd5, 0xe8, 0x3d, 0xa6, 0x10, 0x24, 0xbf,
  0x4f, 0xc5, 0xa0, 0x3d, 0x0a, 0xd5, 0xeb, 0xbe, 0xa8, 0x04, 0xeb, 0x3d,
  0x5f, 0x8e, 0x9d, 0x3e, 0x5b, 0x8a, 0xe2, 0x3e, 0xa2, 0xa1, 0x71, 0xbf,
  0x0b, 0x9c, 0x17, 0x3f, 0x05, 0xb0, 0x84, 0xbf, 0xf8, 0xcc, 0x61, 0xbe,
  0x6d, 0x24, 0x54, 0xbf, 0xe3, 0x19, 0xbc, 0x3f, 0x81, 0x47, 0x8d, 0xbd,
  0xfc, 0x85, 0xdc, 0x3b, 0xf7, 0x7c, 0x4f, 0x3e, 0x17, 0xec, 0x17, 0x3e,
  0x5c, 0x52, 0xf7, 0xbe, 0x71, 0x74, 0xfc, 0x3e, 0x87, 0x9c, 0x23, 0xbf,
  0xbb, 0x7a, 0xc6, 0x3e, 0x38, 0xf4, 0x96, 0xbd, 0x24, 0x58, 0x7b, 0x3d,
  0x87, 0xa1, 0xee, 0x3e, 0x22, 0x2a, 0x96, 0xbf, 0xf8, 0xea, 0x40, 0x3e,
  0xc7, 0xa2, 0xd0, 0xbe, 0x8f, 0x7e, 0xb7, 0xbd, 0x44, 0xab, 0xd0, 0xbd,
  0x37, 0x16, 0x12, 0x3d, 0xc2, 0xad, 0x69, 0x3e, 0x51, 0xa6, 0x00, 0x3f,
  0xd6, 0x67, 0x22, 0x3e, 0x4e, 0xb5, 0xb5, 0x3e, 0x58, 0x95, 0xae, 0x3d,
  0x3f, 0x50, 0x8b, 0x3e, 0x1e, 0xe9, 0xb3, 0xbe, 0xcc, 0x00, 0xc0, 0x3e,
  0xa6, 0xdc, 0x9f, 0xbe, 0xbd, 0x85, 0x96, 0x3e, 0x0a, 0x23, 0x90, 0x3c,
  0x39, 0x37, 0x3e, 0xbe, 0x2b, 0xad, 0xe8, 0xbd, 0xf4, 0x24, 0x83, 0xbe,
  0xd6, 0x58, 0x86, 0xbd, 0x95, 0x0c, 0x14, 0xbf, 0x5b, 0xc2, 0xfc, 0x3d,
  0x0f, 0x30, 0x03, 0xbf, 0x5f, 0xf7, 0xa5, 0xbd, 0xa0, 0x87, 0xab, 0xbe,
  0x91, 0x2e, 0xb1, 0xbe, 0x24, 0x14, 0xd3, 0xbe, 0x1c, 0xa1, 0x78, 0x3a,
  0x1f, 0xb6, 0x2f, 0xbd, 0xdb, 0x8b, 0xea, 0x3d, 0xfd, 0x35, 0x3a, 0xbe,
  0xe2, 0xd8, 0xc8, 0x3b, 0x59, 0xab, 0x90, 0x3b, 0xcb, 0x95, 0x11, 0xbd,
  0x55, 0xf3, 0x5a, 0x3f, 0x12, 0xbb, 0x3d, 0x3d, 0x65, 0x33, 0x7e, 0x3f,
  0xb6, 0xea, 0x1b, 0xbe, 0x83, 0x52, 0x53, 0x3e, 0x16, 0xc3, 0x0e, 0xbf,
  0x10, 0xea, 0xa7, 0x3f, 0x39, 0x9a, 0x80, 0xbf, 0x7d, 0xbb, 0x72, 0x3f,
  0xb7, 0x59, 0x93, 0x3f, 0x46, 0xb4, 0x19, 0x3e, 0x5d, 0x3c, 0xfa, 0xbd,
  0x78, 0xf0, 0x76, 0xbe, 0x67, 0x96, 0x95, 0xbf, 0x82, 0x1d, 0x1e, 0xbf,
  0x04, 0xaa, 0x6d, 0x3c, 0x3d, 0x1f, 0x35, 0xbe, 0x74, 0x56, 0xd3, 0xbe,
  0xfa, 0xc6, 0x12, 0x3f, 0x01, 0x28, 0xdf, 0x3e, 0x48, 0x24, 0x64, 0xbf,
  0xdb, 0x71, 0x89, 0xbe, 0x77, 0x25, 0x57, 0xbe, 0x26, 0x55, 0xae, 0x3e,
  0xec, 0x47, 0x4d, 0xbf, 0x0a, 0x3b, 0x54, 0xbf, 0x7b, 0xff, 0x86, 0x3e,
  0xa2, 0x4b, 0xc4, 0xbe, 0xf0, 0x62, 0x60, 0x3e, 0x1b, 0x17, 0x2b, 0x3c,
  0x9f, 0xcb, 0xeb, 0x3e, 0xd3, 0xc9, 0x5c, 0xbe, 0xeb, 0xb6, 0x10, 0x3e,
  0xcd, 0x14, 0x41, 0xbe, 0xbd, 0x61, 0xd3, 0x3e, 0x1a, 0x51, 0x37, 0x3f,
  0xdc, 0x66, 0x3f, 0x3f, 0x9f, 0xd5, 0x40, 0x3f, 0xf7, 0x94, 0xe3, 0x3d,
  0x18, 0x4d, 0x5c, 0xbe, 0x73, 0x24, 0x87, 0xbf, 0x0b, 0x66, 0x64, 0xbf,
  0x48, 0x1b, 0x22, 0x3f, 0x30, 0xa4, 0x50, 0xbf, 0x83, 0x13, 0xc5, 0x3e,
  0x16, 0x75, 0x1a, 0xbf, 0x99, 0x2c, 0x1d, 0x3e, 0xaa, 0xe0, 0x72, 0x3e,
  0x4d, 0x70, 0x80, 0xbd, 0x46, 0x04, 0xb7, 0xbe, 0xcb, 0x43, 0x59, 0xbd,
  0x98, 0x6a, 0xef, 0xbe, 0xae, 0x87, 0xec, 0xbe, 0x0c, 0xf5, 0x4a, 0xbe,
  0xc6, 0xef, 0x2e, 0xbf, 0x97, 0x41, 0xb5, 0x3d, 0x9e, 0xe3, 0xd6, 0xbe,
  0x30, 0x29, 0x2f, 0xbf, 0x1a, 0x5e, 0xd3, 0x3d, 0x85, 0xb8, 0x09, 0x3e,
  0x00, 0x88, 0xea, 0x3c, 0x66, 0x4d, 0x54, 0x3e, 0x6d, 0xfa, 0x98, 0x3e,
  0xd2, 0xe7, 0x0c, 0x3f, 0x37, 0x10, 0xcc, 0x3e, 0x54, 0x4e, 0x1c, 0x3f,
  0xc8, 0x23, 0x6d, 0xbe, 0x70, 0x9f, 0x91, 0xbe, 0xb8, 0xe4, 0x39, 0xbe,
  0xbe, 0xdb, 0x54, 0xbf, 0xa4, 0x72, 0xb5, 0xbe, 0x52, 0x15, 0x9d, 0x3e,
  0xbc, 0x38, 0x6b, 0xbf, 0x93, 0x4c, 0x07, 0x3f, 0x20, 0x4d, 0xa4, 0xbf,
  0x27, 0x0e, 0x29, 0x3f, 0x20, 0x56, 0x87, 0xbe, 0xe3, 0x16, 0x17, 0x3f,
  0x55, 0x2a, 0x6c, 0xbd, 0x79, 0xa5, 0x1d, 0xbe, 0x14, 0xf3, 0x2d, 0xbd,
  0x3b, 0x8c, 0xb1, 0xbc, 0x0b, 0x59, 0x9e, 0xbd, 0xf8, 0x7c, 0x8f, 0xbf,
  0x4a, 0x5d, 0xfe, 0xbd, 0x58, 0xaf, 0xbc, 0xbe, 0x1c, 0xa1, 0x61, 0xbe,
  0xbc, 0xed, 0x4d, 0x3e, 0x80, 0x33, 0xce, 0xbe, 0xda, 0x8f, 0x81, 0xbb,
  0xeb, 0xf5, 0x29, 0xbe, 0xa1, 0x42, 0xee, 0xbd, 0xc8, 0x7c, 0x48, 0xbe,
  0xc4, 0x36, 0x8e, 0xbd, 0xe9, 0x09, 0x47, 0xbe, 0x0e, 0x57, 0x87, 0x3d,
  0x1b, 0x84, 0x2f, 0x3d, 0xb4, 0xc0, 0x1c, 0x3d, 0x99, 0xc8, 0x63, 0xbe,
  0xce, 0x78, 0x17, 0xbc, 0x1d, 0x9f, 0x28, 0xbf, 0xef, 0xbc, 0x92, 0xbd,
  0xb1, 0xdf, 0x5b, 0xbf, 0xee, 0x73, 0xd8, 0xbd, 0xf0, 0xb1, 0x0b, 0xbf,
  0x23, 0x8d, 0xdc, 0xbe, 0xa7, 0xb6, 0x59, 0xbf, 0x23, 0x55, 0x64, 0xbe,
  0xd7, 0x63, 0xbb, 0x3d, 0x9a, 0x7f, 0x53, 0x3f, 0x5a, 0xf8, 0x80, 0x3f,
  0xdd, 0xe4, 0x90, 0x3f, 0x58, 0x29, 0x56, 0x3f, 0xdf, 0x06, 0xfc, 0x3d,
  0xf8, 0x51, 0x32, 0xbf, 0xca, 0xc5, 0xc9, 0xbc, 0x4c, 0xf7, 0xd3, 0xbe,
  0x1f, 0x15, 0x59, 0x3f, 0x3d, 0x64, 0x1c, 0x3f, 0x5c, 0xbc, 0x21, 0x3f,
  0x42, 0x58, 0x9c, 0xbc, 0x47, 0x8e, 0x69, 0x3e, 0xef, 0x8d, 0x10, 0x3e,
  0x7e, 0x21, 0x1f, 0x3f, 0x57, 0x17, 0x35, 0x3f, 0x69, 0xf7, 0xa4, 0x3e,
  0xcc, 0x50, 0x72, 0xbf, 0x47, 0x82, 0x14, 0x3e, 0x6c, 0x84, 0xd6, 0x3d,
  0x93, 0x55, 0x5c, 0x3f, 0x46, 0xf5, 0x98, 0xbf, 0x79, 0x4d, 0xbd, 0xbe,
  0x43, 0xe8, 0x97, 0xbf, 0xc5, 0xfc, 0xaf, 0xbd, 0x65, 0xc0, 0x75, 0xbe,
  0xc3, 0xf8, 0x93, 0xbf, 0x8b, 0xd5, 0xe1, 0xbe, 0xba, 0x2b, 0x2e, 0x3f,
  0xb3, 0x0c, 0x9d, 0xbd, 0xe9, 0xae, 0xca, 0x3d, 0x07, 0xbd, 0x26, 0xbf,
  0x5b, 0x00, 0xf5, 0x3c, 0xea, 0x77, 0xb2, 0xbf, 0x5d, 0x39, 0x58, 0x3f,
  0x88, 0xa5, 0xa8, 0x3f, 0xeb, 0xce, 0xbb, 0xbc, 0xa0, 0x19, 0x83, 0x3f,
  0xae, 0xb8, 0x03, 0x3f, 0x43, 0x70, 0xfc, 0x3d, 0xb0, 0x0d, 0x21, 0x3d,
  0xd5, 0xbf, 0x04, 0x3e, 0x57, 0x69, 0xe0, 0x3e, 0x8f, 0x0f, 0xaf, 0x3d,
  0x18, 0xa2, 0xf3, 0x3e, 0x56, 0x8f, 0x80, 0x3e, 0xc2, 0xd4, 0x22, 0x3f,
  0x37, 0x80, 0x7d, 0x3f, 0x73, 0xfb, 0x6a, 0xbf, 0x4b, 0x0b, 0x3a, 0x3f,
  0x24, 0xbe, 0xa3, 0x3e, 0xb7, 0x90, 0x1a, 0x3f, 0x94, 0x4e, 0x8e, 0x3f,
  0x1b, 0x08, 0x99, 0xbe, 0x4c, 0xcc, 0x06, 0xbe, 0xf4, 0x5a, 0xe4, 0x3d,
  0x2b, 0x50, 0x8f, 0x3d, 0xd6, 0x82, 0x35, 0x3b, 0x6e, 0x31, 0xa2, 0xbc,
  0x57, 0xa5, 0xe3, 0xbc, 0x2a, 0xc4, 0x00, 0xbf, 0xbf, 0xe1, 0x0d, 0xbd,
  0x27, 0xd3, 0x24, 0xbf, 0x8b, 0x15, 0x1f, 0x3f, 0x26, 0x4a, 0x97, 0xbe,
  0xc1, 0xcb, 0xe0, 0x3d, 0x28, 0x3c, 0xb1, 0xbe, 0x87, 0x50, 0x4c, 0xbe,
  0xa6, 0xf1, 0x9d, 0xbe, 0x38, 0x46, 0xf1, 0x3d, 0x4d, 0x91, 0x8b, 0x3d,
  0xf2, 0xdf, 0xb7, 0x3e, 0x1d, 0x0e, 0xc8, 0x3e, 0x0a, 0x22, 0xae, 0x3f,
  0xa4, 0x28, 0x91, 0xbe, 0xd0, 0xcc, 0xe1, 0x3f, 0x70, 0x4c, 0xee, 0xbe,
  0x8a, 0x1f, 0xc0, 0x3f, 0x86, 0xa8, 0x6a, 0xbe, 0x7e, 0x74, 0x3f, 0x3f,
  0x7a, 0x36, 0x43, 0xbf, 0xd5, 0x77, 0x79, 0x3e, 0xf7, 0x09, 0xc2, 0xbd,
  0xfd, 0x9c, 0x42, 0x3e, 0x3a, 0x25, 0x05, 0xbd, 0x43, 0xec, 0x16, 0xbd,
  0x8d, 0x79, 0x8d, 0xbd, 0xd8, 0xce, 0x3c, 0xbe, 0x60, 0x17, 0x2a, 0xbd,
  0x47, 0x2e, 0x99, 0xbe, 0x06, 0x45, 0x12, 0xbe, 0xb2, 0x76, 0x81, 0x3c,
  0xe3, 0x87, 0x3d, 0xbd, 0xc1, 0x21, 0xe7, 0xbe, 0x1b, 0x46, 0xdc, 0x3e,
  0x85, 0xb8, 0xe6, 0x3e, 0x7d, 0x6c, 0x4e, 0x3e, 0x7d, 0xed, 0x6f, 0xbd,
  0x22, 0x8a, 0x9b, 0xbe, 0x43, 0xd2, 0x57, 0x3e, 0x56, 0xdc, 0x85, 0x3e,
  0x16, 0x1f, 0x35, 0x3c, 0xe9, 0x17, 0xb2, 0x3e, 0x54, 0x1b, 0x98, 0x3e,
  0x5b, 0x74, 0xd3, 0x3e, 0x2d, 0xd8, 0xc2, 0x3e, 0xc2, 0xd3, 0xb3, 0x3e,
  0xfc, 0x49, 0xe1, 0x3e, 0x1e, 0x38, 0x24, 0xbf, 0xbf, 0x8a, 0x43, 0x3e,
  0x9f, 0x3b, 0x7f, 0x3f, 0xaa, 0xda, 0xfb, 0x3e, 0x30, 0x65, 0x09, 0xbe,
  0xf7, 0xc1, 0xab, 0xbe, 0x23, 0xa3, 0xc9, 0xbe, 0x06, 0xf2, 0xa0, 0x3d,
  0xef, 0x39, 0x8e, 0x3e, 0xca, 0xe9, 0x73, 0xbe, 0x1a, 0x01, 0x4b, 0x3e,
  0x61, 0x8a, 0xc5, 0xbe, 0x13, 0x4e, 0x94, 0x3e, 0x6c, 0x84, 0xb9, 0xbd,
  0xf1, 0x6c, 0x00, 0xbe, 0x94, 0x8a, 0xc6, 0xbd, 0xe3, 0x2a, 0x7a, 0xbe,
  0x73, 0x6c, 0x98, 0xbe, 0xfb, 0x5a, 0x48, 0xbe, 0xe4, 0x1b, 0x83, 0xbd,
  0xac, 0x3f, 0xa2, 0x3e, 0xe9, 0x62, 0xa6, 0x3e, 0x09, 0x2f, 0x9f, 0x3e,
  0xf3, 0x20, 0x68, 0xbe, 0xed, 0x07, 0x24, 0xbf, 0x65, 0x34, 0xdf, 0xbe,
  0x19, 0x76, 0x09, 0x3f, 0x56, 0x09, 0x80, 0xbe, 0xef, 0xa2, 0x94, 0x3f,
  0xf4, 0x52, 0xa7, 0xbe, 0xe0, 0x95, 0xa5, 0x3e, 0x61, 0x4c, 0xea, 0x3c,
  0xc0, 0xd9, 0x1b, 0x3d, 0xba, 0x74, 0x13, 0xbe, 0x0e, 0x74, 0xd2, 0xbe,
  0x77, 0x8b, 0x86, 0x3f, 0x08, 0x78, 0x8a, 0xbe, 0x3f, 0xf6, 0x76, 0x3f,
  0x51, 0xac, 0x04, 0x3e, 0x7e, 0x6e, 0x8b, 0xbe, 0x6d, 0x30, 0xdf, 0x3e,
  0x14, 0x56, 0x01, 0xbf, 0x6a, 0xd9, 0xdb, 0xbd, 0x98, 0xad, 0x10, 0xbf,
  0x9b, 0x35, 0xa2, 0xbe, 0xec, 0x95, 0xa8, 0x3d, 0x82, 0x0d, 0x4c, 0xbd,
  0x77, 0x83, 0x2e, 0xbe, 0x7d, 0xea, 0x0e, 0xbe, 0x32, 0x83, 0xfe, 0x3d,
  0xa6, 0xc4, 0xd5, 0xbe, 0x9e, 0x0c, 0x2f, 0x3e, 0x7f, 0xca, 0x00, 0xbe,
  0x34, 0x7b, 0xca, 0x3e, 0xa0, 0x42, 0xb0, 0x3c, 0x89, 0xc7, 0xf5, 0x3e,
  0xa7, 0x7b, 0xaf, 0xbe, 0x18, 0x05, 0x1f, 0x3c, 0x5e, 0x93, 0x62, 0x3d,
  0x3b, 0x68, 0x1d, 0x3d, 0xfa, 0xcd, 0x85, 0xbe, 0xd0, 0xba, 0x65, 0xbe,
  0x68, 0x41, 0x98, 0xbd, 0xe4, 0x37, 0x7c, 0xbf, 0x92, 0x30, 0x02, 0x3e,
  0x37, 0x28, 0x7d, 0xbf, 0x6e, 0x19, 0x1f, 0x3f, 0xea, 0xb2, 0x6d, 0xbf,
  0xd0, 0x48, 0x39, 0x3e, 0x8f, 0x12, 0x92, 0xbe, 0x3b, 0x93, 0x25, 0x3e,
  0x22, 0x45, 0x3e, 0xbd, 0x0e, 0xea, 0x18, 0xbd, 0xb5, 0xf2, 0xae, 0x3d,
  0x1e, 0xa9, 0x75, 0xbd, 0x7c, 0x9a, 0xa5, 0x3d, 0x12, 0x47, 0x1a, 0x3d,
  0x3e, 0x6a, 0x3f, 0xbe, 0xda, 0xe1, 0x28, 0x3d, 0x3b, 0xc8, 0xcb, 0xbe,
  0x8c, 0xd8, 0x10, 0xbe, 0xc3, 0xee, 0x4f, 0xbf, 0x50, 0x3e, 0xb8, 0xbe,
  0xd5, 0xa1, 0xbb, 0xbf, 0x2d, 0x10, 0x08, 0xbf, 0x5d, 0x62, 0x38, 0xbf,
  0xca, 0x59, 0x27, 0xbf, 0xf7, 0x5d, 0x1d, 0xbe, 0x45, 0x0c, 0x9b, 0xbe,
  0x62, 0x61, 0xa6, 0xbf, 0xbc, 0xf3, 0x0a, 0xbe, 0x0b, 0xd1, 0x09, 0x3f,
  0x2c, 0xbd, 0x00, 0x3f, 0x4f, 0x95, 0x27, 0xbe, 0xd5, 0x83, 0x80, 0xbf,
  0x74, 0xfe, 0xdd, 0x3e, 0x3e, 0xa3, 0xe7, 0x3d, 0x84, 0xea, 0xff, 0x3e,
  0x7b, 0xfa, 0x25, 0x3f, 0x94, 0x98, 0x0d, 0xbf, 0x7d, 0xbe, 0xcb, 0x3e,
  0xae, 0xfa, 0xf3, 0xbe, 0xe4, 0x52, 0x79, 0xbe, 0x8f, 0x51, 0x13, 0x3f,
  0x34, 0xf2, 0x5e, 0x3f, 0x40, 0x02, 0xf4, 0x3e, 0xc6, 0x9e, 0x21, 0xbf,
  0xae, 0x3a, 0xf9, 0x3e, 0x1a, 0x83, 0x09, 0x3f, 0xd4, 0x08, 0x0a, 0xbf,
  0xa9, 0x86, 0x1c, 0x3e, 0x9b, 0xb8, 0x11, 0xbc, 0xf6, 0x03, 0xb2, 0xbe,
  0xad, 0x79, 0x1e, 0xbe, 0x7e, 0x89, 0xa1, 0xbf, 0xf0, 0x46, 0x01, 0xbe,
  0x84, 0x09, 0xd0, 0xbd, 0xdd, 0xd8, 0xef, 0xbd, 0xb7, 0x66, 0x0a, 0xbe,
  0x54, 0xce, 0xda, 0xbe, 0x27, 0x5d, 0xd1, 0x3d, 0xd3, 0x39, 0xca, 0xbd,
  0xe4, 0xd1, 0x23, 0x3f, 0xcf, 0x8d, 0x46, 0xbe, 0x25, 0x27, 0x1f, 0xbf,
  0x1b, 0x00, 0x98, 0xbd, 0x67, 0x37, 0x8f, 0x3e, 0x8e, 0x6b, 0x81, 0x3c,
  0x1b, 0x7e, 0x22, 0xbe, 0xd5, 0x5c, 0x8f, 0x3c, 0x7e, 0x91, 0x1f, 0x3d,
  0x28, 0xa9, 0x98, 0xbe, 0xfd, 0xff, 0xef, 0x3e, 0x7f, 0x02, 0x84, 0xbe,
  0x0b, 0xd1, 0x64, 0x3f, 0xb2, 0xb6, 0x42, 0xbf, 0xa2, 0x27, 0x9b, 0x3e,
  0x94, 0x99, 0x42, 0xbe, 0x71, 0x2a, 0xd8, 0xbe, 0x17, 0xed, 0xa1, 0x3b,
  0x06, 0x78, 0xe5, 0xbe, 0xe3, 0x8d, 0x65, 0xbd, 0x3b, 0x33, 0xd7, 0xbe,
  0x24, 0x68, 0xe6, 0xb9, 0x94, 0xf8, 0x24, 0xbe, 0x67, 0x4b, 0x69, 0xbe,
  0x7b, 0x3a, 0x5f, 0x3e, 0x25, 0x66, 0x72, 0x3e, 0xbf, 0xe2, 0x36, 0x3f,
  0xf5, 0xd9, 0x18, 0x3f, 0x87, 0x2c, 0x4c, 0xbe, 0x57, 0x82, 0xa3, 0x3e,
  0x3f, 0x0c, 0xc5, 0xbe, 0xb9, 0xf7, 0x8c, 0xbd, 0x40, 0xa9, 0x55, 0xbf,
  0x19, 0x9b, 0x4f, 0x3c, 0x18, 0x1e, 0xc8, 0xbd, 0xeb, 0xcf, 0xe0, 0x3d,
  0xc7, 0x94, 0xb2, 0x3c, 0x18, 0x54, 0xc5, 0x3d, 0x29, 0xa2, 0x4c, 0x3e,
  0x51, 0x4d, 0xa3, 0x3f, 0xbc, 0x64, 0xda, 0x3d, 0x2c, 0xa9, 0xb6, 0x3f,
  0x3a, 0x90, 0x04, 0xbf, 0x7a, 0xc9, 0xcc, 0x3f, 0x69, 0x72, 0xa0, 0xbe,
  0x48, 0x26, 0xa0, 0x3f, 0xb1, 0xf8, 0x12, 0x3e, 0xf4, 0xac, 0xa2, 0x3b,
  0x37, 0x44, 0xa0, 0x3e, 0xd5, 0x1d, 0xb3, 0x3d, 0xce, 0xfe, 0xff, 0xff,
  0x04, 0x00, 0x00, 0x00, 0x08, 0x00, 0x00, 0x00, 0xff, 0xff, 0xff, 0xff,
  0x62, 0x00, 0x00, 0x00, 0xe2, 0xfe, 0xff, 0xff, 0x04, 0x00, 0x00, 0x00,
  0x40, 0x00, 0x00, 0x00, 0xb5, 0x8e, 0x22, 0x3f, 0xa8, 0x65, 0x9c, 0xbd,
  0x0c, 0x78, 0x53, 0x3f, 0xd8, 0xa2, 0xb4, 0x3e, 0xce, 0xb5, 0x85, 0xbf,
  0xeb, 0xd0, 0x0a, 0xbf, 0x4a, 0x09, 0x1b, 0xbf, 0x96, 0x80, 0x0a, 0xbf,
  0x11, 0xa3, 0x59, 0xbf, 0x90, 0xb5, 0x73, 0xbe, 0x82, 0xcc, 0x54, 0xbd,
  0x1b, 0xfe, 0xec, 0x3e, 0xf7, 0x12, 0x38, 0xbf, 0xf2, 0xdc, 0x2d, 0xbd,
  0x6d, 0x1e, 0xdc, 0x3e, 0x59, 0x00, 0x0d, 0x3f, 0x2e, 0xff, 0xff, 0xff,
  0x04, 0x00, 0x00, 0x00, 0x20, 0x00, 0x00, 0x00, 0xfd, 0x6b, 0xc3, 0x3e,
  0xcc, 0x9c, 0x82, 0x3e, 0xf2, 0x80, 0x39, 0x3e, 0x34, 0x50, 0x82, 0x3e,
  0xd6, 0xa0, 0xf4, 0xbe, 0x00, 0x01, 0xa3, 0x3d, 0x94, 0x9b, 0x25, 0x3e,
  0x8c, 0x96, 0xe2, 0x3e, 0x5a, 0xff, 0xff, 0xff, 0x04, 0x00, 0x00, 0x00,
  0x08, 0x00, 0x00, 0x00, 0x00, 0x00, 0x00, 0x00, 0x00, 0x00, 0x00, 0x00,
  0x88, 0xf8, 0xff, 0xff, 0x8c, 0xf8, 0xff, 0xff, 0x0f, 0x00, 0x00, 0x00,
  0x4d, 0x4c, 0x49, 0x52, 0x20, 0x43, 0x6f, 0x6e, 0x76, 0x65, 0x72, 0x74,
  0x65, 0x64, 0x2e, 0x00, 0x01, 0x00, 0x00, 0x00, 0x14, 0x00, 0x00, 0x00,
  0x00, 0x00, 0x0e, 0x00, 0x18, 0x00, 0x14, 0x00, 0x10, 0x00, 0x0c, 0x00,
  0x08, 0x00, 0x04, 0x00, 0x0e, 0x00, 0x00, 0x00, 0x14, 0x00, 0x00, 0x00,
  0x1c, 0x00, 0x00, 0x00, 0x10, 0x02, 0x00, 0x00, 0x14, 0x02, 0x00, 0x00,
  0x18, 0x02, 0x00, 0x00, 0x04, 0x00, 0x00, 0x00, 0x6d, 0x61, 0x69, 0x6e,
  0x00, 0x00, 0x00, 0x00, 0x07, 0x00, 0x00, 0x00, 0xa8, 0x01, 0x00, 0x00,
  0x44, 0x01, 0x00, 0x00, 0xf0, 0x00, 0x00, 0x00, 0xac, 0x00, 0x00, 0x00,
  0x84, 0x00, 0x00, 0x00, 0x40, 0x00, 0x00, 0x00, 0x04, 0x00, 0x00, 0x00,
  0xe2, 0xfe, 0xff, 0xff, 0x1c, 0x00, 0x00, 0x00, 0x00, 0x00, 0x00, 0x09,
  0x1c, 0x00, 0x00, 0x00, 0x20, 0x00, 0x00, 0x00, 0x04, 0x00, 0x00, 0x00,
  0x00, 0x00, 0x06, 0x00, 0x08, 0x00, 0x04, 0x00, 0x06, 0x00, 0x00, 0x00,
  0x00, 0x00, 0x80, 0x3f, 0x01, 0x00, 0x00, 0x00, 0x0c, 0x00, 0x00, 0x00,
  0x01, 0x00, 0x00, 0x00, 0x0b, 0x00, 0x00, 0x00, 0x1a, 0xff, 0xff, 0xff,
  0x14, 0x00, 0x00, 0x00, 0x00, 0x00, 0x00, 0x08, 0x10, 0x00, 0x00, 0x00,
  0x14, 0x00, 0x00, 0x00, 0x03, 0x00, 0x00, 0x00, 0x50, 0xf9, 0xff, 0xff,
  0x01, 0x00, 0x00, 0x00, 0x0b, 0x00, 0x00, 0x00, 0x03, 0x00, 0x00, 0x00,
  0x0a, 0x00, 0x00, 0x00, 0x05, 0x00, 0x00, 0x00, 0xff, 0xff, 0xff, 0xff,
  0x00, 0x00, 0x0a, 0x00, 0x10, 0x00, 0x0c, 0x00, 0x08, 0x00, 0x04, 0x00,
  0x0a, 0x00, 0x00, 0x00, 0x0c, 0x00, 0x00, 0x00, 0x10, 0x00, 0x00, 0x00,
  0x02, 0x00, 0x00, 0x00, 0x01, 0x00, 0x00, 0x00, 0x0a, 0x00, 0x00, 0x00,
  0x02, 0x00, 0x00, 0x00, 0x09, 0x00, 0x00, 0x00, 0x04, 0x00, 0x00, 0x00,
  0x7e, 0xff, 0xff, 0xff, 0x14, 0x00, 0x00, 0x00, 0x00, 0x00, 0x00, 0x05,
  0x24, 0x00, 0x00, 0x00, 0x28, 0x00, 0x00, 0x00, 0x01, 0x00, 0x00, 0x00,
  0x6e, 0xff, 0xff, 0xff, 0x02, 0x00, 0x00, 0x00, 0x02, 0x00, 0x00, 0x00,
  0x02, 0x00, 0x00, 0x00, 0x02, 0x00, 0x00, 0x00, 0x00, 0x00, 0x00, 0x01,
  0x01, 0x00, 0x00, 0x00, 0x09, 0x00, 0x00, 0x00, 0x01, 0x00, 0x00, 0x00,
  0x08, 0x00, 0x00, 0x00, 0x5e, 0xff, 0xff, 0xff, 0x10, 0x00, 0x00, 0x00,
  0x00, 0x00, 0x00, 0x01, 0x1c, 0x00, 0x00, 0x00, 0x20, 0x00, 0x00, 0x00,
  0x50, 0xff, 0xff, 0xff, 0x00, 0x00, 0x00, 0x01, 0x01, 0x00, 0x00, 0x00,
  0x01, 0x00, 0x00, 0x00, 0x00, 0x00, 0x00, 0x01, 0x01, 0x00, 0x00, 0x00,
  0x08, 0x00, 0x00, 0x00, 0x03, 0x00, 0x00, 0x00, 0x07, 0x00, 0x00, 0x00,
  0x03, 0x00, 0x00, 0x00, 0x01, 0x00, 0x00, 0x00, 0x00, 0x00, 0x0e, 0x00,
  0x1a, 0x00, 0x14, 0x00, 0x10, 0x00, 0x0c, 0x00, 0x0b, 0x00, 0x04, 0x00,
  0x0e, 0x00, 0x00, 0x00, 0x24, 0x00, 0x00, 0x00, 0x00, 0x00, 0x00, 0x05,
  0x34, 0x00, 0x00, 0x00, 0x38, 0x00, 0x00, 0x00, 0x01, 0x00, 0x00, 0x00,
  0x00, 0x00, 0x0e, 0x00, 0x18, 0x00, 0x17, 0x00, 0x10, 0x00, 0x0c, 0x00,
  0x08, 0x00, 0x04, 0x00, 0x0e, 0x00, 0x00, 0x00, 0x02, 0x00, 0x00, 0x00,
  0x02, 0x00, 0x00, 0x00, 0x02, 0x00, 0x00, 0x00, 0x02, 0x00, 0x00, 0x00,
  0x00, 0x00, 0x00, 0x01, 0x01, 0x00, 0x00, 0x00, 0x07, 0x00, 0x00, 0x00,
  0x01, 0x00, 0x00, 0x00, 0x06, 0x00, 0x00, 0x00, 0x00, 0x00, 0x0e, 0x00,
  0x14, 0x00, 0x00, 0x00, 0x10, 0x00, 0x0c, 0x00, 0x0b, 0x00, 0x04, 0x00,
  0x0e, 0x00, 0x00, 0x00, 0x1c, 0x00, 0x00, 0x00, 0x00, 0x00, 0x00, 0x01,
  0x28, 0x00, 0x00, 0x00, 0x2c, 0x00, 0x00, 0x00, 0x0c, 0x00, 0x14, 0x00,
  0x13, 0x00, 0x0c, 0x00, 0x08, 0x00, 0x07, 0x00, 0x0c, 0x00, 0x00, 0x00,
  0x00, 0x00, 0x00, 0x01, 0x01, 0x00, 0x00, 0x00, 0x01, 0x00, 0x00, 0x00,
  0x00, 0x00, 0x00, 0x01, 0x01, 0x00, 0x00, 0x00, 0x06, 0x00, 0x00, 0x00,
  0x03, 0x00, 0x00, 0x00, 0x00, 0x00, 0x00, 0x00, 0x02, 0x00, 0x00, 0x00,
  0x01, 0x00, 0x00, 0x00, 0x01, 0x00, 0x00, 0x00, 0x0c, 0x00, 0x00, 0x00,
  0x01, 0x00, 0x00, 0x00, 0x00, 0x00, 0x00, 0x00, 0x0d, 0x00, 0x00, 0x00,
  0xe4, 0x04, 0x00, 0x00, 0x84, 0x04, 0x00, 0x00, 0x18, 0x04, 0x00, 0x00,
  0xc4, 0x03, 0x00, 0x00, 0x74, 0x03, 0x00, 0x00, 0x10, 0x03, 0x00, 0x00,
  0x90, 0x02, 0x00, 0x00, 0x18, 0x02, 0x00, 0x00, 0x94, 0x01, 0x00, 0x00,
  0x1c, 0x01, 0x00, 0x00, 0xbc, 0x00, 0x00, 0x00, 0x60, 0x00, 0x00, 0x00,
  0x04, 0x00, 0x00, 0x00, 0x66, 0xfb, 0xff, 0xff, 0x00, 0x00, 0x00, 0x01,
  0x14, 0x00, 0x00, 0x00, 0x1c, 0x00, 0x00, 0x00, 0x1c, 0x00, 0x00, 0x00,
  0x0d, 0x00, 0x00, 0x00, 0x34, 0x00, 0x00, 0x00, 0x02, 0x00, 0x00, 0x00,
  0xff, 0xff, 0xff, 0xff, 0x0a, 0x00, 0x00, 0x00, 0x48, 0xfb, 0xff, 0xff,
  0x19, 0x00, 0x00, 0x00, 0x53, 0x74, 0x61, 0x74, 0x65, 0x66, 0x75, 0x6c,
  0x50, 0x61, 0x72, 0x74, 0x69, 0x74, 0x69, 0x6f, 0x6e, 0x65, 0x64, 0x43,
  0x61, 0x6c, 0x6c, 0x3a, 0x30, 0x00, 0x00, 0x00, 0x02, 0x00, 0x00, 0x00,
  0x01, 0x00, 0x00, 0x00, 0x0a, 0x00, 0x00, 0x00, 0xbe, 0xfb, 0xff, 0xff,
  0x00, 0x00, 0x00, 0x01, 0x14, 0x00, 0x00, 0x00, 0x1c, 0x00, 0x00, 0x00,
  0x1c, 0x00, 0x00, 0x00, 0x0c, 0x00, 0x00, 0x00, 0x34, 0x00, 0x00, 0x00,
  0x02, 0x00, 0x00, 0x00, 0xff, 0xff, 0xff, 0xff, 0x0a, 0x00, 0x00, 0x00,
  0xa0, 0xfb, 0xff, 0xff, 0x18, 0x00, 0x00, 0x00, 0x73, 0x65, 0x71, 0x75,
  0x65, 0x6e, 0x74, 0x69, 0x61, 0x6c, 0x2f, 0x64, 0x65, 0x6e, 0x73, 0x65,
  0x2f, 0x4d, 0x61, 0x74, 0x4d, 0x75, 0x6c, 0x32, 0x00, 0x00, 0x00, 0x00,
  0x02, 0x00, 0x00, 0x00, 0x01, 0x00, 0x00, 0x00, 0x0a, 0x00, 0x00, 0x00,
  0x16, 0xfc, 0xff, 0xff, 0x00, 0x00, 0x00, 0x01, 0x14, 0x00, 0x00, 0x00,
  0x1c, 0x00, 0x00, 0x00, 0x1c, 0x00, 0x00, 0x00, 0x0b, 0x00, 0x00, 0x00,
  0x38, 0x00, 0x00, 0x00, 0x02, 0x00, 0x00, 0x00, 0xff, 0xff, 0xff, 0xff,
  0x62, 0x00, 0x00, 0x00, 0xf8, 0xfb, 0xff, 0xff, 0x1f, 0x00, 0x00, 0x00,
  0x73, 0x65, 0x71, 0x75, 0x65, 0x6e, 0x74, 0x69, 0x61, 0x6c, 0x2f, 0x66,
  0x6c, 0x61, 0x74, 0x74, 0x65, 0x6e, 0x5f, 0x34, 0x33, 0x38, 0x32, 0x2f,
  0x52, 0x65, 0x73, 0x68, 0x61, 0x70, 0x65, 0x00, 0x02, 0x00, 0x00, 0x00,
  0x01, 0x00, 0x00, 0x00, 0x62, 0x00, 0x00, 0x00, 0x72, 0xfc, 0xff, 0xff,
  0x00, 0x00, 0x00, 0x01, 0x14, 0x00, 0x00, 0x00, 0x24, 0x00, 0x00, 0x00,
  0x24, 0x00, 0x00, 0x00, 0x0a, 0x00, 0x00, 0x00, 0x48, 0x00, 0x00, 0x00,
  0x04, 0x00, 0x00, 0x00, 0xff, 0xff, 0xff, 0xff, 0x07, 0x00, 0x00, 0x00,
  0x07, 0x00, 0x00, 0x00, 0x02, 0x00, 0x00, 0x00, 0x5c, 0xfc, 0xff, 0xff,
  0x25, 0x00, 0x00, 0x00, 0x73, 0x65, 0x71, 0x75, 0x65, 0x6e, 0x74, 0x69,
  0x61, 0x6c, 0x2f, 0x6d, 0x61, 0x78, 0x5f, 0x70, 0x6f, 0x6f, 0x6c, 0x69,
  0x6e, 0x67, 0x32, 0x64, 0x5f, 0x38, 0x37, 0x36, 0x35, 0x2f, 0x4d, 0x61,
  0x78, 0x50, 0x6f, 0x6f, 0x6c, 0x00, 0x00, 0x00, 0x04, 0x00, 0x00, 0x00,
  0x01, 0x00, 0x00, 0x00, 0x07, 0x00, 0x00, 0x00, 0x07, 0x00, 0x00, 0x00,
  0x02, 0x00, 0x00, 0x00, 0xe6, 0xfc, 0xff, 0xff, 0x00, 0x00, 0x00, 0x01,
  0x14, 0x00, 0x00, 0x00, 0x24, 0x00, 0x00, 0x00, 0x24, 0x00, 0x00, 0x00,
  0x09, 0x00, 0x00, 0x00, 0x54, 0x00, 0x00, 0x00, 0x04, 0x00, 0x00, 0x00,
  0xff, 0xff, 0xff, 0xff, 0x0e, 0x00, 0x00, 0x00, 0x0e, 0x00, 0x00, 0x00,
  0x02, 0x00, 0x00, 0x00, 0xd0, 0xfc, 0xff, 0xff, 0x33, 0x00, 0x00, 0x00,
  0x73, 0x65, 0x71, 0x75, 0x65, 0x6e, 0x74, 0x69, 0x61, 0x6c, 0x2f, 0x63,
  0x6f, 0x6e, 0x76, 0x32, 0x64, 0x5f, 0x31, 0x2f, 0x52, 0x65, 0x6c, 0x75,
  0x3b, 0x73, 0x65, 0x71, 0x75, 0x65, 0x6e, 0x74, 0x69, 0x61, 0x6c, 0x2f,
  0x63, 0x6f, 0x6e, 0x76, 0x32, 0x64, 0x5f, 0x31, 0x2f, 0x43, 0x6f, 0x6e,
  0x76, 0x32, 0x44, 0x00, 0x04, 0x00, 0x00, 0x00, 0x01, 0x00, 0x00, 0x00,
  0x0e, 0x00, 0x00, 0x00, 0x0e, 0x00, 0x00, 0x00, 0x02, 0x00, 0x00, 0x00,
  0x66, 0xfd, 0xff, 0xff, 0x00, 0x00, 0x00, 0x01, 0x14, 0x00, 0x00, 0x00,
  0x24, 0x00, 0x00, 0x00, 0x24, 0x00, 0x00, 0x00, 0x08, 0x00, 0x00, 0x00,
  0x48, 0x00, 0x00, 0x00, 0x04, 0x00, 0x00, 0x00, 0xff, 0xff, 0xff, 0xff,
  0x0f, 0x00, 0x00, 0x00, 0x0f, 0x00, 0x00, 0x00, 0x02, 0x00, 0x00, 0x00,
  0x50, 0xfd, 0xff, 0xff, 0x25, 0x00, 0x00, 0x00, 0x73, 0x65, 0x71, 0x75,
  0x65, 0x6e, 0x74, 0x69, 0x61, 0x6c, 0x2f, 0x6d, 0x61, 0x78, 0x5f, 0x70,
  0x6f, 0x6f, 0x6c, 0x69, 0x6e, 0x67, 0x32, 0x64, 0x5f, 0x38, 0x37, 0x36,
  0x34, 0x2f, 0x4d, 0x61, 0x78, 0x50, 0x6f, 0x6f, 0x6c, 0x00, 0x00, 0x00,
  0x04, 0x00, 0x00, 0x00, 0x01, 0x00, 0x00, 0x00, 0x0f, 0x00, 0x00, 0x00,
  0x0f, 0x00, 0x00, 0x00, 0x02, 0x00, 0x00, 0x00, 0xda, 0xfd, 0xff, 0xff,
  0x00, 0x00, 0x00, 0x01, 0x14, 0x00, 0x00, 0x00, 0x24, 0x00, 0x00, 0x00,
  0x24, 0x00, 0x00, 0x00, 0x07, 0x00, 0x00, 0x00, 0x50, 0x00, 0x00, 0x00,
  0x04, 0x00, 0x00, 0x00, 0xff, 0xff, 0xff, 0xff, 0x1f, 0x00, 0x00, 0x00,
  0x1f, 0x00, 0x00, 0x00, 0x02, 0x00, 0x00, 0x00, 0xc4, 0xfd, 0xff, 0xff,
  0x2f, 0x00, 0x00, 0x00, 0x73, 0x65, 0x71, 0x75, 0x65, 0x6e, 0x74, 0x69,
  0x61, 0x6c, 0x2f, 0x63, 0x6f, 0x6e, 0x76, 0x32, 0x64, 0x2f, 0x52, 0x65,
  0x6c, 0x75, 0x3b, 0x73, 0x65, 0x71, 0x75, 0x65, 0x6e, 0x74, 0x69, 0x61,
  0x6c, 0x2f, 0x63, 0x6f, 0x6e, 0x76, 0x32, 0x64, 0x2f, 0x43, 0x6f, 0x6e,
  0x76, 0x32, 0x44, 0x00, 0x04, 0x00, 0x00, 0x00, 0x01, 0x00, 0x00, 0x00,
  0x1f, 0x00, 0x00, 0x00, 0x1f, 0x00, 0x00, 0x00, 0x02, 0x00, 0x00, 0x00,
  0xb2, 0xfe, 0xff, 0xff, 0x00, 0x00, 0x00, 0x01, 0x10, 0x00, 0x00, 0x00,
  0x10, 0x00, 0x00, 0x00, 0x06, 0x00, 0x00, 0x00, 0x28, 0x00, 0x00, 0x00,
  0x28, 0xfe, 0xff, 0xff, 0x18, 0x00, 0x00, 0x00, 0x73, 0x65, 0x71, 0x75,
  0x65, 0x6e, 0x74, 0x69, 0x61, 0x6c, 0x2f, 0x64, 0x65, 0x6e, 0x73, 0x65,
  0x2f, 0x4d, 0x61, 0x74, 0x4d, 0x75, 0x6c, 0x31, 0x00, 0x00, 0x00, 0x00,
  0x02, 0x00, 0x00, 0x00, 0x0a, 0x00, 0x00, 0x00, 0x62, 0x00, 0x00, 0x00,
  0x00, 0x00, 0x16, 0x00, 0x1c, 0x00, 0x18, 0x00, 0x17, 0x00, 0x10, 0x00,
  0x0c, 0x00, 0x08, 0x00, 0x00, 0x00, 0x00, 0x00, 0x00, 0x00, 0x07, 0x00,
  0x16, 0x00, 0x00, 0x00, 0x00, 0x00, 0x00, 0x01, 0x14, 0x00, 0x00, 0x00,
  0x14, 0x00, 0x00, 0x00, 0x05, 0x00, 0x00, 0x00, 0x00, 0x00, 0x00, 0x02,
  0x2c, 0x00, 0x00, 0x00, 0x8c, 0xfe, 0xff, 0xff, 0x1d, 0x00, 0x00, 0x00,
  0x73, 0x65, 0x71, 0x75, 0x65, 0x6e, 0x74, 0x69, 0x61, 0x6c, 0x2f, 0x66,
  0x6c, 0x61, 0x74, 0x74, 0x65, 0x6e, 0x5f, 0x34, 0x33, 0x38, 0x32, 0x2f,
  0x43, 0x6f, 0x6e, 0x73, 0x74, 0x00, 0x00, 0x00, 0x01, 0x00, 0x00, 0x00,
  0x02, 0x00, 0x00, 0x00, 0x5e, 0xff, 0xff, 0xff, 0x00, 0x00, 0x00, 0x01,
  0x10, 0x00, 0x00, 0x00, 0x10, 0x00, 0x00, 0x00, 0x04, 0x00, 0x00, 0x00,
  0x28, 0x00, 0x00, 0x00, 0xd4, 0xfe, 0xff, 0xff, 0x1b, 0x00, 0x00, 0x00,
  0x73, 0x65, 0x71, 0x75, 0x65, 0x6e, 0x74, 0x69, 0x61, 0x6c, 0x2f, 0x63,
  0x6f, 0x6e, 0x76, 0x32, 0x64, 0x5f, 0x31, 0x2f, 0x43, 0x6f, 0x6e, 0x76,
  0x32, 0x44, 0x31, 0x00, 0x04, 0x00, 0x00, 0x00, 0x02, 0x00, 0x00, 0x00,
  0x02, 0x00, 0x00, 0x00, 0x02, 0x00, 0x00, 0x00, 0x02, 0x00, 0x00, 0x00,
  0xae, 0xff, 0xff, 0xff, 0x00, 0x00, 0x00, 0x01, 0x10, 0x00, 0x00, 0x00,
  0x10, 0x00, 0x00, 0x00, 0x03, 0x00, 0x00, 0x00, 0x28, 0x00, 0x00, 0x00,
  0x24, 0xff, 0xff, 0xff, 0x18, 0x00, 0x00, 0x00, 0x73, 0x65, 0x71, 0x75,
  0x65, 0x6e, 0x74, 0x69, 0x61, 0x6c, 0x2f, 0x63, 0x6f, 0x6e, 0x76, 0x32,
  0x64, 0x2f, 0x43, 0x6f, 0x6e, 0x76, 0x32, 0x44, 0x00, 0x00, 0x00, 0x00,
  0x04, 0x00, 0x00, 0x00, 0x02, 0x00, 0x00, 0x00, 0x02, 0x00, 0x00, 0x00,
  0x02, 0x00, 0x00, 0x00, 0x01, 0x00, 0x00, 0x00, 0x00, 0x00, 0x16, 0x00,
  0x18, 0x00, 0x14, 0x00, 0x00, 0x00, 0x10, 0x00, 0x0c, 0x00, 0x08, 0x00,
  0x00, 0x00, 0x00, 0x00, 0x00, 0x00, 0x07, 0x00, 0x16, 0x00, 0x00, 0x00,
  0x00, 0x00, 0x00, 0x01, 0x10, 0x00, 0x00, 0x00, 0x10, 0x00, 0x00, 0x00,
  0x02, 0x00, 0x00, 0x00, 0x28, 0x00, 0x00, 0x00, 0x8c, 0xff, 0xff, 0xff,
  0x1a, 0x00, 0x00, 0x00, 0x73, 0x65, 0x71, 0x75, 0x65, 0x6e, 0x74, 0x69,
  0x61, 0x6c, 0x2f, 0x63, 0x6f, 0x6e, 0x76, 0x32, 0x64, 0x5f, 0x31, 0x2f,
  0x43, 0x6f, 0x6e, 0x76, 0x32, 0x44, 0x00, 0x00, 0x01, 0x00, 0x00, 0x00,
  0x02, 0x00, 0x00, 0x00, 0x00, 0x00, 0x16, 0x00, 0x1c, 0x00, 0x18, 0x00,
  0x00, 0x00, 0x14, 0x00, 0x10, 0x00, 0x0c, 0x00, 0x00, 0x00, 0x00, 0x00,
  0x08, 0x00, 0x07, 0x00, 0x16, 0x00, 0x00, 0x00, 0x00, 0x00, 0x00, 0x01,
  0x14, 0x00, 0x00, 0x00, 0x28, 0x00, 0x00, 0x00, 0x28, 0x00, 0x00, 0x00,
  0x01, 0x00, 0x00, 0x00, 0x44, 0x00, 0x00, 0x00, 0x04, 0x00, 0x00, 0x00,
  0xff, 0xff, 0xff, 0xff, 0x20, 0x00, 0x00, 0x00, 0x20, 0x00, 0x00, 0x00,
  0x01, 0x00, 0x00, 0x00, 0x04, 0x00, 0x04, 0x00, 0x04, 0x00, 0x00, 0x00,
  0x1e, 0x00, 0x00, 0x00, 0x73, 0x65, 0x72, 0x76, 0x69, 0x6e, 0x67, 0x5f,
  0x64, 0x65, 0x66, 0x61, 0x75, 0x6c, 0x74, 0x5f, 0x63, 0x6f, 0x6e, 0x76,
  0x32, 0x64, 0x5f, 0x69, 0x6e, 0x70, 0x75, 0x74, 0x3a, 0x30, 0x00, 0x00,
  0x04, 0x00, 0x00, 0x00, 0x01, 0x00, 0x00, 0x00, 0x20, 0x00, 0x00, 0x00,
  0x20, 0x00, 0x00, 0x00, 0x01, 0x00, 0x00, 0x00, 0x05, 0x00, 0x00, 0x00,
  0x50, 0x00, 0x00, 0x00, 0x34, 0x00, 0x00, 0x00, 0x24, 0x00, 0x00, 0x00,
  0x14, 0x00, 0x00, 0x00, 0x04, 0x00, 0x00, 0x00, 0xd0, 0xff, 0xff, 0xff,
  0x19, 0x00, 0x00, 0x00, 0x00, 0x00, 0x00, 0x19, 0xdc, 0xff, 0xff, 0xff,
  0x09, 0x00, 0x00, 0x00, 0x00, 0x00, 0x00, 0x09, 0xe8, 0xff, 0xff, 0xff,
  0x16, 0x00, 0x00, 0x00, 0x00, 0x00, 0x00, 0x16, 0xf4, 0xff, 0xff, 0xff,
  0x11, 0x00, 0x00, 0x00, 0x00, 0x00, 0x00, 0x11, 0x0c, 0x00, 0x0c, 0x00,
  0x0b, 0x00, 0x00, 0x00, 0x00, 0x00, 0x04, 0x00, 0x0c, 0x00, 0x00, 0x00,
  0x03, 0x00, 0x00, 0x00, 0x00, 0x00, 0x00, 0x03
};
unsigned int cnn_model_print_tflite_len = 6656;
