unsigned char custom_model_float_tflite[] = {
  0x1c, 0x00, 0x00, 0x00, 0x54, 0x46, 0x4c, 0x33, 0x14, 0x00, 0x20, 0x00,
  0x1c, 0x00, 0x18, 0x00, 0x14, 0x00, 0x10, 0x00, 0x0c, 0x00, 0x00, 0x00,
  0x08, 0x00, 0x04, 0x00, 0x14, 0x00, 0x00, 0x00, 0x1c, 0x00, 0x00, 0x00,
  0x90, 0x00, 0x00, 0x00, 0xc0, 0x00, 0x00, 0x00, 0x74, 0x06, 0x00, 0x00,
  0x84, 0x06, 0x00, 0x00, 0x48, 0x0b, 0x00, 0x00, 0x03, 0x00, 0x00, 0x00,
  0x01, 0x00, 0x00, 0x00, 0x10, 0x00, 0x00, 0x00, 0x00, 0x00, 0x0a, 0x00,
  0x10, 0x00, 0x0c, 0x00, 0x08, 0x00, 0x04, 0x00, 0x0a, 0x00, 0x00, 0x00,
  0x0c, 0x00, 0x00, 0x00, 0x1c, 0x00, 0x00, 0x00, 0x38, 0x00, 0x00, 0x00,
  0x0f, 0x00, 0x00, 0x00, 0x73, 0x65, 0x72, 0x76, 0x69, 0x6e, 0x67, 0x5f,
  0x64, 0x65, 0x66, 0x61, 0x75, 0x6c, 0x74, 0x00, 0x01, 0x00, 0x00, 0x00,
  0x04, 0x00, 0x00, 0x00, 0xc0, 0xff, 0xff, 0xff, 0x09, 0x00, 0x00, 0x00,
  0x04, 0x00, 0x00, 0x00, 0x07, 0x00, 0x00, 0x00, 0x64, 0x65, 0x6e, 0x73,
  0x65, 0x5f, 0x32, 0x00, 0x01, 0x00, 0x00, 0x00, 0x04, 0x00, 0x00, 0x00,
  0x56, 0xfa, 0xff, 0xff, 0x04, 0x00, 0x00, 0x00, 0x0b, 0x00, 0x00, 0x00,
  0x64, 0x65, 0x6e, 0x73, 0x65, 0x5f, 0x69, 0x6e, 0x70, 0x75, 0x74, 0x00,
  0x01, 0x00, 0x00, 0x00, 0x0c, 0x00, 0x00, 0x00, 0x08, 0x00, 0x0c, 0x00,
  0x08, 0x00, 0x04, 0x00, 0x08, 0x00, 0x00, 0x00, 0x0b, 0x00, 0x00, 0x00,
  0x04, 0x00, 0x00, 0x00, 0x13, 0x00, 0x00, 0x00, 0x6d, 0x69, 0x6e, 0x5f,
  0x72, 0x75, 0x6e, 0x74, 0x69, 0x6d, 0x65, 0x5f, 0x76, 0x65, 0x72, 0x73,
  0x69, 0x6f, 0x6e, 0x00, 0x0c, 0x00, 0x00, 0x00, 0xb0, 0x05, 0x00, 0x00,
  0xa8, 0x05, 0x00, 0x00, 0x58, 0x05, 0x00, 0x00, 0x3c, 0x05, 0x00, 0x00,
  0xec, 0x04, 0x00, 0x00, 0x9c, 0x04, 0x00, 0x00, 0x8c, 0x00, 0x00, 0x00,
  0x3c, 0x00, 0x00, 0x00, 0x34, 0x00, 0x00, 0x00, 0x2c, 0x00, 0x00, 0x00,
  0x24, 0x00, 0x00, 0x00, 0x04, 0x00, 0x00, 0x00, 0xd6, 0xfa, 0xff, 0xff,
  0x04, 0x00, 0x00, 0x00, 0x10, 0x00, 0x00, 0x00, 0x31, 0x2e, 0x35, 0x2e,
  0x30, 0x00, 0x00, 0x00, 0x00, 0x00, 0x00, 0x00, 0x00, 0x00, 0x00, 0x00,
  0xf4, 0xf5, 0xff, 0xff, 0xf8, 0xf5, 0xff, 0xff, 0xfc, 0xf5, 0xff, 0xff,
  0xfe, 0xfa, 0xff, 0xff, 0x04, 0x00, 0x00, 0x00, 0x40, 0x00, 0x00, 0x00,
  0x47, 0x62, 0x6b, 0x3e, 0xc0, 0x74, 0xe0, 0x3e, 0xf8, 0x33, 0xe6, 0xbe,
  0xe9, 0x71, 0x1e, 0x3e, 0x6a, 0x81, 0x10, 0x40, 0xe0, 0x42, 0xfe, 0x3d,
  0x5c, 0xa1, 0x0f, 0x3e, 0x53, 0x8c, 0xab, 0xbf, 0xed, 0x02, 0x03, 0x3f,
  0xbc, 0x31, 0x26, 0xbf, 0x5b, 0x4a, 0x90, 0x3e, 0x45, 0x40, 0xd8, 0x3e,
  0x0f, 0x12, 0xc4, 0xbe, 0x81, 0x2c, 0xae, 0xbe, 0xc2, 0xe5, 0x31, 0xbe,
  0x0c, 0x34, 0x3a, 0xbf, 0x4a, 0xfb, 0xff, 0xff, 0x04, 0x00, 0x00, 0x00,
  0x00, 0x04, 0x00, 0x00, 0x5e, 0x8d, 0x8f, 0xbe, 0xc4, 0x10, 0xb5, 0x3d,
  0xc9, 0xc5, 0x39, 0x3e, 0xbc, 0x88, 0x8b, 0xbd, 0x10, 0x40, 0x89, 0xbd,
  0x4a, 0x51, 0x58, 0xbe, 0xc6, 0x58, 0x16, 0x3d, 0x61, 0x92, 0x18, 0xbe,
  0xd3, 0x5d, 0xd6, 0x3e, 0x08, 0xc8, 0x2f, 0xbe, 0xdc, 0xed, 0xf7, 0xbe,
  0xc4, 0x28, 0xf9, 0xbd, 0x89, 0xdd, 0x06, 0x3f, 0xfd, 0xde, 0x4e, 0x3e,
  0x57, 0x21, 0xbf, 0x3e, 0xd5, 0x84, 0x89, 0x3d, 0x3a, 0xb0, 0x72, 0xbe,
  0x14, 0xd3, 0xf8, 0x3d, 0xdc, 0x35, 0xa1, 0x3d, 0xf2, 0x1d, 0x45, 0xbe,
  0x6f, 0x2e, 0xc9, 0x3e, 0x98, 0x0c, 0x4c, 0xbd, 0x9d, 0x91, 0xd4, 0xbe,
  0x7e, 0xbb, 0x6b, 0xbe, 0x66, 0x3b, 0x86, 0xbe, 0x99, 0xda, 0xbc, 0xbe,
  0x31, 0xe9, 0xd2, 0xbe, 0x41, 0x3b, 0x89, 0xbe, 0x29, 0x32, 0xa3, 0xbe,
  0xaa, 0xf0, 0x5e, 0x3e, 0xce, 0x41, 0x6d, 0x3e, 0x15, 0xaf, 0xaa, 0xbe,
  0x26, 0xcf, 0x83, 0xbe, 0x40, 0x9b, 0x4a, 0xbd, 0x25, 0xe8, 0xcc, 0xbe,
  0xe8, 0x8a, 0x17, 0xbe, 0x36, 0xb3, 0x81, 0xbe, 0x6a, 0x06, 0x54, 0x3e,
  0x58, 0x4a, 0x36, 0xbe, 0xc8, 0x5c, 0x83, 0xbe, 0xf0, 0x40, 0xcf, 0xbe,
  0x68, 0x82, 0xf3, 0xbd, 0x96, 0xc8, 0x69, 0x3e, 0x66, 0x69, 0xab, 0xbe,
  0x78, 0x97, 0x7f, 0xbd, 0xf1, 0x96, 0xb7, 0xbe, 0x98, 0x1a, 0xb1, 0xbe,
  0x84, 0x5f, 0x8f, 0xbd, 0xe5, 0xdf, 0xc3, 0x3e, 0x94, 0xcb, 0x7a, 0xbe,
  0x42, 0xee, 0xeb, 0xbc, 0x6c, 0x38, 0x89, 0xbd, 0x03, 0x25, 0xca, 0x3e,
  0x77, 0x24, 0xba, 0xbe, 0x6a, 0xcf, 0x8a, 0x3e, 0xfd, 0xac, 0xa0, 0xbd,
  0x28, 0xd7, 0x1c, 0xbe, 0x25, 0x67, 0xb9, 0xbe, 0x7f, 0xc9, 0x61, 0x3e,
  0xbd, 0xe4, 0xdc, 0xbe, 0x35, 0xe2, 0x8c, 0x3e, 0x71, 0xdd, 0x93, 0xbe,
  0xba, 0x88, 0x02, 0xbe, 0xd8, 0xc9, 0xbd, 0xbe, 0x70, 0x20, 0xd0, 0xbe,
  0x8e, 0x3b, 0x37, 0x3e, 0x7d, 0xfc, 0xd5, 0xbe, 0x69, 0x32, 0xa9, 0x3e,
  0x12, 0xa9, 0x7d, 0x3e, 0xb3, 0x9c, 0xc5, 0x3e, 0x0d, 0x14, 0x8d, 0x3e,
  0x8b, 0x92, 0xa0, 0x3c, 0x1f, 0xe7, 0x57, 0xbe, 0x6e, 0x73, 0x8d, 0xbe,
  0xae, 0x02, 0xb8, 0xbf, 0x16, 0xb9, 0x3c, 0x3e, 0x1c, 0xcd, 0x48, 0xbf,
  0xcb, 0x0f, 0xee, 0x3e, 0xf5, 0x34, 0x8d, 0x3e, 0xa2, 0xc1, 0xc2, 0x3d,
  0x40, 0x93, 0x4c, 0x3d, 0x08, 0xae, 0x4e, 0x3d, 0x61, 0x07, 0x48, 0xbe,
  0x40, 0xa1, 0xeb, 0x3c, 0xc1, 0x81, 0xc8, 0x3e, 0x80, 0x42, 0x91, 0xbc,
  0xa8, 0x65, 0x56, 0x3d, 0x6e, 0x5a, 0x1b, 0xbe, 0xdc, 0x8b, 0xf8, 0x3d,
  0xec, 0x9f, 0xef, 0x3d, 0x94, 0xd9, 0x55, 0xbe, 0xca, 0x4c, 0xc4, 0xbe,
  0x29, 0x97, 0xa3, 0x3e, 0xe0, 0x2d, 0x88, 0xbc, 0x48, 0x62, 0x32, 0x3d,
  0x50, 0xea, 0x75, 0x3d, 0xf0, 0x68, 0xcc, 0x3c, 0x8f, 0x58, 0xd3, 0xbe,
  0x96, 0x92, 0x91, 0xbe, 0xf4, 0x62, 0x9c, 0x3d, 0xfc, 0x36, 0x0d, 0xbe,
  0xd2, 0x3a, 0x00, 0x3e, 0xf2, 0x55, 0x13, 0x3e, 0xfa, 0x4e, 0x1b, 0x3e,
  0xf9, 0x12, 0xd0, 0x3e, 0x60, 0x12, 0xe6, 0x3c, 0x53, 0x08, 0xd0, 0xbe,
  0xf0, 0xd6, 0x42, 0xbd, 0x64, 0xca, 0xea, 0xbd, 0x84, 0x19, 0x34, 0xbe,
  0xb6, 0x88, 0x03, 0x3e, 0xe8, 0x68, 0xd1, 0xbe, 0x9d, 0x17, 0x99, 0xbe,
  0xd0, 0x80, 0x65, 0xbe, 0x63, 0xf9, 0xbf, 0xbe, 0xd5, 0xba, 0xc0, 0xbe,
  0x40, 0x07, 0xa5, 0xbb, 0xa6, 0xa9, 0x21, 0x3e, 0x73, 0x0e, 0x32, 0xbf,
  0x91, 0x7e, 0x05, 0x3f, 0x04, 0x70, 0x2d, 0xbe, 0xd0, 0x8f, 0x5e, 0xbd,
  0x73, 0x92, 0x1c, 0x3f, 0xec, 0x86, 0x98, 0xbe, 0x36, 0xb7, 0x97, 0x3e,
  0xb1, 0x0b, 0x2d, 0xbf, 0x39, 0x22, 0xd4, 0x3e, 0xbe, 0x4f, 0x10, 0xc0,
  0x54, 0x24, 0x9c, 0x3d, 0x36, 0x6b, 0x11, 0xbe, 0x28, 0x03, 0x8a, 0x3d,
  0xe5, 0x5e, 0x4f, 0xbe, 0x0e, 0xa6, 0x4a, 0x3e, 0x84, 0x3e, 0xf2, 0xbd,
  0xdf, 0x38, 0xaf, 0xbd, 0xf3, 0x2d, 0x0d, 0x3d, 0x24, 0x67, 0x99, 0xbe,
  0xd6, 0x87, 0x5d, 0xbe, 0x8a, 0x55, 0x8d, 0xbe, 0x8b, 0xf8, 0xd3, 0xbe,
  0x4d, 0x65, 0xaf, 0x3f, 0x0a, 0x8e, 0x9d, 0x3e, 0x82, 0xb9, 0x91, 0xbe,
  0x26, 0xbc, 0x91, 0xbe, 0x77, 0x9c, 0xb0, 0x3e, 0x5f, 0x47, 0xa1, 0x3e,
  0xa3, 0xcd, 0x7b, 0x3d, 0xe2, 0xd1, 0x35, 0x3e, 0x48, 0xec, 0x9c, 0xbe,
  0xe2, 0x71, 0xa6, 0xbe, 0x81, 0x5e, 0x98, 0x3e, 0xbf, 0x3e, 0xc4, 0x3e,
  0x24, 0xcc, 0x91, 0xbe, 0x08, 0x88, 0xfc, 0xbd, 0x66, 0x1f, 0x4c, 0x3d,
  0xa9, 0x98, 0xb7, 0xbe, 0x76, 0xb2, 0xa3, 0xbf, 0x88, 0xdd, 0x26, 0xbe,
  0x0e, 0x0c, 0x0b, 0x3e, 0x68, 0xc5, 0xbb, 0x3e, 0x38, 0x72, 0x88, 0xbd,
  0x33, 0x52, 0xdb, 0xbe, 0x6c, 0x06, 0xb0, 0x3e, 0x76, 0xc5, 0x70, 0xbe,
  0x08, 0x35, 0xd2, 0xbe, 0xbc, 0x80, 0xdb, 0xbe, 0xc0, 0x05, 0xc6, 0x3e,
  0xba, 0xb7, 0xbf, 0x3d, 0xb4, 0xf7, 0xd6, 0x3d, 0xc0, 0xd4, 0x74, 0x3d,
  0xad, 0xd9, 0xf2, 0xbd, 0xe5, 0x6b, 0x92, 0x3e, 0x49, 0x41, 0x4d, 0x3f,
  0x47, 0x7f, 0x3a, 0x3e, 0x4c, 0x86, 0xce, 0xbe, 0xe0, 0x29, 0x7e, 0xbd,
  0xaf, 0xf0, 0x9d, 0x3e, 0x4a, 0x6b, 0x7d, 0xbe, 0xdb, 0x2b, 0xcd, 0xbd,
  0x8a, 0x3a, 0x43, 0x3e, 0xd1, 0x45, 0xaa, 0x3e, 0x60, 0x34, 0x08, 0x3c,
  0x6c, 0xf4, 0x2a, 0x3e, 0xc0, 0xe1, 0xab, 0xbe, 0x77, 0xee, 0x89, 0x3e,
  0x7a, 0xdf, 0x3b, 0x3e, 0xcb, 0x86, 0x5d, 0x3d, 0x3f, 0xa9, 0xc3, 0x3e,
  0x79, 0x18, 0x1b, 0x3f, 0xd6, 0xea, 0xcf, 0x3e, 0x46, 0xb4, 0x28, 0x3e,
  0x68, 0x59, 0xf5, 0xbe, 0x4b, 0x4b, 0xb9, 0x3e, 0x7f, 0xf4, 0xac, 0xbe,
  0xad, 0xc3, 0x29, 0x3d, 0x45, 0x83, 0x99, 0x3e, 0x84, 0xac, 0xcd, 0x3d,
  0x57, 0x94, 0xbc, 0x3e, 0xd0, 0x93, 0xc2, 0x3e, 0x4b, 0xbf, 0x3b, 0xbd,
  0x29, 0x18, 0xdd, 0xbe, 0xa4, 0x7f, 0xfc, 0xbd, 0xeb, 0xee, 0xce, 0xbe,
  0xca, 0x29, 0x5d, 0x3e, 0xa6, 0xf8, 0xa7, 0xbf, 0x31, 0x52, 0x98, 0x3e,
  0xaa, 0x95, 0x47, 0x3e, 0x3f, 0x5e, 0x88, 0x3e, 0x64, 0xe7, 0x8a, 0x3d,
  0x14, 0xa9, 0xab, 0xbe, 0xa1, 0x4f, 0xf7, 0x3d, 0xa6, 0xf5, 0xa0, 0xbe,
  0xdc, 0x1c, 0xd3, 0x3d, 0xd0, 0x68, 0x47, 0xbe, 0xfc, 0xe9, 0xa5, 0xbe,
  0xc8, 0xda, 0x28, 0xbd, 0xc4, 0x62, 0x4c, 0xbe, 0x20, 0x97, 0x74, 0xbe,
  0xbc, 0xea, 0x96, 0xbc, 0x72, 0x7a, 0xd1, 0xbe, 0xa9, 0xda, 0xbd, 0xbe,
  0x3c, 0x93, 0xc4, 0x3e, 0x34, 0x9b, 0xa9, 0x3d, 0x78, 0x3c, 0xd6, 0xbd,
  0x81, 0x1c, 0xa4, 0x3e, 0x3c, 0xb7, 0xd2, 0xbe, 0x3d, 0x24, 0x4f, 0x3e,
  0xe4, 0x41, 0xff, 0xbd, 0x29, 0x00, 0xc7, 0xbe, 0xae, 0xfa, 0x72, 0xbe,
  0xe4, 0x11, 0xe7, 0x3d, 0x3d, 0xfa, 0xbd, 0x3e, 0x92, 0x5d, 0x11, 0xbe,
  0xc1, 0x5a, 0xdc, 0xbe, 0xdf, 0x21, 0x08, 0x3f, 0x00, 0x68, 0x3e, 0xb9,
  0x93, 0xe9, 0xc1, 0xbf, 0xdd, 0xe1, 0xb7, 0xbe, 0xfc, 0x74, 0x85, 0xbe,
  0x17, 0x51, 0x04, 0x3e, 0xab, 0x1f, 0x9c, 0x3e, 0x0a, 0x26, 0x52, 0xbe,
  0x6f, 0xd7, 0x9f, 0xbe, 0x2c, 0x64, 0x84, 0x3d, 0x12, 0xda, 0x61, 0x3e,
  0x8b, 0x8f, 0x89, 0x3e, 0x96, 0x5a, 0xc4, 0x3e, 0xc8, 0xd1, 0x2e, 0xbe,
  0xd0, 0x93, 0xb1, 0xbc, 0xb3, 0x0f, 0xd8, 0x3e, 0x36, 0x55, 0x51, 0x3c,
  0xf9, 0x68, 0xb2, 0x3e, 0x5a, 0xcf, 0xb6, 0xbf, 0xb5, 0xc4, 0xa7, 0x3e,
  0x89, 0xbb, 0xc5, 0xbe, 0xf1, 0xc4, 0xe3, 0xbd, 0x56, 0xff, 0xff, 0xff,
  0x04, 0x00, 0x00, 0x00, 0x40, 0x00, 0x00, 0x00, 0x50, 0xf4, 0xa2, 0xbd,
  0x7e, 0x2f, 0xe1, 0xbe, 0xd7, 0x09, 0x44, 0x3e, 0xec, 0xe3, 0x5f, 0xbe,
  0x3f, 0xa7, 0xea, 0xbe, 0x18, 0x56, 0xb5, 0xbd, 0x05, 0xa6, 0x39, 0x3f,
  0xc8, 0x60, 0x1d, 0x3e, 0x86, 0xfa, 0x2d, 0xbe, 0x80, 0x52, 0xa9, 0xbc,
  0x22, 0xdf, 0xe4, 0xbd, 0x10, 0x71, 0x78, 0xbd, 0x7d, 0x4d, 0x1a, 0xbe,
  0x5f, 0x1b, 0xbb, 0x3e, 0xce, 0x55, 0x4f, 0xbe, 0x97, 0x73, 0x08, 0x3e,
  0xa2, 0xff, 0xff, 0xff, 0x04, 0x00, 0x00, 0x00, 0x40, 0x00, 0x00, 0x00,
  0xa6, 0xd4, 0xcf, 0x3d, 0x00, 0x00, 0x00, 0x00, 0x00, 0x00, 0x00, 0x00,
  0xc2, 0xff, 0xf1, 0x3d, 0xf5, 0x2e, 0x20, 0xbf, 0x00, 0x00, 0x00, 0x00,
  0x00, 0x00, 0x00, 0x00, 0x09, 0x75, 0x8b, 0x3e, 0x20, 0x42, 0x23, 0x3e,
  0xc6, 0xad, 0xc2, 0xbd, 0x38, 0x8d, 0xce, 0x3d, 0xf9, 0xb5, 0xec, 0x3d,
  0xa6, 0xa9, 0x0e, 0xbe, 0xe7, 0xa2, 0xa8, 0xbb, 0x70, 0x01, 0xf8, 0xbc,
  0x35, 0x6c, 0x83, 0xbd, 0xee, 0xff, 0xff, 0xff, 0x04, 0x00, 0x00, 0x00,
  0x04, 0x00, 0x00, 0x00, 0x3d, 0xc1, 0xda, 0x3d, 0x00, 0x00, 0x06, 0x00,
  0x08, 0x00, 0x04, 0x00, 0x06, 0x00, 0x00, 0x00, 0x04, 0x00, 0x00, 0x00,
  0x40, 0x00, 0x00, 0x00, 0x00, 0x00, 0x00, 0x00, 0x00, 0x00, 0x00, 0x00,
  0x14, 0xa0, 0x26, 0x3f, 0x00, 0x00, 0x00, 0x00, 0x00, 0x00, 0x00, 0x00,
  0x00, 0x00, 0x00, 0x00, 0x0e, 0x7d, 0x99, 0xbc, 0x1e, 0xf1, 0x99, 0xbd,
  0x00, 0x00, 0x00, 0x00, 0x00, 0x00, 0x00, 0x00, 0x03, 0x79, 0x53, 0x3f,
  0x00, 0x00, 0x00, 0x00, 0x62, 0x43, 0x1b, 0x3f, 0x89, 0xa6, 0xd0, 0xbe,
  0x00, 0x00, 0x00, 0x00, 0x09, 0x8e, 0xfa, 0xbd, 0x54, 0xfb, 0xff, 0xff,
  0x58, 0xfb, 0xff, 0xff, 0x0f, 0x00, 0x00, 0x00, 0x4d, 0x4c, 0x49, 0x52,
  0x20, 0x43, 0x6f, 0x6e, 0x76, 0x65, 0x72, 0x74, 0x65, 0x64, 0x2e, 0x00,
  0x01, 0x00, 0x00, 0x00, 0x14, 0x00, 0x00, 0x00, 0x00, 0x00, 0x0e, 0x00,
  0x18, 0x00, 0x14, 0x00, 0x10, 0x00, 0x0c, 0x00, 0x08, 0x00, 0x04, 0x00,
  0x0e, 0x00, 0x00, 0x00, 0x14, 0x00, 0x00, 0x00, 0x1c, 0x00, 0x00, 0x00,
  0xd8, 0x00, 0x00, 0x00, 0xdc, 0x00, 0x00, 0x00, 0xe0, 0x00, 0x00, 0x00,
  0x04, 0x00, 0x00, 0x00, 0x6d, 0x61, 0x69, 0x6e, 0x00, 0x00, 0x00, 0x00,
  0x03, 0x00, 0x00, 0x00, 0x80, 0x00, 0x00, 0x00, 0x38, 0x00, 0x00, 0x00,
  0x04, 0x00, 0x00, 0x00, 0x9a, 0xff, 0xff, 0xff, 0x10, 0x00, 0x00, 0x00,
  0x00, 0x00, 0x00, 0x08, 0x0c, 0x00, 0x00, 0x00, 0x10, 0x00, 0x00, 0x00,
  0xd0, 0xfb, 0xff, 0xff, 0x01, 0x00, 0x00, 0x00, 0x09, 0x00, 0x00, 0x00,
  0x03, 0x00, 0x00, 0x00, 0x08, 0x00, 0x00, 0x00, 0x06, 0x00, 0x00, 0x00,
  0x02, 0x00, 0x00, 0x00, 0xca, 0xff, 0xff, 0xff, 0x10, 0x00, 0x00, 0x00,
  0x00, 0x00, 0x00, 0x08, 0x10, 0x00, 0x00, 0x00, 0x14, 0x00, 0x00, 0x00,
  0xba, 0xff, 0xff, 0xff, 0x00, 0x00, 0x00, 0x01, 0x01, 0x00, 0x00, 0x00,
  0x08, 0x00, 0x00, 0x00, 0x03, 0x00, 0x00, 0x00, 0x07, 0x00, 0x00, 0x00,
  0x05, 0x00, 0x00, 0x00, 0x03, 0x00, 0x00, 0x00, 0x00, 0x00, 0x0e, 0x00,
  0x16, 0x00, 0x00, 0x00, 0x10, 0x00, 0x0c, 0x00, 0x0b, 0x00, 0x04, 0x00,
  0x0e, 0x00, 0x00, 0x00, 0x18, 0x00, 0x00, 0x00, 0x00, 0x00, 0x00, 0x08,
  0x18, 0x00, 0x00, 0x00, 0x1c, 0x00, 0x00, 0x00, 0x00, 0x00, 0x06, 0x00,
  0x08, 0x00, 0x07, 0x00, 0x06, 0x00, 0x00, 0x00, 0x00, 0x00, 0x00, 0x01,
  0x01, 0x00, 0x00, 0x00, 0x07, 0x00, 0x00, 0x00, 0x03, 0x00, 0x00, 0x00,
  0x00, 0x00, 0x00, 0x00, 0x04, 0x00, 0x00, 0x00, 0x01, 0x00, 0x00, 0x00,
  0x01, 0x00, 0x00, 0x00, 0x09, 0x00, 0x00, 0x00, 0x01, 0x00, 0x00, 0x00,
  0x00, 0x00, 0x00, 0x00, 0x0a, 0x00, 0x00, 0x00, 0x5c, 0x03, 0x00, 0x00,
  0xf8, 0x02, 0x00, 0x00, 0x94, 0x02, 0x00, 0x00, 0x40, 0x02, 0x00, 0x00,
  0xfc, 0x01, 0x00, 0x00, 0xb4, 0x01, 0x00, 0x00, 0x6c, 0x01, 0x00, 0x00,
  0xe8, 0x00, 0x00, 0x00, 0x5c, 0x00, 0x00, 0x00, 0x04, 0x00, 0x00, 0x00,
  0xe0, 0xfc, 0xff, 0xff, 0x14, 0x00, 0x00, 0x00, 0x1c, 0x00, 0x00, 0x00,
  0x1c, 0x00, 0x00, 0x00, 0x0a, 0x00, 0x00, 0x00, 0x34, 0x00, 0x00, 0x00,
  0x02, 0x00, 0x00, 0x00, 0xff, 0xff, 0xff, 0xff, 0x01, 0x00, 0x00, 0x00,
  0xcc, 0xfc, 0xff, 0xff, 0x19, 0x00, 0x00, 0x00, 0x53, 0x74, 0x61, 0x74,
  0x65, 0x66, 0x75, 0x6c, 0x50, 0x61, 0x72, 0x74, 0x69, 0x74, 0x69, 0x6f,
  0x6e, 0x65, 0x64, 0x43, 0x61, 0x6c, 0x6c, 0x3a, 0x30, 0x00, 0x00, 0x00,
  0x02, 0x00, 0x00, 0x00, 0x01, 0x00, 0x00, 0x00, 0x01, 0x00, 0x00, 0x00,
  0x34, 0xfd, 0xff, 0xff, 0x14, 0x00, 0x00, 0x00, 0x1c, 0x00, 0x00, 0x00,
  0x1c, 0x00, 0x00, 0x00, 0x09, 0x00, 0x00, 0x00, 0x68, 0x00, 0x00, 0x00,
  0x02, 0x00, 0x00, 0x00, 0xff, 0xff, 0xff, 0xff, 0x10, 0x00, 0x00, 0x00,
  0x20, 0xfd, 0xff, 0xff, 0x4c, 0x00, 0x00, 0x00, 0x73, 0x65, 0x71, 0x75,
  0x65, 0x6e, 0x74, 0x69, 0x61, 0x6c, 0x2f, 0x64, 0x65, 0x6e, 0x73, 0x65,
  0x5f, 0x31, 0x2f, 0x4d, 0x61, 0x74, 0x4d, 0x75, 0x6c, 0x3b, 0x73, 0x65,
  0x71, 0x75, 0x65, 0x6e, 0x74, 0x69, 0x61, 0x6c, 0x2f, 0x64, 0x65, 0x6e,
  0x73, 0x65, 0x5f, 0x31, 0x2f, 0x52, 0x65, 0x6c, 0x75, 0x3b, 0x73, 0x65,
  0x71, 0x75, 0x65, 0x6e, 0x74, 0x69, 0x61, 0x6c, 0x2f, 0x64, 0x65, 0x6e,
  0x73, 0x65, 0x5f, 0x31, 0x2f, 0x42, 0x69, 0x61, 0x73, 0x41, 0x64, 0x64,
  0x00, 0x00, 0x00, 0x00, 0x02, 0x00, 0x00, 0x00, 0x01, 0x00, 0x00, 0x00,
  0x10, 0x00, 0x00, 0x00, 0xbc, 0xfd, 0xff, 0xff, 0x14, 0x00, 0x00, 0x00,
  0x1c, 0x00, 0x00, 0x00, 0x1c, 0x00, 0x00, 0x00, 0x08, 0x00, 0x00, 0x00,
  0x60, 0x00, 0x00, 0x00, 0x02, 0x00, 0x00, 0x00, 0xff, 0xff, 0xff, 0xff,
  0x10, 0x00, 0x00, 0x00, 0xa8, 0xfd, 0xff, 0xff, 0x46, 0x00, 0x00, 0x00,
  0x73, 0x65, 0x71, 0x75, 0x65, 0x6e, 0x74, 0x69, 0x61, 0x6c, 0x2f, 0x64,
  0x65, 0x6e, 0x73, 0x65, 0x2f, 0x4d, 0x61, 0x74, 0x4d, 0x75, 0x6c, 0x3b,
  0x73, 0x65, 0x71, 0x75, 0x65, 0x6e, 0x74, 0x69, 0x61, 0x6c, 0x2f, 0x64,
  0x65, 0x6e, 0x73, 0x65, 0x2f, 0x52, 0x65, 0x6c, 0x75, 0x3b, 0x73, 0x65,
  0x71, 0x75, 0x65, 0x6e, 0x74, 0x69, 0x61, 0x6c, 0x2f, 0x64, 0x65, 0x6e,
  0x73, 0x65, 0x2f, 0x42, 0x69, 0x61, 0x73, 0x41, 0x64, 0x64, 0x00, 0x00,
  0x02, 0x00, 0x00, 0x00, 0x01, 0x00, 0x00, 0x00, 0x10, 0x00, 0x00, 0x00,
  0x96, 0xfe, 0xff, 0xff, 0x10, 0x00, 0x00, 0x00, 0x10, 0x00, 0x00, 0x00,
  0x07, 0x00, 0x00, 0x00, 0x28, 0x00, 0x00, 0x00, 0x18, 0xfe, 0xff, 0xff,
  0x19, 0x00, 0x00, 0x00, 0x73, 0x65, 0x71, 0x75, 0x65, 0x6e, 0x74, 0x69,
  0x61, 0x6c, 0x2f, 0x64, 0x65, 0x6e, 0x73, 0x65, 0x5f, 0x32, 0x2f, 0x4d,
  0x61, 0x74, 0x4d, 0x75, 0x6c, 0x00, 0x00, 0x00, 0x02, 0x00, 0x00, 0x00,
  0x01, 0x00, 0x00, 0x00, 0x10, 0x00, 0x00, 0x00, 0xda, 0xfe, 0xff, 0xff,
  0x10, 0x00, 0x00, 0x00, 0x10, 0x00, 0x00, 0x00, 0x06, 0x00, 0x00, 0x00,
  0x28, 0x00, 0x00, 0x00, 0x5c, 0xfe, 0xff, 0xff, 0x19, 0x00, 0x00, 0x00,
  0x73, 0x65, 0x71, 0x75, 0x65, 0x6e, 0x74, 0x69, 0x61, 0x6c, 0x2f, 0x64,
  0x65, 0x6e, 0x73, 0x65, 0x5f, 0x31, 0x2f, 0x4d, 0x61, 0x74, 0x4d, 0x75,
  0x6c, 0x00, 0x00, 0x00, 0x02, 0x00, 0x00, 0x00, 0x10, 0x00, 0x00, 0x00,
  0x10, 0x00, 0x00, 0x00, 0x1e, 0xff, 0xff, 0xff, 0x10, 0x00, 0x00, 0x00,
  0x10, 0x00, 0x00, 0x00, 0x05, 0x00, 0x00, 0x00, 0x24, 0x00, 0x00, 0x00,
  0xa0, 0xfe, 0xff, 0xff, 0x17, 0x00, 0x00, 0x00, 0x73, 0x65, 0x71, 0x75,
  0x65, 0x6e, 0x74, 0x69, 0x61, 0x6c, 0x2f, 0x64, 0x65, 0x6e, 0x73, 0x65,
  0x2f, 0x4d, 0x61, 0x74, 0x4d, 0x75, 0x6c, 0x00, 0x02, 0x00, 0x00, 0x00,
  0x10, 0x00, 0x00, 0x00, 0x01, 0x00, 0x00, 0x00, 0x5e, 0xff, 0xff, 0xff,
  0x10, 0x00, 0x00, 0x00, 0x10, 0x00, 0x00, 0x00, 0x04, 0x00, 0x00, 0x00,
  0x38, 0x00, 0x00, 0x00, 0xe0, 0xfe, 0xff, 0xff, 0x29, 0x00, 0x00, 0x00,
  0x73, 0x65, 0x71, 0x75, 0x65, 0x6e, 0x74, 0x69, 0x61, 0x6c, 0x2f, 0x64,
  0x65, 0x6e, 0x73, 0x65, 0x5f, 0x31, 0x2f, 0x42, 0x69, 0x61, 0x73, 0x41,
  0x64, 0x64, 0x2f, 0x52, 0x65, 0x61, 0x64, 0x56, 0x61, 0x72, 0x69, 0x61,
  0x62, 0x6c, 0x65, 0x4f, 0x70, 0x00, 0x00, 0x00, 0x01, 0x00, 0x00, 0x00,
  0x10, 0x00, 0x00, 0x00, 0xae, 0xff, 0xff, 0xff, 0x10, 0x00, 0x00, 0x00,
  0x10, 0x00, 0x00, 0x00, 0x03, 0x00, 0x00, 0x00, 0x38, 0x00, 0x00, 0x00,
  0x30, 0xff, 0xff, 0xff, 0x29, 0x00, 0x00, 0x00, 0x73, 0x65, 0x71, 0x75,
  0x65, 0x6e, 0x74, 0x69, 0x61, 0x6c, 0x2f, 0x64, 0x65, 0x6e, 0x73, 0x65,
  0x5f, 0x32, 0x2f, 0x42, 0x69, 0x61, 0x73, 0x41, 0x64, 0x64, 0x2f, 0x52,
  0x65, 0x61, 0x64, 0x56, 0x61, 0x72, 0x69, 0x61, 0x62, 0x6c, 0x65, 0x4f,
  0x70, 0x00, 0x00, 0x00, 0x01, 0x00, 0x00, 0x00, 0x01, 0x00, 0x00, 0x00,
  0x00, 0x00, 0x0e, 0x00, 0x14, 0x00, 0x10, 0x00, 0x00, 0x00, 0x0c, 0x00,
  0x08, 0x00, 0x04, 0x00, 0x0e, 0x00, 0x00, 0x00, 0x10, 0x00, 0x00, 0x00,
  0x10, 0x00, 0x00, 0x00, 0x02, 0x00, 0x00, 0x00, 0x34, 0x00, 0x00, 0x00,
  0x90, 0xff, 0xff, 0xff, 0x27, 0x00, 0x00, 0x00, 0x73, 0x65, 0x71, 0x75,
  0x65, 0x6e, 0x74, 0x69, 0x61, 0x6c, 0x2f, 0x64, 0x65, 0x6e, 0x73, 0x65,
  0x2f, 0x42, 0x69, 0x61, 0x73, 0x41, 0x64, 0x64, 0x2f, 0x52, 0x65, 0x61,
  0x64, 0x56, 0x61, 0x72, 0x69, 0x61, 0x62, 0x6c, 0x65, 0x4f, 0x70, 0x00,
  0x01, 0x00, 0x00, 0x00, 0x10, 0x00, 0x00, 0x00, 0x14, 0x00, 0x18, 0x00,
  0x14, 0x00, 0x00, 0x00, 0x10, 0x00, 0x0c, 0x00, 0x08, 0x00, 0x00, 0x00,
  0x00, 0x00, 0x04, 0x00, 0x14, 0x00, 0x00, 0x00, 0x14, 0x00, 0x00, 0x00,
  0x20, 0x00, 0x00, 0x00, 0x20, 0x00, 0x00, 0x00, 0x01, 0x00, 0x00, 0x00,
  0x3c, 0x00, 0x00, 0x00, 0x02, 0x00, 0x00, 0x00, 0xff, 0xff, 0xff, 0xff,
  0x01, 0x00, 0x00, 0x00, 0x04, 0x00, 0x04, 0x00, 0x04, 0x00, 0x00, 0x00,
  0x1d, 0x00, 0x00, 0x00, 0x73, 0x65, 0x72, 0x76, 0x69, 0x6e, 0x67, 0x5f,
  0x64, 0x65, 0x66, 0x61, 0x75, 0x6c, 0x74, 0x5f, 0x64, 0x65, 0x6e, 0x73,
  0x65, 0x5f, 0x69, 0x6e, 0x70, 0x75, 0x74, 0x3a, 0x30, 0x00, 0x00, 0x00,
  0x02, 0x00, 0x00, 0x00, 0x01, 0x00, 0x00, 0x00, 0x01, 0x00, 0x00, 0x00,
  0x01, 0x00, 0x00, 0x00, 0x10, 0x00, 0x00, 0x00, 0x0c, 0x00, 0x0c, 0x00,
  0x0b, 0x00, 0x00, 0x00, 0x00, 0x00, 0x04, 0x00, 0x0c, 0x00, 0x00, 0x00,
  0x09, 0x00, 0x00, 0x00, 0x00, 0x00, 0x00, 0x09
};
unsigned int custom_model_float_tflite_len = 2972;
