#include "model.h"

unsigned char first_model_activations_tflite[] = {
  0x1c, 0x00, 0x00, 0x00, 0x54, 0x46, 0x4c, 0x33, 0x14, 0x00, 0x20, 0x00,
  0x1c, 0x00, 0x18, 0x00, 0x14, 0x00, 0x10, 0x00, 0x0c, 0x00, 0x00, 0x00,
  0x08, 0x00, 0x04, 0x00, 0x14, 0x00, 0x00, 0x00, 0x1c, 0x00, 0x00, 0x00,
  0x90, 0x00, 0x00, 0x00, 0xe8, 0x00, 0x00, 0x00, 0xbc, 0x0d, 0x00, 0x00,
  0xcc, 0x0d, 0x00, 0x00, 0x1c, 0x12, 0x00, 0x00, 0x03, 0x00, 0x00, 0x00,
  0x01, 0x00, 0x00, 0x00, 0x10, 0x00, 0x00, 0x00, 0x00, 0x00, 0x0a, 0x00,
  0x10, 0x00, 0x0c, 0x00, 0x08, 0x00, 0x04, 0x00, 0x0a, 0x00, 0x00, 0x00,
  0x0c, 0x00, 0x00, 0x00, 0x1c, 0x00, 0x00, 0x00, 0x38, 0x00, 0x00, 0x00,
  0x0f, 0x00, 0x00, 0x00, 0x73, 0x65, 0x72, 0x76, 0x69, 0x6e, 0x67, 0x5f,
  0x64, 0x65, 0x66, 0x61, 0x75, 0x6c, 0x74, 0x00, 0x01, 0x00, 0x00, 0x00,
  0x04, 0x00, 0x00, 0x00, 0x98, 0xff, 0xff, 0xff, 0x07, 0x00, 0x00, 0x00,
  0x04, 0x00, 0x00, 0x00, 0x07, 0x00, 0x00, 0x00, 0x64, 0x65, 0x6e, 0x73,
  0x65, 0x5f, 0x31, 0x00, 0x01, 0x00, 0x00, 0x00, 0x04, 0x00, 0x00, 0x00,
  0x2a, 0xf2, 0xff, 0xff, 0x04, 0x00, 0x00, 0x00, 0x0b, 0x00, 0x00, 0x00,
  0x64, 0x65, 0x6e, 0x73, 0x65, 0x5f, 0x69, 0x6e, 0x70, 0x75, 0x74, 0x00,
  0x02, 0x00, 0x00, 0x00, 0x34, 0x00, 0x00, 0x00, 0x04, 0x00, 0x00, 0x00,
  0xdc, 0xff, 0xff, 0xff, 0x0a, 0x00, 0x00, 0x00, 0x04, 0x00, 0x00, 0x00,
  0x13, 0x00, 0x00, 0x00, 0x43, 0x4f, 0x4e, 0x56, 0x45, 0x52, 0x53, 0x49,
  0x4f, 0x4e, 0x5f, 0x4d, 0x45, 0x54, 0x41, 0x44, 0x41, 0x54, 0x41, 0x00,
  0x08, 0x00, 0x0c, 0x00, 0x08, 0x00, 0x04, 0x00, 0x08, 0x00, 0x00, 0x00,
  0x09, 0x00, 0x00, 0x00, 0x04, 0x00, 0x00, 0x00, 0x13, 0x00, 0x00, 0x00,
  0x6d, 0x69, 0x6e, 0x5f, 0x72, 0x75, 0x6e, 0x74, 0x69, 0x6d, 0x65, 0x5f,
  0x76, 0x65, 0x72, 0x73, 0x69, 0x6f, 0x6e, 0x00, 0x0b, 0x00, 0x00, 0x00,
  0xd0, 0x0c, 0x00, 0x00, 0xc8, 0x0c, 0x00, 0x00, 0x90, 0x0c, 0x00, 0x00,
  0x58, 0x0c, 0x00, 0x00, 0x48, 0x02, 0x00, 0x00, 0xa8, 0x00, 0x00, 0x00,
  0xa0, 0x00, 0x00, 0x00, 0x98, 0x00, 0x00, 0x00, 0x90, 0x00, 0x00, 0x00,
  0x70, 0x00, 0x00, 0x00, 0x04, 0x00, 0x00, 0x00, 0xce, 0xf2, 0xff, 0xff,
  0x04, 0x00, 0x00, 0x00, 0x5c, 0x00, 0x00, 0x00, 0x0c, 0x00, 0x00, 0x00,
  0x08, 0x00, 0x0e, 0x00, 0x08, 0x00, 0x04, 0x00, 0x08, 0x00, 0x00, 0x00,
  0x14, 0x00, 0x00, 0x00, 0x2c, 0x00, 0x00, 0x00, 0x00, 0x00, 0x0a, 0x00,
  0x0c, 0x00, 0x08, 0x00, 0x00, 0x00, 0x07, 0x00, 0x0a, 0x00, 0x00, 0x00,
  0x00, 0x00, 0x00, 0x01, 0x04, 0x00, 0x00, 0x00, 0x00, 0x00, 0x00, 0x00,
  0x00, 0x00, 0x0a, 0x00, 0x10, 0x00, 0x0c, 0x00, 0x08, 0x00, 0x04, 0x00,
  0x0a, 0x00, 0x00, 0x00, 0x01, 0x00, 0x00, 0x00, 0x02, 0x00, 0x00, 0x00,
  0x04, 0x00, 0x00, 0x00, 0x06, 0x00, 0x00, 0x00, 0x32, 0x2e, 0x31, 0x31,
  0x2e, 0x30, 0x00, 0x00, 0x36, 0xf3, 0xff, 0xff, 0x04, 0x00, 0x00, 0x00,
  0x10, 0x00, 0x00, 0x00, 0x31, 0x2e, 0x35, 0x2e, 0x30, 0x00, 0x00, 0x00,
  0x00, 0x00, 0x00, 0x00, 0x00, 0x00, 0x00, 0x00, 0xac, 0xef, 0xff, 0xff,
  0xb0, 0xef, 0xff, 0xff, 0xb4, 0xef, 0xff, 0xff, 0x5e, 0xf3, 0xff, 0xff,
  0x04, 0x00, 0x00, 0x00, 0x90, 0x01, 0x00, 0x00, 0xfe, 0xe5, 0x07, 0xc0,
  0x12, 0xc2, 0xa3, 0xbf, 0xc7, 0x47, 0x04, 0xbf, 0xc1, 0xa8, 0x28, 0xbf,
  0xd5, 0xad, 0xa0, 0x3f, 0xb8, 0x02, 0x82, 0x3f, 0xa9, 0xae, 0x90, 0xbe,
  0x8d, 0xe9, 0x7c, 0xbe, 0x12, 0x87, 0xdc, 0xbd, 0xb1, 0x13, 0x39, 0xbe,
  0x34, 0xb2, 0xcd, 0x3f, 0xd0, 0xc1, 0x61, 0xbf, 0xdc, 0xd2, 0x6d, 0x3f,
  0xc1, 0xf5, 0x63, 0x3e, 0x86, 0x20, 0x88, 0x3c, 0xdf, 0x6b, 0xca, 0x3e,
  0x2f, 0x3e, 0x04, 0x3f, 0x3f, 0x71, 0x96, 0x3e, 0xcc, 0x89, 0x01, 0x3e,
  0xb3, 0xc0, 0x93, 0xbe, 0x08, 0xde, 0xde, 0x3f, 0x22, 0xc4, 0x8d, 0x3f,
  0xa6, 0x9d, 0xb1, 0x3e, 0xe4, 0xda, 0x8e, 0xbf, 0x13, 0xe9, 0x9a, 0xbf,
  0xee, 0xc7, 0xba, 0x3c, 0x26, 0x1a, 0xc1, 0xbe, 0x5d, 0x35, 0x92, 0x3e,
  0x3d, 0x44, 0x61, 0x3f, 0x86, 0x3e, 0x62, 0x3d, 0xb5, 0x2c, 0x53, 0x3f,
  0x2d, 0x9c, 0xa6, 0x3f, 0x8b, 0xdc, 0x3b, 0xbf, 0xf6, 0x20, 0xa4, 0x3f,
  0xea, 0x6c, 0x9d, 0xbf, 0x5e, 0x02, 0x96, 0xbf, 0x49, 0x6c, 0x86, 0xbe,
  0xc6, 0xfd, 0x5b, 0x3f, 0xfe, 0x4b, 0x04, 0xbf, 0xe7, 0x01, 0x75, 0xbc,
  0x18, 0x4a, 0x7b, 0xbf, 0x6a, 0x63, 0x20, 0xbf, 0x49, 0xf2, 0x8a, 0x3f,
  0x82, 0xc9, 0xc3, 0xbf, 0x69, 0xb4, 0x01, 0x3f, 0x66, 0x5b, 0x24, 0xbe,
  0x8d, 0xf0, 0x0a, 0x3f, 0x51, 0x09, 0xf2, 0xbc, 0x72, 0xe1, 0xe4, 0xbe,
  0x3c, 0xc9, 0xe4, 0x3e, 0xd5, 0xb9, 0x1d, 0xbf, 0x3f, 0x4c, 0x42, 0xbf,
  0x1f, 0xff, 0x8a, 0xbf, 0x40, 0xc8, 0xe0, 0x3f, 0x8d, 0x22, 0xdc, 0xbe,
  0x2a, 0xf9, 0x4d, 0x3e, 0xa1, 0xf2, 0xad, 0x3e, 0x8b, 0x19, 0x8b, 0x3e,
  0x00, 0xc4, 0x71, 0x3b, 0x3d, 0x79, 0xd6, 0xbe, 0x90, 0x0f, 0x95, 0x3f,
  0x0f, 0xde, 0x01, 0xc0, 0xee, 0x71, 0xda, 0xbf, 0x1b, 0xa2, 0x78, 0xbf,
  0x2b, 0x4e, 0xbe, 0x3f, 0xcc, 0xe3, 0x5e, 0x3e, 0x8c, 0xf1, 0xda, 0xbe,
  0xd6, 0xc1, 0x19, 0x3f, 0x3a, 0x5d, 0x48, 0xbd, 0x41, 0x96, 0xa7, 0xbe,
  0x43, 0x3e, 0xdf, 0xbf, 0x58, 0xdc, 0x7c, 0x3f, 0x18, 0xa1, 0xd6, 0x3f,
  0x8d, 0x0f, 0x88, 0xbe, 0x70, 0x00, 0xd6, 0xbf, 0x15, 0xd0, 0x16, 0xbf,
  0x3b, 0x95, 0x33, 0xbe, 0x08, 0xd1, 0x3a, 0xbe, 0x2e, 0x88, 0x0b, 0x3e,
  0xaa, 0x17, 0xd3, 0x3e, 0x8e, 0xef, 0x8f, 0x3f, 0x85, 0x15, 0x73, 0x3f,
  0xb5, 0xd9, 0xf0, 0xbe, 0x71, 0x10, 0x18, 0x3f, 0xa4, 0xa8, 0x78, 0x3f,
  0x16, 0xef, 0x0c, 0xbf, 0x96, 0x56, 0xa2, 0xb9, 0x20, 0xa7, 0x86, 0xbf,
  0xe6, 0x20, 0x27, 0x3f, 0xd4, 0x8e, 0x85, 0x3e, 0xb9, 0xcf, 0x5e, 0xbf,
  0x23, 0x16, 0xa7, 0x3f, 0x89, 0x7d, 0x34, 0x3e, 0xd1, 0xe8, 0x2b, 0x3f,
  0x90, 0x5e, 0xe7, 0x3e, 0x9d, 0xb1, 0xf5, 0x3e, 0x20, 0x1b, 0x9d, 0x3e,
  0x7a, 0xbd, 0x61, 0xbf, 0x7f, 0xab, 0x14, 0xbf, 0x1f, 0xdc, 0x74, 0x3e,
  0xfa, 0xf4, 0xff, 0xff, 0x04, 0x00, 0x00, 0x00, 0x00, 0x0a, 0x00, 0x00,
  0xcd, 0x85, 0xd7, 0x3c, 0x80, 0xc6, 0x01, 0xbe, 0x63, 0x10, 0x17, 0xbe,
  0x23, 0x5a, 0xa5, 0xbd, 0xa9, 0xdc, 0x03, 0xbf, 0x97, 0xaa, 0x0f, 0x3f,
  0x46, 0xef, 0xd1, 0xbe, 0xa7, 0x72, 0x8c, 0xbe, 0xa0, 0x03, 0x05, 0xbe,
  0xf6, 0xa7, 0x8c, 0x3d, 0xa1, 0x97, 0x0c, 0xbf, 0x98, 0x81, 0xdd, 0xbe,
  0x66, 0xfd, 0x4a, 0x3e, 0x2b, 0xf8, 0xd3, 0x3e, 0x9f, 0x31, 0x08, 0x3e,
  0xd1, 0x1a, 0x34, 0xbf, 0x85, 0x91, 0x59, 0x3e, 0x8f, 0x79, 0xce, 0xbd,
  0x17, 0x0f, 0x05, 0x3e, 0x4f, 0x54, 0xea, 0x3d, 0xd9, 0x29, 0x3a, 0x3f,
  0x7f, 0xa8, 0xfe, 0xbe, 0x07, 0x5c, 0x46, 0x3f, 0x22, 0x72, 0x51, 0xbe,
  0x20, 0x20, 0x05, 0xbd, 0x71, 0x00, 0x77, 0xbd, 0x11, 0x19, 0x0f, 0xbf,
  0x45, 0x43, 0x5d, 0xbe, 0x21, 0xc5, 0xde, 0xba, 0x18, 0x36, 0xc7, 0xbe,
  0x58, 0x1c, 0x4e, 0xbf, 0xe4, 0xf6, 0xe0, 0xbc, 0x22, 0xf6, 0xef, 0x3c,
  0x18, 0x90, 0x3d, 0x3e, 0x2c, 0xd8, 0xb6, 0xbe, 0xc7, 0xe0, 0xaf, 0x3e,
  0xf4, 0x7d, 0x14, 0x3f, 0x3b, 0x43, 0xe0, 0xbc, 0x40, 0x3d, 0x92, 0xbf,
  0x35, 0x3b, 0x16, 0xbc, 0x86, 0x35, 0xb7, 0xbd, 0x9f, 0x36, 0x07, 0xbf,
  0xb3, 0xd1, 0xf0, 0x3e, 0x58, 0xee, 0x70, 0x3f, 0x05, 0x6d, 0x01, 0xbe,
  0x67, 0xca, 0xc4, 0xbf, 0x60, 0x33, 0x8d, 0xbe, 0x70, 0x44, 0x6f, 0x3d,
  0x8d, 0xcc, 0x64, 0xbd, 0x2b, 0x0c, 0x1a, 0x3e, 0x32, 0xf5, 0x85, 0x3e,
  0x35, 0xeb, 0xfc, 0x3c, 0xad, 0x39, 0x31, 0x3f, 0x4b, 0x3c, 0xd8, 0x3f,
  0x82, 0xc2, 0x09, 0x3f, 0x72, 0xa6, 0xcb, 0xbc, 0xf3, 0x3f, 0xee, 0x3d,
  0xe0, 0xaa, 0x5f, 0x3e, 0xd6, 0x1f, 0x79, 0xbe, 0xd1, 0x49, 0x50, 0x3e,
  0x27, 0xcf, 0xb1, 0x3e, 0x50, 0xe3, 0x30, 0x3f, 0x9b, 0x01, 0x5d, 0x3e,
  0x99, 0xe3, 0x92, 0x3f, 0x5f, 0x43, 0x62, 0x3c, 0xd8, 0x4f, 0x2a, 0xbd,
  0xf5, 0x3f, 0xbe, 0xbe, 0xd4, 0x15, 0xec, 0x3e, 0x5c, 0x07, 0xf2, 0x3e,
  0x1b, 0xa2, 0x0e, 0xbd, 0xf6, 0xfc, 0x00, 0xbf, 0xd7, 0x37, 0x68, 0x3e,
  0xda, 0x7f, 0xab, 0xbd, 0x1e, 0x4b, 0x02, 0x3f, 0x13, 0xeb, 0xac, 0x3f,
  0xd8, 0x41, 0xa7, 0x3d, 0xab, 0x13, 0xe3, 0x3c, 0x0d, 0x9e, 0x4d, 0x3c,
  0xe8, 0x19, 0x1d, 0x3f, 0xa4, 0xd3, 0x53, 0x3d, 0xa5, 0xac, 0x04, 0x3d,
  0x08, 0xf6, 0x7b, 0xbe, 0x21, 0x7b, 0x2d, 0xbf, 0x19, 0xa5, 0x70, 0xbf,
  0x55, 0x56, 0x75, 0x3f, 0x82, 0x38, 0x97, 0x3f, 0x91, 0xdb, 0x28, 0x3f,
  0xf5, 0xc1, 0x8c, 0x3d, 0xc0, 0xde, 0x72, 0x3c, 0xa4, 0x50, 0x23, 0xbf,
  0xed, 0x5b, 0x08, 0xbf, 0xa4, 0xe1, 0xd9, 0xbc, 0x99, 0xf7, 0xc2, 0xbc,
  0x68, 0x4e, 0x29, 0x3e, 0xe5, 0xab, 0xc2, 0xbe, 0x0d, 0xc3, 0x31, 0xbd,
  0x7d, 0xda, 0x2d, 0x3b, 0x39, 0x7a, 0xac, 0xbf, 0xfa, 0x56, 0xb8, 0xbe,
  0x43, 0x2d, 0x0d, 0x3f, 0x20, 0x17, 0xb8, 0x3c, 0x50, 0x9c, 0x02, 0xbf,
  0x13, 0xb6, 0xed, 0xbe, 0x38, 0x7d, 0x57, 0x3d, 0x76, 0xd8, 0xb6, 0x3c,
  0x6e, 0x2e, 0x9b, 0x3e, 0xd9, 0x18, 0x15, 0xbf, 0x78, 0x1a, 0xb6, 0xbe,
  0xa0, 0xdc, 0x83, 0xbf, 0x0f, 0xe3, 0x47, 0xbe, 0x3b, 0x1c, 0x38, 0x3c,
  0x0e, 0x33, 0xfd, 0x3d, 0x42, 0x70, 0x83, 0x3d, 0xbf, 0xef, 0xe9, 0x3c,
  0x46, 0xb1, 0xa1, 0xbd, 0x72, 0x6a, 0x9d, 0xbe, 0x0f, 0x9b, 0x84, 0x3e,
  0xd1, 0x36, 0x93, 0x3e, 0x42, 0x3e, 0x0a, 0x3f, 0x66, 0xe3, 0xdd, 0xbd,
  0xbe, 0xfa, 0xe7, 0x3d, 0xa0, 0x6b, 0x28, 0x3d, 0x04, 0xaa, 0x0a, 0x3e,
  0x3c, 0xbc, 0x5c, 0x3d, 0x66, 0xd5, 0x4d, 0x3e, 0xfa, 0xd1, 0xab, 0x3d,
  0xbf, 0xcd, 0x30, 0x3f, 0x7b, 0xa4, 0xba, 0xbe, 0x28, 0x6c, 0x85, 0xbc,
  0x22, 0x9b, 0xab, 0x3d, 0xc0, 0xb1, 0x9c, 0xbe, 0xc7, 0x18, 0xfe, 0x3d,
  0x10, 0x56, 0x90, 0xbe, 0x4c, 0xa0, 0x96, 0x3e, 0xa0, 0x03, 0xaa, 0x3e,
  0x3c, 0xcf, 0xa3, 0xbc, 0xc7, 0x9b, 0x4c, 0x3d, 0xa4, 0xe2, 0xaa, 0x3c,
  0x3c, 0xac, 0x4d, 0xbe, 0xe4, 0x46, 0xff, 0xbd, 0x05, 0x68, 0x94, 0x3e,
  0x31, 0xef, 0x6b, 0xbe, 0x61, 0x60, 0x98, 0x3d, 0x6b, 0x61, 0x0d, 0xbe,
  0xff, 0xa5, 0x2e, 0xbd, 0x40, 0x03, 0xd7, 0x3d, 0x75, 0x7d, 0x35, 0xbe,
  0xb3, 0x94, 0x82, 0x3e, 0x08, 0x01, 0x56, 0x3f, 0xb4, 0x6f, 0xd7, 0x3d,
  0xed, 0xe7, 0x93, 0x3d, 0xaa, 0x57, 0x23, 0x3e, 0xf5, 0x1f, 0xbf, 0x3c,
  0x64, 0x33, 0x8e, 0xbe, 0x02, 0xbb, 0x31, 0x3f, 0xb7, 0xa3, 0x61, 0xbe,
  0x30, 0xdf, 0x32, 0x3f, 0x56, 0x98, 0x99, 0x3e, 0x08, 0x62, 0xb6, 0x3e,
  0x38, 0xec, 0x8c, 0x3c, 0xfe, 0x77, 0x0c, 0xbe, 0xfe, 0x32, 0x18, 0x3e,
  0xcc, 0x0a, 0xc8, 0x3e, 0xfa, 0xeb, 0x4a, 0xbe, 0xf6, 0x36, 0x62, 0x3f,
  0x6f, 0x9a, 0x56, 0x3f, 0x4c, 0x94, 0x62, 0x3e, 0x43, 0xe2, 0x97, 0x3c,
  0x61, 0x99, 0xaa, 0x3d, 0xd3, 0x14, 0xa6, 0x3e, 0x70, 0xa2, 0x36, 0xbe,
  0xf0, 0x46, 0x1e, 0x3f, 0xbf, 0x64, 0x84, 0x3f, 0x17, 0xf6, 0x8c, 0xbe,
  0xa2, 0x9b, 0x02, 0xbf, 0xe3, 0x2a, 0xf4, 0xbc, 0xde, 0x43, 0x73, 0x3d,
  0xcd, 0xf1, 0x07, 0x3f, 0xf4, 0xc8, 0x19, 0xbf, 0x7e, 0x6f, 0x67, 0x3e,
  0x68, 0xd5, 0x05, 0xbf, 0x15, 0xb8, 0x7b, 0xbf, 0xbd, 0x4b, 0x52, 0xbf,
  0x20, 0x70, 0x8a, 0xbe, 0x38, 0xbd, 0x19, 0x3c, 0x36, 0xc6, 0x64, 0xbe,
  0xf5, 0x99, 0xa6, 0xbe, 0x54, 0x90, 0x4f, 0xbf, 0x0f, 0x42, 0xb6, 0xbe,
  0xf7, 0xbb, 0x83, 0xbe, 0x44, 0x3e, 0xc7, 0xbe, 0x4e, 0xb7, 0xaa, 0xbd,
  0x48, 0x4d, 0xd9, 0xbb, 0xc3, 0xe8, 0x55, 0x3e, 0xf8, 0x7f, 0x7d, 0x3e,
  0x8a, 0x34, 0xe7, 0xbd, 0x97, 0x0c, 0xf0, 0x3e, 0x73, 0x40, 0x99, 0x3f,
  0x08, 0x31, 0x77, 0x3f, 0x7f, 0x96, 0x0e, 0xbe, 0xfa, 0xa2, 0x50, 0x3c,
  0x83, 0x0f, 0x88, 0xbe, 0xc4, 0x83, 0x85, 0x3e, 0x3e, 0x5f, 0x85, 0x3e,
  0x17, 0x4e, 0xc0, 0xbd, 0x91, 0x35, 0x31, 0x3d, 0x16, 0x29, 0x38, 0x3e,
  0xf8, 0x90, 0x3a, 0xbd, 0x46, 0x69, 0xd4, 0xbc, 0xb3, 0x4d, 0x9b, 0x3e,
  0x7e, 0x7e, 0xe2, 0xbe, 0x34, 0xc3, 0xc2, 0x3e, 0x76, 0xcf, 0xa5, 0xbe,
  0x64, 0xc6, 0x67, 0xbf, 0xc2, 0xe9, 0xa3, 0xbe, 0x44, 0xcb, 0x95, 0xbd,
  0x57, 0xff, 0x02, 0xbe, 0x7e, 0xec, 0x94, 0xbd, 0xa7, 0xdf, 0xaa, 0xbb,
  0xc3, 0x18, 0x53, 0x3f, 0x6d, 0x99, 0x4d, 0x3f, 0xb7, 0xc9, 0x9c, 0xbc,
  0xfc, 0x46, 0x09, 0xbf, 0xa1, 0x09, 0xcc, 0xbd, 0x23, 0xde, 0x54, 0xbd,
  0x7e, 0x0c, 0x56, 0xbe, 0x62, 0x0c, 0x2b, 0x3e, 0xc6, 0x0a, 0x30, 0x3d,
  0x2d, 0x88, 0x51, 0x3e, 0x36, 0x08, 0x56, 0xbe, 0x76, 0x06, 0x38, 0x3d,
  0x90, 0x2c, 0xb1, 0xbd, 0xcb, 0x73, 0x42, 0xbd, 0x3e, 0x94, 0xbf, 0xbe,
  0x3f, 0x9b, 0x76, 0xbf, 0xe6, 0xd7, 0x71, 0xbf, 0x4b, 0xac, 0xd9, 0x3e,
  0x3f, 0x6b, 0xe6, 0x3e, 0x6b, 0x2d, 0x1c, 0x3d, 0x51, 0x1e, 0xeb, 0xbd,
  0xc6, 0x0b, 0x82, 0xbd, 0xf6, 0xce, 0x9a, 0xbd, 0x40, 0x36, 0x43, 0xbe,
  0x79, 0x55, 0x10, 0xbf, 0xcd, 0x2c, 0xf3, 0xbe, 0x88, 0xef, 0xfe, 0xbd,
  0xe1, 0x16, 0x8e, 0xbe, 0x87, 0x29, 0x38, 0x3e, 0x9f, 0x31, 0x4c, 0xbd,
  0x8f, 0x6d, 0x27, 0xbd, 0x3b, 0xf6, 0x8f, 0x3e, 0x39, 0xe1, 0xaa, 0x3e,
  0x92, 0x7c, 0x88, 0xbe, 0xbf, 0x14, 0x2a, 0xbe, 0x7a, 0x13, 0x9d, 0xbe,
  0x88, 0x05, 0x0f, 0x3e, 0x88, 0xb1, 0x5f, 0xbc, 0x25, 0xb6, 0x05, 0xbf,
  0x98, 0x47, 0x28, 0xbe, 0xfd, 0x64, 0xe1, 0xbe, 0x6e, 0x8b, 0x17, 0xbc,
  0xaf, 0x66, 0xd2, 0xbe, 0x0d, 0x6c, 0xf6, 0xbe, 0x24, 0xc1, 0x1f, 0xbe,
  0xa3, 0xb5, 0x03, 0x3e, 0xe5, 0xd9, 0x54, 0xbe, 0xec, 0xec, 0x20, 0x3c,
  0x7e, 0x57, 0x14, 0xbe, 0xfb, 0x2c, 0x6b, 0xbf, 0x9e, 0xb0, 0x7c, 0x3e,
  0xb1, 0x1f, 0x4b, 0x3e, 0x03, 0x23, 0xc9, 0xbc, 0x5a, 0x84, 0x04, 0xbe,
  0x8f, 0x45, 0x63, 0x3e, 0x74, 0x3f, 0x5a, 0x3f, 0xf5, 0xab, 0xd5, 0x3e,
  0x6f, 0x74, 0x85, 0xbe, 0xfc, 0x11, 0xf3, 0x3e, 0x58, 0x5f, 0x60, 0x3d,
  0x0b, 0x36, 0x4a, 0x3d, 0x7b, 0x35, 0x91, 0xbc, 0x62, 0x9a, 0xb9, 0x3c,
  0x43, 0xa9, 0x40, 0x3f, 0x91, 0x2b, 0x7f, 0x3f, 0xf3, 0xc4, 0xb7, 0x3c,
  0x66, 0x83, 0x37, 0xbd, 0x67, 0x18, 0x44, 0x3e, 0x8f, 0xe0, 0xb4, 0x3c,
  0x03, 0x5b, 0xa4, 0x3d, 0x90, 0xf8, 0xd2, 0x3d, 0xdc, 0x80, 0x84, 0x3e,
  0x67, 0x00, 0x6a, 0x3e, 0x95, 0x88, 0x9d, 0xbd, 0xfb, 0x9d, 0x92, 0xbd,
  0xe1, 0xff, 0xcb, 0xbd, 0xcf, 0x1d, 0xef, 0xbc, 0x14, 0x12, 0x40, 0x3c,
  0xd1, 0x37, 0x85, 0x3e, 0x90, 0x83, 0x72, 0x3f, 0x2a, 0xbe, 0xc1, 0x3e,
  0xc3, 0xb9, 0x55, 0x3f, 0x37, 0xd4, 0x1a, 0x3e, 0x12, 0xc4, 0xd4, 0x3e,
  0xbc, 0xfa, 0x5a, 0x3e, 0x5a, 0xf1, 0xa9, 0x3c, 0x59, 0x7e, 0xa8, 0x3b,
  0xce, 0x45, 0x90, 0x3e, 0x38, 0xcf, 0x3f, 0xbf, 0x17, 0x11, 0x1d, 0xbf,
  0x2c, 0xdd, 0x3e, 0x3e, 0xfa, 0x6b, 0x15, 0x3e, 0x35, 0xa7, 0xbc, 0xbc,
  0xb5, 0x18, 0xff, 0xbc, 0xdf, 0xa6, 0xa5, 0xbe, 0xfc, 0x5c, 0xfa, 0xbe,
  0x29, 0xdf, 0x73, 0xbe, 0x40, 0x0c, 0x90, 0x3e, 0x06, 0x92, 0xd3, 0xbe,
  0x95, 0xcc, 0x2f, 0xbf, 0x4b, 0x80, 0xbd, 0xbe, 0x93, 0x96, 0xcc, 0xbd,
  0xfb, 0xce, 0xc8, 0xbc, 0x75, 0xbe, 0x46, 0x3e, 0x49, 0x77, 0x44, 0x3e,
  0xa6, 0x66, 0x5d, 0xbe, 0xfb, 0x44, 0x80, 0xbe, 0xe5, 0x9f, 0x38, 0xbc,
  0xf9, 0x68, 0x6c, 0xbd, 0xff, 0x19, 0x95, 0x3c, 0x7a, 0xbf, 0xd8, 0xbd,
  0x49, 0x94, 0x15, 0x3e, 0x86, 0x17, 0x91, 0xbc, 0xfd, 0xe1, 0x5b, 0x3e,
  0xd5, 0x20, 0x28, 0x3e, 0xd9, 0xeb, 0x09, 0xbe, 0xe1, 0xd4, 0xa5, 0xbd,
  0x0f, 0x09, 0x28, 0xbd, 0x4c, 0x35, 0xef, 0x3d, 0x79, 0x7e, 0xd2, 0x3e,
  0xdc, 0xc1, 0xee, 0x3d, 0x88, 0x5b, 0x43, 0xbe, 0xe7, 0x46, 0x13, 0x3f,
  0xb2, 0x36, 0x45, 0x3e, 0xad, 0xac, 0x50, 0xbd, 0x1a, 0x82, 0x99, 0xbd,
  0xd2, 0x48, 0x9e, 0x3e, 0xaf, 0x7e, 0x4e, 0x3e, 0x46, 0x38, 0x84, 0xbd,
  0xa9, 0x89, 0xff, 0xbe, 0x3a, 0x8e, 0x9b, 0x3e, 0xb4, 0xf3, 0xc0, 0x3e,
  0x66, 0x5f, 0xf7, 0x3c, 0xd7, 0x4e, 0xa5, 0xbc, 0x15, 0xbc, 0x03, 0x3e,
  0xaa, 0x22, 0xcb, 0x3d, 0xba, 0x12, 0x82, 0xbe, 0xf4, 0x5c, 0x87, 0xbf,
  0xd3, 0xa8, 0x66, 0xbd, 0xfd, 0x38, 0x89, 0x3c, 0x27, 0xe0, 0x08, 0x3c,
  0x57, 0x0a, 0x3d, 0xbb, 0x59, 0xf1, 0x72, 0xbe, 0xd6, 0x32, 0x47, 0xbe,
  0x9b, 0x3c, 0xc4, 0xbe, 0x32, 0xd6, 0x96, 0xbe, 0xc3, 0xa1, 0xfa, 0xbd,
  0x05, 0x8f, 0x2a, 0xbe, 0xc4, 0xc7, 0x10, 0x3c, 0x84, 0xbc, 0x90, 0x3d,
  0xa4, 0x82, 0x5d, 0xbe, 0x39, 0x16, 0x0f, 0xbe, 0x1d, 0x53, 0x3f, 0xbe,
  0x12, 0x81, 0x42, 0x3e, 0x04, 0xf6, 0xa1, 0x39, 0xb7, 0x0b, 0x07, 0x3e,
  0xb6, 0x8a, 0x87, 0x3e, 0x16, 0xcf, 0x39, 0xbc, 0xf7, 0x2b, 0xd8, 0x3c,
  0x0b, 0xfe, 0x0d, 0x3e, 0xe0, 0x2d, 0x36, 0x3e, 0xc1, 0xc5, 0x3a, 0x3e,
  0xd6, 0xa0, 0x13, 0x3c, 0xb7, 0x95, 0xe9, 0x3e, 0x08, 0x0f, 0x9f, 0xbd,
  0x3d, 0x78, 0x98, 0x3c, 0x55, 0xb6, 0x6f, 0x3d, 0xb4, 0x7b, 0x1e, 0x3d,
  0xeb, 0x52, 0x94, 0xbc, 0x82, 0xf7, 0x95, 0xbd, 0x6a, 0x3f, 0x90, 0xbc,
  0xd1, 0xba, 0x5c, 0xbd, 0xdb, 0xa5, 0x77, 0x3d, 0xf4, 0x3b, 0x8e, 0xbd,
  0xa8, 0xb5, 0x02, 0xbd, 0xe5, 0x3a, 0x50, 0xbd, 0xd2, 0x41, 0xae, 0x3c,
  0x5f, 0xdb, 0x29, 0xbe, 0x75, 0x78, 0x61, 0xbe, 0x49, 0xac, 0x86, 0xbd,
  0x48, 0x1d, 0x4f, 0x3c, 0x0e, 0xd0, 0x04, 0x3e, 0xd2, 0x46, 0xae, 0x3d,
  0x47, 0xa0, 0x3a, 0x3e, 0x47, 0xa2, 0xdb, 0x3e, 0x08, 0x72, 0x43, 0x3e,
  0xa2, 0xa3, 0xd7, 0xbd, 0xd6, 0xae, 0x68, 0xbd, 0x64, 0x6b, 0x04, 0x3d,
  0x0c, 0x7e, 0x0c, 0x3e, 0x0f, 0x5f, 0xd1, 0x3c, 0x7a, 0x72, 0x32, 0x3e,
  0x38, 0x85, 0xb0, 0x3e, 0x84, 0x0d, 0xb6, 0x3e, 0x40, 0x71, 0x0a, 0xbe,
  0x48, 0x00, 0xde, 0x3c, 0xb5, 0x8e, 0x32, 0x3d, 0x55, 0x4e, 0xc2, 0x3b,
  0x2e, 0x38, 0x01, 0x3e, 0x0f, 0x5e, 0xb5, 0x3c, 0xf0, 0xaa, 0xe4, 0x3c,
  0x1c, 0xdc, 0x4f, 0x3e, 0xdc, 0x5a, 0x20, 0xbd, 0x37, 0x8d, 0x67, 0xbd,
  0x23, 0xe7, 0xdb, 0xbc, 0x51, 0x9c, 0xbe, 0x3c, 0x2e, 0x40, 0xda, 0x3d,
  0x14, 0x6c, 0x39, 0xbd, 0x79, 0x9b, 0x56, 0x3e, 0xcb, 0x58, 0x9a, 0x3e,
  0x9c, 0x2c, 0xfd, 0xbd, 0x0d, 0xa8, 0x71, 0xbe, 0x74, 0xa7, 0xc0, 0xbc,
  0x3f, 0x2f, 0xcd, 0xbc, 0x22, 0x3f, 0x19, 0x3e, 0x65, 0xe1, 0x52, 0xbd,
  0x13, 0xf4, 0x18, 0x3d, 0x0d, 0x9b, 0x85, 0x3e, 0xa8, 0xa9, 0x92, 0xbe,
  0x6e, 0xd6, 0x9c, 0xbe, 0x7f, 0x67, 0x2f, 0x3e, 0x47, 0x3a, 0xbd, 0xbc,
  0xa6, 0xa0, 0xe1, 0xbc, 0x89, 0x8c, 0x3d, 0x3d, 0x44, 0x3a, 0x63, 0x3d,
  0x35, 0xa5, 0x76, 0x3d, 0x99, 0x80, 0x4c, 0xbe, 0xe7, 0x19, 0x5b, 0xbd,
  0x1e, 0x60, 0xea, 0x3c, 0xd1, 0x16, 0x3b, 0x3d, 0xa8, 0xf8, 0x13, 0x3e,
  0xc8, 0x22, 0xf7, 0xbd, 0xbb, 0x9a, 0x50, 0x3e, 0x6b, 0x26, 0xea, 0x3e,
  0x91, 0x70, 0xba, 0x3d, 0x39, 0x0d, 0x9a, 0xbd, 0x14, 0xed, 0xab, 0xbd,
  0x83, 0x64, 0xe6, 0xbd, 0xac, 0x9e, 0x32, 0xbd, 0xc9, 0x69, 0xa1, 0xbe,
  0xe6, 0xcb, 0xc1, 0xbd, 0x44, 0xe0, 0x0e, 0xbe, 0x44, 0x5f, 0xb3, 0xbe,
  0x95, 0x03, 0x43, 0xbe, 0xc4, 0x55, 0x51, 0xbd, 0xc3, 0xcb, 0xbf, 0x3d,
  0x16, 0x6f, 0x37, 0xbe, 0xb1, 0xe2, 0x7d, 0xbe, 0x13, 0x95, 0xc2, 0xbe,
  0xfc, 0xbe, 0x93, 0xbe, 0x51, 0xcc, 0x37, 0xbf, 0x5f, 0xc1, 0x95, 0xbe,
  0x6b, 0xb5, 0x5a, 0xbd, 0x1e, 0xc2, 0x1c, 0x3e, 0xc0, 0xb3, 0x82, 0xbe,
  0x05, 0xa5, 0x21, 0xbe, 0xa2, 0xa7, 0xdb, 0xbe, 0xec, 0xdf, 0x14, 0x3d,
  0x1a, 0xc8, 0x03, 0xbf, 0xa7, 0xc9, 0xd2, 0xbe, 0xe0, 0x49, 0x74, 0xbc,
  0xab, 0xb7, 0xb6, 0xbd, 0x11, 0x87, 0xe1, 0x3d, 0x08, 0xa6, 0x89, 0x3c,
  0x21, 0x40, 0x42, 0xbe, 0x46, 0x80, 0x18, 0x3e, 0x1a, 0xf9, 0xe0, 0x3c,
  0x34, 0x2a, 0x2f, 0x3e, 0x34, 0xba, 0x29, 0xbb, 0x31, 0xfb, 0xf5, 0x3c,
  0x79, 0xb9, 0xfe, 0xbd, 0xa9, 0x73, 0xfb, 0x3c, 0x5b, 0x23, 0x1c, 0xbe,
  0xa2, 0x26, 0xd5, 0xbd, 0xd5, 0xb4, 0xd2, 0x3b, 0xaf, 0x9f, 0xb2, 0x3e,
  0x70, 0xda, 0x23, 0xbd, 0x1f, 0xa2, 0x98, 0x3b, 0x16, 0xdf, 0x7f, 0x3b,
  0xd1, 0x2e, 0x87, 0x3e, 0x20, 0xa8, 0xc2, 0x3e, 0x6f, 0x8f, 0x52, 0x3e,
  0xd9, 0x05, 0x0f, 0x3e, 0x15, 0x7d, 0xf0, 0x3d, 0x2e, 0xad, 0x89, 0xbd,
  0x93, 0xe3, 0x89, 0xbd, 0xd9, 0x4a, 0xb3, 0x3d, 0xd8, 0xce, 0x36, 0x3e,
  0x61, 0xb2, 0x9f, 0x3d, 0x14, 0x2f, 0xd5, 0x3d, 0x6a, 0x60, 0x72, 0x3d,
  0xea, 0x90, 0x23, 0xbd, 0x3f, 0xd6, 0x12, 0x3e, 0x52, 0xef, 0x8e, 0x3c,
  0xff, 0x2f, 0x11, 0x3e, 0xf7, 0xfe, 0xe7, 0x3d, 0xc3, 0x01, 0x65, 0xbb,
  0x38, 0x64, 0x52, 0xbd, 0xc7, 0x81, 0x8d, 0xbd, 0x0b, 0x19, 0x10, 0xbe,
  0x08, 0x91, 0x2c, 0x3c, 0x19, 0xd2, 0x07, 0xbb, 0x70, 0x0c, 0x62, 0xbd,
  0xdb, 0xdd, 0x40, 0x3e, 0x6f, 0xd1, 0xca, 0x3d, 0x26, 0x67, 0x20, 0xbd,
  0x25, 0xac, 0x32, 0xbd, 0xdd, 0x37, 0x3a, 0xbd, 0x2f, 0x05, 0x13, 0xbd,
  0xcb, 0xa1, 0xf2, 0x3d, 0x5a, 0x3e, 0x2b, 0xbd, 0x63, 0x6b, 0x93, 0x3d,
  0xf2, 0x9c, 0xa8, 0xbd, 0xc2, 0x42, 0x6a, 0x3d, 0x92, 0x8e, 0xfd, 0xbc,
  0x75, 0xe9, 0x12, 0xbe, 0xf5, 0xc7, 0x11, 0xbe, 0xda, 0xfc, 0xdc, 0x3c,
  0xc1, 0x15, 0x74, 0xbe, 0x68, 0x2f, 0xc8, 0xbe, 0x56, 0xe4, 0x16, 0xbe,
  0x8a, 0xf0, 0xf6, 0xbd, 0x71, 0x2e, 0x08, 0x3e, 0x41, 0xa2, 0xfa, 0xbd,
  0x3e, 0xb9, 0xc0, 0x3b, 0xdc, 0x87, 0x05, 0xbc, 0x63, 0x96, 0x59, 0xbd,
  0x2f, 0xc5, 0x20, 0x3e, 0x99, 0x1b, 0x8b, 0x3e, 0x82, 0xc6, 0x77, 0x3d,
  0x5f, 0xec, 0xc0, 0xbe, 0xfc, 0xf7, 0xfd, 0xbe, 0x07, 0x6a, 0xc5, 0x3d,
  0x9a, 0x2b, 0x10, 0x3c, 0x25, 0x5e, 0xa4, 0x3d, 0xe1, 0x5c, 0x00, 0x3f,
  0x0c, 0xaf, 0xcf, 0x3e, 0xd1, 0x17, 0xd4, 0xbd, 0x83, 0xf7, 0x77, 0xbe,
  0x70, 0x65, 0xa0, 0xbe, 0xb9, 0x0d, 0xd9, 0xbc, 0x4a, 0xf2, 0x6e, 0x3a,
  0x4d, 0x12, 0xb0, 0x3d, 0x8e, 0xf0, 0xc0, 0x3e, 0x6a, 0xa6, 0x04, 0x3e,
  0x2e, 0x72, 0x01, 0x3d, 0x7d, 0x71, 0xc6, 0xbd, 0x23, 0xd9, 0xb4, 0xbc,
  0xb2, 0xdd, 0xbc, 0xbd, 0x82, 0xcc, 0xf7, 0x3c, 0x65, 0xde, 0x24, 0x3e,
  0xbd, 0xe8, 0x54, 0xbc, 0x18, 0x08, 0x1b, 0x3c, 0x25, 0xf3, 0xb3, 0x3c,
  0x8b, 0x8c, 0xc9, 0xbd, 0x8e, 0x0a, 0x21, 0x3e, 0x42, 0x59, 0xd5, 0x3d,
  0xb1, 0x77, 0x46, 0xbd, 0x56, 0xc5, 0x3c, 0xbd, 0x47, 0x88, 0x3a, 0xbe,
  0xea, 0xd2, 0x46, 0xbe, 0xc6, 0xf5, 0x6c, 0xbd, 0xfc, 0x69, 0xc5, 0xbd,
  0x16, 0xd0, 0x2c, 0x3d, 0x43, 0xb2, 0xbf, 0x3d, 0xde, 0x42, 0x1c, 0xbd,
  0x13, 0xa2, 0x90, 0xbc, 0xf0, 0x57, 0xaf, 0xbd, 0xef, 0x03, 0x04, 0xbd,
  0xbb, 0x4e, 0xab, 0xbe, 0x90, 0x58, 0x26, 0xbd, 0xf9, 0x63, 0x13, 0x3e,
  0xb3, 0xf6, 0x68, 0x3d, 0x1f, 0xc1, 0x8a, 0xbd, 0x67, 0x80, 0x0b, 0x3c,
  0x2b, 0x5e, 0x08, 0x3d, 0x4b, 0x93, 0x31, 0xbe, 0x1b, 0x78, 0x10, 0xbd,
  0x87, 0xd1, 0x50, 0x3e, 0x93, 0xcf, 0xd7, 0x3d, 0x59, 0xd4, 0x3c, 0x3e,
  0xe1, 0x9c, 0xaa, 0x3d, 0x94, 0x09, 0x81, 0xbd, 0x09, 0x24, 0x3b, 0x3d,
  0x0b, 0x7d, 0xfc, 0x3d, 0xc8, 0x1f, 0xb0, 0x3d, 0xe1, 0x21, 0xda, 0xbc,
  0x55, 0x5a, 0xcd, 0x3d, 0x95, 0x01, 0xd6, 0x3c, 0x38, 0x27, 0x0e, 0x3d,
  0xff, 0x12, 0xaa, 0xbd, 0x31, 0x27, 0xc3, 0xbd, 0xec, 0x4e, 0x96, 0x3d,
  0xf2, 0x8c, 0xc3, 0x3d, 0xd3, 0x4e, 0xa5, 0xbd, 0xde, 0xd3, 0x2a, 0x3b,
  0x00, 0x2b, 0xd9, 0x39, 0x32, 0x24, 0x3e, 0x3c, 0x5d, 0xb1, 0xa1, 0x3e,
  0x37, 0xe6, 0x4a, 0xbd, 0x96, 0x28, 0xde, 0x3d, 0x8e, 0xab, 0xdd, 0x3d,
  0x53, 0x34, 0x7a, 0xbe, 0xc0, 0x19, 0x0b, 0xbe, 0x69, 0x5e, 0xc1, 0xbd,
  0xa6, 0x17, 0x82, 0x3d, 0xba, 0xa9, 0x8d, 0x3e, 0xbb, 0xbb, 0x11, 0x3d,
  0x1e, 0x05, 0x8f, 0xbd, 0x8c, 0x20, 0xf0, 0x3c, 0xa4, 0x80, 0x8a, 0xbe,
  0x0b, 0xc4, 0x4f, 0xbe, 0x5a, 0x3d, 0xaa, 0x3c, 0x44, 0x4f, 0xc3, 0x3d,
  0x50, 0xe9, 0xbe, 0xbd, 0x8c, 0x17, 0x33, 0xbe, 0x84, 0x75, 0x8b, 0xbe,
  0xd0, 0xa9, 0xe4, 0xbc, 0x6a, 0x1b, 0x13, 0xbe, 0xaa, 0xf2, 0x98, 0xbd,
  0x2b, 0xdf, 0x15, 0xbb, 0x06, 0xff, 0xff, 0xff, 0x04, 0x00, 0x00, 0x00,
  0x28, 0x00, 0x00, 0x00, 0x88, 0x4c, 0xdd, 0x3f, 0x72, 0xb4, 0xf5, 0xbd,
  0x79, 0x44, 0x9a, 0x3e, 0x24, 0x7b, 0x87, 0x3f, 0xa9, 0x5a, 0xb8, 0x3f,
  0x47, 0xb2, 0x16, 0x3e, 0xb1, 0xf9, 0x04, 0x3e, 0x89, 0xe3, 0x37, 0x3f,
  0x9b, 0xe5, 0x20, 0x3f, 0xb2, 0x8e, 0x62, 0x3d, 0x3a, 0xff, 0xff, 0xff,
  0x04, 0x00, 0x00, 0x00, 0x28, 0x00, 0x00, 0x00, 0x1f, 0xca, 0x1c, 0x40,
  0x60, 0xe6, 0x2e, 0xc0, 0x5b, 0xc1, 0x97, 0xc0, 0x4e, 0xc1, 0x35, 0xbf,
  0xbe, 0x92, 0x07, 0x40, 0xbf, 0xa3, 0x07, 0x40, 0x95, 0x51, 0x02, 0xbf,
  0x5c, 0x1b, 0xee, 0x3f, 0x51, 0xc4, 0x6c, 0xbf, 0x94, 0x1d, 0x98, 0x3f,
  0xc8, 0xfb, 0xff, 0xff, 0xcc, 0xfb, 0xff, 0xff, 0x0f, 0x00, 0x00, 0x00,
  0x4d, 0x4c, 0x49, 0x52, 0x20, 0x43, 0x6f, 0x6e, 0x76, 0x65, 0x72, 0x74,
  0x65, 0x64, 0x2e, 0x00, 0x01, 0x00, 0x00, 0x00, 0x14, 0x00, 0x00, 0x00,
  0x00, 0x00, 0x0e, 0x00, 0x18, 0x00, 0x14, 0x00, 0x10, 0x00, 0x0c, 0x00,
  0x08, 0x00, 0x04, 0x00, 0x0e, 0x00, 0x00, 0x00, 0x14, 0x00, 0x00, 0x00,
  0x1c, 0x00, 0x00, 0x00, 0xec, 0x00, 0x00, 0x00, 0xf0, 0x00, 0x00, 0x00,
  0xf4, 0x00, 0x00, 0x00, 0x04, 0x00, 0x00, 0x00, 0x6d, 0x61, 0x69, 0x6e,
  0x00, 0x00, 0x00, 0x00, 0x03, 0x00, 0x00, 0x00, 0x94, 0x00, 0x00, 0x00,
  0x50, 0x00, 0x00, 0x00, 0x14, 0x00, 0x00, 0x00, 0x00, 0x00, 0x0e, 0x00,
  0x1a, 0x00, 0x14, 0x00, 0x10, 0x00, 0x0c, 0x00, 0x0b, 0x00, 0x04, 0x00,
  0x0e, 0x00, 0x00, 0x00, 0x1c, 0x00, 0x00, 0x00, 0x00, 0x00, 0x00, 0x09,
  0x1c, 0x00, 0x00, 0x00, 0x20, 0x00, 0x00, 0x00, 0x01, 0x00, 0x00, 0x00,
  0x00, 0x00, 0x06, 0x00, 0x08, 0x00, 0x04, 0x00, 0x06, 0x00, 0x00, 0x00,
  0x00, 0x00, 0x80, 0x3f, 0x01, 0x00, 0x00, 0x00, 0x07, 0x00, 0x00, 0x00,
  0x01, 0x00, 0x00, 0x00, 0x06, 0x00, 0x00, 0x00, 0xce, 0xff, 0xff, 0xff,
  0x10, 0x00, 0x00, 0x00, 0x00, 0x00, 0x00, 0x08, 0x0c, 0x00, 0x00, 0x00,
  0x10, 0x00, 0x00, 0x00, 0x8c, 0xfc, 0xff, 0xff, 0x01, 0x00, 0x00, 0x00,
  0x06, 0x00, 0x00, 0x00, 0x03, 0x00, 0x00, 0x00, 0x05, 0x00, 0x00, 0x00,
  0x04, 0x00, 0x00, 0x00, 0x01, 0x00, 0x00, 0x00, 0x00, 0x00, 0x0e, 0x00,
  0x16, 0x00, 0x00, 0x00, 0x10, 0x00, 0x0c, 0x00, 0x0b, 0x00, 0x04, 0x00,
  0x0e, 0x00, 0x00, 0x00, 0x18, 0x00, 0x00, 0x00, 0x00, 0x00, 0x00, 0x08,
  0x18, 0x00, 0x00, 0x00, 0x1c, 0x00, 0x00, 0x00, 0x00, 0x00, 0x06, 0x00,
  0x08, 0x00, 0x07, 0x00, 0x06, 0x00, 0x00, 0x00, 0x00, 0x00, 0x00, 0x01,
  0x01, 0x00, 0x00, 0x00, 0x05, 0x00, 0x00, 0x00, 0x03, 0x00, 0x00, 0x00,
  0x00, 0x00, 0x00, 0x00, 0x03, 0x00, 0x00, 0x00, 0x02, 0x00, 0x00, 0x00,
  0x01, 0x00, 0x00, 0x00, 0x07, 0x00, 0x00, 0x00, 0x01, 0x00, 0x00, 0x00,
  0x00, 0x00, 0x00, 0x00, 0x08, 0x00, 0x00, 0x00, 0xd0, 0x02, 0x00, 0x00,
  0x60, 0x02, 0x00, 0x00, 0xf4, 0x01, 0x00, 0x00, 0xac, 0x01, 0x00, 0x00,
  0x60, 0x01, 0x00, 0x00, 0xd8, 0x00, 0x00, 0x00, 0x60, 0x00, 0x00, 0x00,
  0x04, 0x00, 0x00, 0x00, 0x66, 0xfd, 0xff, 0xff, 0x00, 0x00, 0x00, 0x01,
  0x14, 0x00, 0x00, 0x00, 0x1c, 0x00, 0x00, 0x00, 0x1c, 0x00, 0x00, 0x00,
  0x08, 0x00, 0x00, 0x00, 0x34, 0x00, 0x00, 0x00, 0x02, 0x00, 0x00, 0x00,
  0xff, 0xff, 0xff, 0xff, 0x0a, 0x00, 0x00, 0x00, 0x50, 0xfd, 0xff, 0xff,
  0x19, 0x00, 0x00, 0x00, 0x53, 0x74, 0x61, 0x74, 0x65, 0x66, 0x75, 0x6c,
  0x50, 0x61, 0x72, 0x74, 0x69, 0x74, 0x69, 0x6f, 0x6e, 0x65, 0x64, 0x43,
  0x61, 0x6c, 0x6c, 0x3a, 0x30, 0x00, 0x00, 0x00, 0x02, 0x00, 0x00, 0x00,
  0x01, 0x00, 0x00, 0x00, 0x0a, 0x00, 0x00, 0x00, 0xbe, 0xfd, 0xff, 0xff,
  0x00, 0x00, 0x00, 0x01, 0x14, 0x00, 0x00, 0x00, 0x1c, 0x00, 0x00, 0x00,
  0x1c, 0x00, 0x00, 0x00, 0x07, 0x00, 0x00, 0x00, 0x50, 0x00, 0x00, 0x00,
  0x02, 0x00, 0x00, 0x00, 0xff, 0xff, 0xff, 0xff, 0x0a, 0x00, 0x00, 0x00,
  0xa8, 0xfd, 0xff, 0xff, 0x34, 0x00, 0x00, 0x00, 0x73, 0x65, 0x71, 0x75,
  0x65, 0x6e, 0x74, 0x69, 0x61, 0x6c, 0x2f, 0x64, 0x65, 0x6e, 0x73, 0x65,
  0x5f, 0x31, 0x2f, 0x4d, 0x61, 0x74, 0x4d, 0x75, 0x6c, 0x3b, 0x73, 0x65,
  0x71, 0x75, 0x65, 0x6e, 0x74, 0x69, 0x61, 0x6c, 0x2f, 0x64, 0x65, 0x6e,
  0x73, 0x65, 0x5f, 0x31, 0x2f, 0x42, 0x69, 0x61, 0x73, 0x41, 0x64, 0x64,
  0x00, 0x00, 0x00, 0x00, 0x02, 0x00, 0x00, 0x00, 0x01, 0x00, 0x00, 0x00,
  0x0a, 0x00, 0x00, 0x00, 0x32, 0xfe, 0xff, 0xff, 0x00, 0x00, 0x00, 0x01,
  0x14, 0x00, 0x00, 0x00, 0x1c, 0x00, 0x00, 0x00, 0x1c, 0x00, 0x00, 0x00,
  0x06, 0x00, 0x00, 0x00, 0x60, 0x00, 0x00, 0x00, 0x02, 0x00, 0x00, 0x00,
  0xff, 0xff, 0xff, 0xff, 0x0a, 0x00, 0x00, 0x00, 0x1c, 0xfe, 0xff, 0xff,
  0x46, 0x00, 0x00, 0x00, 0x73, 0x65, 0x71, 0x75, 0x65, 0x6e, 0x74, 0x69,
  0x61, 0x6c, 0x2f, 0x64, 0x65, 0x6e, 0x73, 0x65, 0x2f, 0x4d, 0x61, 0x74,
  0x4d, 0x75, 0x6c, 0x3b, 0x73, 0x65, 0x71, 0x75, 0x65, 0x6e, 0x74, 0x69,
  0x61, 0x6c, 0x2f, 0x64, 0x65, 0x6e, 0x73, 0x65, 0x2f, 0x52, 0x65, 0x6c,
  0x75, 0x3b, 0x73, 0x65, 0x71, 0x75, 0x65, 0x6e, 0x74, 0x69, 0x61, 0x6c,
  0x2f, 0x64, 0x65, 0x6e, 0x73, 0x65, 0x2f, 0x42, 0x69, 0x61, 0x73, 0x41,
  0x64, 0x64, 0x00, 0x00, 0x02, 0x00, 0x00, 0x00, 0x01, 0x00, 0x00, 0x00,
  0x0a, 0x00, 0x00, 0x00, 0x22, 0xff, 0xff, 0xff, 0x00, 0x00, 0x00, 0x01,
  0x10, 0x00, 0x00, 0x00, 0x10, 0x00, 0x00, 0x00, 0x05, 0x00, 0x00, 0x00,
  0x28, 0x00, 0x00, 0x00, 0x90, 0xfe, 0xff, 0xff, 0x19, 0x00, 0x00, 0x00,
  0x73, 0x65, 0x71, 0x75, 0x65, 0x6e, 0x74, 0x69, 0x61, 0x6c, 0x2f, 0x64,
  0x65, 0x6e, 0x73, 0x65, 0x5f, 0x31, 0x2f, 0x4d, 0x61, 0x74, 0x4d, 0x75,
  0x6c, 0x00, 0x00, 0x00, 0x02, 0x00, 0x00, 0x00, 0x0a, 0x00, 0x00, 0x00,
  0x0a, 0x00, 0x00, 0x00, 0x6a, 0xff, 0xff, 0xff, 0x00, 0x00, 0x00, 0x01,
  0x10, 0x00, 0x00, 0x00, 0x10, 0x00, 0x00, 0x00, 0x04, 0x00, 0x00, 0x00,
  0x24, 0x00, 0x00, 0x00, 0xd8, 0xfe, 0xff, 0xff, 0x17, 0x00, 0x00, 0x00,
  0x73, 0x65, 0x71, 0x75, 0x65, 0x6e, 0x74, 0x69, 0x61, 0x6c, 0x2f, 0x64,
  0x65, 0x6e, 0x73, 0x65, 0x2f, 0x4d, 0x61, 0x74, 0x4d, 0x75, 0x6c, 0x00,
  0x02, 0x00, 0x00, 0x00, 0x0a, 0x00, 0x00, 0x00, 0x40, 0x00, 0x00, 0x00,
  0xae, 0xff, 0xff, 0xff, 0x00, 0x00, 0x00, 0x01, 0x10, 0x00, 0x00, 0x00,
  0x10, 0x00, 0x00, 0x00, 0x03, 0x00, 0x00, 0x00, 0x34, 0x00, 0x00, 0x00,
  0x1c, 0xff, 0xff, 0xff, 0x27, 0x00, 0x00, 0x00, 0x73, 0x65, 0x71, 0x75,
  0x65, 0x6e, 0x74, 0x69, 0x61, 0x6c, 0x2f, 0x64, 0x65, 0x6e, 0x73, 0x65,
  0x2f, 0x42, 0x69, 0x61, 0x73, 0x41, 0x64, 0x64, 0x2f, 0x52, 0x65, 0x61,
  0x64, 0x56, 0x61, 0x72, 0x69, 0x61, 0x62, 0x6c, 0x65, 0x4f, 0x70, 0x00,
  0x01, 0x00, 0x00, 0x00, 0x0a, 0x00, 0x00, 0x00, 0x00, 0x00, 0x16, 0x00,
  0x18, 0x00, 0x14, 0x00, 0x00, 0x00, 0x10, 0x00, 0x0c, 0x00, 0x08, 0x00,
  0x00, 0x00, 0x00, 0x00, 0x00, 0x00, 0x07, 0x00, 0x16, 0x00, 0x00, 0x00,
  0x00, 0x00, 0x00, 0x01, 0x10, 0x00, 0x00, 0x00, 0x10, 0x00, 0x00, 0x00,
  0x02, 0x00, 0x00, 0x00, 0x38, 0x00, 0x00, 0x00, 0x84, 0xff, 0xff, 0xff,
  0x29, 0x00, 0x00, 0x00, 0x73, 0x65, 0x71, 0x75, 0x65, 0x6e, 0x74, 0x69,
  0x61, 0x6c, 0x2f, 0x64, 0x65, 0x6e, 0x73, 0x65, 0x5f, 0x31, 0x2f, 0x42,
  0x69, 0x61, 0x73, 0x41, 0x64, 0x64, 0x2f, 0x52, 0x65, 0x61, 0x64, 0x56,
  0x61, 0x72, 0x69, 0x61, 0x62, 0x6c, 0x65, 0x4f, 0x70, 0x00, 0x00, 0x00,
  0x01, 0x00, 0x00, 0x00, 0x0a, 0x00, 0x00, 0x00, 0x00, 0x00, 0x16, 0x00,
  0x1c, 0x00, 0x18, 0x00, 0x00, 0x00, 0x14, 0x00, 0x10, 0x00, 0x0c, 0x00,
  0x00, 0x00, 0x00, 0x00, 0x08, 0x00, 0x07, 0x00, 0x16, 0x00, 0x00, 0x00,
  0x00, 0x00, 0x00, 0x01, 0x14, 0x00, 0x00, 0x00, 0x20, 0x00, 0x00, 0x00,
  0x20, 0x00, 0x00, 0x00, 0x01, 0x00, 0x00, 0x00, 0x3c, 0x00, 0x00, 0x00,
  0x02, 0x00, 0x00, 0x00, 0xff, 0xff, 0xff, 0xff, 0x40, 0x00, 0x00, 0x00,
  0x04, 0x00, 0x04, 0x00, 0x04, 0x00, 0x00, 0x00, 0x1d, 0x00, 0x00, 0x00,
  0x73, 0x65, 0x72, 0x76, 0x69, 0x6e, 0x67, 0x5f, 0x64, 0x65, 0x66, 0x61,
  0x75, 0x6c, 0x74, 0x5f, 0x64, 0x65, 0x6e, 0x73, 0x65, 0x5f, 0x69, 0x6e,
  0x70, 0x75, 0x74, 0x3a, 0x30, 0x00, 0x00, 0x00, 0x02, 0x00, 0x00, 0x00,
  0x01, 0x00, 0x00, 0x00, 0x40, 0x00, 0x00, 0x00, 0x02, 0x00, 0x00, 0x00,
  0x20, 0x00, 0x00, 0x00, 0x04, 0x00, 0x00, 0x00, 0xf4, 0xff, 0xff, 0xff,
  0x19, 0x00, 0x00, 0x00, 0x00, 0x00, 0x00, 0x19, 0x0c, 0x00, 0x0c, 0x00,
  0x0b, 0x00, 0x00, 0x00, 0x00, 0x00, 0x04, 0x00, 0x0c, 0x00, 0x00, 0x00,
  0x09, 0x00, 0x00, 0x00, 0x00, 0x00, 0x00, 0x09
};
unsigned int first_model_activations_tflite_len = 4736;
