unsigned char first_model_activations_tflite[] = {
  0x1c, 0x00, 0x00, 0x00, 0x54, 0x46, 0x4c, 0x33, 0x14, 0x00, 0x20, 0x00,
  0x1c, 0x00, 0x18, 0x00, 0x14, 0x00, 0x10, 0x00, 0x0c, 0x00, 0x00, 0x00,
  0x08, 0x00, 0x04, 0x00, 0x14, 0x00, 0x00, 0x00, 0x1c, 0x00, 0x00, 0x00,
  0x90, 0x00, 0x00, 0x00, 0xe8, 0x00, 0x00, 0x00, 0x90, 0x04, 0x00, 0x00,
  0xa0, 0x04, 0x00, 0x00, 0xf0, 0x08, 0x00, 0x00, 0x03, 0x00, 0x00, 0x00,
  0x01, 0x00, 0x00, 0x00, 0x10, 0x00, 0x00, 0x00, 0x00, 0x00, 0x0a, 0x00,
  0x10, 0x00, 0x0c, 0x00, 0x08, 0x00, 0x04, 0x00, 0x0a, 0x00, 0x00, 0x00,
  0x0c, 0x00, 0x00, 0x00, 0x1c, 0x00, 0x00, 0x00, 0x38, 0x00, 0x00, 0x00,
  0x0f, 0x00, 0x00, 0x00, 0x73, 0x65, 0x72, 0x76, 0x69, 0x6e, 0x67, 0x5f,
  0x64, 0x65, 0x66, 0x61, 0x75, 0x6c, 0x74, 0x00, 0x01, 0x00, 0x00, 0x00,
  0x04, 0x00, 0x00, 0x00, 0x98, 0xff, 0xff, 0xff, 0x07, 0x00, 0x00, 0x00,
  0x04, 0x00, 0x00, 0x00, 0x07, 0x00, 0x00, 0x00, 0x64, 0x65, 0x6e, 0x73,
  0x65, 0x5f, 0x31, 0x00, 0x01, 0x00, 0x00, 0x00, 0x04, 0x00, 0x00, 0x00,
  0x56, 0xfb, 0xff, 0xff, 0x04, 0x00, 0x00, 0x00, 0x0b, 0x00, 0x00, 0x00,
  0x64, 0x65, 0x6e, 0x73, 0x65, 0x5f, 0x69, 0x6e, 0x70, 0x75, 0x74, 0x00,
  0x02, 0x00, 0x00, 0x00, 0x34, 0x00, 0x00, 0x00, 0x04, 0x00, 0x00, 0x00,
  0xdc, 0xff, 0xff, 0xff, 0x0a, 0x00, 0x00, 0x00, 0x04, 0x00, 0x00, 0x00,
  0x13, 0x00, 0x00, 0x00, 0x43, 0x4f, 0x4e, 0x56, 0x45, 0x52, 0x53, 0x49,
  0x4f, 0x4e, 0x5f, 0x4d, 0x45, 0x54, 0x41, 0x44, 0x41, 0x54, 0x41, 0x00,
  0x08, 0x00, 0x0c, 0x00, 0x08, 0x00, 0x04, 0x00, 0x08, 0x00, 0x00, 0x00,
  0x09, 0x00, 0x00, 0x00, 0x04, 0x00, 0x00, 0x00, 0x13, 0x00, 0x00, 0x00,
  0x6d, 0x69, 0x6e, 0x5f, 0x72, 0x75, 0x6e, 0x74, 0x69, 0x6d, 0x65, 0x5f,
  0x76, 0x65, 0x72, 0x73, 0x69, 0x6f, 0x6e, 0x00, 0x0b, 0x00, 0x00, 0x00,
  0xa4, 0x03, 0x00, 0x00, 0x9c, 0x03, 0x00, 0x00, 0x80, 0x03, 0x00, 0x00,
  0x48, 0x03, 0x00, 0x00, 0x30, 0x01, 0x00, 0x00, 0xa8, 0x00, 0x00, 0x00,
  0xa0, 0x00, 0x00, 0x00, 0x98, 0x00, 0x00, 0x00, 0x90, 0x00, 0x00, 0x00,
  0x70, 0x00, 0x00, 0x00, 0x04, 0x00, 0x00, 0x00, 0xfa, 0xfb, 0xff, 0xff,
  0x04, 0x00, 0x00, 0x00, 0x5c, 0x00, 0x00, 0x00, 0x0c, 0x00, 0x00, 0x00,
  0x08, 0x00, 0x0e, 0x00, 0x08, 0x00, 0x04, 0x00, 0x08, 0x00, 0x00, 0x00,
  0x14, 0x00, 0x00, 0x00, 0x2c, 0x00, 0x00, 0x00, 0x00, 0x00, 0x0a, 0x00,
  0x0c, 0x00, 0x08, 0x00, 0x00, 0x00, 0x07, 0x00, 0x0a, 0x00, 0x00, 0x00,
  0x00, 0x00, 0x00, 0x01, 0x04, 0x00, 0x00, 0x00, 0x00, 0x00, 0x00, 0x00,
  0x00, 0x00, 0x0a, 0x00, 0x10, 0x00, 0x0c, 0x00, 0x08, 0x00, 0x04, 0x00,
  0x0a, 0x00, 0x00, 0x00, 0x01, 0x00, 0x00, 0x00, 0x02, 0x00, 0x00, 0x00,
  0x04, 0x00, 0x00, 0x00, 0x06, 0x00, 0x00, 0x00, 0x32, 0x2e, 0x31, 0x31,
  0x2e, 0x30, 0x00, 0x00, 0x62, 0xfc, 0xff, 0xff, 0x04, 0x00, 0x00, 0x00,
  0x10, 0x00, 0x00, 0x00, 0x31, 0x2e, 0x35, 0x2e, 0x30, 0x00, 0x00, 0x00,
  0x00, 0x00, 0x00, 0x00, 0x00, 0x00, 0x00, 0x00, 0xd8, 0xf8, 0xff, 0xff,
  0xdc, 0xf8, 0xff, 0xff, 0xe0, 0xf8, 0xff, 0xff, 0x8a, 0xfc, 0xff, 0xff,
  0x04, 0x00, 0x00, 0x00, 0x78, 0x00, 0x00, 0x00, 0x5c, 0xe1, 0xe1, 0x3f,
  0xbf, 0x7e, 0x1b, 0xbf, 0xc1, 0xe4, 0xfd, 0xbe, 0xe4, 0xe5, 0x3b, 0xbd,
  0x1a, 0xbe, 0x67, 0x3c, 0x7e, 0x8f, 0x77, 0x3d, 0x2a, 0x6a, 0xd8, 0xbb,
  0x2f, 0x0d, 0x4e, 0x3d, 0x12, 0x01, 0x5c, 0xbe, 0x9a, 0xec, 0xc6, 0xbc,
  0x47, 0xe0, 0x31, 0xbf, 0x97, 0x11, 0xdb, 0x3f, 0x9a, 0x52, 0xf2, 0xbe,
  0xc5, 0x7e, 0xec, 0x3c, 0xc7, 0x62, 0xe9, 0x3d, 0xac, 0x73, 0x13, 0x3b,
  0x12, 0x37, 0xc6, 0x3d, 0x23, 0x9e, 0x15, 0xbd, 0x32, 0x62, 0x0a, 0x3c,
  0xc5, 0xbb, 0x83, 0x3c, 0x15, 0x4a, 0x81, 0xbf, 0x3f, 0x28, 0x88, 0xbf,
  0x2b, 0xb5, 0x7e, 0x3f, 0xb4, 0xa1, 0x5d, 0x3c, 0x36, 0x16, 0xfb, 0xbd,
  0x88, 0xb9, 0x46, 0xbc, 0x25, 0x42, 0x22, 0xbc, 0x51, 0x20, 0x52, 0xbd,
  0xc1, 0xa8, 0xea, 0x3d, 0x66, 0x14, 0x4a, 0x3c, 0x0e, 0xfd, 0xff, 0xff,
  0x04, 0x00, 0x00, 0x00, 0x08, 0x02, 0x00, 0x00, 0x8d, 0xd9, 0x5c, 0x3f,
  0x29, 0x0d, 0x96, 0x3e, 0x98, 0x4b, 0x18, 0x3f, 0x53, 0x1f, 0x76, 0xbf,
  0xec, 0x17, 0xbb, 0x3d, 0x48, 0xf1, 0x3f, 0x3e, 0xfc, 0x7e, 0x12, 0x3f,
  0xbc, 0x8f, 0x39, 0xbe, 0x1c, 0x2f, 0xe3, 0xbd, 0x05, 0x6b, 0x5b, 0x3d,
  0x2f, 0xd1, 0xbf, 0x3d, 0xfd, 0x19, 0x26, 0x3f, 0x9b, 0xee, 0x8d, 0x3f,
  0x1a, 0x94, 0x25, 0xbf, 0x49, 0x4b, 0x87, 0xbe, 0x0a, 0x30, 0x42, 0xbf,
  0x59, 0x85, 0xd9, 0x3e, 0x73, 0x60, 0x6c, 0xbd, 0x32, 0xf5, 0xf0, 0xbd,
  0x27, 0x00, 0xb7, 0x3e, 0x48, 0x7e, 0x5f, 0x3e, 0xe5, 0x76, 0x2d, 0x3e,
  0xa6, 0xd7, 0x91, 0xbf, 0xb8, 0x28, 0x29, 0x3f, 0x36, 0x24, 0x41, 0x3e,
  0xda, 0x84, 0x80, 0xbf, 0x09, 0xd0, 0x03, 0x3e, 0xc4, 0x41, 0x69, 0x3e,
  0xc7, 0x47, 0x3d, 0x3e, 0xd4, 0xcd, 0x5c, 0x3e, 0x13, 0x48, 0xc5, 0x3c,
  0xe5, 0x73, 0x84, 0xbe, 0x12, 0x09, 0x07, 0xbf, 0x60, 0x41, 0x62, 0xbc,
  0x30, 0x71, 0x3c, 0xbe, 0x2e, 0xda, 0x1f, 0x3f, 0x5d, 0xb9, 0x19, 0xbf,
  0xb9, 0x85, 0xdf, 0xbe, 0x76, 0x32, 0xb3, 0x3c, 0x22, 0xab, 0xa4, 0xbc,
  0x7e, 0x5c, 0x48, 0xbd, 0xe8, 0xb7, 0x8b, 0x3c, 0x63, 0x1b, 0x55, 0xbd,
  0x20, 0xe1, 0x85, 0xba, 0x15, 0x95, 0x0d, 0x3d, 0x09, 0x7b, 0x2d, 0xbd,
  0x4b, 0x3f, 0x10, 0xbd, 0x12, 0x68, 0xfd, 0xbc, 0x20, 0x74, 0x70, 0x3b,
  0xda, 0x85, 0xa9, 0x3c, 0x7e, 0x9c, 0xb3, 0xbd, 0x6b, 0x39, 0x49, 0xbd,
  0xee, 0x2d, 0x36, 0x3c, 0x0c, 0x0f, 0xe3, 0xbd, 0xcd, 0xa8, 0x12, 0xbd,
  0x8b, 0xea, 0xf5, 0xbd, 0x4d, 0xa4, 0x68, 0x3d, 0x86, 0xeb, 0xb8, 0xbd,
  0x67, 0x18, 0x0b, 0xbd, 0xd7, 0x45, 0x1c, 0x3d, 0xec, 0x3b, 0x88, 0x3d,
  0x9d, 0xc5, 0xdd, 0xbd, 0xb4, 0xa1, 0x92, 0x3d, 0x47, 0x72, 0xde, 0x3b,
  0xdb, 0xc2, 0x94, 0xbd, 0x8e, 0x4f, 0x52, 0x3d, 0x79, 0x91, 0x75, 0xbd,
  0x6a, 0xae, 0x8e, 0x3d, 0x04, 0x7d, 0x60, 0x3c, 0x7d, 0x87, 0x3f, 0x3c,
  0xcc, 0x48, 0x6c, 0x3d, 0x11, 0x62, 0x89, 0xbd, 0x8f, 0xd7, 0x6d, 0xbd,
  0xc0, 0x8c, 0x6e, 0xbd, 0xac, 0x45, 0x1b, 0xbd, 0x15, 0x30, 0xc7, 0xbb,
  0xaa, 0x3a, 0x90, 0x3d, 0xa7, 0xf4, 0xed, 0xbb, 0x92, 0xb1, 0x54, 0xbd,
  0xb3, 0x47, 0x76, 0xbc, 0x64, 0xf0, 0x17, 0x3d, 0xae, 0xcb, 0x92, 0x3c,
  0x7e, 0x46, 0xf0, 0xbc, 0xfd, 0x79, 0x42, 0xbc, 0xef, 0xf9, 0x10, 0x3d,
  0x1d, 0xa1, 0xe1, 0x3d, 0x5d, 0xcb, 0x02, 0xbc, 0xae, 0x58, 0x3f, 0xbd,
  0x9c, 0x22, 0x3b, 0x3d, 0x4b, 0x0b, 0x3e, 0x3b, 0x83, 0x16, 0x60, 0xbc,
  0x49, 0xbc, 0xbe, 0x3d, 0x40, 0x77, 0x85, 0x3d, 0xf4, 0x3d, 0x1e, 0xbd,
  0xb3, 0xba, 0xe0, 0xbb, 0xc5, 0x0f, 0x0c, 0x3d, 0x7a, 0x5b, 0x93, 0x3d,
  0x30, 0xc7, 0xae, 0x3c, 0xee, 0x5b, 0xae, 0xbd, 0xb3, 0x4d, 0xa5, 0x3d,
  0xd0, 0xb4, 0x2b, 0xbd, 0x4b, 0x38, 0xbb, 0xbc, 0xf1, 0x2d, 0xa8, 0x3d,
  0xb0, 0x51, 0x58, 0xbd, 0x37, 0x64, 0xc4, 0xbc, 0x79, 0x32, 0x9e, 0x3d,
  0x2b, 0x78, 0x83, 0xbd, 0xcd, 0x97, 0x90, 0x3c, 0xfd, 0x00, 0x5d, 0xbd,
  0x63, 0x8c, 0xc0, 0xbd, 0x1b, 0x2c, 0xfe, 0xbd, 0x9f, 0x8c, 0x3d, 0x3d,
  0xc5, 0xf4, 0x9d, 0xbd, 0x5d, 0x68, 0x4b, 0x3c, 0x0e, 0x66, 0x7f, 0xbb,
  0x4b, 0xc2, 0x0e, 0xbe, 0xcc, 0xad, 0x57, 0xbc, 0xc9, 0xc9, 0x19, 0xbd,
  0xf8, 0xea, 0x98, 0x3d, 0xea, 0x01, 0x14, 0x3c, 0xa5, 0x3d, 0xdc, 0x3c,
  0x72, 0xbc, 0xb7, 0xbd, 0x89, 0x74, 0x85, 0x3d, 0xfa, 0x4d, 0x4c, 0x39,
  0xaa, 0xbe, 0xef, 0xbc, 0x48, 0x83, 0x29, 0x3c, 0xfa, 0xa3, 0xb4, 0xbc,
  0x5e, 0xd5, 0xb6, 0xbd, 0xe5, 0x11, 0x9a, 0x3a, 0x7e, 0x18, 0x34, 0xbc,
  0x22, 0xff, 0xff, 0xff, 0x04, 0x00, 0x00, 0x00, 0x28, 0x00, 0x00, 0x00,
  0x72, 0x36, 0x2e, 0x3f, 0x32, 0x47, 0xf4, 0x3e, 0x11, 0x91, 0xeb, 0x3d,
  0x04, 0x6a, 0x62, 0xbd, 0xdc, 0xef, 0x91, 0x3d, 0xae, 0xed, 0xb7, 0xbc,
  0x0b, 0xa0, 0xbd, 0x3c, 0xd6, 0x92, 0x89, 0xbd, 0xef, 0xff, 0x00, 0x3e,
  0xbb, 0x96, 0x2e, 0xbd, 0x56, 0xff, 0xff, 0xff, 0x04, 0x00, 0x00, 0x00,
  0x0c, 0x00, 0x00, 0x00, 0xb4, 0x71, 0xb7, 0xbf, 0x2c, 0x79, 0xdb, 0x3e,
  0x80, 0xca, 0x75, 0x3f, 0xc8, 0xfb, 0xff, 0xff, 0xcc, 0xfb, 0xff, 0xff,
  0x0f, 0x00, 0x00, 0x00, 0x4d, 0x4c, 0x49, 0x52, 0x20, 0x43, 0x6f, 0x6e,
  0x76, 0x65, 0x72, 0x74, 0x65, 0x64, 0x2e, 0x00, 0x01, 0x00, 0x00, 0x00,
  0x14, 0x00, 0x00, 0x00, 0x00, 0x00, 0x0e, 0x00, 0x18, 0x00, 0x14, 0x00,
  0x10, 0x00, 0x0c, 0x00, 0x08, 0x00, 0x04, 0x00, 0x0e, 0x00, 0x00, 0x00,
  0x14, 0x00, 0x00, 0x00, 0x1c, 0x00, 0x00, 0x00, 0xec, 0x00, 0x00, 0x00,
  0xf0, 0x00, 0x00, 0x00, 0xf4, 0x00, 0x00, 0x00, 0x04, 0x00, 0x00, 0x00,
  0x6d, 0x61, 0x69, 0x6e, 0x00, 0x00, 0x00, 0x00, 0x03, 0x00, 0x00, 0x00,
  0x94, 0x00, 0x00, 0x00, 0x50, 0x00, 0x00, 0x00, 0x14, 0x00, 0x00, 0x00,
  0x00, 0x00, 0x0e, 0x00, 0x1a, 0x00, 0x14, 0x00, 0x10, 0x00, 0x0c, 0x00,
  0x0b, 0x00, 0x04, 0x00, 0x0e, 0x00, 0x00, 0x00, 0x1c, 0x00, 0x00, 0x00,
  0x00, 0x00, 0x00, 0x09, 0x1c, 0x00, 0x00, 0x00, 0x20, 0x00, 0x00, 0x00,
  0x01, 0x00, 0x00, 0x00, 0x00, 0x00, 0x06, 0x00, 0x08, 0x00, 0x04, 0x00,
  0x06, 0x00, 0x00, 0x00, 0x00, 0x00, 0x80, 0x3f, 0x01, 0x00, 0x00, 0x00,
  0x07, 0x00, 0x00, 0x00, 0x01, 0x00, 0x00, 0x00, 0x06, 0x00, 0x00, 0x00,
  0xce, 0xff, 0xff, 0xff, 0x10, 0x00, 0x00, 0x00, 0x00, 0x00, 0x00, 0x08,
  0x0c, 0x00, 0x00, 0x00, 0x10, 0x00, 0x00, 0x00, 0x8c, 0xfc, 0xff, 0xff,
  0x01, 0x00, 0x00, 0x00, 0x06, 0x00, 0x00, 0x00, 0x03, 0x00, 0x00, 0x00,
  0x05, 0x00, 0x00, 0x00, 0x04, 0x00, 0x00, 0x00, 0x01, 0x00, 0x00, 0x00,
  0x00, 0x00, 0x0e, 0x00, 0x16, 0x00, 0x00, 0x00, 0x10, 0x00, 0x0c, 0x00,
  0x0b, 0x00, 0x04, 0x00, 0x0e, 0x00, 0x00, 0x00, 0x18, 0x00, 0x00, 0x00,
  0x00, 0x00, 0x00, 0x08, 0x18, 0x00, 0x00, 0x00, 0x1c, 0x00, 0x00, 0x00,
  0x00, 0x00, 0x06, 0x00, 0x08, 0x00, 0x07, 0x00, 0x06, 0x00, 0x00, 0x00,
  0x00, 0x00, 0x00, 0x01, 0x01, 0x00, 0x00, 0x00, 0x05, 0x00, 0x00, 0x00,
  0x03, 0x00, 0x00, 0x00, 0x00, 0x00, 0x00, 0x00, 0x03, 0x00, 0x00, 0x00,
  0x02, 0x00, 0x00, 0x00, 0x01, 0x00, 0x00, 0x00, 0x07, 0x00, 0x00, 0x00,
  0x01, 0x00, 0x00, 0x00, 0x00, 0x00, 0x00, 0x00, 0x08, 0x00, 0x00, 0x00,
  0xd0, 0x02, 0x00, 0x00, 0x60, 0x02, 0x00, 0x00, 0xf4, 0x01, 0x00, 0x00,
  0xac, 0x01, 0x00, 0x00, 0x60, 0x01, 0x00, 0x00, 0xd8, 0x00, 0x00, 0x00,
  0x60, 0x00, 0x00, 0x00, 0x04, 0x00, 0x00, 0x00, 0x66, 0xfd, 0xff, 0xff,
  0x00, 0x00, 0x00, 0x01, 0x14, 0x00, 0x00, 0x00, 0x1c, 0x00, 0x00, 0x00,
  0x1c, 0x00, 0x00, 0x00, 0x08, 0x00, 0x00, 0x00, 0x34, 0x00, 0x00, 0x00,
  0x02, 0x00, 0x00, 0x00, 0xff, 0xff, 0xff, 0xff, 0x03, 0x00, 0x00, 0x00,
  0x50, 0xfd, 0xff, 0xff, 0x19, 0x00, 0x00, 0x00, 0x53, 0x74, 0x61, 0x74,
  0x65, 0x66, 0x75, 0x6c, 0x50, 0x61, 0x72, 0x74, 0x69, 0x74, 0x69, 0x6f,
  0x6e, 0x65, 0x64, 0x43, 0x61, 0x6c, 0x6c, 0x3a, 0x30, 0x00, 0x00, 0x00,
  0x02, 0x00, 0x00, 0x00, 0x01, 0x00, 0x00, 0x00, 0x03, 0x00, 0x00, 0x00,
  0xbe, 0xfd, 0xff, 0xff, 0x00, 0x00, 0x00, 0x01, 0x14, 0x00, 0x00, 0x00,
  0x1c, 0x00, 0x00, 0x00, 0x1c, 0x00, 0x00, 0x00, 0x07, 0x00, 0x00, 0x00,
  0x50, 0x00, 0x00, 0x00, 0x02, 0x00, 0x00, 0x00, 0xff, 0xff, 0xff, 0xff,
  0x03, 0x00, 0x00, 0x00, 0xa8, 0xfd, 0xff, 0xff, 0x34, 0x00, 0x00, 0x00,
  0x73, 0x65, 0x71, 0x75, 0x65, 0x6e, 0x74, 0x69, 0x61, 0x6c, 0x2f, 0x64,
  0x65, 0x6e, 0x73, 0x65, 0x5f, 0x31, 0x2f, 0x4d, 0x61, 0x74, 0x4d, 0x75,
  0x6c, 0x3b, 0x73, 0x65, 0x71, 0x75, 0x65, 0x6e, 0x74, 0x69, 0x61, 0x6c,
  0x2f, 0x64, 0x65, 0x6e, 0x73, 0x65, 0x5f, 0x31, 0x2f, 0x42, 0x69, 0x61,
  0x73, 0x41, 0x64, 0x64, 0x00, 0x00, 0x00, 0x00, 0x02, 0x00, 0x00, 0x00,
  0x01, 0x00, 0x00, 0x00, 0x03, 0x00, 0x00, 0x00, 0x32, 0xfe, 0xff, 0xff,
  0x00, 0x00, 0x00, 0x01, 0x14, 0x00, 0x00, 0x00, 0x1c, 0x00, 0x00, 0x00,
  0x1c, 0x00, 0x00, 0x00, 0x06, 0x00, 0x00, 0x00, 0x60, 0x00, 0x00, 0x00,
  0x02, 0x00, 0x00, 0x00, 0xff, 0xff, 0xff, 0xff, 0x0a, 0x00, 0x00, 0x00,
  0x1c, 0xfe, 0xff, 0xff, 0x46, 0x00, 0x00, 0x00, 0x73, 0x65, 0x71, 0x75,
  0x65, 0x6e, 0x74, 0x69, 0x61, 0x6c, 0x2f, 0x64, 0x65, 0x6e, 0x73, 0x65,
  0x2f, 0x4d, 0x61, 0x74, 0x4d, 0x75, 0x6c, 0x3b, 0x73, 0x65, 0x71, 0x75,
  0x65, 0x6e, 0x74, 0x69, 0x61, 0x6c, 0x2f, 0x64, 0x65, 0x6e, 0x73, 0x65,
  0x2f, 0x52, 0x65, 0x6c, 0x75, 0x3b, 0x73, 0x65, 0x71, 0x75, 0x65, 0x6e,
  0x74, 0x69, 0x61, 0x6c, 0x2f, 0x64, 0x65, 0x6e, 0x73, 0x65, 0x2f, 0x42,
  0x69, 0x61, 0x73, 0x41, 0x64, 0x64, 0x00, 0x00, 0x02, 0x00, 0x00, 0x00,
  0x01, 0x00, 0x00, 0x00, 0x0a, 0x00, 0x00, 0x00, 0x22, 0xff, 0xff, 0xff,
  0x00, 0x00, 0x00, 0x01, 0x10, 0x00, 0x00, 0x00, 0x10, 0x00, 0x00, 0x00,
  0x05, 0x00, 0x00, 0x00, 0x28, 0x00, 0x00, 0x00, 0x90, 0xfe, 0xff, 0xff,
  0x19, 0x00, 0x00, 0x00, 0x73, 0x65, 0x71, 0x75, 0x65, 0x6e, 0x74, 0x69,
  0x61, 0x6c, 0x2f, 0x64, 0x65, 0x6e, 0x73, 0x65, 0x5f, 0x31, 0x2f, 0x4d,
  0x61, 0x74, 0x4d, 0x75, 0x6c, 0x00, 0x00, 0x00, 0x02, 0x00, 0x00, 0x00,
  0x03, 0x00, 0x00, 0x00, 0x0a, 0x00, 0x00, 0x00, 0x6a, 0xff, 0xff, 0xff,
  0x00, 0x00, 0x00, 0x01, 0x10, 0x00, 0x00, 0x00, 0x10, 0x00, 0x00, 0x00,
  0x04, 0x00, 0x00, 0x00, 0x24, 0x00, 0x00, 0x00, 0xd8, 0xfe, 0xff, 0xff,
  0x17, 0x00, 0x00, 0x00, 0x73, 0x65, 0x71, 0x75, 0x65, 0x6e, 0x74, 0x69,
  0x61, 0x6c, 0x2f, 0x64, 0x65, 0x6e, 0x73, 0x65, 0x2f, 0x4d, 0x61, 0x74,
  0x4d, 0x75, 0x6c, 0x00, 0x02, 0x00, 0x00, 0x00, 0x0a, 0x00, 0x00, 0x00,
  0x0d, 0x00, 0x00, 0x00, 0xae, 0xff, 0xff, 0xff, 0x00, 0x00, 0x00, 0x01,
  0x10, 0x00, 0x00, 0x00, 0x10, 0x00, 0x00, 0x00, 0x03, 0x00, 0x00, 0x00,
  0x34, 0x00, 0x00, 0x00, 0x1c, 0xff, 0xff, 0xff, 0x27, 0x00, 0x00, 0x00,
  0x73, 0x65, 0x71, 0x75, 0x65, 0x6e, 0x74, 0x69, 0x61, 0x6c, 0x2f, 0x64,
  0x65, 0x6e, 0x73, 0x65, 0x2f, 0x42, 0x69, 0x61, 0x73, 0x41, 0x64, 0x64,
  0x2f, 0x52, 0x65, 0x61, 0x64, 0x56, 0x61, 0x72, 0x69, 0x61, 0x62, 0x6c,
  0x65, 0x4f, 0x70, 0x00, 0x01, 0x00, 0x00, 0x00, 0x0a, 0x00, 0x00, 0x00,
  0x00, 0x00, 0x16, 0x00, 0x18, 0x00, 0x14, 0x00, 0x00, 0x00, 0x10, 0x00,
  0x0c, 0x00, 0x08, 0x00, 0x00, 0x00, 0x00, 0x00, 0x00, 0x00, 0x07, 0x00,
  0x16, 0x00, 0x00, 0x00, 0x00, 0x00, 0x00, 0x01, 0x10, 0x00, 0x00, 0x00,
  0x10, 0x00, 0x00, 0x00, 0x02, 0x00, 0x00, 0x00, 0x38, 0x00, 0x00, 0x00,
  0x84, 0xff, 0xff, 0xff, 0x29, 0x00, 0x00, 0x00, 0x73, 0x65, 0x71, 0x75,
  0x65, 0x6e, 0x74, 0x69, 0x61, 0x6c, 0x2f, 0x64, 0x65, 0x6e, 0x73, 0x65,
  0x5f, 0x31, 0x2f, 0x42, 0x69, 0x61, 0x73, 0x41, 0x64, 0x64, 0x2f, 0x52,
  0x65, 0x61, 0x64, 0x56, 0x61, 0x72, 0x69, 0x61, 0x62, 0x6c, 0x65, 0x4f,
  0x70, 0x00, 0x00, 0x00, 0x01, 0x00, 0x00, 0x00, 0x03, 0x00, 0x00, 0x00,
  0x00, 0x00, 0x16, 0x00, 0x1c, 0x00, 0x18, 0x00, 0x00, 0x00, 0x14, 0x00,
  0x10, 0x00, 0x0c, 0x00, 0x00, 0x00, 0x00, 0x00, 0x08, 0x00, 0x07, 0x00,
  0x16, 0x00, 0x00, 0x00, 0x00, 0x00, 0x00, 0x01, 0x14, 0x00, 0x00, 0x00,
  0x20, 0x00, 0x00, 0x00, 0x20, 0x00, 0x00, 0x00, 0x01, 0x00, 0x00, 0x00,
  0x3c, 0x00, 0x00, 0x00, 0x02, 0x00, 0x00, 0x00, 0xff, 0xff, 0xff, 0xff,
  0x0d, 0x00, 0x00, 0x00, 0x04, 0x00, 0x04, 0x00, 0x04, 0x00, 0x00, 0x00,
  0x1d, 0x00, 0x00, 0x00, 0x73, 0x65, 0x72, 0x76, 0x69, 0x6e, 0x67, 0x5f,
  0x64, 0x65, 0x66, 0x61, 0x75, 0x6c, 0x74, 0x5f, 0x64, 0x65, 0x6e, 0x73,
  0x65, 0x5f, 0x69, 0x6e, 0x70, 0x75, 0x74, 0x3a, 0x30, 0x00, 0x00, 0x00,
  0x02, 0x00, 0x00, 0x00, 0x01, 0x00, 0x00, 0x00, 0x0d, 0x00, 0x00, 0x00,
  0x02, 0x00, 0x00, 0x00, 0x20, 0x00, 0x00, 0x00, 0x04, 0x00, 0x00, 0x00,
  0xf4, 0xff, 0xff, 0xff, 0x19, 0x00, 0x00, 0x00, 0x00, 0x00, 0x00, 0x19,
  0x0c, 0x00, 0x0c, 0x00, 0x0b, 0x00, 0x00, 0x00, 0x00, 0x00, 0x04, 0x00,
  0x0c, 0x00, 0x00, 0x00, 0x09, 0x00, 0x00, 0x00, 0x00, 0x00, 0x00, 0x09
};
unsigned int first_model_activations_tflite_len = 2388;
