unsigned char second_model_NO_activations_tflite[] = {
  0x1c, 0x00, 0x00, 0x00, 0x54, 0x46, 0x4c, 0x33, 0x14, 0x00, 0x20, 0x00,
  0x1c, 0x00, 0x18, 0x00, 0x14, 0x00, 0x10, 0x00, 0x0c, 0x00, 0x00, 0x00,
  0x08, 0x00, 0x04, 0x00, 0x14, 0x00, 0x00, 0x00, 0x1c, 0x00, 0x00, 0x00,
  0x98, 0x00, 0x00, 0x00, 0xf0, 0x00, 0x00, 0x00, 0x60, 0x14, 0x00, 0x00,
  0x70, 0x14, 0x00, 0x00, 0x88, 0x23, 0x00, 0x00, 0x03, 0x00, 0x00, 0x00,
  0x01, 0x00, 0x00, 0x00, 0x10, 0x00, 0x00, 0x00, 0x00, 0x00, 0x0a, 0x00,
  0x10, 0x00, 0x0c, 0x00, 0x08, 0x00, 0x04, 0x00, 0x0a, 0x00, 0x00, 0x00,
  0x0c, 0x00, 0x00, 0x00, 0x1c, 0x00, 0x00, 0x00, 0x3c, 0x00, 0x00, 0x00,
  0x0f, 0x00, 0x00, 0x00, 0x73, 0x65, 0x72, 0x76, 0x69, 0x6e, 0x67, 0x5f,
  0x64, 0x65, 0x66, 0x61, 0x75, 0x6c, 0x74, 0x00, 0x01, 0x00, 0x00, 0x00,
  0x04, 0x00, 0x00, 0x00, 0x90, 0xff, 0xff, 0xff, 0x1d, 0x00, 0x00, 0x00,
  0x04, 0x00, 0x00, 0x00, 0x08, 0x00, 0x00, 0x00, 0x64, 0x65, 0x6e, 0x73,
  0x65, 0x5f, 0x32, 0x35, 0x00, 0x00, 0x00, 0x00, 0x01, 0x00, 0x00, 0x00,
  0x04, 0x00, 0x00, 0x00, 0x66, 0xeb, 0xff, 0xff, 0x04, 0x00, 0x00, 0x00,
  0x0e, 0x00, 0x00, 0x00, 0x64, 0x65, 0x6e, 0x73, 0x65, 0x5f, 0x31, 0x35,
  0x5f, 0x69, 0x6e, 0x70, 0x75, 0x74, 0x00, 0x00, 0x02, 0x00, 0x00, 0x00,
  0x34, 0x00, 0x00, 0x00, 0x04, 0x00, 0x00, 0x00, 0xdc, 0xff, 0xff, 0xff,
  0x20, 0x00, 0x00, 0x00, 0x04, 0x00, 0x00, 0x00, 0x13, 0x00, 0x00, 0x00,
  0x43, 0x4f, 0x4e, 0x56, 0x45, 0x52, 0x53, 0x49, 0x4f, 0x4e, 0x5f, 0x4d,
  0x45, 0x54, 0x41, 0x44, 0x41, 0x54, 0x41, 0x00, 0x08, 0x00, 0x0c, 0x00,
  0x08, 0x00, 0x04, 0x00, 0x08, 0x00, 0x00, 0x00, 0x1f, 0x00, 0x00, 0x00,
  0x04, 0x00, 0x00, 0x00, 0x13, 0x00, 0x00, 0x00, 0x6d, 0x69, 0x6e, 0x5f,
  0x72, 0x75, 0x6e, 0x74, 0x69, 0x6d, 0x65, 0x5f, 0x76, 0x65, 0x72, 0x73,
  0x69, 0x6f, 0x6e, 0x00, 0x21, 0x00, 0x00, 0x00, 0x6c, 0x13, 0x00, 0x00,
  0x64, 0x13, 0x00, 0x00, 0x2c, 0x13, 0x00, 0x00, 0xf4, 0x12, 0x00, 0x00,
  0xbc, 0x12, 0x00, 0x00, 0x84, 0x12, 0x00, 0x00, 0x68, 0x12, 0x00, 0x00,
  0x30, 0x12, 0x00, 0x00, 0x18, 0x10, 0x00, 0x00, 0x78, 0x0e, 0x00, 0x00,
  0xd8, 0x0c, 0x00, 0x00, 0x38, 0x0b, 0x00, 0x00, 0x98, 0x09, 0x00, 0x00,
  0xf8, 0x07, 0x00, 0x00, 0x58, 0x06, 0x00, 0x00, 0xb8, 0x04, 0x00, 0x00,
  0x18, 0x03, 0x00, 0x00, 0x78, 0x01, 0x00, 0x00, 0xf0, 0x00, 0x00, 0x00,
  0xe8, 0x00, 0x00, 0x00, 0xe0, 0x00, 0x00, 0x00, 0xd8, 0x00, 0x00, 0x00,
  0xd0, 0x00, 0x00, 0x00, 0xc8, 0x00, 0x00, 0x00, 0xc0, 0x00, 0x00, 0x00,
  0xb8, 0x00, 0x00, 0x00, 0xb0, 0x00, 0x00, 0x00, 0xa8, 0x00, 0x00, 0x00,
  0xa0, 0x00, 0x00, 0x00, 0x98, 0x00, 0x00, 0x00, 0x90, 0x00, 0x00, 0x00,
  0x70, 0x00, 0x00, 0x00, 0x04, 0x00, 0x00, 0x00, 0x66, 0xec, 0xff, 0xff,
  0x04, 0x00, 0x00, 0x00, 0x5c, 0x00, 0x00, 0x00, 0x0c, 0x00, 0x00, 0x00,
  0x08, 0x00, 0x0e, 0x00, 0x08, 0x00, 0x04, 0x00, 0x08, 0x00, 0x00, 0x00,
  0x14, 0x00, 0x00, 0x00, 0x2c, 0x00, 0x00, 0x00, 0x00, 0x00, 0x0a, 0x00,
  0x0c, 0x00, 0x08, 0x00, 0x00, 0x00, 0x07, 0x00, 0x0a, 0x00, 0x00, 0x00,
  0x00, 0x00, 0x00, 0x01, 0x04, 0x00, 0x00, 0x00, 0x00, 0x00, 0x00, 0x00,
  0x00, 0x00, 0x0a, 0x00, 0x10, 0x00, 0x0c, 0x00, 0x08, 0x00, 0x04, 0x00,
  0x0a, 0x00, 0x00, 0x00, 0x01, 0x00, 0x00, 0x00, 0x02, 0x00, 0x00, 0x00,
  0x04, 0x00, 0x00, 0x00, 0x06, 0x00, 0x00, 0x00, 0x32, 0x2e, 0x31, 0x31,
  0x2e, 0x30, 0x00, 0x00, 0xce, 0xec, 0xff, 0xff, 0x04, 0x00, 0x00, 0x00,
  0x10, 0x00, 0x00, 0x00, 0x31, 0x2e, 0x35, 0x2e, 0x30, 0x00, 0x00, 0x00,
  0x00, 0x00, 0x00, 0x00, 0x00, 0x00, 0x00, 0x00, 0xa4, 0xde, 0xff, 0xff,
  0xa8, 0xde, 0xff, 0xff, 0xac, 0xde, 0xff, 0xff, 0xb0, 0xde, 0xff, 0xff,
  0xb4, 0xde, 0xff, 0xff, 0xb8, 0xde, 0xff, 0xff, 0xbc, 0xde, 0xff, 0xff,
  0xc0, 0xde, 0xff, 0xff, 0xc4, 0xde, 0xff, 0xff, 0xc8, 0xde, 0xff, 0xff,
  0xcc, 0xde, 0xff, 0xff, 0xd0, 0xde, 0xff, 0xff, 0x1a, 0xed, 0xff, 0xff,
  0x04, 0x00, 0x00, 0x00, 0x78, 0x00, 0x00, 0x00, 0xb3, 0xcd, 0x4d, 0x3e,
  0xf7, 0x63, 0x12, 0xbf, 0x32, 0x39, 0xa0, 0xbe, 0x82, 0xfe, 0x21, 0x3e,
  0xae, 0xc5, 0xa5, 0x3b, 0x0b, 0xed, 0x9b, 0x3f, 0xac, 0xbe, 0x18, 0xbe,
  0x11, 0xc8, 0x33, 0x3f, 0xde, 0xa3, 0x4a, 0x3f, 0xff, 0xb9, 0x70, 0xbf,
  0xd3, 0xac, 0x90, 0x3e, 0xd5, 0xcc, 0x57, 0xbf, 0xa7, 0xc9, 0xaf, 0xbe,
  0xe2, 0x5d, 0xec, 0x3e, 0xb8, 0x2e, 0xcd, 0x3d, 0x75, 0x42, 0x71, 0xbf,
  0xbd, 0x7f, 0x09, 0xbf, 0x19, 0x8f, 0x8f, 0xbe, 0x5c, 0xaf, 0x70, 0x3f,
  0xfa, 0x03, 0x54, 0x3f, 0xe4, 0xe2, 0xff, 0x3e, 0x19, 0x08, 0xc1, 0xbd,
  0xc1, 0x6d, 0xa6, 0x3d, 0x8d, 0xdd, 0xb8, 0x3e, 0x51, 0x35, 0xb4, 0xbe,
  0x70, 0xc0, 0x85, 0xbe, 0x02, 0x16, 0x28, 0x3f, 0x31, 0xb1, 0xbc, 0xbe,
  0x4c, 0xb9, 0x85, 0xbf, 0xde, 0xbf, 0xa9, 0x3f, 0x9e, 0xed, 0xff, 0xff,
  0x04, 0x00, 0x00, 0x00, 0x90, 0x01, 0x00, 0x00, 0xd9, 0x7e, 0xab, 0xbe,
  0xf1, 0xc6, 0x18, 0xbe, 0x6b, 0xe9, 0x04, 0xbf, 0x00, 0xf8, 0x96, 0xba,
  0x18, 0xec, 0x19, 0x3e, 0x87, 0xed, 0xc9, 0x3e, 0x14, 0x88, 0x05, 0x3e,
  0xdc, 0xec, 0x9f, 0xbe, 0xf2, 0x93, 0x10, 0x3e, 0x1b, 0x9e, 0x4d, 0xbe,
  0xf9, 0xb9, 0x40, 0x3d, 0x76, 0xba, 0x1c, 0xbf, 0x36, 0x27, 0x68, 0xbe,
  0x56, 0xc3, 0x37, 0x3e, 0x88, 0xc1, 0xc8, 0x3e, 0x69, 0x07, 0x35, 0xbe,
  0x2e, 0xd1, 0xda, 0xbe, 0x0c, 0x2a, 0x9e, 0xbd, 0x84, 0xa1, 0xab, 0x3e,
  0x8f, 0xa9, 0x29, 0x3f, 0xa0, 0x6f, 0xe0, 0x3e, 0x0e, 0x12, 0x4a, 0x3d,
  0x26, 0xcd, 0xb7, 0x3e, 0x54, 0xfc, 0xc6, 0x3c, 0x1a, 0x52, 0xa6, 0x3e,
  0xb5, 0xa3, 0x60, 0xbd, 0xfc, 0xe6, 0xef, 0xbe, 0xdc, 0x20, 0xcc, 0xbe,
  0x84, 0xcb, 0x99, 0xbd, 0xdf, 0xf9, 0x35, 0x3e, 0xa2, 0x8c, 0x24, 0x3e,
  0x97, 0xb4, 0x29, 0x3c, 0x69, 0x64, 0x97, 0xbd, 0xd5, 0x4c, 0x7c, 0xbe,
  0x96, 0x00, 0x5e, 0xbe, 0xbc, 0x1a, 0xe8, 0x3d, 0x7c, 0xfb, 0xf7, 0x3e,
  0xd4, 0xac, 0x31, 0x3e, 0x63, 0x01, 0xa8, 0x3e, 0xa4, 0xd1, 0x6d, 0x3e,
  0xb0, 0x1d, 0x01, 0xbf, 0x33, 0xe1, 0xf8, 0xbe, 0x89, 0xd3, 0xd9, 0x3e,
  0x48, 0x3a, 0x80, 0xbe, 0xe8, 0xfc, 0x8f, 0x3d, 0xdf, 0x31, 0xb8, 0x3e,
  0x6c, 0xf3, 0xf4, 0xbe, 0xb6, 0xfc, 0xea, 0xbe, 0x7c, 0xb7, 0x0a, 0x3e,
  0xcf, 0xa1, 0xdd, 0x3e, 0xf0, 0x9f, 0x44, 0xbf, 0xb1, 0x42, 0x09, 0x3f,
  0x1e, 0xb2, 0x2d, 0x3e, 0x50, 0x29, 0x09, 0xbf, 0xf8, 0xaa, 0xdf, 0x3e,
  0x2d, 0x2e, 0x41, 0xbd, 0x1c, 0xeb, 0x5b, 0x3e, 0x90, 0x01, 0xb0, 0x3d,
  0xd4, 0xcc, 0xc1, 0x3e, 0x67, 0x8b, 0x22, 0xbf, 0x57, 0xf9, 0xfd, 0xbe,
  0xcd, 0x33, 0x92, 0xbe, 0x48, 0x0f, 0x50, 0x3e, 0x96, 0xe2, 0xd2, 0x3e,
  0x88, 0xeb, 0xf2, 0x3e, 0x60, 0x09, 0x27, 0x3d, 0xc8, 0x98, 0xed, 0xbe,
  0xf4, 0x77, 0x38, 0xbe, 0xf8, 0x62, 0x82, 0x3d, 0x48, 0x0f, 0xb6, 0x3d,
  0xfa, 0xcd, 0x6b, 0xbe, 0xcf, 0x8a, 0x4b, 0x3f, 0x6e, 0x02, 0xff, 0xbd,
  0x48, 0x07, 0xec, 0x3e, 0x68, 0x10, 0xf7, 0x3e, 0x0b, 0x48, 0x36, 0x3d,
  0xd6, 0xba, 0xb3, 0xbe, 0xb8, 0x60, 0x01, 0xbe, 0x83, 0x6b, 0xca, 0xbd,
  0x83, 0x2c, 0x8b, 0xbd, 0x89, 0xa2, 0x25, 0x3e, 0x70, 0x38, 0xbb, 0x3f,
  0xdb, 0x21, 0x19, 0xbf, 0x70, 0xb3, 0xb2, 0xbd, 0x40, 0x04, 0x09, 0x3f,
  0xc6, 0xdd, 0x09, 0xbe, 0x14, 0xd7, 0xdd, 0x3e, 0x80, 0x6a, 0xf3, 0x3b,
  0x34, 0xc6, 0x60, 0x3d, 0x25, 0x6c, 0x71, 0xbe, 0x16, 0x94, 0xb5, 0x3f,
  0xfb, 0x2d, 0x28, 0xbf, 0x4d, 0x59, 0xe9, 0xbe, 0xea, 0xc8, 0xde, 0xbe,
  0xbc, 0xaf, 0xdc, 0xbe, 0x1f, 0x85, 0x52, 0xbe, 0xb8, 0xee, 0xed, 0xbd,
  0x7c, 0x1c, 0xe0, 0x3e, 0xb4, 0xcc, 0x5a, 0x3e, 0x41, 0xbd, 0x70, 0x3f,
  0x3a, 0xef, 0xff, 0xff, 0x04, 0x00, 0x00, 0x00, 0x90, 0x01, 0x00, 0x00,
  0x86, 0x30, 0x4c, 0x3f, 0x96, 0x7c, 0x9d, 0xbe, 0x5f, 0x7a, 0x81, 0x3e,
  0x62, 0x98, 0xb9, 0x3e, 0x6b, 0x33, 0xd2, 0xbe, 0x24, 0x8b, 0xc9, 0xbe,
  0xea, 0x1b, 0x7e, 0x3e, 0x77, 0x98, 0x2a, 0x3f, 0xd1, 0x4c, 0x0e, 0xbe,
  0xe2, 0x56, 0x99, 0x3f, 0xb9, 0xc2, 0x13, 0xbf, 0x33, 0x26, 0x03, 0xbc,
  0xc6, 0x74, 0x27, 0x3e, 0x74, 0x72, 0x7e, 0x3e, 0x54, 0xda, 0x51, 0xbe,
  0xc5, 0x29, 0x8c, 0xbe, 0xa4, 0x74, 0x0c, 0xbf, 0xc1, 0x24, 0xaa, 0x3f,
  0xf6, 0xcc, 0x2e, 0xbf, 0xce, 0x4e, 0x86, 0xbf, 0xf7, 0x8c, 0x4b, 0x3e,
  0x25, 0x5c, 0x7f, 0xbe, 0x5a, 0xc6, 0xa5, 0xbe, 0x68, 0x99, 0xf8, 0x3d,
  0x10, 0x66, 0x3b, 0xbe, 0x3a, 0x04, 0x91, 0x3e, 0xf7, 0xc8, 0x28, 0x3d,
  0x3e, 0xb6, 0x5a, 0xbd, 0xe6, 0xa6, 0x7d, 0x3e, 0x5f, 0x5a, 0xa7, 0x3e,
  0x3e, 0xc5, 0x03, 0x3e, 0x8a, 0x8b, 0xb8, 0x3e, 0xa2, 0x02, 0x80, 0x3e,
  0x94, 0x6f, 0x6e, 0x3e, 0x60, 0x8d, 0xe4, 0x3c, 0x10, 0x24, 0x04, 0x3e,
  0xbb, 0xe2, 0x02, 0xbf, 0xa8, 0x0d, 0x8e, 0xbe, 0x6e, 0x3f, 0xcf, 0xbe,
  0x3b, 0xd5, 0xc3, 0x3e, 0x8b, 0x63, 0xb5, 0xbe, 0x80, 0x2b, 0x5e, 0x3c,
  0xb5, 0xfb, 0x8d, 0xbe, 0xc8, 0xef, 0xec, 0x3e, 0xa4, 0x6a, 0x8a, 0xbd,
  0x6a, 0x16, 0xbc, 0x3e, 0xe6, 0x57, 0x14, 0xbe, 0x98, 0x8b, 0xee, 0xbe,
  0x80, 0x87, 0x07, 0x3f, 0xf0, 0x6c, 0xdd, 0xbe, 0x0e, 0x08, 0xa3, 0xbe,
  0xff, 0xed, 0x06, 0xbe, 0xe0, 0x41, 0x0a, 0x3e, 0xac, 0x08, 0x06, 0xbf,
  0xb0, 0x70, 0x4a, 0xbd, 0x4a, 0x95, 0xb4, 0x3e, 0x63, 0x34, 0x9a, 0xbe,
  0xf8, 0xac, 0x51, 0x3d, 0xaa, 0x61, 0xe5, 0xbe, 0x7c, 0x0e, 0x4f, 0x3e,
  0x48, 0x11, 0xc4, 0xbe, 0x32, 0xcc, 0xbd, 0x3e, 0x10, 0xb4, 0xaa, 0xbe,
  0x81, 0xef, 0x0b, 0xbf, 0xe0, 0x89, 0x3a, 0x3e, 0x98, 0x52, 0xf2, 0x3e,
  0x68, 0x2b, 0xdb, 0x3d, 0xfc, 0x47, 0xe8, 0xbd, 0x84, 0xda, 0x69, 0x3e,
  0x00, 0x79, 0x9a, 0xbc, 0x7c, 0x06, 0xd6, 0x3e, 0x90, 0xa3, 0x7c, 0xbe,
  0xf0, 0x2f, 0x05, 0xbf, 0xae, 0x21, 0x8d, 0x3e, 0x82, 0x22, 0xde, 0xbe,
  0x52, 0xba, 0x64, 0xbe, 0xc0, 0xc7, 0xbf, 0x3e, 0x95, 0x22, 0x8e, 0xbe,
  0xe0, 0x55, 0x8a, 0x3e, 0xe0, 0xe5, 0xbb, 0xbc, 0x7c, 0x55, 0xa4, 0xbe,
  0x48, 0x1e, 0x02, 0x3f, 0x8a, 0xa1, 0x07, 0x3f, 0xa2, 0xcc, 0x79, 0xbe,
  0x5c, 0xcf, 0xb5, 0x3e, 0x78, 0x77, 0x59, 0xbd, 0x98, 0x5e, 0x8f, 0xbe,
  0x8d, 0x7b, 0xc8, 0x3d, 0x14, 0x3f, 0x47, 0x3e, 0x9c, 0x19, 0xfd, 0xbe,
  0x50, 0x58, 0xf6, 0x3e, 0xcd, 0x38, 0x51, 0x3e, 0xd0, 0xde, 0x53, 0xbe,
  0x4c, 0x6a, 0x55, 0xbe, 0x2d, 0xb9, 0xf2, 0xbe, 0xe8, 0xc7, 0xfe, 0xbd,
  0x7a, 0x8c, 0x27, 0xbe, 0x4a, 0x9d, 0xa8, 0x3d, 0xaf, 0xc8, 0x18, 0x3f,
  0x10, 0x68, 0x5c, 0x3f, 0xd6, 0xf0, 0xff, 0xff, 0x04, 0x00, 0x00, 0x00,
  0x90, 0x01, 0x00, 0x00, 0x20, 0x02, 0x2c, 0xbf, 0xe9, 0x9f, 0x96, 0x3e,
  0x69, 0x07, 0x5d, 0xbe, 0xe8, 0x63, 0xfe, 0xbe, 0x9d, 0xf6, 0xb3, 0x3e,
  0x23, 0x86, 0x30, 0x3f, 0xb9, 0x55, 0xa7, 0xbe, 0x17, 0x5c, 0x16, 0x3e,
  0x87, 0x8e, 0x8e, 0x3e, 0x80, 0x7a, 0x2a, 0x3c, 0x77, 0x7a, 0xcb, 0x3e,
  0x31, 0x71, 0x14, 0xbe, 0x46, 0x26, 0x04, 0x3f, 0xc2, 0x60, 0xa4, 0xbe,
  0x94, 0xc4, 0xd1, 0xbd, 0xc0, 0xe5, 0x76, 0xbe, 0x86, 0x3d, 0xca, 0xbe,
  0x29, 0x50, 0xc3, 0x3c, 0x4f, 0xb0, 0x9c, 0xbe, 0x54, 0x8e, 0x19, 0x3e,
  0x25, 0x57, 0x00, 0xbf, 0xf2, 0xbb, 0x47, 0xbc, 0xe0, 0x90, 0x2a, 0x3d,
  0xec, 0xed, 0x3d, 0x3e, 0x0b, 0x41, 0xdd, 0x3e, 0x90, 0xfe, 0xe0, 0x3d,
  0x98, 0x2d, 0xc1, 0xbd, 0x76, 0xb8, 0xb5, 0x3e, 0xcc, 0xac, 0xec, 0xbd,
  0x60, 0x86, 0x94, 0xbc, 0x9e, 0x17, 0xc0, 0x3e, 0x42, 0x01, 0x05, 0xbf,
  0x3e, 0x8c, 0x79, 0xbe, 0x50, 0xdd, 0x01, 0xbf, 0x5c, 0xdb, 0x35, 0x3e,
  0x8e, 0x76, 0x96, 0xbe, 0x00, 0x25, 0x90, 0xbb, 0xb4, 0x8e, 0x8c, 0xbd,
  0x20, 0x34, 0x5e, 0xbd, 0xf0, 0xc6, 0xe9, 0x3e, 0x5c, 0x94, 0x24, 0xbe,
  0x15, 0xb8, 0x88, 0xbe, 0x08, 0x11, 0xae, 0xbe, 0x2a, 0xbb, 0xaa, 0x3e,
  0x5c, 0x9e, 0xf0, 0xbe, 0x6c, 0xb0, 0xd4, 0xbd, 0x92, 0x11, 0xf2, 0xbe,
  0x88, 0xac, 0x2c, 0xbe, 0x6a, 0xa3, 0xcf, 0xbe, 0x4b, 0x91, 0x07, 0xbf,
  0x00, 0xef, 0xe1, 0xbc, 0x8e, 0xca, 0xa8, 0xbe, 0x10, 0x4b, 0xd9, 0xbe,
  0x3c, 0x69, 0xf3, 0xbe, 0xd4, 0xe3, 0xb3, 0xbe, 0x80, 0x22, 0xcd, 0xbb,
  0xa0, 0x63, 0x81, 0xbe, 0xf8, 0xa5, 0x02, 0xbf, 0xc0, 0x8f, 0xe4, 0x3e,
  0xb2, 0x17, 0xa5, 0xbe, 0xf8, 0x73, 0x90, 0xbe, 0xe3, 0x79, 0x6c, 0xbd,
  0xed, 0x17, 0xa0, 0x3e, 0x48, 0xce, 0xb7, 0x3e, 0x98, 0xbe, 0x0e, 0xbe,
  0x46, 0x21, 0xf2, 0xbe, 0xdc, 0x8f, 0x22, 0x3e, 0x78, 0x71, 0xb2, 0x3d,
  0xc6, 0xe5, 0x6c, 0x3d, 0xc2, 0x2d, 0x36, 0xbe, 0x77, 0xa0, 0x0e, 0x3f,
  0x80, 0xdc, 0xa1, 0x3f, 0x21, 0xbe, 0xcf, 0xbe, 0x6c, 0x4d, 0x75, 0xbe,
  0x20, 0xff, 0x2c, 0x3f, 0xfb, 0x23, 0x3c, 0x3e, 0xca, 0x2d, 0x1f, 0x3f,
  0x62, 0x08, 0x8c, 0xbe, 0x77, 0x58, 0x8e, 0x3e, 0xd8, 0x6b, 0x48, 0x3e,
  0xdd, 0x0d, 0xa3, 0x3d, 0x27, 0x69, 0x90, 0xbe, 0xfa, 0xee, 0x3a, 0xbe,
  0x91, 0x14, 0x58, 0x3e, 0x94, 0x9d, 0x75, 0xbe, 0x08, 0x5a, 0x2b, 0x3e,
  0x09, 0x08, 0x59, 0xbe, 0xce, 0xc3, 0x07, 0x3c, 0xc5, 0x1b, 0xe4, 0x3e,
  0x78, 0xdf, 0xa0, 0x3e, 0xcd, 0x6d, 0x7d, 0xbf, 0xe6, 0xa8, 0x12, 0x3e,
  0xcc, 0xc9, 0x4a, 0xbe, 0x9d, 0xc7, 0x32, 0xbe, 0xb8, 0xcd, 0x9e, 0x3e,
  0x24, 0xfd, 0x10, 0x3f, 0x9d, 0x5c, 0x11, 0x3f, 0x7c, 0xb8, 0x8d, 0x3e,
  0x68, 0xcf, 0x69, 0x3f, 0x80, 0xd5, 0x6d, 0x3d, 0x72, 0xf2, 0xff, 0xff,
  0x04, 0x00, 0x00, 0x00, 0x90, 0x01, 0x00, 0x00, 0xb0, 0x19, 0xd8, 0xbc,
  0x40, 0x4f, 0x25, 0xbe, 0x5d, 0x09, 0x07, 0x3f, 0xfd, 0x06, 0x14, 0x3f,
  0x06, 0x32, 0x50, 0x3f, 0x8a, 0xbc, 0xc7, 0xbe, 0x5b, 0xd4, 0xf6, 0x3e,
  0xc0, 0x1b, 0x8b, 0x3d, 0x66, 0xee, 0x41, 0xbe, 0x5f, 0x87, 0x33, 0xbc,
  0xdb, 0xf0, 0x2c, 0x3e, 0x16, 0xcd, 0x92, 0x3e, 0x8d, 0xd4, 0x0b, 0x3f,
  0x09, 0x52, 0x98, 0xbe, 0xb7, 0x2f, 0x2d, 0x3f, 0x19, 0x35, 0x30, 0xbe,
  0x87, 0x82, 0x78, 0x3f, 0x50, 0x58, 0x36, 0x3d, 0xa1, 0x58, 0xc3, 0xbe,
  0x4e, 0xeb, 0x95, 0x3c, 0x75, 0x58, 0xe9, 0x3e, 0xd7, 0xa7, 0x01, 0xbf,
  0x16, 0xd4, 0xc9, 0x3e, 0x2a, 0x79, 0xd8, 0x3e, 0xf5, 0xd9, 0xc1, 0x3e,
  0x4b, 0xe2, 0x05, 0xbf, 0xee, 0xe8, 0xbf, 0xbe, 0xd8, 0x5a, 0x94, 0xbe,
  0x54, 0x78, 0xdf, 0xbd, 0xa8, 0xd8, 0x70, 0x3e, 0x5a, 0x8c, 0x30, 0xbe,
  0x8c, 0xfd, 0x75, 0x3c, 0x03, 0x06, 0x6f, 0xbe, 0x9f, 0x46, 0xc0, 0xbe,
  0x6e, 0x7f, 0x22, 0x3e, 0x74, 0x6c, 0x8a, 0x3d, 0xfd, 0xf1, 0xe6, 0xbe,
  0xd4, 0x5f, 0x50, 0x3e, 0xd8, 0x95, 0x80, 0x3d, 0x8a, 0xa4, 0x00, 0xbf,
  0xe4, 0x68, 0x85, 0xbd, 0x9c, 0x39, 0xb2, 0x3e, 0xd9, 0x41, 0x12, 0x3f,
  0x7c, 0x15, 0x0c, 0x3f, 0x89, 0xef, 0x9d, 0xbd, 0x81, 0x1e, 0xa3, 0xbe,
  0xe6, 0x2c, 0x07, 0x3f, 0xa0, 0x71, 0xc2, 0xbc, 0xed, 0x39, 0xcd, 0xbd,
  0x40, 0x61, 0x78, 0x3d, 0x2f, 0x42, 0x0a, 0xbf, 0x94, 0xe5, 0xd5, 0xbe,
  0xed, 0x0a, 0x6f, 0xbd, 0x0f, 0xa0, 0x1e, 0x3f, 0x2e, 0x17, 0x23, 0x3f,
  0x63, 0x75, 0xcc, 0xbe, 0x64, 0xc3, 0x8c, 0x3e, 0x6c, 0x05, 0x54, 0x3e,
  0xec, 0x69, 0xfb, 0xbd, 0xa4, 0xd7, 0x4d, 0x3e, 0xe4, 0x40, 0xac, 0xbc,
  0xa7, 0x4e, 0xc0, 0x3e, 0x9a, 0x7d, 0x91, 0xbd, 0x68, 0xe4, 0x21, 0x3e,
  0x3e, 0x12, 0x60, 0x3e, 0x27, 0xa9, 0x0d, 0x3f, 0x90, 0x2b, 0x74, 0xbe,
  0x3a, 0x07, 0xa3, 0x3e, 0x00, 0x7a, 0x6a, 0xbd, 0x7b, 0x76, 0x84, 0xbe,
  0x09, 0x8c, 0xef, 0xbe, 0x61, 0x12, 0xf2, 0x3c, 0x0b, 0x6b, 0x17, 0x3e,
  0x9c, 0x70, 0xde, 0xbe, 0x2f, 0xc0, 0x5f, 0x3e, 0xd1, 0x68, 0x3e, 0xbe,
  0x02, 0xa3, 0xbd, 0x3e, 0x7a, 0x2e, 0xd1, 0x3e, 0xea, 0x3e, 0x08, 0x3f,
  0x8e, 0x46, 0x17, 0xbe, 0x2b, 0x6c, 0x78, 0xbe, 0x63, 0xe9, 0xf4, 0xbe,
  0x17, 0x41, 0x8c, 0xbe, 0x09, 0xec, 0x21, 0xbc, 0x73, 0x69, 0xdc, 0x3e,
  0x19, 0x5d, 0x15, 0xbd, 0x7e, 0x3a, 0x36, 0x3f, 0xb8, 0x93, 0xf5, 0xbe,
  0x98, 0x54, 0x6a, 0xbe, 0x98, 0x8f, 0x9f, 0xbe, 0x10, 0xfe, 0x47, 0xbe,
  0x1a, 0x62, 0xdb, 0xbe, 0xb0, 0x45, 0x48, 0x3d, 0x89, 0x9c, 0xe6, 0xbe,
  0xc4, 0x10, 0xd3, 0x3e, 0x14, 0x63, 0x34, 0x3e, 0xdc, 0xa3, 0xcf, 0xbd,
  0x20, 0x4e, 0x0c, 0xbd, 0x80, 0x02, 0x1c, 0x3e, 0x98, 0xe5, 0x14, 0x3e,
  0x0e, 0xf4, 0xff, 0xff, 0x04, 0x00, 0x00, 0x00, 0x90, 0x01, 0x00, 0x00,
  0x8a, 0x81, 0x03, 0xbf, 0x66, 0x91, 0xda, 0x3d, 0x4c, 0x5b, 0x03, 0x3e,
  0xca, 0xc1, 0xdb, 0xbd, 0x5a, 0x9f, 0xff, 0xbe, 0x91, 0x26, 0x9b, 0xbe,
  0xb3, 0x37, 0xad, 0x3e, 0x0d, 0x83, 0xc3, 0x3e, 0x10, 0x84, 0x89, 0x3d,
  0xaf, 0xc2, 0xb0, 0xbe, 0xf7, 0xe4, 0xc9, 0x3e, 0x48, 0xd2, 0xb8, 0x3e,
  0xc0, 0x62, 0xef, 0x3d, 0x12, 0xe4, 0xa3, 0x3e, 0xcd, 0x39, 0xc7, 0x3e,
  0xc1, 0xf3, 0xf2, 0x3e, 0xa0, 0xf8, 0x80, 0xbd, 0x78, 0xf9, 0xa1, 0x3e,
  0xf5, 0x1d, 0x61, 0x3e, 0xab, 0x76, 0xa7, 0xbe, 0xa6, 0x3a, 0x85, 0x3e,
  0x2b, 0x42, 0xee, 0x3e, 0xf0, 0x54, 0x46, 0x3d, 0xe3, 0xdf, 0xac, 0x3a,
  0xa7, 0xba, 0x96, 0x3e, 0x2c, 0xf6, 0xd8, 0x3d, 0xa9, 0x95, 0x00, 0xbf,
  0xf6, 0x36, 0x25, 0x3f, 0x68, 0x69, 0xe7, 0x3d, 0x41, 0xf1, 0xa1, 0xbd,
  0x6f, 0x89, 0x3e, 0xbe, 0xbe, 0x29, 0xd5, 0xbe, 0x4b, 0x2a, 0xd2, 0xbe,
  0x2f, 0x4d, 0x16, 0xbf, 0x63, 0x4d, 0xe7, 0xbe, 0x5b, 0xba, 0xce, 0xbd,
  0x20, 0x51, 0xc2, 0xbe, 0x64, 0xbd, 0x06, 0xbf, 0xd0, 0x80, 0x20, 0x3e,
  0x47, 0x91, 0xf0, 0x3e, 0x29, 0xcd, 0x54, 0xbf, 0x6f, 0x27, 0xcb, 0x3e,
  0xc5, 0x4c, 0x86, 0xbe, 0xef, 0x53, 0x19, 0xbe, 0xde, 0x9f, 0xfc, 0x3d,
  0xc7, 0xd2, 0x24, 0xbe, 0x65, 0x15, 0xc0, 0x3e, 0x2f, 0xa5, 0x3a, 0x3f,
  0xfe, 0x5f, 0xd3, 0xbe, 0x3e, 0xe6, 0xc0, 0x3e, 0x97, 0x05, 0x79, 0x3e,
  0xb3, 0x03, 0x05, 0x3e, 0xdc, 0x65, 0x71, 0xbe, 0x8b, 0xb0, 0x91, 0x3e,
  0x21, 0xad, 0x09, 0x3f, 0xd8, 0xff, 0x8f, 0x3d, 0x67, 0xd1, 0x9d, 0xbe,
  0xfa, 0x92, 0xb6, 0xbd, 0x72, 0xa7, 0xc0, 0xbd, 0x2f, 0xa2, 0x9e, 0xbe,
  0xa4, 0xc8, 0x51, 0xbf, 0x29, 0x42, 0x05, 0x3f, 0xf8, 0xc6, 0x09, 0x3f,
  0x95, 0x77, 0x09, 0xbf, 0x4d, 0x87, 0x07, 0xbf, 0x12, 0xa2, 0x99, 0x3e,
  0xb2, 0x90, 0xf7, 0xbe, 0x16, 0xa3, 0x86, 0xbe, 0x56, 0x76, 0x41, 0xbe,
  0x02, 0xb4, 0x4c, 0xbe, 0x00, 0x08, 0xd9, 0x3b, 0x51, 0x21, 0xbe, 0xbe,
  0x0e, 0x56, 0xf4, 0xbe, 0xb0, 0x76, 0x4c, 0x3d, 0xe0, 0x9c, 0x43, 0x3d,
  0x6c, 0x9f, 0xe7, 0x3e, 0x48, 0x7a, 0xfc, 0xbd, 0x8c, 0x08, 0xd3, 0xbe,
  0x9c, 0xe3, 0x6c, 0x3e, 0x52, 0xbf, 0x91, 0x3e, 0xf5, 0xbe, 0x0b, 0xbf,
  0xfa, 0x66, 0x95, 0x3e, 0x37, 0x52, 0xa3, 0xbe, 0xf0, 0x9d, 0xba, 0x3e,
  0x95, 0x4c, 0x06, 0xbf, 0x90, 0xc1, 0xe9, 0x3d, 0xdf, 0xf3, 0xbb, 0xbe,
  0x26, 0xbe, 0x9b, 0xbe, 0xda, 0x1f, 0xa8, 0xbe, 0xb4, 0x1e, 0x0f, 0x3e,
  0xa8, 0x19, 0x7a, 0x3e, 0xf9, 0x17, 0x98, 0xbd, 0x2c, 0xff, 0x4a, 0x3e,
  0x58, 0x59, 0x0b, 0xbe, 0x7f, 0x12, 0x9a, 0xbe, 0xd9, 0x27, 0x57, 0x3e,
  0x4c, 0x30, 0x8d, 0xbe, 0x69, 0xc0, 0x9b, 0xbd, 0x9d, 0xab, 0xa1, 0xbe,
  0x4c, 0x09, 0xe0, 0x3e, 0xaa, 0xf5, 0xff, 0xff, 0x04, 0x00, 0x00, 0x00,
  0x90, 0x01, 0x00, 0x00, 0xc4, 0xe1, 0x9e, 0x3e, 0x7a, 0x01, 0x16, 0xbe,
  0xa4, 0xe3, 0xeb, 0xbe, 0xfe, 0x23, 0xc6, 0xbe, 0xdb, 0xca, 0x1b, 0xbe,
  0x7c, 0x68, 0xb1, 0xbe, 0xdf, 0x09, 0xc3, 0xbe, 0xf1, 0x68, 0x18, 0xbf,
  0x7a, 0x9a, 0x1a, 0xbc, 0x75, 0x19, 0x95, 0xbb, 0x95, 0xad, 0x07, 0xbf,
  0x8b, 0xa2, 0xdf, 0xbe, 0x6b, 0xd8, 0xba, 0xbe, 0x80, 0x22, 0x9b, 0xbd,
  0x8c, 0xb9, 0x98, 0x3b, 0x30, 0x0b, 0xa6, 0xbe, 0xee, 0x4d, 0x61, 0x3e,
  0x37, 0xb4, 0x21, 0x3d, 0x61, 0x7c, 0x58, 0x3f, 0xbc, 0x11, 0xa1, 0x3e,
  0x30, 0x9b, 0x54, 0x3e, 0xc2, 0x1a, 0xbc, 0xbe, 0xcc, 0x72, 0x69, 0xbe,
  0x60, 0xb5, 0x50, 0x3e, 0x28, 0xaa, 0x3e, 0x3e, 0xca, 0xef, 0x21, 0xbe,
  0x60, 0x29, 0xcf, 0xbd, 0x80, 0x16, 0x80, 0x3c, 0x57, 0x7c, 0xfd, 0xbe,
  0xa4, 0x38, 0x9b, 0xbe, 0x83, 0x09, 0x03, 0xbe, 0xc5, 0x68, 0xb5, 0xbe,
  0xb2, 0x93, 0x8d, 0x3e, 0x0d, 0x28, 0xb1, 0xbd, 0x31, 0x1d, 0x00, 0xbf,
  0x63, 0xf3, 0xcd, 0xbe, 0x93, 0xb1, 0x03, 0x3f, 0xe9, 0x59, 0xc4, 0x3d,
  0xd8, 0xc2, 0x75, 0x3e, 0xba, 0xd4, 0xee, 0xbe, 0x6b, 0x51, 0x05, 0x3d,
  0xd5, 0xfa, 0x04, 0xbe, 0x03, 0x91, 0x84, 0xbe, 0x85, 0xbb, 0x35, 0xbc,
  0x52, 0x02, 0xd4, 0xbc, 0xc5, 0xbe, 0xa4, 0x3e, 0x8a, 0xcc, 0x51, 0x3e,
  0x7f, 0xb5, 0xbe, 0xbe, 0x55, 0x90, 0x08, 0xbe, 0x67, 0xf0, 0x45, 0x3e,
  0x8b, 0x35, 0x04, 0xbe, 0x63, 0x33, 0xc7, 0xbe, 0x65, 0x45, 0x4c, 0x3e,
  0xd5, 0x84, 0xc1, 0x3c, 0x23, 0xb6, 0x9b, 0x3e, 0xdd, 0xf9, 0x9e, 0x3d,
  0x01, 0xb9, 0x90, 0x3e, 0x9f, 0xab, 0x09, 0xbf, 0x47, 0xe9, 0x06, 0x3f,
  0x55, 0xbf, 0x32, 0x3e, 0x1d, 0x58, 0x07, 0xbf, 0x4e, 0xb9, 0x8a, 0xbe,
  0x4e, 0x45, 0xe2, 0xbd, 0xa5, 0xb9, 0x71, 0xbe, 0xcb, 0xc9, 0xcb, 0x3e,
  0xe6, 0xaa, 0x03, 0xbf, 0xee, 0xf9, 0x93, 0x3e, 0x61, 0xa2, 0x64, 0x3d,
  0xa1, 0x18, 0x85, 0x3e, 0xf4, 0x0d, 0xe8, 0x3d, 0x3d, 0x07, 0xf4, 0xbd,
  0x29, 0xc3, 0x14, 0x3e, 0xdb, 0x91, 0x01, 0xbf, 0x2b, 0x04, 0xa9, 0x3e,
  0xee, 0x05, 0xd5, 0x3e, 0x31, 0x21, 0xc1, 0x3d, 0xb6, 0x39, 0x98, 0xbe,
  0x63, 0x1f, 0x7c, 0xbe, 0x57, 0xab, 0x5a, 0x3f, 0x19, 0x90, 0x70, 0xbe,
  0xec, 0xcf, 0xf8, 0x3e, 0x1e, 0xf6, 0xda, 0xbe, 0x68, 0x23, 0x22, 0xbe,
  0x7f, 0xb7, 0xf3, 0xbe, 0x01, 0xa8, 0xeb, 0xbe, 0x0a, 0xa8, 0x02, 0xbf,
  0xd2, 0xc8, 0xfd, 0x3e, 0xfc, 0x6f, 0x98, 0x3e, 0x42, 0x57, 0x05, 0xbf,
  0xb7, 0x92, 0x70, 0xbe, 0xdd, 0xfc, 0x72, 0xbe, 0xb4, 0x8a, 0x9e, 0xbe,
  0xd0, 0x10, 0x88, 0xbe, 0x38, 0xbc, 0x9e, 0x3c, 0x06, 0x57, 0xf8, 0xbe,
  0x60, 0xca, 0xe3, 0xbe, 0x7a, 0x5c, 0xd1, 0x3e, 0x98, 0x02, 0xdb, 0xbe,
  0x40, 0x87, 0xde, 0xbe, 0x99, 0xa5, 0x04, 0x3f, 0x46, 0xf7, 0xff, 0xff,
  0x04, 0x00, 0x00, 0x00, 0x90, 0x01, 0x00, 0x00, 0x75, 0x04, 0xab, 0xbe,
  0xda, 0x53, 0xee, 0x3e, 0x4d, 0x30, 0x6a, 0xbd, 0xd9, 0x8c, 0xbb, 0xbe,
  0x41, 0xeb, 0x1e, 0x3e, 0x3e, 0x52, 0xc2, 0x3e, 0x44, 0x12, 0x4d, 0xbe,
  0xdd, 0xe4, 0x99, 0x3c, 0x10, 0x6d, 0xb1, 0xbe, 0xb1, 0xcc, 0x13, 0xbe,
  0xae, 0xf0, 0xb2, 0x3e, 0x43, 0x3e, 0x80, 0x3e, 0x58, 0x4e, 0xdb, 0xbe,
  0xfa, 0xe0, 0xb0, 0xbb, 0x5f, 0x24, 0xd8, 0xbc, 0x29, 0xb0, 0xe9, 0xbe,
  0xfd, 0xb7, 0x3f, 0xbd, 0xe4, 0x67, 0xe1, 0xbd, 0x3a, 0xf0, 0x87, 0x3e,
  0x4d, 0x95, 0x82, 0xbe, 0xc1, 0xdc, 0xd3, 0x3e, 0xb2, 0xa1, 0xbb, 0xbe,
  0x57, 0x38, 0xb6, 0x3d, 0xe8, 0x37, 0x34, 0xbe, 0x4e, 0x57, 0xd8, 0x3e,
  0x3c, 0xa7, 0xf9, 0xbe, 0xe0, 0xcc, 0xc2, 0x3e, 0xeb, 0x60, 0x88, 0xbe,
  0xfb, 0x3f, 0x63, 0xbe, 0x58, 0x0f, 0xab, 0x3e, 0xce, 0xc5, 0xa6, 0x3e,
  0x6c, 0xe1, 0x81, 0xb9, 0x28, 0xfd, 0xf2, 0x3e, 0xaa, 0xa1, 0x07, 0x3f,
  0xb9, 0xd3, 0xbd, 0xbe, 0xa9, 0x14, 0x9d, 0x3e, 0xb1, 0x57, 0x94, 0xbe,
  0xc2, 0xd0, 0xd9, 0x3d, 0xb7, 0x70, 0x18, 0xbe, 0x79, 0xc5, 0x3d, 0x3d,
  0xa1, 0x6a, 0xbc, 0x3d, 0x84, 0x88, 0x84, 0x3e, 0x08, 0x2b, 0x68, 0x3e,
  0x26, 0x08, 0x83, 0x3e, 0x47, 0x9b, 0x9a, 0xbe, 0x08, 0x05, 0x0c, 0xbe,
  0x37, 0x67, 0x81, 0x3d, 0x16, 0x83, 0x75, 0xbb, 0xa5, 0x0b, 0xe6, 0x3e,
  0x8b, 0x4d, 0x07, 0x3e, 0xd0, 0xd4, 0xdd, 0x3e, 0x24, 0x4b, 0x77, 0x3e,
  0xa0, 0x12, 0xdd, 0x3e, 0x01, 0xce, 0xfe, 0xbe, 0x1c, 0xf2, 0xdb, 0x3e,
  0x50, 0x08, 0x52, 0x3e, 0xcd, 0xca, 0xa4, 0xbe, 0x69, 0x66, 0xb5, 0x3e,
  0x59, 0xb5, 0xa4, 0x3e, 0xf4, 0x75, 0x8b, 0xbe, 0x13, 0x74, 0x1f, 0xbe,
  0x54, 0xc0, 0x19, 0x3d, 0x14, 0x9a, 0x08, 0xbf, 0x8b, 0xfd, 0xf9, 0xbb,
  0x11, 0x51, 0xe8, 0x3e, 0x5d, 0xa4, 0xd3, 0x3e, 0xdc, 0xe1, 0x73, 0xbe,
  0x2b, 0x43, 0x04, 0x3d, 0x51, 0xc9, 0x9c, 0xbe, 0xd9, 0x82, 0xe1, 0xbe,
  0xc7, 0x1e, 0x0e, 0x3f, 0x81, 0xfe, 0x3f, 0x3e, 0x9f, 0x26, 0xb3, 0xbe,
  0x08, 0x45, 0xd5, 0x3e, 0x9a, 0x5c, 0xfc, 0xbe, 0xa6, 0x7f, 0x6f, 0x3e,
  0xb8, 0x89, 0xcd, 0x3c, 0x4b, 0xd0, 0x19, 0xbe, 0x2e, 0xbb, 0x9a, 0xbe,
  0xce, 0x9f, 0x81, 0x3e, 0x4f, 0x04, 0x91, 0x3d, 0xc4, 0x7c, 0x61, 0x3f,
  0x88, 0xf3, 0x1a, 0x3f, 0x59, 0x95, 0xcc, 0xbe, 0x6f, 0xfe, 0x04, 0x3e,
  0x15, 0xae, 0xfd, 0xbd, 0x76, 0x32, 0x1d, 0x3f, 0x88, 0xa8, 0xc7, 0x3d,
  0x87, 0x11, 0xc3, 0x3d, 0x4f, 0x93, 0x08, 0x3f, 0xde, 0x35, 0x67, 0xbe,
  0x82, 0xc2, 0x77, 0xbe, 0xcd, 0xa3, 0x04, 0xbe, 0xb3, 0x43, 0x00, 0xbe,
  0x0a, 0x34, 0x4f, 0xbe, 0x06, 0x8c, 0xec, 0x3e, 0xe1, 0xcd, 0xec, 0x3e,
  0x61, 0x07, 0x9a, 0x3e, 0x63, 0xb8, 0xba, 0x3e, 0x31, 0xd5, 0x02, 0x3f,
  0xe2, 0xf8, 0xff, 0xff, 0x04, 0x00, 0x00, 0x00, 0x90, 0x01, 0x00, 0x00,
  0x2e, 0x93, 0xc6, 0xbe, 0x9b, 0xa3, 0x8e, 0xbe, 0xfa, 0xa1, 0xde, 0x3e,
  0xc9, 0x84, 0x10, 0x3f, 0xef, 0x76, 0xb7, 0xbe, 0xdd, 0x7f, 0x8c, 0x3e,
  0x23, 0xb9, 0xcc, 0xbe, 0xc6, 0x73, 0xf4, 0x3d, 0xb7, 0x30, 0xbd, 0xbe,
  0xc1, 0xfe, 0x19, 0xbe, 0xc2, 0x82, 0xfe, 0xbe, 0xe5, 0x21, 0xa1, 0x3e,
  0x43, 0x41, 0x3b, 0x3f, 0x77, 0xf8, 0x03, 0xbf, 0xa3, 0x6b, 0x65, 0x3d,
  0xf3, 0x94, 0xbb, 0x3e, 0xff, 0x8d, 0x19, 0xbf, 0xd5, 0x96, 0xbe, 0x3e,
  0xb6, 0x25, 0xc1, 0xbe, 0xdc, 0x66, 0xa6, 0xbe, 0xd1, 0x75, 0x84, 0x3e,
  0x8d, 0xa4, 0x08, 0x3e, 0x43, 0x70, 0x3e, 0x3f, 0x93, 0x79, 0x28, 0x3e,
  0xe2, 0x90, 0x9c, 0x3b, 0x5d, 0x24, 0x47, 0xbd, 0x26, 0x08, 0x28, 0xbe,
  0x88, 0x7d, 0x86, 0xbd, 0xe7, 0xfc, 0x24, 0x3d, 0x73, 0xc9, 0xaf, 0xbe,
  0x70, 0x77, 0x91, 0x3d, 0x50, 0x52, 0x2c, 0xbe, 0x6e, 0xe2, 0xca, 0x3b,
  0x7d, 0xfa, 0x43, 0xbe, 0xd3, 0x58, 0xc6, 0x3c, 0x42, 0x56, 0x09, 0xbf,
  0x3d, 0x0c, 0x3b, 0xbd, 0xd0, 0x2d, 0xbd, 0x3e, 0x5a, 0xd1, 0x05, 0x3d,
  0xd9, 0xe1, 0xce, 0x3d, 0xfd, 0x83, 0xb3, 0x3e, 0x3b, 0x11, 0xb7, 0xbe,
  0xb2, 0x31, 0xc0, 0xbe, 0xef, 0x7a, 0xa4, 0x3e, 0x28, 0x65, 0x14, 0xbd,
  0x35, 0xe8, 0xe3, 0x3d, 0x72, 0xf4, 0x02, 0xbe, 0xe1, 0xe2, 0x20, 0xbd,
  0xeb, 0xff, 0xfd, 0xbd, 0xfc, 0xb6, 0x90, 0xbd, 0x6c, 0xbc, 0xf6, 0x3d,
  0x5a, 0x3e, 0x93, 0x3e, 0xe1, 0x0c, 0xea, 0xbd, 0xd9, 0x40, 0x03, 0x3f,
  0x7c, 0x9e, 0x44, 0x3e, 0x76, 0x78, 0x86, 0x3d, 0xe6, 0xa5, 0xea, 0x3e,
  0xf5, 0xc7, 0x00, 0xbf, 0x0c, 0xed, 0xee, 0xbe, 0xe2, 0x9d, 0x44, 0xbe,
  0xce, 0xc5, 0xae, 0xbe, 0xa9, 0xe5, 0xab, 0xbe, 0x0e, 0x84, 0x05, 0x3f,
  0x1d, 0x79, 0xf0, 0xbe, 0x29, 0xa0, 0xe4, 0x3e, 0xab, 0xb8, 0xca, 0x3d,
  0x94, 0x0f, 0x3c, 0xbe, 0xd5, 0x6d, 0xf2, 0xbe, 0xb3, 0x87, 0x23, 0x3e,
  0xb0, 0x83, 0xd6, 0xbe, 0xb8, 0xeb, 0x1a, 0xbe, 0x76, 0x4a, 0xf1, 0x3e,
  0x86, 0x99, 0x8e, 0x3e, 0xbc, 0x64, 0xf9, 0x3e, 0x40, 0xca, 0x08, 0x3f,
  0x4a, 0xd2, 0x6d, 0x3e, 0xa1, 0xa3, 0x87, 0x3d, 0x91, 0x9f, 0x27, 0xbd,
  0xaf, 0xb9, 0x8a, 0xbe, 0xa4, 0xf0, 0x8e, 0x3e, 0xa9, 0xdd, 0x01, 0xbf,
  0xc6, 0x1d, 0x32, 0x3d, 0xd1, 0xee, 0x8f, 0x3e, 0x26, 0x81, 0x45, 0xbc,
  0xd0, 0xd7, 0xd6, 0xbe, 0x69, 0x8b, 0x3b, 0xbe, 0x9d, 0xb6, 0x8c, 0xbe,
  0x7f, 0xd6, 0x9b, 0x3d, 0xc6, 0xe0, 0x0e, 0xbe, 0x9d, 0xbc, 0xdc, 0x3c,
  0x03, 0x20, 0xd3, 0x3e, 0xc5, 0xaa, 0x30, 0x3e, 0xfc, 0x74, 0xc8, 0x3e,
  0x8c, 0x79, 0xd6, 0xbe, 0x6a, 0x70, 0x57, 0x3d, 0x48, 0x48, 0xb0, 0x3d,
  0x73, 0xc5, 0xc5, 0x3e, 0x3f, 0x8a, 0x87, 0xbe, 0xb4, 0x53, 0x1d, 0xbe,
  0xa8, 0x5c, 0x61, 0xbd, 0x7e, 0xfa, 0xff, 0xff, 0x04, 0x00, 0x00, 0x00,
  0x90, 0x01, 0x00, 0x00, 0x20, 0x7b, 0x1f, 0x3e, 0x80, 0x9b, 0xc1, 0x3e,
  0x22, 0x23, 0x9b, 0xbd, 0xa2, 0x03, 0x3a, 0x3e, 0x71, 0x22, 0x03, 0xbf,
  0x14, 0x33, 0xc2, 0xbe, 0x16, 0x98, 0x08, 0x3f, 0xb9, 0x05, 0xb4, 0xbd,
  0x77, 0xda, 0x02, 0xbf, 0x75, 0x76, 0x85, 0x3e, 0x43, 0x4a, 0x86, 0xbe,
  0xc2, 0x3a, 0xfb, 0xbe, 0xf2, 0x25, 0x20, 0xbe, 0xc1, 0x43, 0x06, 0x3f,
  0xcd, 0x4b, 0xcd, 0x3e, 0x84, 0x80, 0x95, 0x3e, 0x64, 0x8e, 0xb2, 0x3d,
  0xc2, 0x30, 0xdf, 0xbe, 0x49, 0x68, 0xbf, 0x3e, 0x10, 0x19, 0x60, 0xbe,
  0x21, 0x81, 0x71, 0x3f, 0xed, 0x7b, 0x03, 0xbf, 0x9b, 0x01, 0x87, 0x3e,
  0xd0, 0xce, 0xc2, 0xbe, 0xc9, 0x8c, 0x96, 0xbe, 0x41, 0x99, 0xc5, 0x3e,
  0x39, 0xa1, 0xd6, 0x3d, 0x62, 0x9d, 0xa1, 0xbe, 0x54, 0xd7, 0xd0, 0x3e,
  0x72, 0x45, 0x74, 0x3e, 0xd8, 0x3b, 0xd7, 0x3e, 0xa8, 0x39, 0x94, 0x3e,
  0x51, 0xa6, 0xb5, 0x3e, 0x96, 0x3f, 0x5a, 0x3d, 0x8b, 0x9b, 0xb7, 0xbd,
  0xc2, 0xb1, 0x7f, 0x3e, 0x25, 0xf5, 0x03, 0xbe, 0x27, 0xaf, 0x62, 0x3e,
  0x80, 0xdd, 0xc2, 0xbe, 0x4f, 0xf6, 0xd5, 0xbd, 0x75, 0x62, 0x28, 0xbe,
  0xf1, 0x14, 0x86, 0x3e, 0xf4, 0x72, 0x9d, 0x3e, 0xc9, 0xe9, 0xce, 0x3d,
  0x52, 0xb1, 0xfb, 0xbe, 0x59, 0x46, 0x06, 0x3f, 0x7f, 0xa0, 0x58, 0xbe,
  0xfe, 0x2d, 0x9f, 0xbe, 0x71, 0xa9, 0xfd, 0xbe, 0xcb, 0xac, 0x33, 0xbc,
  0xed, 0x90, 0x1a, 0x3f, 0x1d, 0x38, 0x88, 0x3e, 0xc2, 0xe9, 0x1e, 0x3e,
  0xb4, 0xee, 0x05, 0x3e, 0x03, 0xd4, 0x93, 0xbe, 0xf8, 0x33, 0x5d, 0x3e,
  0xa5, 0x14, 0xca, 0x3e, 0x56, 0x20, 0xcc, 0x3d, 0x45, 0x3e, 0x6f, 0x3d,
  0xcb, 0x47, 0xa6, 0x3e, 0xb6, 0x14, 0xbf, 0xbd, 0x04, 0x22, 0x4d, 0x3e,
  0x8d, 0xbc, 0xdf, 0x3e, 0x61, 0x6b, 0xc9, 0xba, 0xb0, 0xc5, 0x1d, 0x3f,
  0x84, 0xfd, 0xc3, 0x3e, 0x91, 0xe7, 0x01, 0xbe, 0xd9, 0xd1, 0xec, 0x3e,
  0x0e, 0x3b, 0xcc, 0xbe, 0xbf, 0xe7, 0xac, 0xbe, 0xb8, 0x50, 0x97, 0xbe,
  0xb6, 0x25, 0x94, 0xbe, 0xd6, 0x6f, 0xd1, 0xbe, 0x72, 0xef, 0x8b, 0x3e,
  0xc3, 0xca, 0x8e, 0x3e, 0xd3, 0x35, 0x03, 0xbf, 0xb8, 0x50, 0xb8, 0xbe,
  0xa1, 0x2d, 0xdd, 0x3e, 0x23, 0x94, 0x6a, 0xbd, 0x17, 0x01, 0xe5, 0xbe,
  0xe6, 0xf9, 0x3b, 0xbe, 0x4d, 0x5c, 0x2b, 0xbe, 0x8f, 0x8e, 0x99, 0xbe,
  0x26, 0xf4, 0xe2, 0xbe, 0x02, 0x18, 0xf7, 0x3e, 0x36, 0x26, 0x7c, 0xbe,
  0x67, 0x5a, 0x9f, 0xbe, 0xf6, 0x3f, 0xf8, 0xbe, 0xb9, 0x78, 0x02, 0xbf,
  0x5e, 0x1e, 0x06, 0xbf, 0xb0, 0xcf, 0xfc, 0xbd, 0x06, 0xf9, 0x89, 0xbe,
  0xfe, 0xb3, 0x32, 0xbb, 0x3f, 0x21, 0x81, 0xbe, 0xf8, 0xa1, 0x84, 0xbe,
  0x73, 0xde, 0x76, 0x3e, 0xa7, 0x25, 0x31, 0xbe, 0xf0, 0xe4, 0xae, 0xbe,
  0x30, 0x18, 0x58, 0x3e, 0xeb, 0x4b, 0x9e, 0x3e, 0x1a, 0xfc, 0xff, 0xff,
  0x04, 0x00, 0x00, 0x00, 0x08, 0x02, 0x00, 0x00, 0xeb, 0x93, 0x55, 0x3f,
  0x1f, 0xc8, 0x0a, 0x3e, 0x97, 0xe5, 0xeb, 0x3e, 0xda, 0x26, 0x0e, 0xbf,
  0xa0, 0xe8, 0x44, 0x3b, 0x6d, 0x6f, 0x7e, 0xbd, 0xab, 0x31, 0x06, 0x3f,
  0x83, 0x4c, 0x0e, 0xbe, 0x04, 0x9b, 0xd5, 0x3d, 0xb4, 0x30, 0x60, 0xbe,
  0xbd, 0x2f, 0x91, 0xbe, 0x17, 0x88, 0x02, 0x3e, 0xc7, 0xe2, 0x4b, 0x3f,
  0xd1, 0x52, 0x9c, 0x3e, 0x85, 0x20, 0x89, 0x3e, 0xc2, 0x6b, 0xdd, 0xbd,
  0x00, 0xf8, 0x44, 0x3d, 0x16, 0x8e, 0x82, 0x3e, 0x3a, 0xdc, 0xa4, 0xbe,
  0x0f, 0xff, 0x32, 0xbf, 0x82, 0x4e, 0x8d, 0x3e, 0x42, 0x60, 0x73, 0xbd,
  0x8a, 0x39, 0x28, 0x3f, 0x11, 0x3f, 0x88, 0xbe, 0x79, 0x51, 0xe3, 0xbc,
  0xf8, 0x27, 0x8f, 0xbe, 0xfc, 0xfe, 0xde, 0xbe, 0x8f, 0x52, 0x84, 0x3e,
  0xa6, 0x30, 0x21, 0x3e, 0x13, 0xc4, 0x3e, 0xbe, 0xb5, 0x01, 0x84, 0xbe,
  0x4d, 0xe7, 0x86, 0x3d, 0x31, 0x3e, 0xf2, 0x3e, 0xe4, 0x8e, 0x7a, 0x3e,
  0xa1, 0x30, 0x84, 0x3e, 0x57, 0x1b, 0x87, 0xbe, 0xcb, 0x28, 0xf9, 0x3e,
  0x0b, 0xa7, 0x7b, 0x3d, 0x7c, 0xc6, 0x9d, 0x3e, 0xed, 0xab, 0x81, 0xbe,
  0x48, 0x21, 0x5a, 0xbe, 0xcb, 0x94, 0xb0, 0x3e, 0x69, 0x09, 0x99, 0x3d,
  0x91, 0x67, 0x0f, 0x3e, 0xc3, 0x01, 0x0a, 0x3e, 0xaa, 0xec, 0x16, 0xbe,
  0x07, 0x1c, 0xdd, 0xbe, 0xd3, 0x8e, 0x72, 0xbe, 0x6c, 0x1e, 0x8d, 0x3e,
  0xf5, 0xd5, 0x78, 0xbd, 0x86, 0x9a, 0xad, 0x3d, 0x97, 0x11, 0xb1, 0xbd,
  0xb0, 0xfe, 0x8b, 0x3d, 0x17, 0xb1, 0x13, 0x3e, 0xca, 0xab, 0x9d, 0x3d,
  0x96, 0x3f, 0x85, 0x3e, 0x38, 0x3e, 0xd4, 0x3e, 0xb9, 0xed, 0x62, 0xbe,
  0x12, 0x1c, 0x40, 0xbe, 0x32, 0x10, 0xcf, 0xbd, 0xac, 0x00, 0x37, 0x3e,
  0x0e, 0x38, 0x86, 0x3e, 0xfc, 0xd0, 0x17, 0xbe, 0xf8, 0x1c, 0xe5, 0xbe,
  0x6a, 0xe7, 0x44, 0xbe, 0x49, 0x0f, 0xb7, 0x3e, 0xc8, 0x5f, 0x4a, 0x3e,
  0xa9, 0x17, 0xdd, 0xbe, 0xe3, 0x21, 0xea, 0xbe, 0xc4, 0x02, 0xae, 0xbe,
  0x58, 0xb8, 0x52, 0x3e, 0xbb, 0xc8, 0x15, 0x3e, 0xa8, 0xd3, 0x0e, 0xbf,
  0x87, 0x1d, 0x62, 0x3e, 0xb1, 0x5d, 0xa1, 0xbe, 0x8f, 0x60, 0x9c, 0x3e,
  0xe5, 0x6b, 0x06, 0xbe, 0x7b, 0x13, 0x1b, 0xbe, 0xa8, 0x94, 0xf9, 0xbe,
  0xb4, 0x56, 0xc1, 0xbe, 0x0c, 0xd6, 0x87, 0x3e, 0xf5, 0xd9, 0x01, 0x3f,
  0x09, 0x97, 0xa8, 0x3e, 0xf3, 0x59, 0xdd, 0x3d, 0x6a, 0x1c, 0x91, 0x3e,
  0x59, 0xc7, 0x3d, 0xbe, 0x3f, 0xcf, 0x89, 0xbe, 0x06, 0xb6, 0x40, 0x3e,
  0x53, 0x76, 0xad, 0x3b, 0x79, 0x93, 0xc1, 0x3e, 0xef, 0xa3, 0xf1, 0x3e,
  0xa8, 0xc2, 0xf6, 0x3e, 0xf9, 0xa4, 0xd7, 0x3e, 0x49, 0x07, 0x91, 0x3e,
  0x8c, 0x5a, 0x11, 0x3e, 0x1f, 0x9c, 0x43, 0x3e, 0xb6, 0x75, 0x75, 0x3e,
  0xb5, 0x08, 0xa1, 0xbe, 0xef, 0x2f, 0x8f, 0x3d, 0x96, 0x8c, 0x99, 0xba,
  0xd3, 0xfa, 0x88, 0xbe, 0xab, 0x2b, 0xe9, 0xbe, 0xec, 0xfd, 0x05, 0xbf,
  0xb2, 0xca, 0xa5, 0xbd, 0x9a, 0x9d, 0x32, 0x3e, 0x19, 0x02, 0xff, 0x3e,
  0x2d, 0x3c, 0x02, 0x3e, 0x07, 0xf0, 0x19, 0xbe, 0xc5, 0x68, 0x04, 0x3d,
  0x30, 0x59, 0x0a, 0x3f, 0xf5, 0x32, 0x1d, 0xbe, 0x44, 0xd1, 0x7c, 0x3e,
  0x00, 0x2d, 0x88, 0xbe, 0xdd, 0xfd, 0xe6, 0xbe, 0x77, 0x77, 0xa4, 0x3c,
  0x77, 0xbe, 0x19, 0x3e, 0x70, 0x6e, 0x90, 0x3e, 0x27, 0x7d, 0x9b, 0xbb,
  0xae, 0x29, 0x96, 0xbe, 0x0e, 0x6b, 0xcb, 0x3e, 0x3e, 0x5b, 0xba, 0xbe,
  0x92, 0x08, 0x84, 0xbe, 0xdc, 0x9e, 0x6b, 0xbd, 0x8d, 0xba, 0xbf, 0x3d,
  0xae, 0x91, 0x0b, 0x3e, 0x00, 0xa3, 0x6e, 0x3e, 0x9b, 0x8a, 0x0c, 0xbe,
  0xbc, 0xb7, 0x29, 0x3e, 0xda, 0xa1, 0x9d, 0xbd, 0x86, 0x4e, 0xfd, 0x3e,
  0x2e, 0xfe, 0xff, 0xff, 0x04, 0x00, 0x00, 0x00, 0x28, 0x00, 0x00, 0x00,
  0xef, 0x69, 0xc5, 0x3e, 0x96, 0x86, 0x91, 0xbe, 0x26, 0x42, 0xbc, 0xbe,
  0x4e, 0xcc, 0x9b, 0xbc, 0x36, 0xd2, 0x48, 0xbe, 0xd2, 0x55, 0x75, 0xbb,
  0xba, 0x33, 0x49, 0x3e, 0xac, 0xc1, 0xa0, 0x3e, 0xfb, 0x14, 0xd3, 0x3e,
  0xa6, 0x8b, 0xe0, 0xbe, 0x62, 0xfe, 0xff, 0xff, 0x04, 0x00, 0x00, 0x00,
  0x0c, 0x00, 0x00, 0x00, 0xe1, 0x7e, 0x37, 0x3f, 0x88, 0x65, 0xbb, 0xbf,
  0xd5, 0x71, 0x04, 0xbf, 0x7a, 0xfe, 0xff, 0xff, 0x04, 0x00, 0x00, 0x00,
  0x28, 0x00, 0x00, 0x00, 0x1a, 0x3a, 0xb1, 0x3f, 0x04, 0x68, 0xb4, 0xbf,
  0x69, 0xbc, 0x4e, 0xbd, 0xcc, 0xeb, 0xde, 0xbe, 0xfa, 0x4e, 0x50, 0xbf,
  0xd5, 0x94, 0x80, 0xbe, 0xfa, 0xed, 0xc4, 0xbe, 0x9e, 0x2a, 0xa9, 0x3e,
  0xe2, 0xc2, 0x53, 0xbf, 0x6d, 0xe1, 0xed, 0x3f, 0xae, 0xfe, 0xff, 0xff,
  0x04, 0x00, 0x00, 0x00, 0x28, 0x00, 0x00, 0x00, 0xbf, 0xa2, 0x64, 0x3f,
  0x34, 0x12, 0xd5, 0x3f, 0x5c, 0xc6, 0xb0, 0xbe, 0xa0, 0x69, 0x62, 0xbe,
  0xc0, 0x37, 0x72, 0x3f, 0xdc, 0xae, 0xc4, 0x3f, 0xdd, 0x09, 0x52, 0x3f,
  0x82, 0x47, 0x4e, 0xbe, 0x7a, 0xfb, 0x02, 0x40, 0x62, 0x58, 0x00, 0xbf,
  0xe2, 0xfe, 0xff, 0xff, 0x04, 0x00, 0x00, 0x00, 0x28, 0x00, 0x00, 0x00,
  0x9f, 0xb8, 0xb5, 0x3f, 0x97, 0x4a, 0xe0, 0x3e, 0xd6, 0x05, 0xc3, 0xbe,
  0x0d, 0xc0, 0x8a, 0x3f, 0x4e, 0x51, 0x06, 0xbf, 0xac, 0x3b, 0x87, 0xbe,
  0xd2, 0xb4, 0x20, 0x3d, 0x11, 0x23, 0x71, 0xbd, 0x96, 0x12, 0x88, 0x3e,
  0xd4, 0xa6, 0xe8, 0x3a, 0x16, 0xff, 0xff, 0xff, 0x04, 0x00, 0x00, 0x00,
  0x28, 0x00, 0x00, 0x00, 0x17, 0xc0, 0xa2, 0x3e, 0xe9, 0xa4, 0x9c, 0x3f,
  0x85, 0xbc, 0x56, 0x3f, 0xc8, 0x1e, 0x1f, 0x3e, 0x5f, 0x43, 0x4d, 0xbf,
  0x30, 0x95, 0x17, 0xbe, 0x46, 0xb6, 0x82, 0x3f, 0xff, 0x14, 0x41, 0x3f,
  0xbb, 0x9c, 0x2b, 0xbe, 0x2f, 0xe0, 0x80, 0x3e, 0x04, 0xf1, 0xff, 0xff,
  0x08, 0xf1, 0xff, 0xff, 0x0f, 0x00, 0x00, 0x00, 0x4d, 0x4c, 0x49, 0x52,
  0x20, 0x43, 0x6f, 0x6e, 0x76, 0x65, 0x72, 0x74, 0x65, 0x64, 0x2e, 0x00,
  0x01, 0x00, 0x00, 0x00, 0x14, 0x00, 0x00, 0x00, 0x00, 0x00, 0x0e, 0x00,
  0x18, 0x00, 0x14, 0x00, 0x10, 0x00, 0x0c, 0x00, 0x08, 0x00, 0x04, 0x00,
  0x0e, 0x00, 0x00, 0x00, 0x14, 0x00, 0x00, 0x00, 0x1c, 0x00, 0x00, 0x00,
  0xb4, 0x02, 0x00, 0x00, 0xb8, 0x02, 0x00, 0x00, 0xbc, 0x02, 0x00, 0x00,
  0x04, 0x00, 0x00, 0x00, 0x6d, 0x61, 0x69, 0x6e, 0x00, 0x00, 0x00, 0x00,
  0x0c, 0x00, 0x00, 0x00, 0x68, 0x02, 0x00, 0x00, 0x24, 0x02, 0x00, 0x00,
  0xf0, 0x01, 0x00, 0x00, 0xbc, 0x01, 0x00, 0x00, 0x88, 0x01, 0x00, 0x00,
  0x54, 0x01, 0x00, 0x00, 0x20, 0x01, 0x00, 0x00, 0xec, 0x00, 0x00, 0x00,
  0xb8, 0x00, 0x00, 0x00, 0x84, 0x00, 0x00, 0x00, 0x50, 0x00, 0x00, 0x00,
  0x14, 0x00, 0x00, 0x00, 0x00, 0x00, 0x0e, 0x00, 0x1a, 0x00, 0x14, 0x00,
  0x10, 0x00, 0x0c, 0x00, 0x0b, 0x00, 0x04, 0x00, 0x0e, 0x00, 0x00, 0x00,
  0x1c, 0x00, 0x00, 0x00, 0x00, 0x00, 0x00, 0x09, 0x1c, 0x00, 0x00, 0x00,
  0x20, 0x00, 0x00, 0x00, 0x01, 0x00, 0x00, 0x00, 0x00, 0x00, 0x06, 0x00,
  0x08, 0x00, 0x04, 0x00, 0x06, 0x00, 0x00, 0x00, 0x00, 0x00, 0x80, 0x3f,
  0x01, 0x00, 0x00, 0x00, 0x1d, 0x00, 0x00, 0x00, 0x01, 0x00, 0x00, 0x00,
  0x1c, 0x00, 0x00, 0x00, 0x1e, 0xfe, 0xff, 0xff, 0x10, 0x00, 0x00, 0x00,
  0x00, 0x00, 0x00, 0x08, 0x0c, 0x00, 0x00, 0x00, 0x10, 0x00, 0x00, 0x00,
  0xec, 0xf1, 0xff, 0xff, 0x01, 0x00, 0x00, 0x00, 0x1c, 0x00, 0x00, 0x00,
  0x03, 0x00, 0x00, 0x00, 0x1b, 0x00, 0x00, 0x00, 0x11, 0x00, 0x00, 0x00,
  0x05, 0x00, 0x00, 0x00, 0x4e, 0xfe, 0xff, 0xff, 0x10, 0x00, 0x00, 0x00,
  0x00, 0x00, 0x00, 0x08, 0x0c, 0x00, 0x00, 0x00, 0x10, 0x00, 0x00, 0x00,
  0x1c, 0xf2, 0xff, 0xff, 0x01, 0x00, 0x00, 0x00, 0x1b, 0x00, 0x00, 0x00,
  0x03, 0x00, 0x00, 0x00, 0x1a, 0x00, 0x00, 0x00, 0x10, 0x00, 0x00, 0x00,
  0xff, 0xff, 0xff, 0xff, 0x7e, 0xfe, 0xff, 0xff, 0x10, 0x00, 0x00, 0x00,
  0x00, 0x00, 0x00, 0x08, 0x0c, 0x00, 0x00, 0x00, 0x10, 0x00, 0x00, 0x00,
  0x4c, 0xf2, 0xff, 0xff, 0x01, 0x00, 0x00, 0x00, 0x1a, 0x00, 0x00, 0x00,
  0x03, 0x00, 0x00, 0x00, 0x19, 0x00, 0x00, 0x00, 0x0f, 0x00, 0x00, 0x00,
  0x04, 0x00, 0x00, 0x00, 0xae, 0xfe, 0xff, 0xff, 0x10, 0x00, 0x00, 0x00,
  0x00, 0x00, 0x00, 0x08, 0x0c, 0x00, 0x00, 0x00, 0x10, 0x00, 0x00, 0x00,
  0x7c, 0xf2, 0xff, 0xff, 0x01, 0x00, 0x00, 0x00, 0x19, 0x00, 0x00, 0x00,
  0x03, 0x00, 0x00, 0x00, 0x18, 0x00, 0x00, 0x00, 0x0e, 0x00, 0x00, 0x00,
  0xff, 0xff, 0xff, 0xff, 0xde, 0xfe, 0xff, 0xff, 0x10, 0x00, 0x00, 0x00,
  0x00, 0x00, 0x00, 0x08, 0x0c, 0x00, 0x00, 0x00, 0x10, 0x00, 0x00, 0x00,
  0xac, 0xf2, 0xff, 0xff, 0x01, 0x00, 0x00, 0x00, 0x18, 0x00, 0x00, 0x00,
  0x03, 0x00, 0x00, 0x00, 0x17, 0x00, 0x00, 0x00, 0x0d, 0x00, 0x00, 0x00,
  0x03, 0x00, 0x00, 0x00, 0x0e, 0xff, 0xff, 0xff, 0x10, 0x00, 0x00, 0x00,
  0x00, 0x00, 0x00, 0x08, 0x0c, 0x00, 0x00, 0x00, 0x10, 0x00, 0x00, 0x00,
  0xdc, 0xf2, 0xff, 0xff, 0x01, 0x00, 0x00, 0x00, 0x17, 0x00, 0x00, 0x00,
  0x03, 0x00, 0x00, 0x00, 0x16, 0x00, 0x00, 0x00, 0x0c, 0x00, 0x00, 0x00,
  0xff, 0xff, 0xff, 0xff, 0x3e, 0xff, 0xff, 0xff, 0x10, 0x00, 0x00, 0x00,
  0x00, 0x00, 0x00, 0x08, 0x0c, 0x00, 0x00, 0x00, 0x10, 0x00, 0x00, 0x00,
  0x0c, 0xf3, 0xff, 0xff, 0x01, 0x00, 0x00, 0x00, 0x16, 0x00, 0x00, 0x00,
  0x03, 0x00, 0x00, 0x00, 0x15, 0x00, 0x00, 0x00, 0x0b, 0x00, 0x00, 0x00,
  0x02, 0x00, 0x00, 0x00, 0x6e, 0xff, 0xff, 0xff, 0x10, 0x00, 0x00, 0x00,
  0x00, 0x00, 0x00, 0x08, 0x0c, 0x00, 0x00, 0x00, 0x10, 0x00, 0x00, 0x00,
  0x3c, 0xf3, 0xff, 0xff, 0x01, 0x00, 0x00, 0x00, 0x15, 0x00, 0x00, 0x00,
  0x03, 0x00, 0x00, 0x00, 0x14, 0x00, 0x00, 0x00, 0x0a, 0x00, 0x00, 0x00,
  0xff, 0xff, 0xff, 0xff, 0x9e, 0xff, 0xff, 0xff, 0x10, 0x00, 0x00, 0x00,
  0x00, 0x00, 0x00, 0x08, 0x0c, 0x00, 0x00, 0x00, 0x10, 0x00, 0x00, 0x00,
  0x6c, 0xf3, 0xff, 0xff, 0x01, 0x00, 0x00, 0x00, 0x14, 0x00, 0x00, 0x00,
  0x03, 0x00, 0x00, 0x00, 0x13, 0x00, 0x00, 0x00, 0x09, 0x00, 0x00, 0x00,
  0x01, 0x00, 0x00, 0x00, 0xce, 0xff, 0xff, 0xff, 0x10, 0x00, 0x00, 0x00,
  0x00, 0x00, 0x00, 0x08, 0x0c, 0x00, 0x00, 0x00, 0x10, 0x00, 0x00, 0x00,
  0x9c, 0xf3, 0xff, 0xff, 0x01, 0x00, 0x00, 0x00, 0x13, 0x00, 0x00, 0x00,
  0x03, 0x00, 0x00, 0x00, 0x12, 0x00, 0x00, 0x00, 0x08, 0x00, 0x00, 0x00,
  0xff, 0xff, 0xff, 0xff, 0x00, 0x00, 0x0e, 0x00, 0x14, 0x00, 0x00, 0x00,
  0x10, 0x00, 0x0c, 0x00, 0x0b, 0x00, 0x04, 0x00, 0x0e, 0x00, 0x00, 0x00,
  0x10, 0x00, 0x00, 0x00, 0x00, 0x00, 0x00, 0x08, 0x0c, 0x00, 0x00, 0x00,
  0x10, 0x00, 0x00, 0x00, 0xdc, 0xf3, 0xff, 0xff, 0x01, 0x00, 0x00, 0x00,
  0x12, 0x00, 0x00, 0x00, 0x03, 0x00, 0x00, 0x00, 0x00, 0x00, 0x00, 0x00,
  0x07, 0x00, 0x00, 0x00, 0x06, 0x00, 0x00, 0x00, 0x01, 0x00, 0x00, 0x00,
  0x1d, 0x00, 0x00, 0x00, 0x01, 0x00, 0x00, 0x00, 0x00, 0x00, 0x00, 0x00,
  0x1e, 0x00, 0x00, 0x00, 0xcc, 0x0b, 0x00, 0x00, 0x4c, 0x0b, 0x00, 0x00,
  0xcc, 0x0a, 0x00, 0x00, 0x64, 0x0a, 0x00, 0x00, 0xfc, 0x09, 0x00, 0x00,
  0x94, 0x09, 0x00, 0x00, 0x38, 0x09, 0x00, 0x00, 0xe8, 0x08, 0x00, 0x00,
  0x98, 0x08, 0x00, 0x00, 0x48, 0x08, 0x00, 0x00, 0xf8, 0x07, 0x00, 0x00,
  0xa8, 0x07, 0x00, 0x00, 0x58, 0x07, 0x00, 0x00, 0x08, 0x07, 0x00, 0x00,
  0xb8, 0x06, 0x00, 0x00, 0x68, 0x06, 0x00, 0x00, 0x18, 0x06, 0x00, 0x00,
  0xc8, 0x05, 0x00, 0x00, 0x4c, 0x05, 0x00, 0x00, 0xec, 0x04, 0x00, 0x00,
  0x50, 0x04, 0x00, 0x00, 0xf0, 0x03, 0x00, 0x00, 0x54, 0x03, 0x00, 0x00,
  0xf4, 0x02, 0x00, 0x00, 0x58, 0x02, 0x00, 0x00, 0xf8, 0x01, 0x00, 0x00,
  0x5c, 0x01, 0x00, 0x00, 0xfc, 0x00, 0x00, 0x00, 0x60, 0x00, 0x00, 0x00,
  0x04, 0x00, 0x00, 0x00, 0xc2, 0xf4, 0xff, 0xff, 0x00, 0x00, 0x00, 0x01,
  0x14, 0x00, 0x00, 0x00, 0x1c, 0x00, 0x00, 0x00, 0x1c, 0x00, 0x00, 0x00,
  0x1e, 0x00, 0x00, 0x00, 0x34, 0x00, 0x00, 0x00, 0x02, 0x00, 0x00, 0x00,
  0xff, 0xff, 0xff, 0xff, 0x03, 0x00, 0x00, 0x00, 0xac, 0xf4, 0xff, 0xff,
  0x19, 0x00, 0x00, 0x00, 0x53, 0x74, 0x61, 0x74, 0x65, 0x66, 0x75, 0x6c,
  0x50, 0x61, 0x72, 0x74, 0x69, 0x74, 0x69, 0x6f, 0x6e, 0x65, 0x64, 0x43,
  0x61, 0x6c, 0x6c, 0x3a, 0x30, 0x00, 0x00, 0x00, 0x02, 0x00, 0x00, 0x00,
  0x01, 0x00, 0x00, 0x00, 0x03, 0x00, 0x00, 0x00, 0x1a, 0xf5, 0xff, 0xff,
  0x00, 0x00, 0x00, 0x01, 0x14, 0x00, 0x00, 0x00, 0x1c, 0x00, 0x00, 0x00,
  0x1c, 0x00, 0x00, 0x00, 0x1d, 0x00, 0x00, 0x00, 0x74, 0x00, 0x00, 0x00,
  0x02, 0x00, 0x00, 0x00, 0xff, 0xff, 0xff, 0xff, 0x03, 0x00, 0x00, 0x00,
  0x04, 0xf5, 0xff, 0xff, 0x58, 0x00, 0x00, 0x00, 0x73, 0x65, 0x71, 0x75,
  0x65, 0x6e, 0x74, 0x69, 0x61, 0x6c, 0x5f, 0x33, 0x2f, 0x64, 0x65, 0x6e,
  0x73, 0x65, 0x5f, 0x32, 0x34, 0x2f, 0x42, 0x69, 0x61, 0x73, 0x41, 0x64,
  0x64, 0x3b, 0x73, 0x65, 0x71, 0x75, 0x65, 0x6e, 0x74, 0x69, 0x61, 0x6c,
  0x5f, 0x33, 0x2f, 0x64, 0x65, 0x6e, 0x73, 0x65, 0x5f, 0x32, 0x35, 0x2f,
  0x4d, 0x61, 0x74, 0x4d, 0x75, 0x6c, 0x3b, 0x73, 0x65, 0x71, 0x75, 0x65,
  0x6e, 0x74, 0x69, 0x61, 0x6c, 0x5f, 0x33, 0x2f, 0x64, 0x65, 0x6e, 0x73,
  0x65, 0x5f, 0x32, 0x35, 0x2f, 0x42, 0x69, 0x61, 0x73, 0x41, 0x64, 0x64,
  0x00, 0x00, 0x00, 0x00, 0x02, 0x00, 0x00, 0x00, 0x01, 0x00, 0x00, 0x00,
  0x03, 0x00, 0x00, 0x00, 0xb2, 0xf5, 0xff, 0xff, 0x00, 0x00, 0x00, 0x01,
  0x14, 0x00, 0x00, 0x00, 0x1c, 0x00, 0x00, 0x00, 0x1c, 0x00, 0x00, 0x00,
  0x1c, 0x00, 0x00, 0x00, 0x38, 0x00, 0x00, 0x00, 0x02, 0x00, 0x00, 0x00,
  0xff, 0xff, 0xff, 0xff, 0x0a, 0x00, 0x00, 0x00, 0x9c, 0xf5, 0xff, 0xff,
  0x1d, 0x00, 0x00, 0x00, 0x73, 0x65, 0x71, 0x75, 0x65, 0x6e, 0x74, 0x69,
  0x61, 0x6c, 0x5f, 0x33, 0x2f, 0x64, 0x65, 0x6e, 0x73, 0x65, 0x5f, 0x32,
  0x34, 0x2f, 0x4d, 0x61, 0x74, 0x4d, 0x75, 0x6c, 0x31, 0x00, 0x00, 0x00,
  0x02, 0x00, 0x00, 0x00, 0x01, 0x00, 0x00, 0x00, 0x0a, 0x00, 0x00, 0x00,
  0x0e, 0xf6, 0xff, 0xff, 0x00, 0x00, 0x00, 0x01, 0x14, 0x00, 0x00, 0x00,
  0x1c, 0x00, 0x00, 0x00, 0x1c, 0x00, 0x00, 0x00, 0x1b, 0x00, 0x00, 0x00,
  0x74, 0x00, 0x00, 0x00, 0x02, 0x00, 0x00, 0x00, 0xff, 0xff, 0xff, 0xff,
  0x0a, 0x00, 0x00, 0x00, 0xf8, 0xf5, 0xff, 0xff, 0x58, 0x00, 0x00, 0x00,
  0x73, 0x65, 0x71, 0x75, 0x65, 0x6e, 0x74, 0x69, 0x61, 0x6c, 0x5f, 0x33,
  0x2f, 0x64, 0x65, 0x6e, 0x73, 0x65, 0x5f, 0x32, 0x32, 0x2f, 0x42, 0x69,
  0x61, 0x73, 0x41, 0x64, 0x64, 0x3b, 0x73, 0x65, 0x71, 0x75, 0x65, 0x6e,
  0x74, 0x69, 0x61, 0x6c, 0x5f, 0x33, 0x2f, 0x64, 0x65, 0x6e, 0x73, 0x65,
  0x5f, 0x32, 0x33, 0x2f, 0x4d, 0x61, 0x74, 0x4d, 0x75, 0x6c, 0x3b, 0x73,
  0x65, 0x71, 0x75, 0x65, 0x6e, 0x74, 0x69, 0x61, 0x6c, 0x5f, 0x33, 0x2f,
  0x64, 0x65, 0x6e, 0x73, 0x65, 0x5f, 0x32, 0x33, 0x2f, 0x42, 0x69, 0x61,
  0x73, 0x41, 0x64, 0x64, 0x00, 0x00, 0x00, 0x00, 0x02, 0x00, 0x00, 0x00,
  0x01, 0x00, 0x00, 0x00, 0x0a, 0x00, 0x00, 0x00, 0xa6, 0xf6, 0xff, 0xff,
  0x00, 0x00, 0x00, 0x01, 0x14, 0x00, 0x00, 0x00, 0x1c, 0x00, 0x00, 0x00,
  0x1c, 0x00, 0x00, 0x00, 0x1a, 0x00, 0x00, 0x00, 0x38, 0x00, 0x00, 0x00,
  0x02, 0x00, 0x00, 0x00, 0xff, 0xff, 0xff, 0xff, 0x0a, 0x00, 0x00, 0x00,
  0x90, 0xf6, 0xff, 0xff, 0x1d, 0x00, 0x00, 0x00, 0x73, 0x65, 0x71, 0x75,
  0x65, 0x6e, 0x74, 0x69, 0x61, 0x6c, 0x5f, 0x33, 0x2f, 0x64, 0x65, 0x6e,
  0x73, 0x65, 0x5f, 0x32, 0x32, 0x2f, 0x4d, 0x61, 0x74, 0x4d, 0x75, 0x6c,
  0x31, 0x00, 0x00, 0x00, 0x02, 0x00, 0x00, 0x00, 0x01, 0x00, 0x00, 0x00,
  0x0a, 0x00, 0x00, 0x00, 0x02, 0xf7, 0xff, 0xff, 0x00, 0x00, 0x00, 0x01,
  0x14, 0x00, 0x00, 0x00, 0x1c, 0x00, 0x00, 0x00, 0x1c, 0x00, 0x00, 0x00,
  0x19, 0x00, 0x00, 0x00, 0x74, 0x00, 0x00, 0x00, 0x02, 0x00, 0x00, 0x00,
  0xff, 0xff, 0xff, 0xff, 0x0a, 0x00, 0x00, 0x00, 0xec, 0xf6, 0xff, 0xff,
  0x58, 0x00, 0x00, 0x00, 0x73, 0x65, 0x71, 0x75, 0x65, 0x6e, 0x74, 0x69,
  0x61, 0x6c, 0x5f, 0x33, 0x2f, 0x64, 0x65, 0x6e, 0x73, 0x65, 0x5f, 0x32,
  0x30, 0x2f, 0x42, 0x69, 0x61, 0x73, 0x41, 0x64, 0x64, 0x3b, 0x73, 0x65,
  0x71, 0x75, 0x65, 0x6e, 0x74, 0x69, 0x61, 0x6c, 0x5f, 0x33, 0x2f, 0x64,
  0x65, 0x6e, 0x73, 0x65, 0x5f, 0x32, 0x31, 0x2f, 0x4d, 0x61, 0x74, 0x4d,
  0x75, 0x6c, 0x3b, 0x73, 0x65, 0x71, 0x75, 0x65, 0x6e, 0x74, 0x69, 0x61,
  0x6c, 0x5f, 0x33, 0x2f, 0x64, 0x65, 0x6e, 0x73, 0x65, 0x5f, 0x32, 0x31,
  0x2f, 0x42, 0x69, 0x61, 0x73, 0x41, 0x64, 0x64, 0x00, 0x00, 0x00, 0x00,
  0x02, 0x00, 0x00, 0x00, 0x01, 0x00, 0x00, 0x00, 0x0a, 0x00, 0x00, 0x00,
  0x9a, 0xf7, 0xff, 0xff, 0x00, 0x00, 0x00, 0x01, 0x14, 0x00, 0x00, 0x00,
  0x1c, 0x00, 0x00, 0x00, 0x1c, 0x00, 0x00, 0x00, 0x18, 0x00, 0x00, 0x00,
  0x38, 0x00, 0x00, 0x00, 0x02, 0x00, 0x00, 0x00, 0xff, 0xff, 0xff, 0xff,
  0x0a, 0x00, 0x00, 0x00, 0x84, 0xf7, 0xff, 0xff, 0x1d, 0x00, 0x00, 0x00,
  0x73, 0x65, 0x71, 0x75, 0x65, 0x6e, 0x74, 0x69, 0x61, 0x6c, 0x5f, 0x33,
  0x2f, 0x64, 0x65, 0x6e, 0x73, 0x65, 0x5f, 0x32, 0x30, 0x2f, 0x4d, 0x61,
  0x74, 0x4d, 0x75, 0x6c, 0x31, 0x00, 0x00, 0x00, 0x02, 0x00, 0x00, 0x00,
  0x01, 0x00, 0x00, 0x00, 0x0a, 0x00, 0x00, 0x00, 0xf6, 0xf7, 0xff, 0xff,
  0x00, 0x00, 0x00, 0x01, 0x14, 0x00, 0x00, 0x00, 0x1c, 0x00, 0x00, 0x00,
  0x1c, 0x00, 0x00, 0x00, 0x17, 0x00, 0x00, 0x00, 0x74, 0x00, 0x00, 0x00,
  0x02, 0x00, 0x00, 0x00, 0xff, 0xff, 0xff, 0xff, 0x0a, 0x00, 0x00, 0x00,
  0xe0, 0xf7, 0xff, 0xff, 0x58, 0x00, 0x00, 0x00, 0x73, 0x65, 0x71, 0x75,
  0x65, 0x6e, 0x74, 0x69, 0x61, 0x6c, 0x5f, 0x33, 0x2f, 0x64, 0x65, 0x6e,
  0x73, 0x65, 0x5f, 0x31, 0x38, 0x2f, 0x42, 0x69, 0x61, 0x73, 0x41, 0x64,
  0x64, 0x3b, 0x73, 0x65, 0x71, 0x75, 0x65, 0x6e, 0x74, 0x69, 0x61, 0x6c,
  0x5f, 0x33, 0x2f, 0x64, 0x65, 0x6e, 0x73, 0x65, 0x5f, 0x31, 0x39, 0x2f,
  0x4d, 0x61, 0x74, 0x4d, 0x75, 0x6c, 0x3b, 0x73, 0x65, 0x71, 0x75, 0x65,
  0x6e, 0x74, 0x69, 0x61, 0x6c, 0x5f, 0x33, 0x2f, 0x64, 0x65, 0x6e, 0x73,
  0x65, 0x5f, 0x31, 0x39, 0x2f, 0x42, 0x69, 0x61, 0x73, 0x41, 0x64, 0x64,
  0x00, 0x00, 0x00, 0x00, 0x02, 0x00, 0x00, 0x00, 0x01, 0x00, 0x00, 0x00,
  0x0a, 0x00, 0x00, 0x00, 0x8e, 0xf8, 0xff, 0xff, 0x00, 0x00, 0x00, 0x01,
  0x14, 0x00, 0x00, 0x00, 0x1c, 0x00, 0x00, 0x00, 0x1c, 0x00, 0x00, 0x00,
  0x16, 0x00, 0x00, 0x00, 0x38, 0x00, 0x00, 0x00, 0x02, 0x00, 0x00, 0x00,
  0xff, 0xff, 0xff, 0xff, 0x0a, 0x00, 0x00, 0x00, 0x78, 0xf8, 0xff, 0xff,
  0x1d, 0x00, 0x00, 0x00, 0x73, 0x65, 0x71, 0x75, 0x65, 0x6e, 0x74, 0x69,
  0x61, 0x6c, 0x5f, 0x33, 0x2f, 0x64, 0x65, 0x6e, 0x73, 0x65, 0x5f, 0x31,
  0x38, 0x2f, 0x4d, 0x61, 0x74, 0x4d, 0x75, 0x6c, 0x31, 0x00, 0x00, 0x00,
  0x02, 0x00, 0x00, 0x00, 0x01, 0x00, 0x00, 0x00, 0x0a, 0x00, 0x00, 0x00,
  0xea, 0xf8, 0xff, 0xff, 0x00, 0x00, 0x00, 0x01, 0x14, 0x00, 0x00, 0x00,
  0x1c, 0x00, 0x00, 0x00, 0x1c, 0x00, 0x00, 0x00, 0x15, 0x00, 0x00, 0x00,
  0x74, 0x00, 0x00, 0x00, 0x02, 0x00, 0x00, 0x00, 0xff, 0xff, 0xff, 0xff,
  0x0a, 0x00, 0x00, 0x00, 0xd4, 0xf8, 0xff, 0xff, 0x58, 0x00, 0x00, 0x00,
  0x73, 0x65, 0x71, 0x75, 0x65, 0x6e, 0x74, 0x69, 0x61, 0x6c, 0x5f, 0x33,
  0x2f, 0x64, 0x65, 0x6e, 0x73, 0x65, 0x5f, 0x31, 0x36, 0x2f, 0x42, 0x69,
  0x61, 0x73, 0x41, 0x64, 0x64, 0x3b, 0x73, 0x65, 0x71, 0x75, 0x65, 0x6e,
  0x74, 0x69, 0x61, 0x6c, 0x5f, 0x33, 0x2f, 0x64, 0x65, 0x6e, 0x73, 0x65,
  0x5f, 0x31, 0x37, 0x2f, 0x4d, 0x61, 0x74, 0x4d, 0x75, 0x6c, 0x3b, 0x73,
  0x65, 0x71, 0x75, 0x65, 0x6e, 0x74, 0x69, 0x61, 0x6c, 0x5f, 0x33, 0x2f,
  0x64, 0x65, 0x6e, 0x73, 0x65, 0x5f, 0x31, 0x37, 0x2f, 0x42, 0x69, 0x61,
  0x73, 0x41, 0x64, 0x64, 0x00, 0x00, 0x00, 0x00, 0x02, 0x00, 0x00, 0x00,
  0x01, 0x00, 0x00, 0x00, 0x0a, 0x00, 0x00, 0x00, 0x82, 0xf9, 0xff, 0xff,
  0x00, 0x00, 0x00, 0x01, 0x14, 0x00, 0x00, 0x00, 0x1c, 0x00, 0x00, 0x00,
  0x1c, 0x00, 0x00, 0x00, 0x14, 0x00, 0x00, 0x00, 0x38, 0x00, 0x00, 0x00,
  0x02, 0x00, 0x00, 0x00, 0xff, 0xff, 0xff, 0xff, 0x0a, 0x00, 0x00, 0x00,
  0x6c, 0xf9, 0xff, 0xff, 0x1d, 0x00, 0x00, 0x00, 0x73, 0x65, 0x71, 0x75,
  0x65, 0x6e, 0x74, 0x69, 0x61, 0x6c, 0x5f, 0x33, 0x2f, 0x64, 0x65, 0x6e,
  0x73, 0x65, 0x5f, 0x31, 0x36, 0x2f, 0x4d, 0x61, 0x74, 0x4d, 0x75, 0x6c,
  0x31, 0x00, 0x00, 0x00, 0x02, 0x00, 0x00, 0x00, 0x01, 0x00, 0x00, 0x00,
  0x0a, 0x00, 0x00, 0x00, 0xde, 0xf9, 0xff, 0xff, 0x00, 0x00, 0x00, 0x01,
  0x14, 0x00, 0x00, 0x00, 0x1c, 0x00, 0x00, 0x00, 0x1c, 0x00, 0x00, 0x00,
  0x13, 0x00, 0x00, 0x00, 0x54, 0x00, 0x00, 0x00, 0x02, 0x00, 0x00, 0x00,
  0xff, 0xff, 0xff, 0xff, 0x0a, 0x00, 0x00, 0x00, 0xc8, 0xf9, 0xff, 0xff,
  0x3a, 0x00, 0x00, 0x00, 0x73, 0x65, 0x71, 0x75, 0x65, 0x6e, 0x74, 0x69,
  0x61, 0x6c, 0x5f, 0x33, 0x2f, 0x64, 0x65, 0x6e, 0x73, 0x65, 0x5f, 0x31,
  0x35, 0x2f, 0x4d, 0x61, 0x74, 0x4d, 0x75, 0x6c, 0x3b, 0x73, 0x65, 0x71,
  0x75, 0x65, 0x6e, 0x74, 0x69, 0x61, 0x6c, 0x5f, 0x33, 0x2f, 0x64, 0x65,
  0x6e, 0x73, 0x65, 0x5f, 0x31, 0x35, 0x2f, 0x42, 0x69, 0x61, 0x73, 0x41,
  0x64, 0x64, 0x00, 0x00, 0x02, 0x00, 0x00, 0x00, 0x01, 0x00, 0x00, 0x00,
  0x0a, 0x00, 0x00, 0x00, 0xd2, 0xfa, 0xff, 0xff, 0x00, 0x00, 0x00, 0x01,
  0x10, 0x00, 0x00, 0x00, 0x10, 0x00, 0x00, 0x00, 0x12, 0x00, 0x00, 0x00,
  0x2c, 0x00, 0x00, 0x00, 0x30, 0xfa, 0xff, 0xff, 0x1c, 0x00, 0x00, 0x00,
  0x73, 0x65, 0x71, 0x75, 0x65, 0x6e, 0x74, 0x69, 0x61, 0x6c, 0x5f, 0x33,
  0x2f, 0x64, 0x65, 0x6e, 0x73, 0x65, 0x5f, 0x32, 0x35, 0x2f, 0x4d, 0x61,
  0x74, 0x4d, 0x75, 0x6c, 0x00, 0x00, 0x00, 0x00, 0x02, 0x00, 0x00, 0x00,
  0x03, 0x00, 0x00, 0x00, 0x0a, 0x00, 0x00, 0x00, 0x1e, 0xfb, 0xff, 0xff,
  0x00, 0x00, 0x00, 0x01, 0x10, 0x00, 0x00, 0x00, 0x10, 0x00, 0x00, 0x00,
  0x11, 0x00, 0x00, 0x00, 0x2c, 0x00, 0x00, 0x00, 0x7c, 0xfa, 0xff, 0xff,
  0x1c, 0x00, 0x00, 0x00, 0x73, 0x65, 0x71, 0x75, 0x65, 0x6e, 0x74, 0x69,
  0x61, 0x6c, 0x5f, 0x33, 0x2f, 0x64, 0x65, 0x6e, 0x73, 0x65, 0x5f, 0x32,
  0x34, 0x2f, 0x4d, 0x61, 0x74, 0x4d, 0x75, 0x6c, 0x00, 0x00, 0x00, 0x00,
  0x02, 0x00, 0x00, 0x00, 0x0a, 0x00, 0x00, 0x00, 0x0a, 0x00, 0x00, 0x00,
  0x6a, 0xfb, 0xff, 0xff, 0x00, 0x00, 0x00, 0x01, 0x10, 0x00, 0x00, 0x00,
  0x10, 0x00, 0x00, 0x00, 0x10, 0x00, 0x00, 0x00, 0x2c, 0x00, 0x00, 0x00,
  0xc8, 0xfa, 0xff, 0xff, 0x1c, 0x00, 0x00, 0x00, 0x73, 0x65, 0x71, 0x75,
  0x65, 0x6e, 0x74, 0x69, 0x61, 0x6c, 0x5f, 0x33, 0x2f, 0x64, 0x65, 0x6e,
  0x73, 0x65, 0x5f, 0x32, 0x33, 0x2f, 0x4d, 0x61, 0x74, 0x4d, 0x75, 0x6c,
  0x00, 0x00, 0x00, 0x00, 0x02, 0x00, 0x00, 0x00, 0x0a, 0x00, 0x00, 0x00,
  0x0a, 0x00, 0x00, 0x00, 0xb6, 0xfb, 0xff, 0xff, 0x00, 0x00, 0x00, 0x01,
  0x10, 0x00, 0x00, 0x00, 0x10, 0x00, 0x00, 0x00, 0x0f, 0x00, 0x00, 0x00,
  0x2c, 0x00, 0x00, 0x00, 0x14, 0xfb, 0xff, 0xff, 0x1c, 0x00, 0x00, 0x00,
  0x73, 0x65, 0x71, 0x75, 0x65, 0x6e, 0x74, 0x69, 0x61, 0x6c, 0x5f, 0x33,
  0x2f, 0x64, 0x65, 0x6e, 0x73, 0x65, 0x5f, 0x32, 0x32, 0x2f, 0x4d, 0x61,
  0x74, 0x4d, 0x75, 0x6c, 0x00, 0x00, 0x00, 0x00, 0x02, 0x00, 0x00, 0x00,
  0x0a, 0x00, 0x00, 0x00, 0x0a, 0x00, 0x00, 0x00, 0x02, 0xfc, 0xff, 0xff,
  0x00, 0x00, 0x00, 0x01, 0x10, 0x00, 0x00, 0x00, 0x10, 0x00, 0x00, 0x00,
  0x0e, 0x00, 0x00, 0x00, 0x2c, 0x00, 0x00, 0x00, 0x60, 0xfb, 0xff, 0xff,
  0x1c, 0x00, 0x00, 0x00, 0x73, 0x65, 0x71, 0x75, 0x65, 0x6e, 0x74, 0x69,
  0x61, 0x6c, 0x5f, 0x33, 0x2f, 0x64, 0x65, 0x6e, 0x73, 0x65, 0x5f, 0x32,
  0x31, 0x2f, 0x4d, 0x61, 0x74, 0x4d, 0x75, 0x6c, 0x00, 0x00, 0x00, 0x00,
  0x02, 0x00, 0x00, 0x00, 0x0a, 0x00, 0x00, 0x00, 0x0a, 0x00, 0x00, 0x00,
  0x4e, 0xfc, 0xff, 0xff, 0x00, 0x00, 0x00, 0x01, 0x10, 0x00, 0x00, 0x00,
  0x10, 0x00, 0x00, 0x00, 0x0d, 0x00, 0x00, 0x00, 0x2c, 0x00, 0x00, 0x00,
  0xac, 0xfb, 0xff, 0xff, 0x1c, 0x00, 0x00, 0x00, 0x73, 0x65, 0x71, 0x75,
  0x65, 0x6e, 0x74, 0x69, 0x61, 0x6c, 0x5f, 0x33, 0x2f, 0x64, 0x65, 0x6e,
  0x73, 0x65, 0x5f, 0x32, 0x30, 0x2f, 0x4d, 0x61, 0x74, 0x4d, 0x75, 0x6c,
  0x00, 0x00, 0x00, 0x00, 0x02, 0x00, 0x00, 0x00, 0x0a, 0x00, 0x00, 0x00,
  0x0a, 0x00, 0x00, 0x00, 0x9a, 0xfc, 0xff, 0xff, 0x00, 0x00, 0x00, 0x01,
  0x10, 0x00, 0x00, 0x00, 0x10, 0x00, 0x00, 0x00, 0x0c, 0x00, 0x00, 0x00,
  0x2c, 0x00, 0x00, 0x00, 0xf8, 0xfb, 0xff, 0xff, 0x1c, 0x00, 0x00, 0x00,
  0x73, 0x65, 0x71, 0x75, 0x65, 0x6e, 0x74, 0x69, 0x61, 0x6c, 0x5f, 0x33,
  0x2f, 0x64, 0x65, 0x6e, 0x73, 0x65, 0x5f, 0x31, 0x39, 0x2f, 0x4d, 0x61,
  0x74, 0x4d, 0x75, 0x6c, 0x00, 0x00, 0x00, 0x00, 0x02, 0x00, 0x00, 0x00,
  0x0a, 0x00, 0x00, 0x00, 0x0a, 0x00, 0x00, 0x00, 0xe6, 0xfc, 0xff, 0xff,
  0x00, 0x00, 0x00, 0x01, 0x10, 0x00, 0x00, 0x00, 0x10, 0x00, 0x00, 0x00,
  0x0b, 0x00, 0x00, 0x00, 0x2c, 0x00, 0x00, 0x00, 0x44, 0xfc, 0xff, 0xff,
  0x1c, 0x00, 0x00, 0x00, 0x73, 0x65, 0x71, 0x75, 0x65, 0x6e, 0x74, 0x69,
  0x61, 0x6c, 0x5f, 0x33, 0x2f, 0x64, 0x65, 0x6e, 0x73, 0x65, 0x5f, 0x31,
  0x38, 0x2f, 0x4d, 0x61, 0x74, 0x4d, 0x75, 0x6c, 0x00, 0x00, 0x00, 0x00,
  0x02, 0x00, 0x00, 0x00, 0x0a, 0x00, 0x00, 0x00, 0x0a, 0x00, 0x00, 0x00,
  0x32, 0xfd, 0xff, 0xff, 0x00, 0x00, 0x00, 0x01, 0x10, 0x00, 0x00, 0x00,
  0x10, 0x00, 0x00, 0x00, 0x0a, 0x00, 0x00, 0x00, 0x2c, 0x00, 0x00, 0x00,
  0x90, 0xfc, 0xff, 0xff, 0x1c, 0x00, 0x00, 0x00, 0x73, 0x65, 0x71, 0x75,
  0x65, 0x6e, 0x74, 0x69, 0x61, 0x6c, 0x5f, 0x33, 0x2f, 0x64, 0x65, 0x6e,
  0x73, 0x65, 0x5f, 0x31, 0x37, 0x2f, 0x4d, 0x61, 0x74, 0x4d, 0x75, 0x6c,
  0x00, 0x00, 0x00, 0x00, 0x02, 0x00, 0x00, 0x00, 0x0a, 0x00, 0x00, 0x00,
  0x0a, 0x00, 0x00, 0x00, 0x7e, 0xfd, 0xff, 0xff, 0x00, 0x00, 0x00, 0x01,
  0x10, 0x00, 0x00, 0x00, 0x10, 0x00, 0x00, 0x00, 0x09, 0x00, 0x00, 0x00,
  0x2c, 0x00, 0x00, 0x00, 0xdc, 0xfc, 0xff, 0xff, 0x1c, 0x00, 0x00, 0x00,
  0x73, 0x65, 0x71, 0x75, 0x65, 0x6e, 0x74, 0x69, 0x61, 0x6c, 0x5f, 0x33,
  0x2f, 0x64, 0x65, 0x6e, 0x73, 0x65, 0x5f, 0x31, 0x36, 0x2f, 0x4d, 0x61,
  0x74, 0x4d, 0x75, 0x6c, 0x00, 0x00, 0x00, 0x00, 0x02, 0x00, 0x00, 0x00,
  0x0a, 0x00, 0x00, 0x00, 0x0a, 0x00, 0x00, 0x00, 0xca, 0xfd, 0xff, 0xff,
  0x00, 0x00, 0x00, 0x01, 0x10, 0x00, 0x00, 0x00, 0x10, 0x00, 0x00, 0x00,
  0x08, 0x00, 0x00, 0x00, 0x2c, 0x00, 0x00, 0x00, 0x28, 0xfd, 0xff, 0xff,
  0x1c, 0x00, 0x00, 0x00, 0x73, 0x65, 0x71, 0x75, 0x65, 0x6e, 0x74, 0x69,
  0x61, 0x6c, 0x5f, 0x33, 0x2f, 0x64, 0x65, 0x6e, 0x73, 0x65, 0x5f, 0x31,
  0x35, 0x2f, 0x4d, 0x61, 0x74, 0x4d, 0x75, 0x6c, 0x00, 0x00, 0x00, 0x00,
  0x02, 0x00, 0x00, 0x00, 0x0a, 0x00, 0x00, 0x00, 0x0d, 0x00, 0x00, 0x00,
  0x16, 0xfe, 0xff, 0xff, 0x00, 0x00, 0x00, 0x01, 0x10, 0x00, 0x00, 0x00,
  0x10, 0x00, 0x00, 0x00, 0x07, 0x00, 0x00, 0x00, 0x3c, 0x00, 0x00, 0x00,
  0x74, 0xfd, 0xff, 0xff, 0x2c, 0x00, 0x00, 0x00, 0x73, 0x65, 0x71, 0x75,
  0x65, 0x6e, 0x74, 0x69, 0x61, 0x6c, 0x5f, 0x33, 0x2f, 0x64, 0x65, 0x6e,
  0x73, 0x65, 0x5f, 0x31, 0x35, 0x2f, 0x42, 0x69, 0x61, 0x73, 0x41, 0x64,
  0x64, 0x2f, 0x52, 0x65, 0x61, 0x64, 0x56, 0x61, 0x72, 0x69, 0x61, 0x62,
  0x6c, 0x65, 0x4f, 0x70, 0x00, 0x00, 0x00, 0x00, 0x01, 0x00, 0x00, 0x00,
  0x0a, 0x00, 0x00, 0x00, 0x6e, 0xfe, 0xff, 0xff, 0x00, 0x00, 0x00, 0x01,
  0x10, 0x00, 0x00, 0x00, 0x10, 0x00, 0x00, 0x00, 0x06, 0x00, 0x00, 0x00,
  0x48, 0x00, 0x00, 0x00, 0xcc, 0xfd, 0xff, 0xff, 0x3a, 0x00, 0x00, 0x00,
  0x73, 0x65, 0x71, 0x75, 0x65, 0x6e, 0x74, 0x69, 0x61, 0x6c, 0x5f, 0x33,
  0x2f, 0x64, 0x65, 0x6e, 0x73, 0x65, 0x5f, 0x32, 0x35, 0x2f, 0x4d, 0x61,
  0x74, 0x4d, 0x75, 0x6c, 0x3b, 0x73, 0x65, 0x71, 0x75, 0x65, 0x6e, 0x74,
  0x69, 0x61, 0x6c, 0x5f, 0x33, 0x2f, 0x64, 0x65, 0x6e, 0x73, 0x65, 0x5f,
  0x32, 0x35, 0x2f, 0x42, 0x69, 0x61, 0x73, 0x41, 0x64, 0x64, 0x00, 0x00,
  0x01, 0x00, 0x00, 0x00, 0x03, 0x00, 0x00, 0x00, 0xd2, 0xfe, 0xff, 0xff,
  0x00, 0x00, 0x00, 0x01, 0x10, 0x00, 0x00, 0x00, 0x10, 0x00, 0x00, 0x00,
  0x05, 0x00, 0x00, 0x00, 0x48, 0x00, 0x00, 0x00, 0x30, 0xfe, 0xff, 0xff,
  0x3a, 0x00, 0x00, 0x00, 0x73, 0x65, 0x71, 0x75, 0x65, 0x6e, 0x74, 0x69,
  0x61, 0x6c, 0x5f, 0x33, 0x2f, 0x64, 0x65, 0x6e, 0x73, 0x65, 0x5f, 0x32,
  0x33, 0x2f, 0x4d, 0x61, 0x74, 0x4d, 0x75, 0x6c, 0x3b, 0x73, 0x65, 0x71,
  0x75, 0x65, 0x6e, 0x74, 0x69, 0x61, 0x6c, 0x5f, 0x33, 0x2f, 0x64, 0x65,
  0x6e, 0x73, 0x65, 0x5f, 0x32, 0x33, 0x2f, 0x42, 0x69, 0x61, 0x73, 0x41,
  0x64, 0x64, 0x00, 0x00, 0x01, 0x00, 0x00, 0x00, 0x0a, 0x00, 0x00, 0x00,
  0x36, 0xff, 0xff, 0xff, 0x00, 0x00, 0x00, 0x01, 0x10, 0x00, 0x00, 0x00,
  0x10, 0x00, 0x00, 0x00, 0x04, 0x00, 0x00, 0x00, 0x48, 0x00, 0x00, 0x00,
  0x94, 0xfe, 0xff, 0xff, 0x3a, 0x00, 0x00, 0x00, 0x73, 0x65, 0x71, 0x75,
  0x65, 0x6e, 0x74, 0x69, 0x61, 0x6c, 0x5f, 0x33, 0x2f, 0x64, 0x65, 0x6e,
  0x73, 0x65, 0x5f, 0x32, 0x31, 0x2f, 0x4d, 0x61, 0x74, 0x4d, 0x75, 0x6c,
  0x3b, 0x73, 0x65, 0x71, 0x75, 0x65, 0x6e, 0x74, 0x69, 0x61, 0x6c, 0x5f,
  0x33, 0x2f, 0x64, 0x65, 0x6e, 0x73, 0x65, 0x5f, 0x32, 0x31, 0x2f, 0x42,
  0x69, 0x61, 0x73, 0x41, 0x64, 0x64, 0x00, 0x00, 0x01, 0x00, 0x00, 0x00,
  0x0a, 0x00, 0x00, 0x00, 0x9a, 0xff, 0xff, 0xff, 0x00, 0x00, 0x00, 0x01,
  0x10, 0x00, 0x00, 0x00, 0x10, 0x00, 0x00, 0x00, 0x03, 0x00, 0x00, 0x00,
  0x48, 0x00, 0x00, 0x00, 0xf8, 0xfe, 0xff, 0xff, 0x3a, 0x00, 0x00, 0x00,
  0x73, 0x65, 0x71, 0x75, 0x65, 0x6e, 0x74, 0x69, 0x61, 0x6c, 0x5f, 0x33,
  0x2f, 0x64, 0x65, 0x6e, 0x73, 0x65, 0x5f, 0x31, 0x39, 0x2f, 0x4d, 0x61,
  0x74, 0x4d, 0x75, 0x6c, 0x3b, 0x73, 0x65, 0x71, 0x75, 0x65, 0x6e, 0x74,
  0x69, 0x61, 0x6c, 0x5f, 0x33, 0x2f, 0x64, 0x65, 0x6e, 0x73, 0x65, 0x5f,
  0x31, 0x39, 0x2f, 0x42, 0x69, 0x61, 0x73, 0x41, 0x64, 0x64, 0x00, 0x00,
  0x01, 0x00, 0x00, 0x00, 0x0a, 0x00, 0x00, 0x00, 0x00, 0x00, 0x16, 0x00,
  0x18, 0x00, 0x14, 0x00, 0x00, 0x00, 0x10, 0x00, 0x0c, 0x00, 0x08, 0x00,
  0x00, 0x00, 0x00, 0x00, 0x00, 0x00, 0x07, 0x00, 0x16, 0x00, 0x00, 0x00,
  0x00, 0x00, 0x00, 0x01, 0x10, 0x00, 0x00, 0x00, 0x10, 0x00, 0x00, 0x00,
  0x02, 0x00, 0x00, 0x00, 0x48, 0x00, 0x00, 0x00, 0x74, 0xff, 0xff, 0xff,
  0x3a, 0x00, 0x00, 0x00, 0x73, 0x65, 0x71, 0x75, 0x65, 0x6e, 0x74, 0x69,
  0x61, 0x6c, 0x5f, 0x33, 0x2f, 0x64, 0x65, 0x6e, 0x73, 0x65, 0x5f, 0x31,
  0x37, 0x2f, 0x4d, 0x61, 0x74, 0x4d, 0x75, 0x6c, 0x3b, 0x73, 0x65, 0x71,
  0x75, 0x65, 0x6e, 0x74, 0x69, 0x61, 0x6c, 0x5f, 0x33, 0x2f, 0x64, 0x65,
  0x6e, 0x73, 0x65, 0x5f, 0x31, 0x37, 0x2f, 0x42, 0x69, 0x61, 0x73, 0x41,
  0x64, 0x64, 0x00, 0x00, 0x01, 0x00, 0x00, 0x00, 0x0a, 0x00, 0x00, 0x00,
  0x00, 0x00, 0x16, 0x00, 0x1c, 0x00, 0x18, 0x00, 0x00, 0x00, 0x14, 0x00,
  0x10, 0x00, 0x0c, 0x00, 0x00, 0x00, 0x00, 0x00, 0x08, 0x00, 0x07, 0x00,
  0x16, 0x00, 0x00, 0x00, 0x00, 0x00, 0x00, 0x01, 0x14, 0x00, 0x00, 0x00,
  0x20, 0x00, 0x00, 0x00, 0x20, 0x00, 0x00, 0x00, 0x01, 0x00, 0x00, 0x00,
  0x40, 0x00, 0x00, 0x00, 0x02, 0x00, 0x00, 0x00, 0xff, 0xff, 0xff, 0xff,
  0x0d, 0x00, 0x00, 0x00, 0x04, 0x00, 0x04, 0x00, 0x04, 0x00, 0x00, 0x00,
  0x20, 0x00, 0x00, 0x00, 0x73, 0x65, 0x72, 0x76, 0x69, 0x6e, 0x67, 0x5f,
  0x64, 0x65, 0x66, 0x61, 0x75, 0x6c, 0x74, 0x5f, 0x64, 0x65, 0x6e, 0x73,
  0x65, 0x5f, 0x31, 0x35, 0x5f, 0x69, 0x6e, 0x70, 0x75, 0x74, 0x3a, 0x30,
  0x00, 0x00, 0x00, 0x00, 0x02, 0x00, 0x00, 0x00, 0x01, 0x00, 0x00, 0x00,
  0x0d, 0x00, 0x00, 0x00, 0x02, 0x00, 0x00, 0x00, 0x20, 0x00, 0x00, 0x00,
  0x04, 0x00, 0x00, 0x00, 0xf4, 0xff, 0xff, 0xff, 0x19, 0x00, 0x00, 0x00,
  0x00, 0x00, 0x00, 0x19, 0x0c, 0x00, 0x0c, 0x00, 0x0b, 0x00, 0x00, 0x00,
  0x00, 0x00, 0x04, 0x00, 0x0c, 0x00, 0x00, 0x00, 0x09, 0x00, 0x00, 0x00,
  0x00, 0x00, 0x00, 0x09
};
unsigned int second_model_NO_activations_tflite_len = 9196;
