unsigned char third_model_NO_activations_tflite[] = {
  0x1c, 0x00, 0x00, 0x00, 0x54, 0x46, 0x4c, 0x33, 0x14, 0x00, 0x20, 0x00,
  0x1c, 0x00, 0x18, 0x00, 0x14, 0x00, 0x10, 0x00, 0x0c, 0x00, 0x00, 0x00,
  0x08, 0x00, 0x04, 0x00, 0x14, 0x00, 0x00, 0x00, 0x1c, 0x00, 0x00, 0x00,
  0x98, 0x00, 0x00, 0x00, 0xf0, 0x00, 0x00, 0x00, 0x60, 0x0e, 0x00, 0x00,
  0x70, 0x0e, 0x00, 0x00, 0xd8, 0x13, 0x00, 0x00, 0x03, 0x00, 0x00, 0x00,
  0x01, 0x00, 0x00, 0x00, 0x10, 0x00, 0x00, 0x00, 0x00, 0x00, 0x0a, 0x00,
  0x10, 0x00, 0x0c, 0x00, 0x08, 0x00, 0x04, 0x00, 0x0a, 0x00, 0x00, 0x00,
  0x0c, 0x00, 0x00, 0x00, 0x1c, 0x00, 0x00, 0x00, 0x3c, 0x00, 0x00, 0x00,
  0x0f, 0x00, 0x00, 0x00, 0x73, 0x65, 0x72, 0x76, 0x69, 0x6e, 0x67, 0x5f,
  0x64, 0x65, 0x66, 0x61, 0x75, 0x6c, 0x74, 0x00, 0x01, 0x00, 0x00, 0x00,
  0x04, 0x00, 0x00, 0x00, 0x90, 0xff, 0xff, 0xff, 0x09, 0x00, 0x00, 0x00,
  0x04, 0x00, 0x00, 0x00, 0x08, 0x00, 0x00, 0x00, 0x64, 0x65, 0x6e, 0x73,
  0x65, 0x5f, 0x33, 0x31, 0x00, 0x00, 0x00, 0x00, 0x01, 0x00, 0x00, 0x00,
  0x04, 0x00, 0x00, 0x00, 0x86, 0xf1, 0xff, 0xff, 0x04, 0x00, 0x00, 0x00,
  0x0e, 0x00, 0x00, 0x00, 0x64, 0x65, 0x6e, 0x73, 0x65, 0x5f, 0x32, 0x39,
  0x5f, 0x69, 0x6e, 0x70, 0x75, 0x74, 0x00, 0x00, 0x02, 0x00, 0x00, 0x00,
  0x34, 0x00, 0x00, 0x00, 0x04, 0x00, 0x00, 0x00, 0xdc, 0xff, 0xff, 0xff,
  0x0c, 0x00, 0x00, 0x00, 0x04, 0x00, 0x00, 0x00, 0x13, 0x00, 0x00, 0x00,
  0x43, 0x4f, 0x4e, 0x56, 0x45, 0x52, 0x53, 0x49, 0x4f, 0x4e, 0x5f, 0x4d,
  0x45, 0x54, 0x41, 0x44, 0x41, 0x54, 0x41, 0x00, 0x08, 0x00, 0x0c, 0x00,
  0x08, 0x00, 0x04, 0x00, 0x08, 0x00, 0x00, 0x00, 0x0b, 0x00, 0x00, 0x00,
  0x04, 0x00, 0x00, 0x00, 0x13, 0x00, 0x00, 0x00, 0x6d, 0x69, 0x6e, 0x5f,
  0x72, 0x75, 0x6e, 0x74, 0x69, 0x6d, 0x65, 0x5f, 0x76, 0x65, 0x72, 0x73,
  0x69, 0x6f, 0x6e, 0x00, 0x0d, 0x00, 0x00, 0x00, 0x6c, 0x0d, 0x00, 0x00,
  0x64, 0x0d, 0x00, 0x00, 0x48, 0x0d, 0x00, 0x00, 0x10, 0x0d, 0x00, 0x00,
  0xf8, 0x0a, 0x00, 0x00, 0x18, 0x03, 0x00, 0x00, 0xb0, 0x00, 0x00, 0x00,
  0xa8, 0x00, 0x00, 0x00, 0xa0, 0x00, 0x00, 0x00, 0x98, 0x00, 0x00, 0x00,
  0x90, 0x00, 0x00, 0x00, 0x70, 0x00, 0x00, 0x00, 0x04, 0x00, 0x00, 0x00,
  0x36, 0xf2, 0xff, 0xff, 0x04, 0x00, 0x00, 0x00, 0x5c, 0x00, 0x00, 0x00,
  0x0c, 0x00, 0x00, 0x00, 0x08, 0x00, 0x0e, 0x00, 0x08, 0x00, 0x04, 0x00,
  0x08, 0x00, 0x00, 0x00, 0x14, 0x00, 0x00, 0x00, 0x2c, 0x00, 0x00, 0x00,
  0x00, 0x00, 0x0a, 0x00, 0x0c, 0x00, 0x08, 0x00, 0x00, 0x00, 0x07, 0x00,
  0x0a, 0x00, 0x00, 0x00, 0x00, 0x00, 0x00, 0x01, 0x04, 0x00, 0x00, 0x00,
  0x00, 0x00, 0x00, 0x00, 0x00, 0x00, 0x0a, 0x00, 0x10, 0x00, 0x0c, 0x00,
  0x08, 0x00, 0x04, 0x00, 0x0a, 0x00, 0x00, 0x00, 0x01, 0x00, 0x00, 0x00,
  0x02, 0x00, 0x00, 0x00, 0x04, 0x00, 0x00, 0x00, 0x06, 0x00, 0x00, 0x00,
  0x32, 0x2e, 0x31, 0x31, 0x2e, 0x30, 0x00, 0x00, 0x9e, 0xf2, 0xff, 0xff,
  0x04, 0x00, 0x00, 0x00, 0x10, 0x00, 0x00, 0x00, 0x31, 0x2e, 0x35, 0x2e,
  0x30, 0x00, 0x00, 0x00, 0x00, 0x00, 0x00, 0x00, 0x00, 0x00, 0x00, 0x00,
  0x04, 0xee, 0xff, 0xff, 0x08, 0xee, 0xff, 0xff, 0x0c, 0xee, 0xff, 0xff,
  0x10, 0xee, 0xff, 0xff, 0xca, 0xf2, 0xff, 0xff, 0x04, 0x00, 0x00, 0x00,
  0x58, 0x02, 0x00, 0x00, 0x66, 0x51, 0x01, 0xbf, 0x0b, 0xa7, 0x12, 0x3e,
  0x11, 0x05, 0x1b, 0x3e, 0xc2, 0x55, 0x10, 0xbf, 0x96, 0x64, 0xd1, 0x3e,
  0x56, 0x63, 0x45, 0x3e, 0x24, 0x90, 0x18, 0x3d, 0x8d, 0x6c, 0x82, 0x3e,
  0x98, 0xcd, 0x3a, 0x3e, 0x2c, 0xd9, 0x57, 0x3e, 0x8b, 0xe7, 0x92, 0xbe,
  0x6b, 0xa8, 0xe7, 0xbe, 0x18, 0x91, 0x3e, 0xbe, 0xe8, 0xd7, 0x23, 0x3e,
  0x94, 0x73, 0x0d, 0x3e, 0xac, 0x5f, 0x84, 0x3f, 0x7e, 0x7c, 0x04, 0xbf,
  0xc2, 0x5d, 0x6d, 0xbd, 0x24, 0xe2, 0xee, 0xbe, 0x8c, 0x49, 0x49, 0x3d,
  0xc1, 0xed, 0x36, 0xbf, 0xc2, 0x31, 0xd2, 0x3c, 0x60, 0xb6, 0xcd, 0xbe,
  0x3a, 0xb2, 0xbb, 0xbe, 0xc0, 0x6a, 0x08, 0x3e, 0xcf, 0xe6, 0x56, 0x3e,
  0x28, 0xab, 0x12, 0x3e, 0x9d, 0xf1, 0x84, 0xbe, 0x88, 0xb8, 0x0c, 0xbe,
  0xd0, 0xed, 0x12, 0x3e, 0x2e, 0x6c, 0xbc, 0x3e, 0x93, 0xd5, 0x94, 0x3e,
  0xfb, 0xf0, 0x75, 0x3e, 0x42, 0xcb, 0x08, 0x3f, 0x05, 0x4c, 0x7f, 0xbe,
  0x23, 0x71, 0x20, 0xbe, 0xf8, 0x68, 0x9e, 0x3e, 0xcc, 0x4e, 0xb9, 0xbe,
  0xd9, 0x48, 0xb4, 0xbd, 0x80, 0x4c, 0x34, 0xbe, 0x51, 0x24, 0x00, 0xbf,
  0x53, 0xbd, 0x84, 0xbe, 0x8d, 0x1e, 0xc2, 0x3e, 0x15, 0x34, 0x5a, 0x3e,
  0x83, 0xe5, 0x93, 0x3e, 0xbc, 0xc2, 0x85, 0xbc, 0x1b, 0xf0, 0xa2, 0x3e,
  0x9c, 0x42, 0x94, 0x3e, 0xc4, 0x11, 0xf6, 0xbd, 0xc2, 0x2d, 0x7f, 0x3e,
  0x10, 0x84, 0xaf, 0x3e, 0x2c, 0x67, 0x0e, 0x3e, 0xac, 0x25, 0x1c, 0xbf,
  0x6d, 0x63, 0xeb, 0x3c, 0xfb, 0xc5, 0x23, 0xbe, 0xc4, 0x4e, 0xb3, 0x3e,
  0xb0, 0xbd, 0xa2, 0x3d, 0x72, 0x88, 0xe8, 0xbd, 0x6d, 0x2e, 0x52, 0xbd,
  0xa8, 0x30, 0x8d, 0xbe, 0x13, 0x1f, 0x4c, 0xbe, 0x09, 0xb8, 0x3f, 0xbe,
  0xaf, 0xe7, 0xa7, 0xbe, 0xa7, 0x6e, 0x84, 0x3e, 0xb0, 0xf8, 0x1e, 0x3b,
  0xf1, 0xd8, 0x94, 0xbf, 0x7a, 0x8d, 0x61, 0x3f, 0x6e, 0xd2, 0x5e, 0x3e,
  0x93, 0x43, 0x42, 0xbd, 0x91, 0x4d, 0x93, 0xbe, 0xe6, 0xa6, 0x9d, 0x3e,
  0xc5, 0x82, 0x37, 0x3e, 0x47, 0x2a, 0x7d, 0x3e, 0xc6, 0x15, 0x23, 0xbe,
  0x77, 0x6d, 0xec, 0xbd, 0x59, 0x08, 0x1b, 0x3e, 0x5f, 0x48, 0x0a, 0xbe,
  0x48, 0xd5, 0x39, 0x3f, 0x7b, 0x59, 0x13, 0x3f, 0xed, 0xdd, 0x0a, 0xbe,
  0x2b, 0xa7, 0x0a, 0xbe, 0x59, 0x8f, 0xbf, 0xbe, 0x9c, 0xa8, 0x44, 0x3c,
  0x86, 0xd5, 0xa7, 0x3e, 0xcc, 0x19, 0x32, 0x3e, 0x3f, 0x6d, 0x92, 0xbe,
  0x59, 0xaf, 0xae, 0xbe, 0xb8, 0x5c, 0x00, 0xbf, 0x7c, 0x6d, 0x88, 0x3e,
  0x6e, 0x10, 0xb2, 0xbd, 0x0d, 0xf8, 0xd5, 0x3e, 0xcc, 0x59, 0x0b, 0x3e,
  0x47, 0xea, 0x94, 0x3d, 0x2b, 0xb5, 0xfd, 0xbe, 0x35, 0xed, 0x9a, 0xbe,
  0x39, 0xb1, 0x92, 0x3e, 0x0f, 0xb4, 0x40, 0xbe, 0xc8, 0xa3, 0xec, 0xbd,
  0xb1, 0x23, 0x17, 0xbe, 0x1c, 0xbf, 0x86, 0xbe, 0xc9, 0x01, 0x7b, 0xbd,
  0x0e, 0xba, 0xde, 0x3e, 0x2e, 0x55, 0x10, 0xbd, 0x6d, 0x66, 0xdf, 0x3d,
  0x67, 0x89, 0xfc, 0xbd, 0xc9, 0xa9, 0x02, 0x3c, 0x4b, 0xa2, 0x1f, 0x3e,
  0xf6, 0x11, 0x25, 0x3d, 0xf4, 0x96, 0x83, 0x3e, 0xb0, 0x2c, 0x94, 0xbe,
  0xaf, 0x05, 0xbd, 0x3e, 0x8f, 0xa5, 0xdc, 0x3e, 0x3d, 0x8c, 0x9c, 0xbe,
  0x70, 0xed, 0x6d, 0xbe, 0x04, 0x5f, 0x40, 0xbd, 0xf3, 0x2d, 0x75, 0x3e,
  0x64, 0x42, 0x0b, 0xbf, 0x7a, 0x1f, 0x8d, 0xbe, 0x27, 0x0d, 0xe5, 0x3e,
  0xef, 0x69, 0x0a, 0x3f, 0x10, 0xe6, 0x2a, 0x3e, 0x68, 0x3a, 0x99, 0xbe,
  0xbf, 0xe0, 0x67, 0xbe, 0x73, 0x48, 0xe5, 0x3d, 0x7a, 0x06, 0xb6, 0xbc,
  0x97, 0x9d, 0x8c, 0x3e, 0x2b, 0x2a, 0x9c, 0x3e, 0xc4, 0xcc, 0xb9, 0xbe,
  0x2a, 0x65, 0x64, 0xbe, 0xec, 0x82, 0x45, 0xbe, 0xa0, 0xfe, 0xd6, 0xbe,
  0x72, 0xc3, 0xa7, 0x3d, 0x41, 0x6a, 0x78, 0x3e, 0x6a, 0x49, 0x1e, 0xbf,
  0xad, 0x0f, 0x03, 0x3e, 0x2d, 0xc1, 0xc3, 0x3d, 0x56, 0x71, 0x74, 0xbe,
  0x99, 0xd9, 0xd8, 0x3d, 0x19, 0xd5, 0x42, 0xbd, 0x10, 0xc5, 0xa4, 0x3c,
  0xfb, 0x7c, 0x54, 0xbd, 0x2c, 0x49, 0xda, 0xbe, 0x66, 0xef, 0xd3, 0xbd,
  0x6d, 0x50, 0xeb, 0x3e, 0xbf, 0x85, 0xb0, 0xbd, 0x71, 0x08, 0x26, 0x3e,
  0xfc, 0xff, 0x66, 0x3d, 0xa4, 0x8c, 0x94, 0x3e, 0xec, 0x46, 0x37, 0x3e,
  0x46, 0x0b, 0x43, 0x3e, 0x2e, 0xf5, 0xff, 0xff, 0x04, 0x00, 0x00, 0x00,
  0xd0, 0x07, 0x00, 0x00, 0xe1, 0xbe, 0xe1, 0x3e, 0xe9, 0x41, 0xad, 0x3e,
  0x09, 0x68, 0x64, 0xbd, 0xb8, 0x67, 0xe6, 0x3d, 0x60, 0x78, 0x3b, 0x3d,
  0x0e, 0xf4, 0x2c, 0xbc, 0xef, 0x38, 0xdc, 0x3d, 0xb7, 0x23, 0xdd, 0x3d,
  0x93, 0xdb, 0xcd, 0xbc, 0x07, 0x5c, 0x74, 0x3d, 0xa7, 0xb4, 0x83, 0xba,
  0xbb, 0x89, 0x8d, 0xbd, 0xaf, 0x87, 0x89, 0xbd, 0x5b, 0x30, 0x14, 0x3e,
  0x42, 0x2a, 0x55, 0x3d, 0xe6, 0x21, 0x62, 0x39, 0xa9, 0x5b, 0xe3, 0x3d,
  0x2d, 0xe0, 0x2d, 0x3d, 0xe2, 0x40, 0x2f, 0xbd, 0x74, 0xd2, 0x34, 0x3d,
  0xd2, 0xb9, 0x6d, 0xbe, 0x1d, 0xad, 0x08, 0xbe, 0xca, 0xb5, 0x99, 0x3d,
  0xa9, 0x86, 0x80, 0xbc, 0xee, 0x62, 0x6b, 0xbc, 0x1e, 0x3b, 0xa9, 0xbd,
  0xde, 0x63, 0x25, 0xbd, 0xad, 0x9d, 0x33, 0xbc, 0x70, 0x60, 0x48, 0x3d,
  0xdc, 0x34, 0x0c, 0xbb, 0xf4, 0x58, 0x8f, 0x3e, 0x32, 0xd9, 0x2a, 0x3e,
  0x66, 0xdd, 0xd4, 0xbd, 0x0e, 0xe9, 0xab, 0x3e, 0xea, 0xf0, 0xf0, 0x3d,
  0xd6, 0xe3, 0xec, 0xbc, 0xe1, 0x02, 0x70, 0x3d, 0x29, 0xc3, 0x7e, 0x3d,
  0xed, 0x43, 0x3d, 0xbd, 0x1a, 0xea, 0x9f, 0x3d, 0x15, 0xc3, 0x13, 0xbe,
  0x55, 0xea, 0x20, 0xbc, 0x38, 0x4c, 0x88, 0x3e, 0x5f, 0x96, 0x11, 0xbd,
  0x82, 0x0e, 0x24, 0x3b, 0x7f, 0x33, 0xda, 0x3d, 0x66, 0x55, 0xb3, 0xbc,
  0x62, 0x13, 0xdf, 0xbc, 0xf0, 0xcf, 0x50, 0x3e, 0x0f, 0x75, 0xc2, 0x3d,
  0x47, 0xc6, 0x20, 0x3e, 0x1b, 0xa4, 0x03, 0x3e, 0xd9, 0xd5, 0x9b, 0x3d,
  0x04, 0x3d, 0x80, 0xbd, 0x67, 0xd6, 0x5d, 0x3d, 0x1e, 0xc0, 0x29, 0x3d,
  0x97, 0xaa, 0x29, 0x3c, 0xdf, 0x13, 0x36, 0x3b, 0xe3, 0x44, 0x9d, 0x3d,
  0xc4, 0xd9, 0x87, 0x3d, 0xbf, 0x64, 0x8f, 0x3c, 0xfc, 0x78, 0x8d, 0xbb,
  0xb7, 0x69, 0xdc, 0x3c, 0xe5, 0xe5, 0x0a, 0xbd, 0x39, 0x45, 0x46, 0x3d,
  0xd1, 0x9b, 0x2d, 0xb9, 0x81, 0x00, 0x29, 0xbc, 0x85, 0xaa, 0xb3, 0xbd,
  0x5f, 0xe0, 0xee, 0xbc, 0xd4, 0xb1, 0x19, 0x3d, 0x3a, 0x43, 0xb3, 0xbd,
  0x82, 0x74, 0xda, 0xbc, 0x80, 0xc1, 0x37, 0xbd, 0x50, 0x06, 0xf2, 0x3c,
  0x79, 0x8d, 0xb8, 0xbc, 0x08, 0x2f, 0xbe, 0x3d, 0x24, 0x57, 0x0f, 0xbd,
  0x44, 0x78, 0xcf, 0x3c, 0x42, 0xd9, 0xad, 0x3c, 0xab, 0xc1, 0x1c, 0x3c,
  0x46, 0xf7, 0x48, 0xbd, 0xf8, 0x36, 0x20, 0x3c, 0x50, 0x1d, 0x5d, 0xbb,
  0x46, 0x23, 0x77, 0xbd, 0xe7, 0x91, 0x01, 0x3d, 0x6a, 0x56, 0x22, 0x3d,
  0xfc, 0x47, 0x6d, 0x3c, 0x32, 0x6c, 0xd6, 0x3d, 0xed, 0xac, 0x38, 0x3c,
  0xdf, 0x55, 0x8c, 0x3c, 0x9b, 0xcd, 0xd5, 0xbb, 0x98, 0x89, 0xc1, 0xbd,
  0xdb, 0x6c, 0x17, 0xbb, 0x11, 0xfb, 0x04, 0xbb, 0x9e, 0x82, 0x3c, 0x3d,
  0xc7, 0xfa, 0xc0, 0xbc, 0x37, 0x98, 0x98, 0x3d, 0x24, 0x8e, 0x7a, 0xbc,
  0x1b, 0x8c, 0x29, 0xbc, 0x9e, 0x99, 0xfd, 0xbc, 0x1f, 0xab, 0xe0, 0x3c,
  0x40, 0x32, 0x44, 0xbd, 0x4e, 0x1a, 0xee, 0xbd, 0x0e, 0x52, 0xba, 0x3e,
  0xc2, 0xf2, 0xf1, 0xbc, 0x34, 0x63, 0xd6, 0xbd, 0x7e, 0x4a, 0xfb, 0x3d,
  0x2c, 0xd6, 0xb3, 0x3d, 0xc1, 0x23, 0x0f, 0xbe, 0xd9, 0xae, 0x49, 0xbd,
  0xaa, 0x0c, 0x2a, 0x3e, 0xca, 0x32, 0x0e, 0xbd, 0xab, 0x01, 0x25, 0xbe,
  0xc4, 0xab, 0xc5, 0x3e, 0x15, 0x7c, 0x30, 0xbd, 0x15, 0x39, 0xc2, 0xbd,
  0x5e, 0x89, 0xb0, 0x3d, 0x31, 0x83, 0xf2, 0x39, 0xc2, 0xf6, 0x8f, 0xbd,
  0xc3, 0xd8, 0xf3, 0x3d, 0xa0, 0xe6, 0xc4, 0xbc, 0x68, 0x10, 0x18, 0x3d,
  0x66, 0x5c, 0xd6, 0x3d, 0x2d, 0x8c, 0xb8, 0x3c, 0x94, 0x2f, 0x91, 0x3b,
  0xad, 0x00, 0xff, 0x3c, 0xd1, 0x3c, 0x3f, 0x3d, 0xa0, 0x79, 0xf2, 0xbc,
  0x48, 0x03, 0x45, 0xba, 0xa7, 0xd3, 0x83, 0xbc, 0x9e, 0xdb, 0xd9, 0x3d,
  0x9b, 0x79, 0x7e, 0x3e, 0xe4, 0x63, 0x47, 0x3e, 0x21, 0x1d, 0xa9, 0xbd,
  0x7e, 0x5f, 0x8d, 0xbc, 0xa8, 0x23, 0x16, 0xbd, 0x87, 0x4a, 0x6a, 0x3c,
  0x48, 0xd6, 0x50, 0xbd, 0x6d, 0x0c, 0x57, 0x3c, 0x03, 0xb6, 0x25, 0x3d,
  0x03, 0x7b, 0xc4, 0xbd, 0x55, 0x80, 0x74, 0x3d, 0x50, 0xb9, 0x46, 0x3d,
  0x5e, 0xaf, 0x17, 0xbd, 0x9d, 0xb0, 0x98, 0xbc, 0xe7, 0xab, 0x0f, 0xbd,
  0x03, 0x84, 0xb1, 0xbd, 0x16, 0xcc, 0x2a, 0x3d, 0xcb, 0x8d, 0x22, 0x3d,
  0x5d, 0xd3, 0x0c, 0x3d, 0xc3, 0x10, 0x2a, 0xbf, 0x05, 0xbd, 0x99, 0xbe,
  0xc3, 0x9a, 0xdb, 0x3e, 0x9d, 0xaf, 0x07, 0xbd, 0xa7, 0xdc, 0xfd, 0xbc,
  0x55, 0x58, 0x7a, 0xbd, 0x0b, 0xf8, 0x64, 0xbd, 0xf1, 0x15, 0xa0, 0xbd,
  0x5c, 0x1b, 0x9a, 0x3e, 0x2f, 0x17, 0x26, 0xbd, 0xca, 0x9f, 0x46, 0x3f,
  0x28, 0xce, 0x46, 0x3f, 0xdf, 0x25, 0x95, 0xbd, 0x00, 0x70, 0x72, 0xbd,
  0x7f, 0x04, 0xca, 0x3d, 0x11, 0xab, 0xbb, 0x3d, 0x4a, 0x14, 0x08, 0xbd,
  0x9f, 0x08, 0xc4, 0xbc, 0x32, 0xa2, 0x8b, 0xbd, 0x9b, 0x19, 0x59, 0x3e,
  0x35, 0xa5, 0x04, 0xbd, 0x6e, 0x79, 0xa5, 0xbd, 0xe4, 0xb5, 0x56, 0x3c,
  0x9a, 0x5d, 0x06, 0xbd, 0x7e, 0x8c, 0xbc, 0xbc, 0xba, 0x00, 0x37, 0x3c,
  0xf5, 0x01, 0xea, 0xba, 0xff, 0xf4, 0x7a, 0xbd, 0xec, 0x8d, 0x40, 0xbd,
  0x9e, 0xcd, 0xc6, 0xba, 0x09, 0x58, 0x3f, 0x3e, 0x9b, 0x36, 0x83, 0x3d,
  0x98, 0x11, 0x33, 0xbe, 0xfc, 0x69, 0xa8, 0x3e, 0x29, 0x44, 0x82, 0xbc,
  0x64, 0xbf, 0xce, 0xbd, 0x42, 0xb0, 0xe9, 0x3d, 0x86, 0x0b, 0x81, 0x3d,
  0x97, 0x08, 0x09, 0xbd, 0xf5, 0x15, 0xab, 0x3b, 0x25, 0x03, 0xb9, 0xbd,
  0x70, 0x92, 0xe1, 0xbd, 0x41, 0x10, 0xfc, 0xbd, 0xac, 0xba, 0x96, 0x3e,
  0xd3, 0x61, 0x19, 0xbd, 0x51, 0x36, 0xfb, 0xbc, 0x09, 0x40, 0xe7, 0x3d,
  0x20, 0x07, 0xee, 0x3d, 0x4c, 0x79, 0xa6, 0xbd, 0x44, 0x1c, 0x2d, 0x3d,
  0x06, 0x9e, 0xee, 0x3e, 0x78, 0x5a, 0xd1, 0x3e, 0xec, 0xa9, 0x14, 0xbe,
  0x7d, 0x85, 0xab, 0x3e, 0x64, 0x4a, 0x73, 0x3d, 0x9e, 0x27, 0xb2, 0x3b,
  0x51, 0x53, 0x0b, 0x3e, 0xdc, 0xb2, 0x04, 0x3e, 0xfc, 0x6f, 0x87, 0xbd,
  0xcc, 0xf4, 0x92, 0xbc, 0xfe, 0x85, 0x90, 0xbd, 0xd5, 0xcf, 0x28, 0xbe,
  0x43, 0xe9, 0x26, 0x3d, 0x8d, 0xad, 0xb3, 0xbd, 0xea, 0x4f, 0xd0, 0x3c,
  0xd1, 0x6a, 0xe9, 0xbd, 0x0b, 0xa2, 0x76, 0x3c, 0xdd, 0x21, 0x4a, 0xbd,
  0x79, 0x75, 0x2f, 0xbb, 0xf8, 0x2e, 0x9f, 0xbc, 0xa0, 0x9a, 0x8d, 0x3e,
  0x5b, 0x76, 0xc7, 0x3e, 0xfd, 0x17, 0x59, 0xbd, 0x31, 0x60, 0x7f, 0xbc,
  0x27, 0x9e, 0xc1, 0x3d, 0xa6, 0x2a, 0x4c, 0x3c, 0xf3, 0xc6, 0xd0, 0x3c,
  0xc2, 0xcb, 0x1a, 0x3e, 0x4a, 0xe2, 0xca, 0xbc, 0xd2, 0xc1, 0x43, 0x3d,
  0x9d, 0x94, 0x82, 0xbd, 0x75, 0xf2, 0x1f, 0xbc, 0x53, 0xb7, 0xce, 0x3b,
  0x0e, 0x8f, 0xa9, 0x3e, 0x9c, 0x73, 0xf9, 0x3b, 0xce, 0xa7, 0x99, 0x3c,
  0xe6, 0xd4, 0x42, 0xba, 0x0c, 0x5f, 0x95, 0x3d, 0x1e, 0x2f, 0x09, 0x3c,
  0xe6, 0xb5, 0x4f, 0xbd, 0x76, 0x41, 0x80, 0xbc, 0x08, 0x33, 0x80, 0x3c,
  0x80, 0x78, 0x03, 0x3c, 0x08, 0x64, 0xd2, 0x3c, 0x0f, 0x5e, 0xe5, 0xbc,
  0x1d, 0x0f, 0x5e, 0xbd, 0x43, 0xea, 0xdc, 0xbc, 0xd5, 0xa8, 0x30, 0x3c,
  0xe6, 0x27, 0x81, 0x3d, 0xf4, 0xf2, 0xf6, 0xbc, 0x92, 0xb9, 0x4e, 0xbd,
  0x07, 0x71, 0x2a, 0x3d, 0x7c, 0x3c, 0xa1, 0x3c, 0x18, 0x28, 0x3d, 0xbd,
  0x34, 0xaa, 0x67, 0x3d, 0xdd, 0x7b, 0x49, 0xbd, 0x8b, 0xa1, 0x54, 0xbd,
  0xe0, 0x3a, 0x52, 0x3c, 0x42, 0x8f, 0x23, 0x3c, 0x23, 0x91, 0x9d, 0xbc,
  0x57, 0xe7, 0x10, 0x3d, 0xa0, 0x6c, 0xa8, 0xba, 0x4a, 0xb0, 0x3d, 0xbd,
  0xc5, 0xf3, 0x53, 0x3c, 0x6b, 0xac, 0x0f, 0xbc, 0x34, 0xd5, 0x05, 0x3d,
  0x18, 0x98, 0x7e, 0xbc, 0x03, 0x89, 0xe8, 0xbd, 0x8c, 0x07, 0x4f, 0x3d,
  0x3f, 0x14, 0xac, 0x3d, 0x16, 0x6e, 0x12, 0x3f, 0xb8, 0x12, 0x09, 0x3f,
  0x69, 0x64, 0x26, 0x3d, 0xfc, 0xa6, 0xa7, 0xbc, 0x31, 0x53, 0x43, 0x3d,
  0x4b, 0xb7, 0xd4, 0x3d, 0x00, 0xc0, 0x26, 0x3d, 0xbd, 0x67, 0x1c, 0xbd,
  0xcf, 0x06, 0x02, 0x3c, 0x7e, 0x65, 0x06, 0x3e, 0x0e, 0xe5, 0xed, 0x3e,
  0x38, 0xab, 0xbc, 0x3e, 0xfa, 0x0f, 0x6e, 0xbd, 0x33, 0x78, 0x11, 0xbd,
  0x23, 0xd7, 0xa0, 0x3d, 0x70, 0x8f, 0x8d, 0xbd, 0xa0, 0x08, 0xce, 0xbd,
  0xca, 0x33, 0x76, 0x3c, 0x8b, 0xf6, 0x30, 0x3d, 0x40, 0x89, 0x4b, 0x3d,
  0xd6, 0xe5, 0x39, 0xbd, 0x79, 0x8f, 0xb1, 0xbb, 0x9e, 0xa6, 0x3f, 0x3e,
  0x6b, 0xc2, 0xeb, 0xbd, 0xd3, 0xf5, 0x59, 0x3c, 0xeb, 0xdd, 0xb1, 0x3d,
  0xfa, 0xcb, 0x97, 0xb9, 0x27, 0x23, 0x78, 0x3d, 0x84, 0x31, 0x41, 0x3e,
  0x68, 0x38, 0xc1, 0x3d, 0x7a, 0x71, 0xf5, 0xbd, 0x53, 0x0f, 0xaa, 0x3d,
  0x87, 0xeb, 0xd2, 0x3e, 0x60, 0x97, 0xdf, 0xbd, 0x5b, 0x2e, 0x84, 0x3c,
  0xac, 0x7e, 0xd5, 0xbd, 0x08, 0x94, 0x6b, 0xbc, 0x26, 0x60, 0xa1, 0xbd,
  0xb7, 0xec, 0x77, 0x3e, 0x8e, 0x7d, 0x70, 0xbd, 0xd4, 0xff, 0xec, 0xbd,
  0xed, 0x93, 0xda, 0xbb, 0x51, 0xc2, 0x99, 0x3d, 0x6f, 0x73, 0x84, 0xbd,
  0x85, 0xf5, 0x7b, 0xbd, 0x27, 0x70, 0xeb, 0x3b, 0x6f, 0xac, 0x36, 0x3d,
  0xa0, 0xf4, 0x80, 0x3d, 0x52, 0x4c, 0x23, 0x3e, 0x11, 0x31, 0x1f, 0xbd,
  0xab, 0x32, 0xa8, 0xbc, 0x76, 0xaf, 0x1e, 0x3c, 0xad, 0x8d, 0x4c, 0xbd,
  0x7c, 0xec, 0x55, 0x3d, 0xea, 0x97, 0x56, 0xbd, 0xed, 0x62, 0xa9, 0x3d,
  0xc6, 0x28, 0x94, 0xbc, 0x6c, 0xb8, 0x59, 0xbd, 0x1e, 0x8b, 0xe2, 0x3b,
  0x0d, 0x5c, 0x28, 0x3d, 0x6b, 0x1f, 0x00, 0x3e, 0x77, 0xec, 0xc6, 0x3e,
  0xdc, 0x03, 0x04, 0x3f, 0xa9, 0x5d, 0x52, 0xbe, 0x7a, 0xd1, 0xb6, 0xbb,
  0xbc, 0x82, 0x93, 0x3c, 0x7d, 0x6a, 0xb9, 0xbd, 0x00, 0x79, 0xe5, 0xbc,
  0x13, 0x60, 0x8b, 0x3e, 0x28, 0x2f, 0xd4, 0x3d, 0xfd, 0x16, 0x91, 0xbc,
  0xe4, 0x86, 0x6b, 0xbc, 0x1c, 0x3b, 0x05, 0x3d, 0xbc, 0x3e, 0x61, 0xbd,
  0x5a, 0x14, 0x66, 0xbd, 0x7a, 0x4a, 0x44, 0x3d, 0xb8, 0xd3, 0x85, 0xbc,
  0x6a, 0xb8, 0x00, 0xbd, 0x9c, 0x30, 0xe1, 0x3b, 0xa5, 0x63, 0xc9, 0x3c,
  0x70, 0x67, 0x7b, 0xb8, 0x15, 0x0b, 0xac, 0xbd, 0x3e, 0xcc, 0x0d, 0xbe,
  0x57, 0xe8, 0x4c, 0x3e, 0xd4, 0x30, 0x94, 0xbb, 0xef, 0xd0, 0x3c, 0x3c,
  0x84, 0x76, 0x14, 0x3d, 0x79, 0xd2, 0xcd, 0x3c, 0x03, 0xc9, 0x48, 0x3c,
  0x3c, 0x4d, 0x4f, 0xbd, 0x13, 0x61, 0x0b, 0xbe, 0x6c, 0x01, 0x3d, 0x3c,
  0xd9, 0xb9, 0x81, 0x3e, 0x70, 0xc2, 0x80, 0xbd, 0xd4, 0x17, 0x68, 0xbd,
  0x62, 0x9a, 0x6a, 0xbc, 0xc0, 0x0e, 0x21, 0xbd, 0xc7, 0x50, 0x2e, 0xbd,
  0x00, 0x21, 0x2d, 0x3e, 0x18, 0x7f, 0x8f, 0xbd, 0xa9, 0x4f, 0x1e, 0xbd,
  0xbc, 0xb2, 0xef, 0xbd, 0x35, 0x57, 0xed, 0xbd, 0xca, 0xf5, 0x9f, 0x3e,
  0xe9, 0x81, 0xa2, 0x3c, 0xf8, 0x38, 0x65, 0xbd, 0x9f, 0x7c, 0x7f, 0x3d,
  0xcb, 0x45, 0x42, 0x3c, 0x52, 0x03, 0x37, 0xbd, 0xfe, 0xf6, 0x88, 0xbd,
  0xc2, 0xdb, 0x4f, 0x3e, 0xff, 0x48, 0x3b, 0x3e, 0xd5, 0xe1, 0x40, 0x3c,
  0x74, 0x12, 0xab, 0x3c, 0xac, 0x14, 0x39, 0x3d, 0xe3, 0x76, 0xba, 0xbc,
  0xc5, 0x53, 0x35, 0xbd, 0xf6, 0x20, 0x3b, 0xbc, 0xfb, 0x17, 0x9b, 0x3c,
  0x71, 0x49, 0x74, 0x3c, 0xc8, 0xf3, 0xdd, 0xbc, 0x74, 0x71, 0x0f, 0xbd,
  0x98, 0x86, 0x4f, 0xbd, 0x84, 0x2a, 0xa7, 0xbd, 0x7b, 0x2d, 0x06, 0xbd,
  0x5b, 0xdf, 0x25, 0x3d, 0x30, 0xbd, 0x7e, 0xb9, 0x6e, 0x22, 0x0e, 0xbd,
  0x2b, 0xb8, 0x2d, 0xbd, 0x14, 0xe5, 0x16, 0xbd, 0x85, 0xa0, 0x00, 0x3f,
  0xb0, 0x6b, 0xb1, 0x3e, 0x11, 0x25, 0x42, 0xbd, 0x29, 0x65, 0xfb, 0x3d,
  0xf8, 0xfd, 0x08, 0x3e, 0x17, 0x06, 0x8e, 0xbc, 0x2f, 0xdc, 0x8f, 0x3d,
  0x4c, 0x25, 0x30, 0x3d, 0x33, 0xfd, 0x96, 0xbd, 0x8a, 0x94, 0xe3, 0x3c,
  0xcf, 0x36, 0xa2, 0x3e, 0x58, 0xe9, 0x52, 0x3e, 0x64, 0x7f, 0xb2, 0x3d,
  0xea, 0x25, 0x06, 0xbd, 0xa2, 0x6f, 0xa1, 0x3c, 0xcc, 0xe3, 0x0b, 0xbc,
  0x24, 0xab, 0x99, 0xbd, 0xcf, 0x56, 0xc4, 0xbb, 0xe8, 0x2f, 0x0f, 0x3d,
  0xec, 0x9a, 0x8a, 0x3d, 0x9c, 0xf5, 0x37, 0xbd, 0x30, 0xfb, 0xb0, 0x3c,
  0x24, 0x6b, 0x55, 0x3e, 0x1b, 0x77, 0x9b, 0xbd, 0xc0, 0x63, 0x93, 0x3d,
  0x0d, 0x9d, 0x1f, 0x3d, 0x17, 0xe9, 0x03, 0xbe, 0x08, 0xce, 0xe0, 0x3c,
  0x2c, 0x8b, 0xe9, 0x3d, 0xec, 0xb9, 0xe4, 0xbc, 0x28, 0x88, 0x3c, 0xbe,
  0xa1, 0xea, 0xda, 0xbd, 0x21, 0xa9, 0xfc, 0xbc, 0x13, 0xd9, 0x3b, 0x3e,
  0xbb, 0xa2, 0x62, 0xbc, 0x87, 0xc7, 0x95, 0x3c, 0x8f, 0x8a, 0x98, 0x3d,
  0x58, 0xd5, 0x60, 0x3d, 0xb6, 0x07, 0x07, 0xbd, 0x65, 0x53, 0x9e, 0xbd,
  0xe8, 0x39, 0xc8, 0xbd, 0x46, 0xbd, 0xe2, 0x3c, 0x71, 0xab, 0x58, 0x3e,
  0xae, 0xe1, 0x0c, 0xbc, 0x11, 0xe8, 0x8f, 0xbd, 0x3f, 0x06, 0xd0, 0x3c,
  0x68, 0x5b, 0xcd, 0x3c, 0xe5, 0x4d, 0x84, 0xbc, 0x01, 0x2c, 0x95, 0x3b,
  0xe6, 0x5b, 0x65, 0x3c, 0x97, 0xe5, 0xca, 0x3d, 0x24, 0x06, 0x2e, 0xbd,
  0xe4, 0x8d, 0x1d, 0xbd, 0x2c, 0xde, 0xfa, 0x3c, 0xf8, 0xf7, 0xe8, 0x3d,
  0xfd, 0x84, 0x37, 0xbd, 0xc5, 0xe4, 0x1f, 0xbc, 0xc5, 0xa4, 0xd1, 0x3d,
  0xf0, 0xe2, 0x41, 0xbc, 0x91, 0x33, 0x73, 0xbd, 0xcf, 0x08, 0xba, 0x3b,
  0x7e, 0xf6, 0xd8, 0x3c, 0xa3, 0x93, 0x83, 0x3c, 0x41, 0xa3, 0x33, 0x3d,
  0x7d, 0x73, 0x49, 0xbc, 0x22, 0x5d, 0x4d, 0x3d, 0x39, 0x12, 0x43, 0x3c,
  0x8e, 0x96, 0x77, 0xbd, 0x2a, 0xd2, 0xcc, 0x3b, 0x9b, 0x4b, 0x7b, 0x3d,
  0x4e, 0x65, 0xf3, 0xbd, 0xef, 0x50, 0x61, 0x3c, 0x94, 0xee, 0xda, 0x3d,
  0xf1, 0x5e, 0xd4, 0x3d, 0x4b, 0x88, 0x42, 0xbd, 0x00, 0x93, 0x85, 0x3d,
  0x4e, 0xad, 0xdb, 0x3d, 0x1a, 0xdc, 0xc3, 0x3b, 0x55, 0xbb, 0xae, 0x3d,
  0x79, 0xd9, 0xb6, 0x3b, 0x43, 0x27, 0xf8, 0x3c, 0xdf, 0xb2, 0xad, 0x3c,
  0x27, 0x3b, 0x9a, 0x3c, 0x72, 0x13, 0x76, 0x3d, 0xe4, 0x9e, 0x97, 0xbd,
  0x4f, 0x91, 0x89, 0xbd, 0xad, 0x08, 0x5c, 0xbd, 0x0f, 0x5b, 0x7d, 0x3c,
  0x85, 0xd7, 0xf3, 0xbd, 0x16, 0xd4, 0xab, 0xbb, 0x7b, 0xf9, 0xb9, 0xbd,
  0x2d, 0x35, 0xab, 0xbb, 0xcd, 0x51, 0x30, 0xbc, 0xfb, 0x40, 0x2e, 0xbb,
  0xcb, 0x65, 0x77, 0x3d, 0x36, 0x6a, 0x2c, 0x3c, 0x32, 0xe0, 0x55, 0xbc,
  0xce, 0x51, 0x88, 0x3c, 0x6b, 0xb9, 0xea, 0xbc, 0x50, 0xbd, 0x92, 0xbc,
  0x0a, 0xfd, 0xff, 0xff, 0x04, 0x00, 0x00, 0x00, 0x08, 0x02, 0x00, 0x00,
  0x57, 0xd8, 0x02, 0xbf, 0x99, 0x8e, 0x61, 0xbe, 0x86, 0xae, 0x16, 0xbf,
  0xa6, 0xac, 0xd6, 0x3e, 0xbb, 0x03, 0x39, 0x3d, 0x2b, 0x9d, 0xc6, 0xbd,
  0x39, 0x7b, 0x0f, 0x3e, 0x46, 0xac, 0x60, 0x3e, 0x6a, 0x05, 0x17, 0xbd,
  0x6d, 0xfb, 0x65, 0xbf, 0x7d, 0x47, 0xa5, 0x3e, 0x11, 0x26, 0x88, 0xbd,
  0x32, 0x9d, 0x6f, 0xbf, 0x8d, 0x9f, 0xd0, 0xbe, 0xdb, 0x6b, 0x45, 0xbe,
  0xb9, 0x08, 0xf5, 0xbe, 0x39, 0x86, 0xa3, 0x3e, 0x3e, 0x2a, 0xb0, 0x3d,
  0x8d, 0x81, 0xb1, 0x3c, 0x87, 0x90, 0x8d, 0x3e, 0x97, 0xa5, 0x38, 0x3e,
  0xd4, 0xf3, 0xe1, 0x3d, 0xfb, 0x97, 0x40, 0xbf, 0xc5, 0x03, 0xd4, 0x3e,
  0xfc, 0x29, 0xaa, 0x3c, 0x5a, 0x90, 0x4e, 0xbf, 0x74, 0x38, 0xa5, 0x3e,
  0xf4, 0x32, 0x7e, 0x3c, 0x93, 0x16, 0x10, 0x3e, 0x55, 0xc8, 0xa0, 0xbe,
  0xa1, 0x59, 0x29, 0x3e, 0x27, 0x98, 0xa6, 0x3e, 0xf2, 0xc3, 0xbb, 0x3e,
  0xa0, 0x0a, 0x3b, 0xbe, 0xf0, 0x4d, 0x8e, 0x3e, 0x97, 0xea, 0xa0, 0xbd,
  0xb0, 0xc5, 0x34, 0x3e, 0x94, 0x28, 0x5a, 0x3e, 0xf3, 0x3d, 0xf4, 0x3e,
  0x6f, 0xa5, 0x35, 0x3d, 0xf7, 0x6b, 0x56, 0x3e, 0xed, 0xc5, 0x4a, 0x3e,
  0x98, 0x84, 0x1f, 0x3e, 0x7c, 0x06, 0x5f, 0x3d, 0xb0, 0xcb, 0x7d, 0xbe,
  0x8c, 0xb2, 0xe4, 0xbe, 0xd4, 0x4d, 0x31, 0x3c, 0xeb, 0xd4, 0x47, 0xbe,
  0x88, 0xe5, 0xbd, 0x3e, 0x79, 0x6c, 0xfd, 0xbe, 0x4c, 0x35, 0xf4, 0xbe,
  0xbf, 0x34, 0x55, 0xbd, 0xda, 0xe2, 0xe3, 0xbd, 0xe9, 0x19, 0x71, 0x3c,
  0x36, 0xde, 0xd9, 0xbd, 0xc2, 0xdb, 0xe7, 0x3d, 0x72, 0xc7, 0x6f, 0x3d,
  0x49, 0x58, 0xbf, 0xbd, 0x3c, 0xa7, 0x25, 0xbc, 0x3b, 0x8d, 0x5a, 0x3c,
  0x19, 0xa6, 0xae, 0x3d, 0x34, 0xdd, 0x4f, 0xbd, 0xe3, 0xd4, 0xcb, 0x3c,
  0xa7, 0x17, 0x5f, 0x3c, 0xc3, 0x07, 0xf2, 0xbd, 0xe0, 0x19, 0x27, 0xbd,
  0xe4, 0x0a, 0x8d, 0x3d, 0x62, 0x05, 0x82, 0xbd, 0xad, 0xbf, 0x88, 0xba,
  0xa2, 0xbf, 0x6a, 0xbd, 0x36, 0xa2, 0x68, 0x3d, 0x94, 0x62, 0x54, 0x3c,
  0xaa, 0xe9, 0x51, 0x3d, 0x30, 0x63, 0x4d, 0xbc, 0xfc, 0xae, 0xeb, 0xbc,
  0x1a, 0x42, 0xb8, 0xbb, 0x2c, 0x84, 0x37, 0x3d, 0x99, 0x66, 0x5b, 0xbd,
  0x53, 0xf1, 0xc5, 0x3d, 0x9a, 0x3c, 0x77, 0x3d, 0xb8, 0x19, 0x44, 0x3d,
  0x33, 0x70, 0xfe, 0x3c, 0x95, 0xd6, 0xd0, 0xbc, 0x4b, 0xa8, 0x3a, 0xbe,
  0x31, 0xdb, 0x5e, 0xbe, 0x66, 0x2f, 0x35, 0xbd, 0xfc, 0x70, 0x08, 0xbd,
  0x3f, 0x05, 0x2f, 0x3d, 0x66, 0xba, 0x37, 0xbe, 0xc8, 0x58, 0xbb, 0xbd,
  0xd1, 0xa7, 0xa1, 0xbc, 0x8f, 0x9a, 0xc0, 0xbc, 0x86, 0xfb, 0x81, 0x3d,
  0x53, 0x3f, 0x07, 0x3d, 0x5e, 0xc6, 0x99, 0x3c, 0x5c, 0x8d, 0x3d, 0xbd,
  0x06, 0xf6, 0xcd, 0xbd, 0x9c, 0xc4, 0x0e, 0xbe, 0x69, 0x58, 0x0d, 0x3e,
  0x79, 0x50, 0xd3, 0xbd, 0x75, 0xcc, 0x99, 0x3d, 0x30, 0xb7, 0x3f, 0xbd,
  0x14, 0x8f, 0xc4, 0xbc, 0x8c, 0x3f, 0x12, 0xbd, 0x14, 0x8e, 0x89, 0x3e,
  0x55, 0x82, 0x26, 0x3d, 0x42, 0x00, 0x64, 0x3c, 0xb4, 0x7a, 0x31, 0xbe,
  0xf6, 0x52, 0xb3, 0x3d, 0x53, 0x1e, 0x27, 0x3e, 0x6f, 0x94, 0x84, 0x3e,
  0xd4, 0x56, 0x21, 0xbe, 0xf3, 0x24, 0x8e, 0x3d, 0xab, 0xc2, 0xbf, 0x3c,
  0x25, 0x0d, 0x20, 0x3e, 0x0f, 0xb7, 0x07, 0x3e, 0x8c, 0x28, 0x94, 0x3e,
  0x13, 0x6b, 0x8e, 0xbd, 0xc2, 0x76, 0x19, 0xbe, 0x71, 0xe7, 0x50, 0xbd,
  0x4e, 0x5b, 0xc4, 0x3d, 0xf0, 0x61, 0x1d, 0x3c, 0x44, 0xdb, 0x77, 0x3b,
  0xfb, 0x71, 0xb7, 0xbc, 0x06, 0x65, 0x14, 0x3e, 0x75, 0x5f, 0x4e, 0x3d,
  0x4c, 0x20, 0x16, 0xbe, 0xa2, 0x95, 0x50, 0x3d, 0xb9, 0xd4, 0x33, 0xbd,
  0x39, 0x3a, 0xf8, 0xbd, 0x1e, 0xff, 0xff, 0xff, 0x04, 0x00, 0x00, 0x00,
  0x28, 0x00, 0x00, 0x00, 0xf5, 0x52, 0xba, 0x3e, 0x25, 0xb7, 0x77, 0x3d,
  0x7d, 0x2d, 0xe7, 0x3e, 0x8e, 0xf8, 0x23, 0x3e, 0x66, 0x86, 0xb3, 0x3d,
  0x1f, 0xf5, 0x50, 0xbd, 0x25, 0xc2, 0x1a, 0x3d, 0x7b, 0x05, 0xdf, 0x3d,
  0xcf, 0x67, 0x38, 0x3e, 0xe8, 0x84, 0xcb, 0x3d, 0x52, 0xff, 0xff, 0xff,
  0x04, 0x00, 0x00, 0x00, 0x0c, 0x00, 0x00, 0x00, 0x73, 0xf8, 0xd1, 0x3f,
  0x29, 0x69, 0x69, 0xc0, 0x8e, 0xec, 0x99, 0x3f, 0xb4, 0xfa, 0xff, 0xff,
  0xb8, 0xfa, 0xff, 0xff, 0x0f, 0x00, 0x00, 0x00, 0x4d, 0x4c, 0x49, 0x52,
  0x20, 0x43, 0x6f, 0x6e, 0x76, 0x65, 0x72, 0x74, 0x65, 0x64, 0x2e, 0x00,
  0x01, 0x00, 0x00, 0x00, 0x14, 0x00, 0x00, 0x00, 0x00, 0x00, 0x0e, 0x00,
  0x18, 0x00, 0x14, 0x00, 0x10, 0x00, 0x0c, 0x00, 0x08, 0x00, 0x04, 0x00,
  0x0e, 0x00, 0x00, 0x00, 0x14, 0x00, 0x00, 0x00, 0x1c, 0x00, 0x00, 0x00,
  0x14, 0x01, 0x00, 0x00, 0x18, 0x01, 0x00, 0x00, 0x1c, 0x01, 0x00, 0x00,
  0x04, 0x00, 0x00, 0x00, 0x6d, 0x61, 0x69, 0x6e, 0x00, 0x00, 0x00, 0x00,
  0x04, 0x00, 0x00, 0x00, 0xc8, 0x00, 0x00, 0x00, 0x84, 0x00, 0x00, 0x00,
  0x50, 0x00, 0x00, 0x00, 0x14, 0x00, 0x00, 0x00, 0x00, 0x00, 0x0e, 0x00,
  0x1a, 0x00, 0x14, 0x00, 0x10, 0x00, 0x0c, 0x00, 0x0b, 0x00, 0x04, 0x00,
  0x0e, 0x00, 0x00, 0x00, 0x1c, 0x00, 0x00, 0x00, 0x00, 0x00, 0x00, 0x09,
  0x1c, 0x00, 0x00, 0x00, 0x20, 0x00, 0x00, 0x00, 0x01, 0x00, 0x00, 0x00,
  0x00, 0x00, 0x06, 0x00, 0x08, 0x00, 0x04, 0x00, 0x06, 0x00, 0x00, 0x00,
  0x00, 0x00, 0x80, 0x3f, 0x01, 0x00, 0x00, 0x00, 0x09, 0x00, 0x00, 0x00,
  0x01, 0x00, 0x00, 0x00, 0x08, 0x00, 0x00, 0x00, 0x9e, 0xff, 0xff, 0xff,
  0x10, 0x00, 0x00, 0x00, 0x00, 0x00, 0x00, 0x08, 0x0c, 0x00, 0x00, 0x00,
  0x10, 0x00, 0x00, 0x00, 0x7c, 0xfb, 0xff, 0xff, 0x01, 0x00, 0x00, 0x00,
  0x08, 0x00, 0x00, 0x00, 0x03, 0x00, 0x00, 0x00, 0x07, 0x00, 0x00, 0x00,
  0x05, 0x00, 0x00, 0x00, 0x01, 0x00, 0x00, 0x00, 0xce, 0xff, 0xff, 0xff,
  0x10, 0x00, 0x00, 0x00, 0x00, 0x00, 0x00, 0x08, 0x0c, 0x00, 0x00, 0x00,
  0x10, 0x00, 0x00, 0x00, 0xac, 0xfb, 0xff, 0xff, 0x01, 0x00, 0x00, 0x00,
  0x07, 0x00, 0x00, 0x00, 0x03, 0x00, 0x00, 0x00, 0x06, 0x00, 0x00, 0x00,
  0x04, 0x00, 0x00, 0x00, 0xff, 0xff, 0xff, 0xff, 0x00, 0x00, 0x0e, 0x00,
  0x14, 0x00, 0x00, 0x00, 0x10, 0x00, 0x0c, 0x00, 0x0b, 0x00, 0x04, 0x00,
  0x0e, 0x00, 0x00, 0x00, 0x10, 0x00, 0x00, 0x00, 0x00, 0x00, 0x00, 0x08,
  0x0c, 0x00, 0x00, 0x00, 0x10, 0x00, 0x00, 0x00, 0xec, 0xfb, 0xff, 0xff,
  0x01, 0x00, 0x00, 0x00, 0x06, 0x00, 0x00, 0x00, 0x03, 0x00, 0x00, 0x00,
  0x00, 0x00, 0x00, 0x00, 0x03, 0x00, 0x00, 0x00, 0x02, 0x00, 0x00, 0x00,
  0x01, 0x00, 0x00, 0x00, 0x09, 0x00, 0x00, 0x00, 0x01, 0x00, 0x00, 0x00,
  0x00, 0x00, 0x00, 0x00, 0x0a, 0x00, 0x00, 0x00, 0xbc, 0x03, 0x00, 0x00,
  0x3c, 0x03, 0x00, 0x00, 0xc8, 0x02, 0x00, 0x00, 0x78, 0x02, 0x00, 0x00,
  0x28, 0x02, 0x00, 0x00, 0xd8, 0x01, 0x00, 0x00, 0x5c, 0x01, 0x00, 0x00,
  0xfc, 0x00, 0x00, 0x00, 0x60, 0x00, 0x00, 0x00, 0x04, 0x00, 0x00, 0x00,
  0x82, 0xfc, 0xff, 0xff, 0x00, 0x00, 0x00, 0x01, 0x14, 0x00, 0x00, 0x00,
  0x1c, 0x00, 0x00, 0x00, 0x1c, 0x00, 0x00, 0x00, 0x0a, 0x00, 0x00, 0x00,
  0x34, 0x00, 0x00, 0x00, 0x02, 0x00, 0x00, 0x00, 0xff, 0xff, 0xff, 0xff,
  0x03, 0x00, 0x00, 0x00, 0x6c, 0xfc, 0xff, 0xff, 0x19, 0x00, 0x00, 0x00,
  0x53, 0x74, 0x61, 0x74, 0x65, 0x66, 0x75, 0x6c, 0x50, 0x61, 0x72, 0x74,
  0x69, 0x74, 0x69, 0x6f, 0x6e, 0x65, 0x64, 0x43, 0x61, 0x6c, 0x6c, 0x3a,
  0x30, 0x00, 0x00, 0x00, 0x02, 0x00, 0x00, 0x00, 0x01, 0x00, 0x00, 0x00,
  0x03, 0x00, 0x00, 0x00, 0xda, 0xfc, 0xff, 0xff, 0x00, 0x00, 0x00, 0x01,
  0x14, 0x00, 0x00, 0x00, 0x1c, 0x00, 0x00, 0x00, 0x1c, 0x00, 0x00, 0x00,
  0x09, 0x00, 0x00, 0x00, 0x74, 0x00, 0x00, 0x00, 0x02, 0x00, 0x00, 0x00,
  0xff, 0xff, 0xff, 0xff, 0x03, 0x00, 0x00, 0x00, 0xc4, 0xfc, 0xff, 0xff,
  0x58, 0x00, 0x00, 0x00, 0x73, 0x65, 0x71, 0x75, 0x65, 0x6e, 0x74, 0x69,
  0x61, 0x6c, 0x5f, 0x35, 0x2f, 0x64, 0x65, 0x6e, 0x73, 0x65, 0x5f, 0x33,
  0x30, 0x2f, 0x42, 0x69, 0x61, 0x73, 0x41, 0x64, 0x64, 0x3b, 0x73, 0x65,
  0x71, 0x75, 0x65, 0x6e, 0x74, 0x69, 0x61, 0x6c, 0x5f, 0x35, 0x2f, 0x64,
  0x65, 0x6e, 0x73, 0x65, 0x5f, 0x33, 0x31, 0x2f, 0x4d, 0x61, 0x74, 0x4d,
  0x75, 0x6c, 0x3b, 0x73, 0x65, 0x71, 0x75, 0x65, 0x6e, 0x74, 0x69, 0x61,
  0x6c, 0x5f, 0x35, 0x2f, 0x64, 0x65, 0x6e, 0x73, 0x65, 0x5f, 0x33, 0x31,
  0x2f, 0x42, 0x69, 0x61, 0x73, 0x41, 0x64, 0x64, 0x00, 0x00, 0x00, 0x00,
  0x02, 0x00, 0x00, 0x00, 0x01, 0x00, 0x00, 0x00, 0x03, 0x00, 0x00, 0x00,
  0x72, 0xfd, 0xff, 0xff, 0x00, 0x00, 0x00, 0x01, 0x14, 0x00, 0x00, 0x00,
  0x1c, 0x00, 0x00, 0x00, 0x1c, 0x00, 0x00, 0x00, 0x08, 0x00, 0x00, 0x00,
  0x38, 0x00, 0x00, 0x00, 0x02, 0x00, 0x00, 0x00, 0xff, 0xff, 0xff, 0xff,
  0x32, 0x00, 0x00, 0x00, 0x5c, 0xfd, 0xff, 0xff, 0x1d, 0x00, 0x00, 0x00,
  0x73, 0x65, 0x71, 0x75, 0x65, 0x6e, 0x74, 0x69, 0x61, 0x6c, 0x5f, 0x35,
  0x2f, 0x64, 0x65, 0x6e, 0x73, 0x65, 0x5f, 0x33, 0x30, 0x2f, 0x4d, 0x61,
  0x74, 0x4d, 0x75, 0x6c, 0x31, 0x00, 0x00, 0x00, 0x02, 0x00, 0x00, 0x00,
  0x01, 0x00, 0x00, 0x00, 0x32, 0x00, 0x00, 0x00, 0xce, 0xfd, 0xff, 0xff,
  0x00, 0x00, 0x00, 0x01, 0x14, 0x00, 0x00, 0x00, 0x1c, 0x00, 0x00, 0x00,
  0x1c, 0x00, 0x00, 0x00, 0x07, 0x00, 0x00, 0x00, 0x54, 0x00, 0x00, 0x00,
  0x02, 0x00, 0x00, 0x00, 0xff, 0xff, 0xff, 0xff, 0x0a, 0x00, 0x00, 0x00,
  0xb8, 0xfd, 0xff, 0xff, 0x3a, 0x00, 0x00, 0x00, 0x73, 0x65, 0x71, 0x75,
  0x65, 0x6e, 0x74, 0x69, 0x61, 0x6c, 0x5f, 0x35, 0x2f, 0x64, 0x65, 0x6e,
  0x73, 0x65, 0x5f, 0x32, 0x39, 0x2f, 0x4d, 0x61, 0x74, 0x4d, 0x75, 0x6c,
  0x3b, 0x73, 0x65, 0x71, 0x75, 0x65, 0x6e, 0x74, 0x69, 0x61, 0x6c, 0x5f,
  0x35, 0x2f, 0x64, 0x65, 0x6e, 0x73, 0x65, 0x5f, 0x32, 0x39, 0x2f, 0x42,
  0x69, 0x61, 0x73, 0x41, 0x64, 0x64, 0x00, 0x00, 0x02, 0x00, 0x00, 0x00,
  0x01, 0x00, 0x00, 0x00, 0x0a, 0x00, 0x00, 0x00, 0xc2, 0xfe, 0xff, 0xff,
  0x00, 0x00, 0x00, 0x01, 0x10, 0x00, 0x00, 0x00, 0x10, 0x00, 0x00, 0x00,
  0x06, 0x00, 0x00, 0x00, 0x2c, 0x00, 0x00, 0x00, 0x20, 0xfe, 0xff, 0xff,
  0x1c, 0x00, 0x00, 0x00, 0x73, 0x65, 0x71, 0x75, 0x65, 0x6e, 0x74, 0x69,
  0x61, 0x6c, 0x5f, 0x35, 0x2f, 0x64, 0x65, 0x6e, 0x73, 0x65, 0x5f, 0x33,
  0x31, 0x2f, 0x4d, 0x61, 0x74, 0x4d, 0x75, 0x6c, 0x00, 0x00, 0x00, 0x00,
  0x02, 0x00, 0x00, 0x00, 0x03, 0x00, 0x00, 0x00, 0x32, 0x00, 0x00, 0x00,
  0x0e, 0xff, 0xff, 0xff, 0x00, 0x00, 0x00, 0x01, 0x10, 0x00, 0x00, 0x00,
  0x10, 0x00, 0x00, 0x00, 0x05, 0x00, 0x00, 0x00, 0x2c, 0x00, 0x00, 0x00,
  0x6c, 0xfe, 0xff, 0xff, 0x1c, 0x00, 0x00, 0x00, 0x73, 0x65, 0x71, 0x75,
  0x65, 0x6e, 0x74, 0x69, 0x61, 0x6c, 0x5f, 0x35, 0x2f, 0x64, 0x65, 0x6e,
  0x73, 0x65, 0x5f, 0x33, 0x30, 0x2f, 0x4d, 0x61, 0x74, 0x4d, 0x75, 0x6c,
  0x00, 0x00, 0x00, 0x00, 0x02, 0x00, 0x00, 0x00, 0x32, 0x00, 0x00, 0x00,
  0x0a, 0x00, 0x00, 0x00, 0x5a, 0xff, 0xff, 0xff, 0x00, 0x00, 0x00, 0x01,
  0x10, 0x00, 0x00, 0x00, 0x10, 0x00, 0x00, 0x00, 0x04, 0x00, 0x00, 0x00,
  0x2c, 0x00, 0x00, 0x00, 0xb8, 0xfe, 0xff, 0xff, 0x1c, 0x00, 0x00, 0x00,
  0x73, 0x65, 0x71, 0x75, 0x65, 0x6e, 0x74, 0x69, 0x61, 0x6c, 0x5f, 0x35,
  0x2f, 0x64, 0x65, 0x6e, 0x73, 0x65, 0x5f, 0x32, 0x39, 0x2f, 0x4d, 0x61,
  0x74, 0x4d, 0x75, 0x6c, 0x00, 0x00, 0x00, 0x00, 0x02, 0x00, 0x00, 0x00,
  0x0a, 0x00, 0x00, 0x00, 0x0d, 0x00, 0x00, 0x00, 0xa6, 0xff, 0xff, 0xff,
  0x00, 0x00, 0x00, 0x01, 0x10, 0x00, 0x00, 0x00, 0x10, 0x00, 0x00, 0x00,
  0x03, 0x00, 0x00, 0x00, 0x3c, 0x00, 0x00, 0x00, 0x04, 0xff, 0xff, 0xff,
  0x2c, 0x00, 0x00, 0x00, 0x73, 0x65, 0x71, 0x75, 0x65, 0x6e, 0x74, 0x69,
  0x61, 0x6c, 0x5f, 0x35, 0x2f, 0x64, 0x65, 0x6e, 0x73, 0x65, 0x5f, 0x32,
  0x39, 0x2f, 0x42, 0x69, 0x61, 0x73, 0x41, 0x64, 0x64, 0x2f, 0x52, 0x65,
  0x61, 0x64, 0x56, 0x61, 0x72, 0x69, 0x61, 0x62, 0x6c, 0x65, 0x4f, 0x70,
  0x00, 0x00, 0x00, 0x00, 0x01, 0x00, 0x00, 0x00, 0x0a, 0x00, 0x00, 0x00,
  0x00, 0x00, 0x16, 0x00, 0x18, 0x00, 0x14, 0x00, 0x00, 0x00, 0x10, 0x00,
  0x0c, 0x00, 0x08, 0x00, 0x00, 0x00, 0x00, 0x00, 0x00, 0x00, 0x07, 0x00,
  0x16, 0x00, 0x00, 0x00, 0x00, 0x00, 0x00, 0x01, 0x10, 0x00, 0x00, 0x00,
  0x10, 0x00, 0x00, 0x00, 0x02, 0x00, 0x00, 0x00, 0x48, 0x00, 0x00, 0x00,
  0x74, 0xff, 0xff, 0xff, 0x3a, 0x00, 0x00, 0x00, 0x73, 0x65, 0x71, 0x75,
  0x65, 0x6e, 0x74, 0x69, 0x61, 0x6c, 0x5f, 0x35, 0x2f, 0x64, 0x65, 0x6e,
  0x73, 0x65, 0x5f, 0x33, 0x31, 0x2f, 0x4d, 0x61, 0x74, 0x4d, 0x75, 0x6c,
  0x3b, 0x73, 0x65, 0x71, 0x75, 0x65, 0x6e, 0x74, 0x69, 0x61, 0x6c, 0x5f,
  0x35, 0x2f, 0x64, 0x65, 0x6e, 0x73, 0x65, 0x5f, 0x33, 0x31, 0x2f, 0x42,
  0x69, 0x61, 0x73, 0x41, 0x64, 0x64, 0x00, 0x00, 0x01, 0x00, 0x00, 0x00,
  0x03, 0x00, 0x00, 0x00, 0x00, 0x00, 0x16, 0x00, 0x1c, 0x00, 0x18, 0x00,
  0x00, 0x00, 0x14, 0x00, 0x10, 0x00, 0x0c, 0x00, 0x00, 0x00, 0x00, 0x00,
  0x08, 0x00, 0x07, 0x00, 0x16, 0x00, 0x00, 0x00, 0x00, 0x00, 0x00, 0x01,
  0x14, 0x00, 0x00, 0x00, 0x20, 0x00, 0x00, 0x00, 0x20, 0x00, 0x00, 0x00,
  0x01, 0x00, 0x00, 0x00, 0x40, 0x00, 0x00, 0x00, 0x02, 0x00, 0x00, 0x00,
  0xff, 0xff, 0xff, 0xff, 0x0d, 0x00, 0x00, 0x00, 0x04, 0x00, 0x04, 0x00,
  0x04, 0x00, 0x00, 0x00, 0x20, 0x00, 0x00, 0x00, 0x73, 0x65, 0x72, 0x76,
  0x69, 0x6e, 0x67, 0x5f, 0x64, 0x65, 0x66, 0x61, 0x75, 0x6c, 0x74, 0x5f,
  0x64, 0x65, 0x6e, 0x73, 0x65, 0x5f, 0x32, 0x39, 0x5f, 0x69, 0x6e, 0x70,
  0x75, 0x74, 0x3a, 0x30, 0x00, 0x00, 0x00, 0x00, 0x02, 0x00, 0x00, 0x00,
  0x01, 0x00, 0x00, 0x00, 0x0d, 0x00, 0x00, 0x00, 0x02, 0x00, 0x00, 0x00,
  0x20, 0x00, 0x00, 0x00, 0x04, 0x00, 0x00, 0x00, 0xf4, 0xff, 0xff, 0xff,
  0x19, 0x00, 0x00, 0x00, 0x00, 0x00, 0x00, 0x19, 0x0c, 0x00, 0x0c, 0x00,
  0x0b, 0x00, 0x00, 0x00, 0x00, 0x00, 0x04, 0x00, 0x0c, 0x00, 0x00, 0x00,
  0x09, 0x00, 0x00, 0x00, 0x00, 0x00, 0x00, 0x09
};
unsigned int third_model_NO_activations_tflite_len = 5180;
